<pad>	0
<unk>	0
<s>	0
</s>	0
<mask>	0
<0x00>	0
<0x01>	0
<0x02>	0
<0x03>	0
<0x04>	0
<0x05>	0
<0x06>	0
<0x07>	0
<0x08>	0
<0x09>	0
<0x0A>	0
<0x0B>	0
<0x0C>	0
<0x0D>	0
<0x0E>	0
<0x0F>	0
<0x10>	0
<0x11>	0
<0x12>	0
<0x13>	0
<0x14>	0
<0x15>	0
<0x16>	0
<0x17>	0
<0x18>	0
<0x19>	0
<0x1A>	0
<0x1B>	0
<0x1C>	0
<0x1D>	0
<0x1E>	0
<0x1F>	0
<0x20>	0
<0x21>	0
<0x22>	0
<0x23>	0
<0x24>	0
<0x25>	0
<0x26>	0
<0x27>	0
<0x28>	0
<0x29>	0
<0x2A>	0
<0x2B>	0
<0x2C>	0
<0x2D>	0
<0x2E>	0
<0x2F>	0
<0x30>	0
<0x31>	0
<0x32>	0
<0x33>	0
<0x34>	0
<0x35>	0
<0x36>	0
<0x37>	0
<0x38>	0
<0x39>	0
<0x3A>	0
<0x3B>	0
<0x3C>	0
<0x3D>	0
<0x3E>	0
<0x3F>	0
<0x40>	0
<0x41>	0
<0x42>	0
<0x43>	0
<0x44>	0
<0x45>	0
<0x46>	0
<0x47>	0
<0x48>	0
<0x49>	0
<0x4A>	0
<0x4B>	0
<0x4C>	0
<0x4D>	0
<0x4E>	0
<0x4F>	0
<0x50>	0
<0x51>	0
<0x52>	0
<0x53>	0
<0x54>	0
<0x55>	0
<0x56>	0
<0x57>	0
<0x58>	0
<0x59>	0
<0x5A>	0
<0x5B>	0
<0x5C>	0
<0x5D>	0
<0x5E>	0
<0x5F>	0
<0x60>	0
<0x61>	0
<0x62>	0
<0x63>	0
<0x64>	0
<0x65>	0
<0x66>	0
<0x67>	0
<0x68>	0
<0x69>	0
<0x6A>	0
<0x6B>	0
<0x6C>	0
<0x6D>	0
<0x6E>	0
<0x6F>	0
<0x70>	0
<0x71>	0
<0x72>	0
<0x73>	0
<0x74>	0
<0x75>	0
<0x76>	0
<0x77>	0
<0x78>	0
<0x79>	0
<0x7A>	0
<0x7B>	0
<0x7C>	0
<0x7D>	0
<0x7E>	0
<0x7F>	0
<0x80>	0
<0x81>	0
<0x82>	0
<0x83>	0
<0x84>	0
<0x85>	0
<0x86>	0
<0x87>	0
<0x88>	0
<0x89>	0
<0x8A>	0
<0x8B>	0
<0x8C>	0
<0x8D>	0
<0x8E>	0
<0x8F>	0
<0x90>	0
<0x91>	0
<0x92>	0
<0x93>	0
<0x94>	0
<0x95>	0
<0x96>	0
<0x97>	0
<0x98>	0
<0x99>	0
<0x9A>	0
<0x9B>	0
<0x9C>	0
<0x9D>	0
<0x9E>	0
<0x9F>	0
<0xA0>	0
<0xA1>	0
<0xA2>	0
<0xA3>	0
<0xA4>	0
<0xA5>	0
<0xA6>	0
<0xA7>	0
<0xA8>	0
<0xA9>	0
<0xAA>	0
<0xAB>	0
<0xAC>	0
<0xAD>	0
<0xAE>	0
<0xAF>	0
<0xB0>	0
<0xB1>	0
<0xB2>	0
<0xB3>	0
<0xB4>	0
<0xB5>	0
<0xB6>	0
<0xB7>	0
<0xB8>	0
<0xB9>	0
<0xBA>	0
<0xBB>	0
<0xBC>	0
<0xBD>	0
<0xBE>	0
<0xBF>	0
<0xC0>	0
<0xC1>	0
<0xC2>	0
<0xC3>	0
<0xC4>	0
<0xC5>	0
<0xC6>	0
<0xC7>	0
<0xC8>	0
<0xC9>	0
<0xCA>	0
<0xCB>	0
<0xCC>	0
<0xCD>	0
<0xCE>	0
<0xCF>	0
<0xD0>	0
<0xD1>	0
<0xD2>	0
<0xD3>	0
<0xD4>	0
<0xD5>	0
<0xD6>	0
<0xD7>	0
<0xD8>	0
<0xD9>	0
<0xDA>	0
<0xDB>	0
<0xDC>	0
<0xDD>	0
<0xDE>	0
<0xDF>	0
<0xE0>	0
<0xE1>	0
<0xE2>	0
<0xE3>	0
<0xE4>	0
<0xE5>	0
<0xE6>	0
<0xE7>	0
<0xE8>	0
<0xE9>	0
<0xEA>	0
<0xEB>	0
<0xEC>	0
<0xED>	0
<0xEE>	0
<0xEF>	0
<0xF0>	0
<0xF1>	0
<0xF2>	0
<0xF3>	0
<0xF4>	0
<0xF5>	0
<0xF6>	0
<0xF7>	0
<0xF8>	0
<0xF9>	0
<0xFA>	0
<0xFB>	0
<0xFC>	0
<0xFD>	0
<0xFE>	0
<0xFF>	0
▁the	-2.91251
,	-3.23163
.	-3.39055
▁of	-3.63964
▁and	-3.85416
▁to	-3.87342
s	-4.10296
▁	-4.10711
▁a	-4.12332
▁in	-4.21062
-	-4.3856
▁is	-4.56532
'	-4.776
▁that	-4.78839
0	-4.84166
▁for	-4.87879
1	-5.02044
▁on	-5.0871
▁The	-5.10275
▁I	-5.14832
2	-5.25426
▁it	-5.27098
▁as	-5.272
▁be	-5.27654
▁with	-5.30249
▁was	-5.34773
▁by	-5.38019
▁are	-5.50103
▁will	-5.51609
▁"	-5.51794
▁at	-5.67449
▁from	-5.76025
▁have	-5.80458
▁you	-5.80911
▁has	-5.84317
▁which	-5.91637
3	-5.92873
▁not	-5.96225
▁(	-5.96839
▁who	-5.97911
▁an	-5.99385
5	-6.01858
▁this	-6.09634
▁Korea	-6.11046
▁but	-6.15613
▁said	-6.1615
t	-6.17496
ing	-6.19241
▁can	-6.22579
4	-6.23303
th	-6.24227
▁or	-6.24698
▁In	-6.26698
9	-6.32631
▁It	-6.36334
▁been	-6.38822
6	-6.39191
▁he	-6.393
"	-6.39511
▁were	-6.39767
▁year	-6.39926
?	-6.40142
▁shall	-6.40765
8	-6.42522
)	-6.43073
▁time	-6.43375
7	-6.46336
▁his	-6.49956
▁there	-6.5056
▁Korean	-6.52057
▁after	-6.58813
▁also	-6.58924
▁Kim	-6.59064
▁people	-6.59225
▁so	-6.60585
."	-6.60704
▁such	-6.61059
▁their	-6.62672
▁more	-6.62874
▁they	-6.64109
▁when	-6.64265
m	-6.6752
▁than	-6.69772
▁about	-6.69907
ed	-6.70155
▁first	-6.70696
▁if	-6.7157
▁A	-6.73429
▁out	-6.77539
▁head	-6.81952
▁we	-6.84451
d	-6.85545
▁one	-6.87754
▁because	-6.88386
S	-6.8956
▁Gyeonggi	-6.90082
▁its	-6.92597
▁Seoul	-6.94514
▁had	-6.94561
▁government	-6.94956
▁my	-6.95928
▁up	-6.99326
▁all	-7.0006
▁where	-7.01433
▁may	-7.03643
▁last	-7.06274
▁through	-7.06334
,"	-7.06522
▁public	-7.07639
▁other	-7.07687
▁two	-7.08075
▁won	-7.08804
▁including	-7.10944
▁me	-7.13068
▁North	-7.13326
do	-7.13495
▁new	-7.13649
▁only	-7.14597
▁This	-7.15303
▁U	-7.16157
▁under	-7.16166
▁like	-7.17496
▁due	-7.1784
▁do	-7.19676
gu	-7.20524
▁Gu	-7.20891
▁your	-7.22299
▁day	-7.22501
▁over	-7.22506
▁held	-7.2404
▁would	-7.24304
▁Lee	-7.26079
▁Province	-7.26661
/	-7.27058
▁high	-7.27214
▁companies	-7.29042
▁no	-7.29307
▁National	-7.3059
ly	-7.31619
▁should	-7.32921
▁into	-7.32927
▁years	-7.33096
▁made	-7.3411
▁them	-7.36446
▁If	-7.36581
▁many	-7.37128
▁local	-7.37731
▁work	-7.37973
▁support	-7.38076
▁As	-7.38199
▁number	-7.39198
:	-7.39553
▁between	-7.40295
▁company	-7.41635
▁market	-7.42372
▁make	-7.44018
▁business	-7.44699
▁system	-7.45133
▁take	-7.45245
▁We	-7.47961
▁since	-7.4819
▁President	-7.48352
▁school	-7.4842
▁even	-7.48623
),	-7.49378
▁while	-7.50224
▁There	-7.50368
▁use	-7.51382
in	-7.51593
▁members	-7.51608
▁her	-7.52119
y	-7.52455
▁well	-7.52795
%	-7.54928
er	-7.55426
▁Park	-7.56815
▁go	-7.57012
▁each	-7.57582
▁good	-7.57587
▁He	-7.5779
▁being	-7.58463
▁team	-7.58994
▁order	-7.59629
▁three	-7.60253
re	-7.61222
▁get	-7.61259
▁think	-7.61569
▁during	-7.61743
▁want	-7.6202
▁next	-7.62299
▁expected	-7.63557
▁some	-7.63754
▁before	-7.65906
▁place	-7.65949
▁management	-7.66097
▁official	-7.66283
▁could	-7.66334
▁our	-7.6636
▁million	-7.66466
▁any	-7.6809
▁police	-7.68611
▁When	-7.68753
▁meeting	-7.68773
▁Party	-7.68862
▁Ministry	-7.69503
▁project	-7.69854
▁City	-7.70363
▁students	-7.7189
▁China	-7.72019
▁second	-7.72123
▁etc	-7.72359
▁person	-7.73223
▁various	-7.73415
▁area	-7.73433
▁office	-7.7406
▁need	-7.74062
▁what	-7.74352
▁Article	-7.74757
▁South	-7.74779
▁month	-7.74913
ll	-7.75306
▁most	-7.75334
▁necessary	-7.76548
▁now	-7.76827
e	-7.77014
▁know	-7.77125
▁same	-7.77309
▁case	-7.77314
▁world	-7.77893
▁Act	-7.78313
st	-7.78484
▁Committee	-7.78984
▁“	-7.7921
▁plan	-7.79808
▁used	-7.80872
▁days	-7.81235
▁Do	-7.81309
The	-7.82924
▁without	-7.82988
▁residents	-7.83254
▁former	-7.83268
▁education	-7.83446
▁service	-7.83692
▁long	-7.83914
▁around	-7.84732
▁Metropolitan	-7.85742
al	-7.85753
▁how	-7.86229
I	-7.86871
▁just	-7.86924
▁city	-7.87321
▁don	-7.87566
▁right	-7.87642
▁Government	-7.88159
▁products	-7.88319
▁information	-7.88382
▁life	-7.88642
▁Center	-7.8916
▁industry	-7.89272
▁country	-7.89431
▁small	-7.91044
▁special	-7.91387
▁You	-7.91574
▁related	-7.91618
▁saying	-7.92145
▁event	-7.92603
▁children	-7.93106
▁billion	-7.93811
▁According	-7.94072
▁investigation	-7.94242
▁much	-7.95136
▁lot	-7.95343
▁see	-7.95369
▁am	-7.95598
▁development	-7.9561
▁against	-7.95649
▁facilities	-7.95687
n	-7.95985
▁following	-7.9619
a	-7.96318
▁increase	-7.96837
▁center	-7.96908
▁end	-7.97732
▁within	-7.97836
▁group	-7.98085
ve	-7.98563
▁did	-7.99063
▁announced	-7.99662
▁among	-8.00013
she	-8.00042
▁food	-8.00293
▁period	-8.00404
▁party	-8.0111
▁re	-8.01379
▁home	-8.01659
▁University	-8.01683
▁large	-8.01961
▁very	-8.01963
▁Moon	-8.02062
▁On	-8.0241
▁rate	-8.0242
ri	-8.02561
▁him	-8.02574
▁performance	-8.02633
▁price	-8.03687
▁national	-8.0394
’	-8.04006
r	-8.04655
▁economic	-8.04968
nt	-8.05172
▁she	-8.05375
▁process	-8.05517
▁back	-8.06083
▁way	-8.06499
▁report	-8.06719
▁social	-8.07283
▁K	-8.07426
▁officials	-8.07532
▁help	-8.07648
▁financial	-8.08012
▁found	-8.08399
▁whether	-8.08809
▁fact	-8.09248
▁referred	-8.09365
▁total	-8.0946
▁come	-8.09739
▁operation	-8.10137
dong	-8.10285
▁going	-8.10718
▁become	-8.10919
▁At	-8.11692
▁family	-8.11706
▁those	-8.1245
▁Jung	-8.13501
▁Jae	-8.13659
▁down	-8.13669
▁charge	-8.13816
▁percent	-8.14087
▁attention	-8.14799
▁policy	-8.14913
▁part	-8.15065
▁change	-8.15534
▁future	-8.15623
▁Minister	-8.15807
▁product	-8.16606
▁working	-8.16837
▁budget	-8.16846
▁power	-8.16888
▁difficult	-8.17109
▁water	-8.17687
▁reported	-8.17792
▁cases	-8.18054
▁again	-8.18226
▁say	-8.18547
▁Governor	-8.18878
▁construction	-8.19347
▁situation	-8.19849
▁every	-8.20035
▁means	-8.20382
▁fire	-8.20645
▁committee	-8.21173
es	-8.21691
▁together	-8.21799
▁member	-8.21834
We	-8.21972
▁set	-8.22203
▁countries	-8.22223
▁Japan	-8.22451
▁Office	-8.22665
ho	-8.22882
▁measures	-8.23268
▁visit	-8.23406
▁S	-8.23763
▁provide	-8.24298
▁best	-8.24394
▁amount	-8.24532
▁interest	-8.24774
▁problem	-8.24853
▁possible	-8.25136
▁activities	-8.25218
▁major	-8.25313
▁received	-8.25916
▁four	-8.26021
▁particular	-8.26772
▁women	-8.27005
▁That	-8.27174
▁term	-8.27265
▁sales	-8.27356
▁president	-8.27509
▁Busan	-8.27641
▁private	-8.28447
▁give	-8.2851
nd	-8.28733
▁New	-8.28889
▁Ordinance	-8.29013
▁different	-8.2915
▁room	-8.29458
▁five	-8.29478
▁car	-8.29577
▁main	-8.29864
▁until	-8.29891
hereinafter	-8.29977
▁military	-8.29989
▁job	-8.30015
▁director	-8.30135
▁still	-8.30251
▁money	-8.30332
▁game	-8.3037
▁culture	-8.30462
▁Assembly	-8.30521
▁Chinese	-8.30553
▁US	-8.30681
▁Please	-8.30809
▁today	-8.30919
▁here	-8.31546
▁too	-8.31735
▁important	-8.32052
▁matters	-8.32055
▁areas	-8.32114
▁using	-8.3217
o	-8.32588
▁reason	-8.32666
▁based	-8.32704
▁came	-8.32776
▁foreign	-8.32853
▁experience	-8.32936
▁general	-8.33091
▁pay	-8.33125
▁half	-8.33266
▁week	-8.33649
▁Samsung	-8.33799
▁Japanese	-8.33806
▁off	-8.33878
▁hard	-8.34365
▁left	-8.34414
▁workers	-8.3443
▁these	-8.34497
▁real	-8.3462
▁technology	-8.34701
▁able	-8.34712
▁growth	-8.34764
▁department	-8.35384
▁increased	-8.3563
▁early	-8.3582
▁decided	-8.36455
▁why	-8.36568
▁province	-8.36735
▁past	-8.36887
▁house	-8.37097
▁took	-8.37186
▁media	-8.37367
▁making	-8.37466
▁data	-8.37474
▁B	-8.38084
▁safety	-8.38276
▁level	-8.38298
▁us	-8.38404
▁show	-8.38684
▁Dong	-8.38773
▁building	-8.38778
▁hope	-8.38946
▁Education	-8.38974
▁low	-8.39433
▁find	-8.39544
▁released	-8.40046
the	-8.4031
▁site	-8.40932
▁called	-8.41416
▁then	-8.41466
▁own	-8.41498
▁issue	-8.41677
▁After	-8.41841
▁'	-8.41967
▁tax	-8.42105
.”	-8.42161
i	-8.42425
▁results	-8.42487
▁Council	-8.42997
l	-8.43636
▁Trump	-8.4372
▁name	-8.43858
▁projects	-8.43876
k	-8.44236
▁economy	-8.44307
▁check	-8.4437
▁start	-8.44454
▁health	-8.44868
▁p	-8.4508
▁pursua	-8.45197
▁An	-8.45319
▁What	-8.45405
▁So	-8.45584
▁law	-8.45602
▁according	-8.45691
▁United	-8.46223
▁research	-8.46323
▁result	-8.46789
▁No	-8.46831
▁However	-8.47391
▁put	-8.47666
her	-8.47835
▁state	-8.47924
▁agreement	-8.48234
▁Incheon	-8.4826
")	-8.48312
▁KRW	-8.48507
ers	-8.48574
▁investment	-8.48634
▁domestic	-8.48636
▁affairs	-8.48881
▁times	-8.48884
▁labor	-8.4914
▁plans	-8.49173
▁relevant	-8.49246
A	-8.49407
▁front	-8.49491
▁must	-8.49585
an	-8.497
▁For	-8.50029
▁does	-8.50287
▁per	-8.50776
▁Hong	-8.50884
▁top	-8.51099
▁cultural	-8.51131
▁global	-8.51235
▁great	-8.51348
▁Court	-8.51728
▁already	-8.51971
▁court	-8.52282
▁care	-8.52524
▁current	-8.52744
▁feel	-8.53002
▁went	-8.53009
▁hours	-8.53036
▁environment	-8.53095
▁Although	-8.53167
▁They	-8.53254
▁Chairman	-8.5335
▁citizens	-8.5343
▁young	-8.53476
▁chairman	-8.53589
▁full	-8.53632
▁addition	-8.53772
▁paragraph	-8.53881
rd	-8.54252
▁medical	-8.54272
▁E	-8.54452
▁look	-8.54598
▁Choi	-8.54729
).	-8.54758
▁strong	-8.54838
▁attached	-8.54959
▁months	-8.55163
▁body	-8.55169
▁once	-8.55197
▁receive	-8.55386
on	-8.5553
▁side	-8.55681
▁Institute	-8.56087
▁prosecution	-8.56362
▁My	-8.56627
il	-8.56733
▁request	-8.56974
▁free	-8.57283
▁program	-8.5735
▁Jong	-8.57598
▁play	-8.57815
▁provincial	-8.57924
▁man	-8.58299
▁music	-8.58305
▁Dae	-8.5852
▁established	-8.58574
▁paid	-8.58705
ra	-8.58868
▁open	-8.58974
▁services	-8.59105
▁both	-8.59247
▁big	-8.59329
up	-8.59391
D	-8.59636
▁purpose	-8.6024
▁participate	-8.60338
G	-8.60473
▁May	-8.6087
▁employees	-8.60978
▁morning	-8.61135
▁expenses	-8.61256
▁send	-8.61276
▁Association	-8.61393
▁create	-8.61442
▁Democratic	-8.61636
▁cooperation	-8.61715
▁point	-8.6199
▁likely	-8.62028
▁living	-8.62227
▁C	-8.62477
▁seems	-8.62492
▁meet	-8.62628
▁conducted	-8.62888
▁recently	-8.62967
▁cannot	-8.63219
▁live	-8.63391
▁production	-8.63452
▁love	-8.63672
▁agency	-8.63858
ro	-8.63891
▁apply	-8.63903
▁date	-8.63916
won	-8.63917
▁leader	-8.64167
▁prices	-8.64182
▁away	-8.64184
▁less	-8.64194
▁trade	-8.64326
▁please	-8.64339
▁Young	-8.6444
▁explained	-8.64493
▁Cho	-8.64646
▁G	-8.64813
▁District	-8.64915
▁ceremony	-8.65041
min	-8.65095
year	-8.65153
▁selected	-8.65201
or	-8.65295
▁self	-8.6534
▁training	-8.65354
▁another	-8.65408
▁test	-8.6543
g	-8.65589
▁late	-8.6568
le	-8.66061
▁got	-8.66129
▁continue	-8.66253
C	-8.6633
▁administration	-8.66475
▁taking	-8.66693
▁Service	-8.66727
ic	-8.66877
▁security	-8.66939
▁started	-8.6714
▁application	-8.67146
▁summit	-8.67246
▁prevent	-8.6725
▁along	-8.67418
▁hold	-8.67548
▁English	-8.67603
▁field	-8.67793
▁popular	-8.6787
▁floor	-8.67899
▁air	-8.67921
▁organizations	-8.68113
▁cost	-8.68132
▁World	-8.68318
▁Since	-8.68338
▁international	-8.68462
▁D	-8.68601
▁old	-8.68646
▁became	-8.68659
▁better	-8.68692
▁election	-8.68825
un	-8.69137
▁competition	-8.69293
▁contract	-8.69395
▁human	-8.69469
▁payment	-8.69535
▁asked	-8.6966
▁But	-8.69699
▁season	-8.69865
▁community	-8.70076
▁un	-8.7008
▁opening	-8.70193
▁Han	-8.70414
▁video	-8.70659
▁representative	-8.70749
▁led	-8.70811
▁visited	-8.71504
to	-8.71536
▁third	-8.71539
▁improve	-8.71617
▁soon	-8.71706
▁States	-8.72103
▁war	-8.72249
▁line	-8.72289
▁demand	-8.7249
▁space	-8.72523
▁income	-8.72601
▁child	-8.72741
▁Shin	-8.72889
▁known	-8.73124
▁accident	-8.73452
▁non	-8.7382
▁administrative	-8.73874
It	-8.73935
▁welfare	-8.73973
▁treatment	-8.73999
▁lead	-8.74049
▁rights	-8.74063
▁history	-8.74094
▁Mayor	-8.74138
▁organization	-8.74167
soo	-8.74472
▁damage	-8.74619
▁began	-8.74622
▁showed	-8.74708
▁March	-8.74838
▁Police	-8.74983
▁Where	-8.75031
▁Gwangju	-8.75039
ation	-8.75149
▁confirmed	-8.75222
▁International	-8.75316
▁things	-8.75419
▁School	-8.75965
B	-8.76072
▁promote	-8.76169
▁stage	-8.76182
▁night	-8.7627
young	-8.76424
▁decision	-8.76621
▁problems	-8.7701
si	-8.77043
▁added	-8.77091
▁book	-8.77122
▁located	-8.77125
▁six	-8.77487
▁With	-8.77569
▁Ji	-8.77856
▁region	-8.78028
▁House	-8.78185
▁caused	-8.78189
▁parents	-8.78218
▁Group	-8.78222
p	-8.78244
▁didn	-8.78593
ity	-8.78837
▁fine	-8.78886
▁told	-8.79114
▁Commission	-8.79154
▁establish	-8.7917
▁class	-8.79383
▁land	-8.79489
▁political	-8.79495
▁Kang	-8.79529
▁short	-8.80337
▁position	-8.80614
▁provided	-8.80677
▁subject	-8.80682
▁far	-8.80686
▁let	-8.80834
▁Jeju	-8.80912
jin	-8.80978
mi	-8.80997
▁move	-8.81169
ary	-8.81216
▁opposition	-8.8125
▁design	-8.81333
▁ruling	-8.81394
▁attended	-8.81592
▁chief	-8.81646
▁movie	-8.81672
▁previous	-8.82315
▁sent	-8.82375
▁&	-8.8247
▁having	-8.82488
▁control	-8.82573
▁minutes	-8.82778
▁near	-8.83035
▁return	-8.83152
▁later	-8.83183
(	-8.83209
▁middle	-8.83323
▁role	-8.83356
▁news	-8.83431
▁least	-8.83499
▁little	-8.8354
▁final	-8.83606
▁players	-8.8385
▁employment	-8.83888
▁fans	-8.84188
▁inspection	-8.84228
▁policies	-8.84238
▁value	-8.84256
▁thought	-8.84281
▁How	-8.84443
▁cause	-8.84776
▁institutions	-8.84808
▁bus	-8.84855
▁run	-8.84972
▁society	-8.85159
▁Even	-8.85184
▁To	-8.85292
▁district	-8.85476
▁trial	-8.8555
▁study	-8.85725
K	-8.85743
▁housing	-8.85869
▁persons	-8.85973
▁overseas	-8.86047
▁April	-8.86092
▁quality	-8.86208
san	-8.86223
▁face	-8.8623
▁experts	-8.86255
▁Co	-8.86645
▁call	-8.86922
▁directly	-8.87217
▁changed	-8.87365
▁joint	-8.87442
▁schools	-8.87708
▁exchange	-8.8775
▁participated	-8.87803
▁de	-8.87927
”	-8.8812
▁June	-8.88206
▁really	-8.88279
▁civil	-8.88533
▁age	-8.88615
▁store	-8.88622
▁stock	-8.88695
▁actively	-8.88744
▁pointed	-8.88877
Korean	-8.88887
▁effect	-8.88984
▁taken	-8.89039
▁prepare	-8.89136
ment	-8.8939
▁senior	-8.89391
▁card	-8.89466
▁given	-8.89485
",	-8.89514
▁July	-8.89865
▁insurance	-8.90018
T	-8.90086
▁Seo	-8.90128
it	-8.90242
▁conditions	-8.90279
▁recent	-8.90292
▁funds	-8.90382
▁raised	-8.9046
▁road	-8.90643
▁always	-8.90654
▁seen	-8.90914
▁additional	-8.90974
▁hospital	-8.91064
▁facility	-8.91086
▁keep	-8.91181
▁traditional	-8.91242
▁promotion	-8.91426
man	-8.91504
▁Can	-8.91542
▁completed	-8.91577
▁nuclear	-8.91592
▁ago	-8.91849
▁others	-8.91933
▁tell	-8.92217
U	-8.92575
▁survey	-8.92704
▁jobs	-8.92914
▁often	-8.93172
▁applied	-8.93185
▁emergency	-8.93344
▁customers	-8.93367
▁match	-8.93525
▁existing	-8.93661
ion	-8.93767
▁trillion	-8.93852
▁largest	-8.93994
▁response	-8.942
sa	-8.94216
▁Sung	-8.94254
▁T	-8.94258
▁revealed	-8.94258
▁businesses	-8.94361
▁$	-8.94362
▁buy	-8.94411
▁enjoy	-8.94604
▁CEO	-8.94735
▁Jin	-8.94775
▁Station	-8.95057
▁Bank	-8.95076
▁supply	-8.95114
▁Liberty	-8.95166
se	-8.9524
▁Public	-8.95289
F	-8.95334
▁evaluation	-8.95379
▁higher	-8.95778
▁Provincial	-8.95921
hyun	-8.96159
▁share	-8.9624
▁sector	-8.96318
▁account	-8.96494
▁close	-8.96509
▁rather	-8.96514
▁never	-8.96593
na	-8.966
▁materials	-8.96712
▁death	-8.97037
▁student	-8.97045
▁industrial	-8.97097
▁Sang	-8.97154
▁though	-8.97223
▁conference	-8.97263
▁basic	-8.97272
el	-8.97292
▁art	-8.97301
▁Jang	-8.97447
▁Supreme	-8.97494
▁Jeong	-8.98352
▁events	-8.98453
▁film	-8.98491
▁story	-8.98603
▁average	-8.98718
▁exhibition	-8.98812
▁September	-8.98853
▁She	-8.98862
▁Yang	-8.99112
▁looking	-8.99326
▁compared	-8.99352
▁planning	-8.99384
▁increasing	-8.99512
▁phone	-8.99557
▁Affairs	-8.99719
▁possibility	-8.99719
▁travel	-8.99767
▁Min	-8.99768
old	-8.99776
▁co	-8.99874
▁wage	-8.99992
▁issues	-9.00305
▁operating	-9.00357
▁easy	-9.00383
▁key	-9.00392
▁Yoon	-9.00456
▁Ha	-9.00555
▁medium	-9.00561
▁hit	-9.00666
▁outside	-9.00692
▁review	-9.00714
ness	-9.00756
▁Department	-9.00811
able	-9.00881
▁energy	-9.00886
▁enough	-9.01514
▁works	-9.01587
▁leave	-9.01753
▁points	-9.01779
c	-9.01838
▁Financial	-9.02118
▁something	-9.02126
▁goal	-9.02283
▁Asian	-9.02408
▁met	-9.02644
▁size	-9.02646
▁illegal	-9.02767
▁festival	-9.02771
▁F	-9.02868
▁inter	-9.02889
▁course	-9.02934
▁ask	-9.03358
▁groups	-9.03489
▁introduced	-9.03538
▁press	-9.03614
▁form	-9.03659
▁men	-9.03662
▁Some	-9.03757
▁advance	-9.03845
▁families	-9.03864
▁conduct	-9.03975
▁regular	-9.04072
▁officer	-9.04143
▁Form	-9.04299
▁costs	-9.04313
▁Hyundai	-9.04702
time	-9.04933
▁”	-9.04945
▁record	-9.05058
▁Seung	-9.05093
▁expand	-9.05193
▁cities	-9.05219
▁Then	-9.05237
▁understand	-9.05248
▁fees	-9.05249
▁Kyung	-9.05291
▁friends	-9.05294
▁Prime	-9.05354
▁While	-9.05412
N	-9.05437
▁yet	-9.05586
▁created	-9.0568
▁friend	-9.05861
▁develop	-9.05861
▁Agency	-9.05902
▁growing	-9.05936
▁eat	-9.06193
▁establishment	-9.06205
▁talk	-9.06359
▁dust	-9.06415
▁leading	-9.06474
▁authorities	-9.06525
su	-9.06643
▁spread	-9.0681
▁try	-9.06864
▁Hyun	-9.06874
▁Nam	-9.06881
▁October	-9.07025
▁Internet	-9.07031
▁complex	-9.07071
▁efforts	-9.07075
;	-9.07115
▁Festival	-9.07115
▁needed	-9.07134
▁several	-9.07151
▁currently	-9.07209
▁present	-9.07257
term	-9.07468
▁audit	-9.07518
▁afternoon	-9.0754
▁reduce	-9.0764
▁hand	-9.07671
▁controversy	-9.07693
▁active	-9.07946
▁clear	-9.0796
▁opened	-9.08011
▁prepared	-9.08236
▁developed	-9.08277
▁online	-9.08281
▁words	-9.08331
▁believe	-9.08388
h	-9.0855
▁rise	-9.08556
▁State	-9.08643
▁vehicle	-9.08768
woo	-9.08906
▁Song	-9.0898
ar	-9.09149
▁few	-9.09228
sized	-9.09249
▁getting	-9.09331
b	-9.09399
▁expressed	-9.09466
▁Management	-9.09478
▁Tae	-9.09504
▁opinions	-9.09613
▁oil	-9.09751
▁Gangwon	-9.09779
▁operate	-9.09896
▁opinion	-9.0994
▁female	-9.09968
▁documents	-9.10002
▁continued	-9.1006
▁accordance	-9.10213
▁parties	-9.10231
▁vice	-9.10294
▁capital	-9.10297
▁content	-9.10332
▁improvement	-9.10456
▁Provided	-9.1046
▁Trade	-9.10619
▁similar	-9.10686
▁status	-9.10686
▁items	-9.10804
▁method	-9.10833
▁January	-9.10912
▁equipment	-9.1102
▁programs	-9.11189
ne	-9.11563
▁talks	-9.11656
▁passed	-9.11665
▁sports	-9.11689
hee	-9.11748
▁single	-9.11897
▁sold	-9.11947
▁O	-9.11961
▁crisis	-9.12029
▁lower	-9.12072
▁trip	-9.12078
▁ahead	-9.12087
▁lost	-9.12178
▁secretary	-9.12266
te	-9.12278
▁starting	-9.12291
▁further	-9.12332
▁August	-9.12366
▁mother	-9.12392
▁Administration	-9.12404
mo	-9.12464
▁P	-9.12723
▁Yes	-9.12921
▁lack	-9.12942
▁list	-9.12966
▁written	-9.1301
▁legal	-9.13082
▁makes	-9.13088
▁manager	-9.13173
▁gave	-9.13211
▁governor	-9.13322
▁tomorrow	-9.13355
u	-9.1339
▁photo	-9.1344
▁staff	-9.13445
▁Wa	-9.13609
▁inside	-9.13763
▁statement	-9.13767
▁lives	-9.13771
▁regulations	-9.13881
po	-9.13906
▁shows	-9.13922
E	-9.13977
gun	-9.14045
▁submit	-9.14099
▁One	-9.14159
▁round	-9.14313
▁personnel	-9.14374
▁Cheong	-9.14563
▁purchase	-9.14613
▁model	-9.14648
▁considered	-9.14748
▁happy	-9.14955
gi	-9.15162
▁charges	-9.15325
▁seven	-9.15388
▁council	-9.15508
▁Mr	-9.15513
▁included	-9.15644
▁university	-9.15695
ive	-9.15738
▁Justice	-9.15803
▁station	-9.15813
less	-9.15815
▁village	-9.15841
▁Re	-9.15857
▁December	-9.15965
▁candidate	-9.16061
▁Land	-9.16226
▁designated	-9.16307
ma	-9.16318
▁natural	-9.16328
▁Yoo	-9.16376
▁fall	-9.16431
▁scene	-9.16494
▁win	-9.16555
▁e	-9.16684
▁woman	-9.17168
▁daily	-9.17272
▁presidential	-9.17357
▁light	-9.17403
▁And	-9.17457
▁sorry	-9.17476
▁sexual	-9.17481
▁Gangnam	-9.17485
▁traffic	-9.17608
en	-9.17647
▁Electronics	-9.17713
▁minimum	-9.17799
▁enter	-9.17896
▁November	-9.18037
▁mobile	-9.1807
▁Yong	-9.18093
▁language	-9.18141
▁Health	-9.18176
▁built	-9.18215
▁transportation	-9.18219
▁heard	-9.18367
▁include	-9.18416
▁estate	-9.18425
▁Research	-9.1844
▁action	-9.1852
▁Chung	-9.18527
▁needs	-9.18717
ta	-9.19223
P	-9.19263
▁division	-9.1933
▁contents	-9.19342
▁Daegu	-9.19387
▁central	-9.1972
▁Hwang	-9.19741
▁says	-9.19814
▁kind	-9.19892
▁bank	-9.19987
▁First	-9.20182
▁vehicles	-9.20488
▁summer	-9.20591
▁alone	-9.20671
▁individual	-9.20688
▁credit	-9.20733
▁changes	-9.20746
▁bill	-9.20752
▁Hall	-9.20753
▁appointed	-9.21017
▁personal	-9.21056
▁regional	-9.21093
▁Corporation	-9.21232
▁immediately	-9.21246
▁schedule	-9.21329
▁Sun	-9.21476
▁trying	-9.21565
ist	-9.21649
▁transfer	-9.21742
▁heart	-9.21747
▁contact	-9.2179
▁nation	-9.21868
▁song	-9.2196
▁heat	-9.21995
▁users	-9.22059
▁Chang	-9.22099
de	-9.22495
▁Vice	-9.22539
▁college	-9.22766
at	-9.2293
▁famous	-9.22941
▁played	-9.2297
▁TV	-9.23055
▁father	-9.23111
ha	-9.23575
▁issued	-9.2366
▁standard	-9.23766
▁forward	-9.23775
▁carried	-9.23842
▁reduced	-9.23905
▁rice	-9.24023
ju	-9.24207
▁interested	-9.24411
▁Na	-9.24413
▁reform	-9.24468
▁takes	-9.24623
▁agencies	-9.24626
▁parking	-9.24707
▁negotiations	-9.2473
▁questions	-9.24798
▁implement	-9.24805
▁professional	-9.24948
yeon	-9.2497
▁High	-9.25042
z	-9.25129
▁Security	-9.25193
▁Russia	-9.25277
▁picture	-9.2528
▁easily	-9.25335
▁relationship	-9.25386
▁highest	-9.25529
▁fund	-9.25586
ry	-9.25643
▁cars	-9.25716
▁done	-9.25732
▁R	-9.25764
▁professor	-9.25766
▁Se	-9.2578
▁apartment	-9.25852
▁opportunity	-9.25906
▁risk	-9.25906
▁available	-9.25927
▁terms	-9.25948
▁operated	-9.25968
▁interview	-9.26068
denuclearization	-9.2607
▁regarding	-9.26105
▁February	-9.26133
▁wanted	-9.26143
ur	-9.26212
▁coming	-9.26227
ji	-9.26235
▁relations	-9.26288
▁drama	-9.26301
▁details	-9.26325
▁Development	-9.26378
▁cold	-9.26385
▁driving	-9.26398
▁receiving	-9.26522
▁burden	-9.26522
▁approval	-9.26828
▁Labor	-9.26874
am	-9.26894
▁poor	-9.26933
▁stop	-9.26943
▁Culture	-9.26993
▁Si	-9.27005
▁union	-9.27009
▁original	-9.27166
▁communication	-9.27174
▁Island	-9.27373
▁executive	-9.27477
▁property	-9.2758
▁leaders	-9.2765
▁deliberation	-9.27655
▁patients	-9.27763
▁restaurant	-9.27992
▁institution	-9.28029
▁hot	-9.28149
▁M	-9.28244
related	-9.28319
▁Because	-9.28364
▁disaster	-9.28625
▁died	-9.28648
▁might	-9.28706
f	-9.28872
▁games	-9.28895
▁urban	-9.2893
▁pre	-9.2894
▁pressure	-9.28947
▁Ma	-9.2896
▁participation	-9.28995
▁bad	-9.29071
▁Among	-9.29255
▁quickly	-9.29655
▁session	-9.29713
▁disease	-9.29748
▁considering	-9.29872
▁God	-9.29873
▁parts	-9.29892
▁fee	-9.29921
▁doing	-9.30048
▁Ki	-9.30257
▁holding	-9.3027
▁board	-9.30327
▁consumers	-9.30347
▁governments	-9.30396
▁youth	-9.30523
▁worth	-9.30529
▁release	-9.30556
▁excellent	-9.30595
▁American	-9.30736
▁minister	-9.30776
▁crime	-9.30864
▁post	-9.30894
▁base	-9.30981
▁fell	-9.31007
▁standards	-9.31077
▁prescribed	-9.31136
▁peace	-9.31143
ki	-9.31147
▁concerning	-9.3132
▁mind	-9.31386
▁trend	-9.31417
▁impact	-9.31499
▁places	-9.31563
L	-9.31564
▁Director	-9.31622
▁duties	-9.31651
age	-9.3166
▁submitted	-9.31725
▁Secretary	-9.31759
▁drawing	-9.31797
▁deal	-9.31898
▁Su	-9.31968
▁Day	-9.32124
▁sea	-9.3218
▁Welfare	-9.32215
▁saw	-9.32218
▁sense	-9.32304
In	-9.3232
▁actual	-9.32325
▁certain	-9.32367
▁showing	-9.32492
▁determined	-9.32522
▁Kong	-9.32541
▁series	-9.32542
▁Support	-9.32623
▁concert	-9.32695
▁type	-9.32765
▁matter	-9.32862
ization	-9.33097
▁doesn	-9.33154
▁killed	-9.33162
us	-9.33231
no	-9.33313
▁Foundation	-9.33421
▁hall	-9.33456
▁earlier	-9.33464
▁Let	-9.33489
▁brand	-9.33563
▁learning	-9.33569
▁Cup	-9.33801
▁corporate	-9.33987
▁Special	-9.34205
▁analysis	-9.34462
▁yesterday	-9.34484
rs	-9.34642
out	-9.3467
▁Defense	-9.34707
▁build	-9.34906
▁followed	-9.3492
▁attend	-9.35097
▁thing	-9.35149
▁population	-9.352
▁son	-9.35258
▁wife	-9.35367
▁Local	-9.35389
▁sanctions	-9.35472
▁failed	-9.3552
▁cut	-9.35583
▁behind	-9.35636
▁hearing	-9.35723
ting	-9.35798
▁incident	-9.35882
▁Fund	-9.35898
▁Won	-9.35924
sung	-9.35939
▁message	-9.35969
▁examination	-9.36052
▁movement	-9.36108
▁concerns	-9.36195
▁commercial	-9.36226
▁structure	-9.3625
▁beautiful	-9.36305
▁York	-9.36305
▁reports	-9.36503
▁victims	-9.36624
▁Asia	-9.36698
co	-9.36729
▁scheduled	-9.36862
▁Mi	-9.36909
▁eyes	-9.36927
▁true	-9.36965
▁church	-9.36983
▁felt	-9.37002
▁performances	-9.37119
▁launched	-9.3714
▁chairperson	-9.37142
▁produced	-9.37204
▁organized	-9.37361
▁raise	-9.37441
cheon	-9.3745
▁ordered	-9.37522
▁Science	-9.37607
▁document	-9.37616
level	-9.37709
▁waste	-9.37725
▁implementation	-9.37779
▁distribution	-9.37791
If	-9.38025
▁tried	-9.38131
▁question	-9.38228
▁stores	-9.38348
▁metropolitan	-9.38415
▁required	-9.38426
▁households	-9.3856
▁industries	-9.38577
▁ground	-9.3861
▁learn	-9.38648
ok	-9.38717
▁caught	-9.38809
ter	-9.38833
ch	-9.3885
et	-9.38927
▁dance	-9.38928
▁across	-9.39135
▁teams	-9.39222
▁campaign	-9.39229
▁People	-9.39249
▁goods	-9.39336
li	-9.39386
▁loan	-9.39403
▁eight	-9.39431
▁moment	-9.39529
▁Technology	-9.39697
ty	-9.39845
▁club	-9.39905
▁common	-9.39937
▁evidence	-9.40262
▁delivery	-9.40272
▁Foreign	-9.40522
▁sites	-9.40627
M	-9.40662
▁agricultural	-9.40669
▁manage	-9.40808
▁watch	-9.40842
▁direction	-9.40872
▁bring	-9.40987
▁appeared	-9.41121
▁Oh	-9.41133
▁fourth	-9.41279
▁agreed	-9.41335
▁direct	-9.4181
▁atmosphere	-9.41832
▁condition	-9.41909
▁centers	-9.41995
▁All	-9.42026
▁whole	-9.42089
▁view	-9.42093
▁violence	-9.42096
▁grow	-9.42162
▁rest	-9.42244
▁Lotte	-9.42315
▁Transport	-9.42587
▁Industrial	-9.42685
▁resources	-9.4277
▁Economic	-9.42778
▁involved	-9.42781
▁strengthen	-9.42965
▁below	-9.42967
la	-9.43051
▁progress	-9.43101
▁books	-9.43164
▁benefits	-9.43178
▁instead	-9.43402
▁pro	-9.43504
▁difficulties	-9.43574
▁skin	-9.43607
▁installed	-9.43632
▁stay	-9.43713
▁Germany	-9.43728
▁weather	-9.43745
▁hands	-9.43753
▁markets	-9.43762
▁anniversary	-9.43792
▁read	-9.43821
▁sure	-9.43875
▁annual	-9.4388
▁temperature	-9.4393
▁itself	-9.43963
▁color	-9.43972
▁gas	-9.43995
▁reality	-9.44059
ce	-9.44063
▁Business	-9.44106
lo	-9.44158
▁educational	-9.44181
▁De	-9.44205
▁entrance	-9.4421
▁Many	-9.44272
▁reduction	-9.4448
▁step	-9.44503
▁positive	-9.44735
▁headquarters	-9.44761
ate	-9.44769
▁writing	-9.44788
▁Air	-9.44867
is	-9.44955
▁anti	-9.44969
▁protection	-9.45005
ling	-9.45006
▁image	-9.45008
▁Cultural	-9.45036
▁whose	-9.45098
▁enterprises	-9.45206
▁hotel	-9.45303
▁occurred	-9.45448
▁focus	-9.45466
▁filed	-9.4558
▁network	-9.45613
me	-9.45625
▁entire	-9.45678
▁falling	-9.45792
▁rain	-9.45982
▁comes	-9.46082
▁chance	-9.46121
▁elderly	-9.46177
▁Monday	-9.46194
myeon	-9.462
▁Safety	-9.46295
▁shopping	-9.46322
▁character	-9.46362
▁player	-9.46391
▁participating	-9.46414
▁entered	-9.46481
▁quarter	-9.46529
▁raising	-9.46584
local	-9.4667
▁Vietnam	-9.46755
▁beginning	-9.46925
▁generation	-9.46994
▁wrong	-9.47024
▁force	-9.47064
▁plant	-9.4711
▁arrested	-9.47295
▁specific	-9.47297
▁winter	-9.47391
▁address	-9.47427
▁mid	-9.47601
▁Central	-9.47686
▁introduce	-9.4769
▁heavy	-9.47708
▁hour	-9.47724
▁anything	-9.47736
▁highly	-9.47774
▁requested	-9.4778
deemed	-9.47876
▁con	-9.47882
▁accounting	-9.4792
▁Chief	-9.47982
ia	-9.48036
▁Go	-9.48058
▁East	-9.48154
▁participants	-9.48195
▁perform	-9.48384
x	-9.48609
▁owner	-9.48625
▁turned	-9.4867
▁airport	-9.48761
▁red	-9.48783
▁duty	-9.48801
▁secure	-9.4885
▁commissioned	-9.4893
▁Promotion	-9.48989
▁toward	-9.49051
▁worked	-9.49062
▁skills	-9.49283
ci	-9.49324
▁unique	-9.49325
▁Sa	-9.49452
▁Ahn	-9.49458
▁arrest	-9.4946
ja	-9.49462
ted	-9.49593
▁Bo	-9.49647
▁visitors	-9.49647
▁user	-9.49665
ism	-9.49703
seok	-9.49953
▁conflict	-9.50014
O	-9.50086
▁holiday	-9.50087
▁General	-9.5012
▁defense	-9.50189
▁Women	-9.50212
▁universities	-9.50232
▁example	-9.50254
▁Donald	-9.5031
▁stressed	-9.5047
▁Son	-9.50524
scale	-9.50634
▁solve	-9.50653
▁launch	-9.50835
▁accidents	-9.50849
▁posted	-9.50904
▁houses	-9.50904
▁Year	-9.5105
▁speed	-9.51075
▁theme	-9.51139
go	-9.51231
▁collection	-9.5127
▁website	-9.51282
▁Blue	-9.51332
▁sale	-9.51392
▁usually	-9.51514
▁serious	-9.51704
▁announcement	-9.51901
▁daughter	-9.51979
▁Industry	-9.52021
W	-9.52056
▁protect	-9.52143
yong	-9.52177
▁creating	-9.5226
▁degrees	-9.52286
▁expansion	-9.52314
▁environmental	-9.52324
▁Ho	-9.52328
▁blood	-9.5234
▁internal	-9.52359
▁complete	-9.52417
▁act	-9.52425
hwan	-9.52469
▁visiting	-9.5249
be	-9.52591
▁rates	-9.52693
▁tourism	-9.52942
▁loans	-9.52947
▁follow	-9.52963
▁investigating	-9.53169
▁Lim	-9.53301
▁ways	-9.53339
▁export	-9.53513
▁taste	-9.53544
▁variety	-9.53546
▁search	-9.53546
▁break	-9.53574
▁proposed	-9.53594
▁green	-9.53613
▁intends	-9.53716
▁difference	-9.53914
▁basis	-9.54141
▁Finance	-9.54168
ul	-9.54203
▁sound	-9.54331
▁ensure	-9.54346
▁allow	-9.54388
,”	-9.54464
▁dream	-9.54495
▁tourists	-9.54498
▁Infrastructure	-9.54576
▁reading	-9.54585
▁pass	-9.54635
ies	-9.54665
▁During	-9.54719
▁authority	-9.5472
ru	-9.54787
▁teacher	-9.54788
ni	-9.54849
▁coach	-9.54869
▁street	-9.54884
▁discuss	-9.55082
ng	-9.55126
▁career	-9.55292
▁fast	-9.55342
▁sign	-9.55374
▁ability	-9.5542
▁black	-9.55456
▁delivered	-9.55487
▁King	-9.55564
▁reasons	-9.55613
▁safe	-9.55648
▁War	-9.55883
based	-9.55888
▁reached	-9.5589
▁train	-9.55989
▁material	-9.56158
▁popularity	-9.56205
▁broadcast	-9.5627
▁implemented	-9.56362
▁couldn	-9.56442
▁criticized	-9.56462
ck	-9.56572
led	-9.56597
▁teachers	-9.56612
▁European	-9.56659
▁candidates	-9.56695
▁properly	-9.56734
▁limited	-9.56819
▁intention	-9.56866
▁Food	-9.56908
▁profit	-9.56973
▁giving	-9.57002
▁sell	-9.57146
▁moved	-9.57252
tic	-9.57408
▁someone	-9.57411
▁paper	-9.57426
han	-9.5744
▁ever	-9.57515
▁signed	-9.5763
▁criticism	-9.57646
▁returned	-9.57735
▁Professor	-9.5789
▁hair	-9.57898
▁branch	-9.57928
ol	-9.57994
▁disabled	-9.58046
▁access	-9.58064
▁responsibility	-9.58096
▁loss	-9.5811
di	-9.58434
▁expect	-9.58506
▁banks	-9.5851
▁pain	-9.58614
▁compensation	-9.58633
▁creation	-9.58662
▁fair	-9.58696
▁Suwon	-9.58855
▁award	-9.58904
▁convenience	-9.58946
▁biggest	-9.58947
▁prevention	-9.58951
▁audience	-9.59027
▁Union	-9.59039
▁proposal	-9.59147
&	-9.59155
▁corporation	-9.59159
▁Peninsula	-9.59174
▁especially	-9.59231
▁customer	-9.5932
▁Sunday	-9.59412
▁elementary	-9.59547
hoon	-9.59792
▁success	-9.59846
▁W	-9.59852
▁effects	-9.59926
▁ex	-9.59948
▁themselves	-9.59976
▁predicted	-9.59976
▁white	-9.60069
▁River	-9.60182
▁resolution	-9.60206
▁V	-9.60237
▁providing	-9.60379
▁cash	-9.60384
▁actually	-9.60495
ak	-9.60526
▁determine	-9.60563
ex	-9.60577
▁idea	-9.60621
pop	-9.60635
There	-9.60757
▁carry	-9.60761
▁letter	-9.60799
▁simple	-9.60813
▁nature	-9.60813
▁Wednesday	-9.60817
R	-9.60836
▁era	-9.6086
▁Eun	-9.609
line	-9.60986
▁bit	-9.60995
▁Life	-9.61054
▁responsible	-9.61074
▁foundation	-9.61089
▁comprehensive	-9.61149
▁gathered	-9.61178
▁screen	-9.61181
▁Decree	-9.61185
▁ball	-9.612
▁turn	-9.61325
▁section	-9.61454
▁park	-9.61477
▁innovation	-9.61482
friendly	-9.61508
▁northern	-9.61512
▁maintain	-9.61575
▁himself	-9.61661
▁physical	-9.61679
▁overall	-9.61692
▁suspected	-9.61712
▁appointment	-9.6175
ated	-9.61847
▁influence	-9.61888
▁science	-9.6194
▁fun	-9.61945
▁unit	-9.61947
▁running	-9.62045
▁voice	-9.62096
▁becoming	-9.62108
▁shown	-9.62152
▁Europe	-9.62226
▁By	-9.6235
V	-9.62475
▁tour	-9.62531
▁contest	-9.62627
▁deputy	-9.62893
▁Market	-9.62968
▁closed	-9.62977
▁planned	-9.63023
▁driver	-9.63093
▁Sports	-9.63125
pe	-9.63146
▁clean	-9.63188
▁Yu	-9.63367
▁Why	-9.63367
▁elections	-9.63372
▁huge	-9.63462
▁answer	-9.63471
▁nearby	-9.63497
▁wish	-9.63531
▁manufacturing	-9.63626
w	-9.63666
▁wait	-9.63671
▁practice	-9.63816
▁allowed	-9.63859
▁recognized	-9.63872
▁attack	-9.63886
▁consideration	-9.64008
▁buildings	-9.64032
▁Woo	-9.64037
▁target	-9.6408
▁Roh	-9.64156
▁forest	-9.64163
▁mentioned	-9.64174
▁significant	-9.64315
▁household	-9.64411
way	-9.6443
▁preparing	-9.64564
one	-9.64576
ant	-9.64583
▁multi	-9.64605
▁prize	-9.64935
day	-9.65002
ized	-9.65037
▁investors	-9.65053
▁Kwon	-9.65224
▁function	-9.65261
per	-9.65286
as	-9.65286
▁recommended	-9.653
▁classes	-9.65324
ke	-9.65491
▁abroad	-9.65562
▁adding	-9.65656
ful	-9.65685
▁owners	-9.65703
ad	-9.65831
▁vacation	-9.65867
▁clothes	-9.65901
ti	-9.65962
▁Chairperson	-9.65962
▁except	-9.65965
▁relatively	-9.66
▁file	-9.66003
▁separate	-9.66062
▁wave	-9.6619
▁Federation	-9.66448
▁nothing	-9.66453
▁everyone	-9.66476
ton	-9.66557
▁forces	-9.66581
▁Hee	-9.6659
▁registration	-9.66659
▁location	-9.66703
▁Daejeon	-9.66706
ga	-9.66982
um	-9.66986
H	-9.6702
▁These	-9.67106
▁consultation	-9.67115
▁reach	-9.67188
▁appearance	-9.67284
bi	-9.67368
▁records	-9.67375
▁published	-9.67396
▁Enforcement	-9.6754
▁almost	-9.67558
▁connection	-9.67665
▁Complex	-9.67682
jo	-9.67813
▁registered	-9.67878
▁lawmakers	-9.67928
▁strategy	-9.67931
seong	-9.68012
▁vote	-9.68017
▁taxi	-9.68042
ating	-9.68101
▁electric	-9.68276
▁ratio	-9.68325
▁trust	-9.6836
▁includes	-9.68396
▁table	-9.68399
▁warrant	-9.68414
con	-9.68476
sik	-9.68568
▁artists	-9.68573
▁claimed	-9.68606
▁Airport	-9.6862
▁goes	-9.68664
▁playing	-9.687
▁zone	-9.68752
▁expectations	-9.68801
tae	-9.68874
▁Ko	-9.68902
▁actor	-9.68937
▁star	-9.68955
head	-9.68956
ir	-9.68982
▁successful	-9.68998
▁Koreans	-9.69079
▁N	-9.69138
▁selling	-9.69219
hwa	-9.69263
▁newly	-9.69404
▁prison	-9.69446
▁winning	-9.69512
bu	-9.69547
▁From	-9.69748
▁broke	-9.69844
▁moving	-9.70007
▁cancer	-9.70052
▁Seong	-9.70062
▁fully	-9.70116
▁pm	-9.70156
▁joined	-9.7016
▁Deputy	-9.70166
▁join	-9.70212
▁rising	-9.7023
▁waiting	-9.70255
jung	-9.70308
▁Pyongyang	-9.70367
▁Project	-9.70369
▁gap	-9.70386
▁double	-9.70497
▁warm	-9.70497
▁notify	-9.7053
ct	-9.7059
ance	-9.70743
ver	-9.70855
▁reportedly	-9.71014
▁meaning	-9.71059
▁entertainment	-9.71095
lu	-9.71106
da	-9.71108
▁farmers	-9.71212
▁range	-9.71292
▁Ja	-9.71386
est	-9.71391
com	-9.7143
▁respectively	-9.71521
▁Joseon	-9.71559
▁Tuesday	-9.71623
▁drop	-9.71633
▁Art	-9.71649
▁agenda	-9.71673
▁weeks	-9.71733
▁Are	-9.71811
▁platform	-9.7183
▁sharing	-9.71936
▁designed	-9.71973
▁watching	-9.71983
▁hear	-9.71992
▁husband	-9.72051
▁expanding	-9.72069
hi	-9.72255
▁dollars	-9.72266
▁Man	-9.72275
▁above	-9.7229
▁despite	-9.7229
▁analyzed	-9.72306
▁LG	-9.72344
▁coffee	-9.72354
▁longer	-9.72402
▁Iran	-9.72417
▁bought	-9.72419
▁L	-9.7255
bo	-9.72684
▁victim	-9.72744
▁hosted	-9.72813
▁caus	-9.72891
▁recorded	-9.72919
▁entrusted	-9.72957
ba	-9.73099
▁brother	-9.73127
▁prescribe	-9.73198
▁everything	-9.73205
▁jurisdiction	-9.73269
▁older	-9.7332
▁Gyeongsang	-9.73329
▁revision	-9.73405
▁forced	-9.73547
im	-9.73557
▁consider	-9.73576
▁wind	-9.73584
▁Church	-9.73598
▁Hye	-9.73611
nam	-9.73634
▁H	-9.73655
▁supporting	-9.73657
▁presented	-9.73669
▁town	-9.73732
▁characteristics	-9.73887
▁although	-9.73899
jeong	-9.74013
▁Mo	-9.74018
▁investigate	-9.74035
▁resident	-9.74038
▁Cha	-9.74116
▁measure	-9.74131
▁Hospital	-9.7416
▁limit	-9.74178
▁SK	-9.74264
▁circumstances	-9.74273
ent	-9.74311
▁word	-9.74341
▁ship	-9.74376
▁exercise	-9.74393
▁League	-9.74444
▁Jo	-9.74586
▁Be	-9.74612
▁America	-9.74762
▁introduction	-9.74792
▁box	-9.748
▁serve	-9.74815
▁gift	-9.74974
▁infrastructure	-9.75125
ee	-9.75151
▁nine	-9.7526
▁Social	-9.75297
▁exports	-9.75342
▁receipt	-9.75393
▁healthy	-9.75419
▁suffering	-9.75452
▁certificate	-9.75478
▁flight	-9.75566
ge	-9.75669
▁sleep	-9.75795
▁accept	-9.75858
▁elected	-9.75902
▁consumer	-9.75921
▁claim	-9.7601
▁improved	-9.76059
▁recommend	-9.76199
▁Most	-9.76214
▁dis	-9.76305
▁Currently	-9.76337
▁selection	-9.76359
▁County	-9.76404
▁expanded	-9.76415
id	-9.76448
▁served	-9.76468
▁singer	-9.76488
▁Village	-9.7654
▁girl	-9.76573
▁notice	-9.76587
▁explain	-9.7673
▁separately	-9.76817
▁Thank	-9.76847
pa	-9.76884
▁weekend	-9.7691
▁promoting	-9.76948
▁formed	-9.77012
▁regions	-9.77135
▁remarks	-9.77203
▁Singapore	-9.77303
▁screening	-9.77357
▁rental	-9.7739
▁rose	-9.77464
▁viewers	-9.77485
▁songs	-9.77527
▁external	-9.77563
...	-9.77585
▁Byung	-9.77645
▁focused	-9.77746
▁spring	-9.7777
▁birth	-9.77793
▁thinking	-9.77883
▁delayed	-9.77886
▁eye	-9.77901
▁assets	-9.77903
▁speech	-9.78016
▁improving	-9.78113
▁advanced	-9.78125
▁supported	-9.78176
▁eligible	-9.78182
▁Wave	-9.78271
▁leaving	-9.78285
▁employee	-9.78311
▁becomes	-9.78408
▁Also	-9.786
▁knowledge	-9.78701
▁seats	-9.78706
▁competitiveness	-9.78742
▁Un	-9.7883
▁brought	-9.78839
▁Saturday	-9.78876
son	-9.78894
▁negative	-9.78912
▁Jeon	-9.78941
▁His	-9.78944
▁judge	-9.78956
▁superintendent	-9.7897
▁counseling	-9.79002
▁walk	-9.79008
▁lawmaker	-9.79023
▁completely	-9.79204
▁gender	-9.79223
▁Sam	-9.79235
▁pension	-9.79276
▁looks	-9.79297
▁suffered	-9.7951
▁collected	-9.79578
and	-9.79588
▁depending	-9.79607
▁host	-9.7961
▁lecture	-9.79615
▁Myung	-9.79657
▁modern	-9.79658
▁Ba	-9.79703
▁Po	-9.79715
▁photos	-9.79732
▁mayor	-9.79767
▁detailed	-9.79777
▁Tourism	-9.79784
▁computer	-9.7981
▁technologies	-9.79886
▁factory	-9.79969
▁album	-9.80063
▁meters	-9.80124
▁Me	-9.80134
▁provisions	-9.80156
▁beauty	-9.80182
▁More	-9.80319
▁independence	-9.80379
▁developing	-9.80419
▁changing	-9.80451
▁principle	-9.80553
▁surgery	-9.80593
▁estimated	-9.80629
▁Thursday	-9.80639
▁grade	-9.80649
▁concern	-9.80649
▁maintenance	-9.80659
▁soccer	-9.80661
▁provides	-9.80669
▁smart	-9.80735
▁wide	-9.80747
▁effective	-9.8081
▁shot	-9.80812
▁camp	-9.80844
▁continues	-9.80888
▁discussion	-9.80961
▁contribute	-9.81017
▁Friday	-9.8102
ie	-9.81071
▁reporters	-9.81153
▁La	-9.81153
▁aid	-9.81181
▁delay	-9.81192
▁Environment	-9.81211
▁cooperate	-9.81264
sun	-9.81268
▁article	-9.81271
▁choose	-9.81299
▁marketing	-9.81372
▁f	-9.8141
▁Sea	-9.81443
▁mainly	-9.81494
op	-9.81499
▁venue	-9.81513
▁fields	-9.81526
▁Sejong	-9.81735
▁Last	-9.81746
▁style	-9.81759
▁stocks	-9.81783
▁fish	-9.81888
▁Fair	-9.81914
ah	-9.82013
▁item	-9.82029
sh	-9.82055
▁abuse	-9.82057
▁allows	-9.82089
end	-9.82113
▁choice	-9.82165
▁dead	-9.82243
▁types	-9.82363
▁reflect	-9.82377
▁arrived	-9.82415
▁score	-9.82428
▁door	-9.82497
hye	-9.82678
▁emphasized	-9.82715
▁Ju	-9.82719
▁Organization	-9.82735
▁title	-9.82737
▁respond	-9.82822
▁procedures	-9.82828
chan	-9.82871
▁Movement	-9.82914
▁accused	-9.82936
▁Regard	-9.83022
▁Don	-9.83023
▁throughout	-9.83052
▁studying	-9.83053
▁meal	-9.83075
▁seat	-9.83087
▁broadcasting	-9.83215
▁lawsuit	-9.83276
▁drink	-9.83372
▁consecutive	-9.83464
▁entering	-9.83522
▁remaining	-9.83548
▁finished	-9.83624
▁source	-9.837
▁discount	-9.83718
▁meetings	-9.83734
▁believed	-9.83751
▁snow	-9.83862
▁severe	-9.83939
▁activity	-9.83969
▁consumption	-9.84003
▁consist	-9.84026
ran	-9.84042
▁standing	-9.84078
China	-9.84117
▁male	-9.84165
▁performed	-9.84178
▁wear	-9.84204
▁ordinary	-9.84344
eun	-9.8435
▁seem	-9.84386
▁weight	-9.84443
▁Russian	-9.84467
▁St	-9.84481
▁fishing	-9.84506
▁Mountain	-9.84554
run	-9.8463
▁specialized	-9.84704
▁criminal	-9.84809
▁taxes	-9.84816
▁units	-9.84838
▁deliver	-9.8484
▁greatly	-9.84879
▁produce	-9.84904
▁medicine	-9.84942
▁rapidly	-9.84962
▁select	-9.84988
▁push	-9.85015
▁soldiers	-9.85019
vi	-9.85089
▁divided	-9.85166
▁Of	-9.85213
▁petition	-9.85307
▁autonomous	-9.85421
ian	-9.8544
▁settlement	-9.85446
▁write	-9.85511
▁Representative	-9.85537
▁sex	-9.85717
▁avoid	-9.85748
▁installation	-9.85786
ca	-9.8581
▁methods	-9.85835
▁speak	-9.85836
▁disabilities	-9.85923
▁appear	-9.86017
▁worried	-9.8611
▁J	-9.86123
▁attract	-9.86207
▁promoted	-9.86312
▁advantage	-9.86313
▁Le	-9.86336
▁Employment	-9.86361
▁fan	-9.86369
▁France	-9.86373
▁ticket	-9.86388
▁Games	-9.86404
▁deep	-9.86455
▁scope	-9.86634
▁assault	-9.86685
▁victory	-9.86784
▁majority	-9.86861
▁Baek	-9.86989
▁Under	-9.87032
▁Peace	-9.87087
▁stable	-9.87093
▁electronic	-9.87098
▁drug	-9.87147
▁respect	-9.87155
▁spend	-9.87262
▁library	-9.87274
▁eating	-9.87329
▁exam	-9.87421
▁ended	-9.87444
Y	-9.87446
▁focusing	-9.87507
▁significantly	-9.87509
▁collect	-9.87614
▁Soo	-9.87645
▁mountain	-9.87715
▁pictures	-9.87776
▁decline	-9.88004
▁White	-9.88014
▁Human	-9.88038
▁background	-9.88041
▁profits	-9.88062
▁remains	-9.88116
▁Now	-9.88158
▁paying	-9.88189
▁busy	-9.88218
▁figure	-9.88249
va	-9.88388
▁academic	-9.88482
▁spokesman	-9.8849
▁movies	-9.88561
▁preparation	-9.88627
▁Line	-9.88706
▁subway	-9.88763
▁couple	-9.88855
▁missing	-9.88874
▁appropriate	-9.88883
site	-9.88908
▁twice	-9.88988
▁county	-9.89005
▁British	-9.89104
▁debate	-9.89104
▁Hotel	-9.89108
▁opportunities	-9.89219
▁debut	-9.89222
▁preliminary	-9.89253
▁restaurants	-9.8953
▁assessment	-9.89539
▁Fire	-9.89647
▁track	-9.89676
▁permission	-9.89686
▁Ulsan	-9.89741
▁Our	-9.89766
▁Motor	-9.89802
▁meaningful	-9.89851
tra	-9.89855
▁calls	-9.89859
▁Small	-9.8988
▁license	-9.89927
▁accounts	-9.89977
▁potential	-9.90032
▁express	-9.90086
▁Da	-9.90107
▁representatives	-9.90153
▁shop	-9.90159
▁Hae	-9.90254
▁dramas	-9.90279
▁wrote	-9.90381
ine	-9.90405
▁understanding	-9.90449
▁Rules	-9.9045
▁shared	-9.90532
▁gold	-9.90546
▁Ga	-9.90647
▁subsidies	-9.90694
▁troops	-9.90705
▁leadership	-9.90707
▁stand	-9.90739
▁suggested	-9.90739
▁refund	-9.90767
▁named	-9.90797
▁managed	-9.90836
▁Division	-9.90851
▁nationwide	-9.90891
▁dinner	-9.90928
▁achieve	-9.91085
▁cell	-9.91173
wi	-9.91176
▁monthly	-9.91228
ence	-9.91259
▁decide	-9.91325
▁attending	-9.91363
▁commission	-9.91378
▁calling	-9.91426
▁acting	-9.9147
▁wants	-9.91482
▁guarantee	-9.91492
▁Ro	-9.91715
▁confirm	-9.9177
▁Port	-9.91837
▁Taiwan	-9.91911
▁Table	-9.91947
▁arts	-9.92055
▁volume	-9.92111
jae	-9.92112
▁Facebook	-9.92151
▁southern	-9.92152
▁Policy	-9.92349
▁About	-9.92385
▁volunteer	-9.92717
▁anyone	-9.92729
▁happened	-9.92839
▁recruitment	-9.92915
▁factors	-9.92927
▁strike	-9.92968
▁rent	-9.9302
▁index	-9.93029
▁allegations	-9.93067
▁concerned	-9.93124
%)	-9.93205
▁ten	-9.93269
▁Former	-9.93329
▁revenue	-9.93367
▁German	-9.93377
▁effort	-9.93401
▁spent	-9.9347
▁mean	-9.9355
▁listen	-9.93703
▁intelligence	-9.93709
▁weak	-9.93841
▁sentenced	-9.9388
ize	-9.93931
▁cover	-9.93956
▁digital	-9.93992
▁text	-9.94065
▁devices	-9.94089
▁impossible	-9.94113
▁Information	-9.94177
▁stories	-9.94194
▁films	-9.94261
▁follows	-9.94266
▁Services	-9.94303
▁lose	-9.94305
▁email	-9.94323
▁wearing	-9.94338
▁normal	-9.94501
As	-9.94526
▁damaged	-9.9458
▁beyond	-9.946
▁injured	-9.94681
▁surrounding	-9.9469
▁strength	-9.94707
▁efficient	-9.94745
▁contains	-9.94758
▁thereof	-9.94774
▁tourist	-9.94851
North	-9.94912
▁unable	-9.94927
▁punishment	-9.95052
▁presentation	-9.95208
▁offer	-9.95262
ung	-9.95264
▁decrease	-9.95325
men	-9.95574
▁occur	-9.95582
▁India	-9.95586
▁heads	-9.95612
▁filled	-9.9564
▁born	-9.9564
▁solution	-9.95676
▁extra	-9.9573
▁fashion	-9.95745
▁executives	-9.95764
by	-9.95786
▁firm	-9.95903
▁Heung	-9.96002
▁Republic	-9.96016
▁Seok	-9.96084
▁Museum	-9.96114
▁border	-9.96215
▁Agricultural	-9.96321
▁begin	-9.96632
▁San	-9.96642
▁apartments	-9.96682
▁judges	-9.96692
▁alleged	-9.96711
▁affected	-9.96854
▁handle	-9.96862
▁independent	-9.96913
▁require	-9.97031
▁asking	-9.97048
▁expects	-9.97131
▁feeling	-9.97171
▁Recently	-9.97193
▁prior	-9.97383
▁Ra	-9.97602
▁myself	-9.97626
▁difficulty	-9.97637
▁kept	-9.97737
▁limits	-9.97871
▁seek	-9.97874
▁French	-9.9799
▁finally	-9.98112
▁exchanges	-9.98137
▁blockchain	-9.98199
▁expensive	-9.98199
▁nice	-9.98254
ut	-9.98284
▁plants	-9.98295
▁Obama	-9.98326
▁baby	-9.98326
▁dog	-9.98371
▁spirit	-9.98407
▁officers	-9.98539
▁quite	-9.9858
▁suspect	-9.98651
▁mark	-9.98735
▁task	-9.98899
▁Yeong	-9.98975
ous	-9.98998
▁device	-9.9903
▁remember	-9.99065
▁failure	-9.99089
▁draw	-9.99222
▁foot	-9.99243
▁path	-9.99311
▁Construction	-9.99428
▁association	-9.99468
▁band	-9.99484
▁fight	-9.995
▁Could	-9.99514
▁concept	-9.99781
▁manner	-9.99787
▁roads	-9.99802
▁dispute	-9.99947
▁revised	-10.0003
▁shares	-10.0003
free	-10.0009
▁Yi	-10.0015
▁deposit	-10.0018
▁Washington	-10.002
▁proceed	-10.0036
▁endeavor	-10.0037
▁worker	-10.0039
▁stopped	-10.0046
▁retirement	-10.0055
▁patient	-10.0062
▁foreigners	-10.0064
▁directors	-10.0076
▁smartphone	-10.0077
om	-10.009
long	-10.0091
▁temporary	-10.0094
▁reservation	-10.0095
▁Iraq	-10.0103
▁Middle	-10.0111
▁Prosecutors	-10.0116
▁master	-10.0119
▁promise	-10.0122
Pop	-10.0125
▁app	-10.0132
%,	-10.0133
▁diseases	-10.0135
▁battle	-10.0137
der	-10.0138
▁crimes	-10.014
▁lived	-10.0152
▁mental	-10.0153
▁conducting	-10.0156
▁comments	-10.0156
▁resolve	-10.0157
▁farming	-10.0157
▁Di	-10.0162
▁shape	-10.0164
▁violation	-10.0174
▁suit	-10.0176
▁decreased	-10.0191
▁capacity	-10.0197
▁judgment	-10.0197
ong	-10.0198
▁Insurance	-10.0198
▁port	-10.0211
▁justice	-10.0213
▁repair	-10.0213
▁parliamentary	-10.0216
▁Energy	-10.0233
▁latest	-10.0237
▁camera	-10.0238
▁talking	-10.0242
▁enhance	-10.0243
▁pick	-10.0245
▁briefing	-10.0246
▁discussions	-10.0251
▁prosecutor	-10.0259
▁Joon	-10.0259
▁Australia	-10.0262
▁residential	-10.0262
▁processing	-10.0264
▁trees	-10.0268
je	-10.0275
▁rich	-10.0278
▁theater	-10.0279
▁suspended	-10.0283
▁technical	-10.0286
▁learned	-10.0291
▁discussed	-10.0292
▁Goyang	-10.0308
▁marriage	-10.0317
▁favorite	-10.0317
▁guide	-10.0323
▁Youth	-10.0337
▁trading	-10.0339
▁counties	-10.0339
▁animal	-10.034
▁lawyer	-10.0354
▁animals	-10.0355
▁Not	-10.0356
▁declaration	-10.0365
▁amid	-10.037
▁di	-10.0371
▁looked	-10.0375
ang	-10.0382
▁minute	-10.0384
▁semiconductor	-10.0385
▁save	-10.0387
▁drinking	-10.039
▁encourage	-10.0403
▁Economy	-10.0414
he	-10.0417
vo	-10.0417
▁attracting	-10.0421
▁ranked	-10.0423
▁complaints	-10.0426
income	-10.0426
▁admission	-10.0445
chi	-10.0448
▁fixed	-10.0451
▁baseball	-10.0455
▁increases	-10.0456
▁ice	-10.0461
▁sending	-10.0464
▁scored	-10.0481
▁cancel	-10.0488
▁accepted	-10.0494
▁remain	-10.0494
▁researcher	-10.0506
▁currency	-10.0509
▁bar	-10.0512
▁suspicion	-10.0513
▁Today	-10.0524
▁behavior	-10.0526
dae	-10.053
▁rules	-10.0534
▁bag	-10.0534
▁features	-10.054
▁politics	-10.054
▁square	-10.0542
v	-10.0542
▁Securities	-10.0545
▁drive	-10.0547
▁exact	-10.0548
▁Pro	-10.0551
▁plane	-10.0563
▁Through	-10.0573
▁pushed	-10.0574
mun	-10.0577
▁display	-10.0582
▁alternative	-10.0587
▁cool	-10.0595
▁invest	-10.0596
▁historical	-10.0598
▁chicken	-10.0604
▁artificial	-10.0609
▁coast	-10.061
▁reducing	-10.0613
▁rooms	-10.0619
▁attitude	-10.0627
▁nearly	-10.0631
▁eco	-10.0633
▁practical	-10.0635
▁Therefore	-10.0636
▁Jun	-10.0638
▁Grand	-10.0639
▁Due	-10.0645
▁Indonesia	-10.0651
▁race	-10.0658
▁actors	-10.066
▁Geun	-10.0667
▁Medical	-10.0668
yang	-10.0673
type	-10.0676
▁younger	-10.0712
▁urgent	-10.0722
▁reporter	-10.0722
▁core	-10.0728
▁Just	-10.073
▁completion	-10.0746
▁net	-10.0749
▁museum	-10.076
▁livestock	-10.076
▁debt	-10.0763
hu	-10.0772
▁characters	-10.0783
▁correct	-10.0785
▁checked	-10.079
land	-10.0794
▁walking	-10.0797
▁seemed	-10.0801
▁sentence	-10.0803
▁Headquarters	-10.0807
▁runs	-10.0809
▁balance	-10.0819
▁reflected	-10.0822
em	-10.0824
▁Al	-10.0824
▁suddenly	-10.083
dy	-10.0831
▁excessive	-10.0833
▁electricity	-10.0846
▁agree	-10.0851
▁newspaper	-10.0859
▁Con	-10.0864
▁Rights	-10.0872
ac	-10.0878
Gu	-10.0885
▁aimed	-10.0892
▁announce	-10.0895
▁rescue	-10.0902
▁committed	-10.0905
▁gather	-10.091
▁finish	-10.091
▁benefit	-10.0916
▁secured	-10.0919
▁wall	-10.0921
▁doctor	-10.0923
▁homes	-10.0927
▁AI	-10.0931
seo	-10.0939
red	-10.0944
ster	-10.0945
of	-10.0947
▁truth	-10.0947
▁judicial	-10.095
▁conservative	-10.0951
▁Mu	-10.0952
▁Je	-10.0955
▁painting	-10.0956
▁functions	-10.096
▁hurt	-10.096
▁approved	-10.0965
jong	-10.0965
▁trustee	-10.0972
▁fresh	-10.0977
▁rule	-10.0978
▁finance	-10.0979
que	-10.0979
▁Investment	-10.0981
▁clearly	-10.0989
▁fuel	-10.099
ally	-10.1
▁establishing	-10.1003
▁experienced	-10.1003
▁route	-10.1007
▁via	-10.1011
▁else	-10.1013
US	-10.1015
▁kinds	-10.1016
ping	-10.1019
▁musical	-10.1021
▁proper	-10.1031
▁scandal	-10.1032
▁sister	-10.1037
▁scale	-10.1041
▁interpreted	-10.1045
▁Beijing	-10.1047
▁integrated	-10.1048
▁operator	-10.105
▁arrive	-10.107
▁suicide	-10.107
▁vulnerable	-10.1075
▁sides	-10.1081
▁league	-10.1082
▁Civil	-10.109
▁lunch	-10.1098
▁News	-10.11
if	-10.1102
sang	-10.1104
off	-10.1116
▁spot	-10.1119
▁Unlike	-10.1119
▁regime	-10.1123
▁applying	-10.1125
J	-10.1132
▁excluded	-10.1136
▁West	-10.1138
▁cross	-10.1144
▁outstanding	-10.1151
ner	-10.1153
▁entry	-10.1157
▁island	-10.1163
▁subparagraph	-10.1177
▁jointly	-10.1185
▁corruption	-10.119
▁signs	-10.1193
▁explanation	-10.121
▁Team	-10.1215
▁author	-10.1218
▁weapons	-10.1218
kyung	-10.1218
chul	-10.1231
▁kindergartens	-10.1231
▁evening	-10.1231
▁overcome	-10.1241
▁golf	-10.1245
fi	-10.1249
called	-10.1258
▁en	-10.1265
▁strongly	-10.1271
wook	-10.1304
▁warning	-10.1324
tech	-10.1326
▁requires	-10.1328
▁Canada	-10.1332
▁Did	-10.1333
▁outdoor	-10.1335
▁plastic	-10.1341
▁civic	-10.1341
▁gradually	-10.1342
▁designation	-10.1342
▁memory	-10.1343
▁guidance	-10.1346
▁stone	-10.1351
▁helped	-10.1353
▁symptoms	-10.1354
▁unfair	-10.1364
▁Mexico	-10.1366
▁Your	-10.1368
▁realize	-10.1368
▁recovery	-10.137
▁Yeon	-10.1376
▁ran	-10.1377
tro	-10.1381
▁Hak	-10.1402
mm	-10.1403
▁tree	-10.142
▁Olympics	-10.1425
▁upon	-10.1431
▁interests	-10.1444
▁distance	-10.1444
▁c	-10.1449
▁machine	-10.146
▁false	-10.1468
▁Joo	-10.147
▁stated	-10.148
▁ideas	-10.1491
▁strengthening	-10.1497
▁regardless	-10.1511
▁recommendation	-10.1529
▁creative	-10.153
▁innovative	-10.153
▁Google	-10.1531
▁setting	-10.1536
use	-10.1537
▁stars	-10.1542
▁conversation	-10.1547
▁Dr	-10.1554
▁Film	-10.1555
gen	-10.1566
mp	-10.1568
▁Rep	-10.157
▁venture	-10.1575
▁flow	-10.1575
▁Children	-10.1582
▁prime	-10.1585
▁Nowon	-10.1587
▁continuously	-10.161
▁appeal	-10.1611
▁Law	-10.1615
▁meat	-10.1627
▁suspension	-10.163
▁System	-10.1635
▁laws	-10.1637
ae	-10.1642
!	-10.1651
▁Sohn	-10.1655
▁interesting	-10.1662
ler	-10.1663
▁thanks	-10.1681
▁Ca	-10.1684
▁expert	-10.1685
▁criteria	-10.1691
▁tickets	-10.1694
▁reporting	-10.1694
▁certification	-10.1697
du	-10.1706
▁install	-10.1706
▁Chungcheong	-10.1711
▁regulation	-10.1718
▁drawn	-10.1725
▁applicants	-10.1728
ka	-10.1731
▁rural	-10.1732
▁eventually	-10.1737
ship	-10.174
▁Green	-10.1744
▁diplomatic	-10.1745
mer	-10.1746
▁offices	-10.1755
▁falls	-10.1755
▁foster	-10.1757
▁Ka	-10.1758
▁incurred	-10.1783
▁Bareunmirae	-10.1788
▁salary	-10.1788
▁enforcement	-10.1788
▁Li	-10.1797
▁KT	-10.1805
▁concluded	-10.1808
▁ready	-10.1809
▁Pyeongtaek	-10.1814
km	-10.182
joon	-10.1823
▁Il	-10.183
▁communicate	-10.1834
▁Sin	-10.1848
▁century	-10.1853
▁bottom	-10.1855
X	-10.1856
▁experiences	-10.1859
▁mission	-10.1859
▁married	-10.1862
▁Consider	-10.1876
▁putting	-10.188
▁concentration	-10.1894
▁attracted	-10.1897
▁carrying	-10.1901
▁John	-10.1902
▁sometimes	-10.1904
▁okay	-10.1907
▁garden	-10.1912
▁Bush	-10.1912
▁placed	-10.1913
▁seeing	-10.1915
▁transaction	-10.192
▁Base	-10.1924
▁passengers	-10.1925
▁watched	-10.1933
▁transactions	-10.1935
fa	-10.1936
▁Bu	-10.1936
so	-10.1947
▁challenge	-10.1948
ron	-10.1955
▁consulting	-10.1961
▁ingredients	-10.1964
▁shooting	-10.1965
▁disclosure	-10.1978
▁earthquake	-10.1985
▁Ban	-10.1986
▁connected	-10.199
▁buses	-10.199
▁supplement	-10.1992
▁systems	-10.1999
▁Award	-10.2001
▁Wi	-10.2002
▁distributed	-10.2004
▁add	-10.2005
▁Power	-10.2006
▁subsidize	-10.2006
▁blue	-10.2007
▁goals	-10.2007
▁frequently	-10.201
▁murder	-10.2025
▁occurs	-10.203
class	-10.2031
▁happen	-10.2034
▁loved	-10.2035
▁believes	-10.2036
▁argued	-10.2036
▁importance	-10.2038
ial	-10.2043
▁maximum	-10.2048
▁desire	-10.2048
▁BTS	-10.205
▁trouble	-10.2053
izing	-10.2054
▁essential	-10.2063
▁lots	-10.2065
▁examine	-10.2071
▁checking	-10.2076
▁confidence	-10.2077
▁drunk	-10.2094
▁officially	-10.2095
house	-10.2102
▁Ye	-10.2115
▁Vi	-10.2118
▁register	-10.2121
▁o	-10.2127
▁perfect	-10.213
▁Ryu	-10.2133
▁Soon	-10.2134
▁bio	-10.2135
▁tired	-10.2136
▁composed	-10.2138
▁identified	-10.2138
▁Arts	-10.2138
▁listed	-10.2146
▁block	-10.2148
che	-10.2151
▁cryptocurrency	-10.2154
▁institute	-10.2155
▁g	-10.2163
▁earnest	-10.2164
▁grounds	-10.2166
▁tasks	-10.2167
wa	-10.2168
▁ministry	-10.2169
side	-10.2171
▁figures	-10.2174
▁efficiency	-10.2176
▁menu	-10.2187
▁haven	-10.2188
we	-10.2188
▁Western	-10.2191
▁complaint	-10.2194
▁subparagraphs	-10.2195
▁sweet	-10.2196
▁typhoon	-10.2223
mon	-10.223
▁foods	-10.2231
▁lines	-10.2234
ction	-10.2241
▁claims	-10.2246
▁Jeolla	-10.2249
▁childcare	-10.225
▁fifth	-10.2253
▁secret	-10.2254
▁obtain	-10.226
▁shift	-10.2264
▁emerged	-10.227
▁birthday	-10.2272
▁kindergarten	-10.2275
▁offering	-10.2282
▁Road	-10.2283
▁drugs	-10.2284
jun	-10.2288
▁premium	-10.2292
▁offered	-10.2298
▁models	-10.2299
ring	-10.2305
▁IT	-10.2306
▁Xi	-10.2313
▁achieved	-10.2318
▁suffer	-10.232
▁exceed	-10.2325
▁mostly	-10.2328
gil	-10.2329
▁corporations	-10.2332
▁appears	-10.2334
▁honor	-10.2343
▁orders	-10.2353
ability	-10.2355
▁army	-10.2377
▁sentiment	-10.238
▁Two	-10.238
▁Cheonan	-10.2381
▁deadline	-10.2386
myung	-10.2394
▁inconvenience	-10.2397
▁farm	-10.2398
▁priority	-10.2399
▁extended	-10.24
▁SNS	-10.2403
espite	-10.2411
▁sky	-10.2415
▁Hwa	-10.2415
▁Tokyo	-10.2418
▁broken	-10.2418
▁awareness	-10.2419
▁version	-10.2427
▁regard	-10.2428
▁pop	-10.2432
▁donation	-10.2433
▁videos	-10.2434
▁fear	-10.2448
▁Stadium	-10.2451
▁upper	-10.2451
▁forecast	-10.2453
▁Moo	-10.2455
▁Ri	-10.2455
ko	-10.2456
▁sharp	-10.246
▁Rule	-10.2471
▁Christian	-10.2475
▁damages	-10.2476
▁levels	-10.248
▁Supervisory	-10.2484
▁Speaker	-10.2505
▁either	-10.2539
ator	-10.2562
▁talent	-10.2564
▁treated	-10.2569
▁designate	-10.257
▁sub	-10.2574
▁advice	-10.2577
▁injury	-10.2577
▁demanded	-10.2589
▁causes	-10.2592
▁Family	-10.2594
▁reward	-10.2596
▁artist	-10.2598
▁execution	-10.26
▁gives	-10.2603
▁cooperative	-10.2604
▁purchased	-10.2609
▁declared	-10.2614
▁names	-10.2628
▁X	-10.2638
▁affiliated	-10.2641
▁slow	-10.2647
▁emerging	-10.265
▁departments	-10.266
▁Gi	-10.2666
▁Seongnam	-10.2673
Do	-10.2675
▁invited	-10.2677
▁bright	-10.2679
▁ride	-10.2679
▁firms	-10.2682
▁finding	-10.2683
▁Army	-10.2684
▁spending	-10.2686
▁Marine	-10.2686
▁Gyeongnam	-10.269
▁Car	-10.269
▁allowing	-10.2709
▁feature	-10.2718
ft	-10.272
▁gets	-10.2725
▁operations	-10.2725
▁charged	-10.2726
▁passing	-10.2742
ors	-10.2744
▁transferred	-10.2747
▁aware	-10.2748
▁spreading	-10.2751
▁enjoyed	-10.2752
▁Pa	-10.2755
▁cosmetics	-10.2755
▁shipping	-10.2757
▁servants	-10.2759
▁gain	-10.2761
▁confirmation	-10.277
▁surface	-10.2774
▁ruled	-10.2775
▁tea	-10.2801
ap	-10.2806
▁Hallyu	-10.2806
▁involving	-10.2808
▁Jesus	-10.2808
dang	-10.281
ative	-10.2818
▁idol	-10.2819
tion	-10.282
▁forum	-10.2823
▁stance	-10.283
▁lowest	-10.2846
▁map	-10.285
▁Meteorological	-10.2853
▁mouth	-10.2854
▁dropped	-10.2854
▁promised	-10.2855
▁drew	-10.2865
▁Kakao	-10.2866
▁expression	-10.2869
▁pollution	-10.2869
▁stations	-10.2876
▁wages	-10.2877
▁combined	-10.2879
▁comfortable	-10.2883
▁actions	-10.2885
▁Paju	-10.2888
▁extent	-10.2893
▁individuals	-10.2897
▁Apple	-10.2908
▁Dynasty	-10.291
▁equipped	-10.292
▁formulate	-10.2923
▁expenditure	-10.2928
▁disciplinary	-10.2928
▁stress	-10.2938
▁suitable	-10.2941
soon	-10.2942
▁amendment	-10.2945
▁values	-10.2947
ish	-10.2947
eup	-10.2948
▁Bae	-10.295
▁worry	-10.2953
▁alcohol	-10.2955
▁dark	-10.2955
▁Myeong	-10.2957
CNN	-10.2959
▁Society	-10.2968
▁sample	-10.2972
▁Gyeong	-10.2978
▁contribution	-10.2978
▁Kwang	-10.2981
bin	-10.2981
▁mass	-10.2983
▁storage	-10.3008
▁judged	-10.3014
▁football	-10.3032
ph	-10.3035
jang	-10.3039
ups	-10.3044
▁Pohang	-10.3049
ten	-10.3051
▁protest	-10.3056
law	-10.306
▁Tax	-10.3062
▁mixed	-10.3071
▁unification	-10.3074
▁Actor	-10.3076
▁hospitals	-10.3081
rim	-10.3086
lin	-10.3086
▁penalty	-10.3096
▁pilot	-10.3096
▁boost	-10.3099
▁mail	-10.3101
▁canceled	-10.3106
▁Yun	-10.3109
▁topic	-10.311
▁tournament	-10.3119
▁slightly	-10.3127
ard	-10.3129
▁recognition	-10.3137
▁Du	-10.3138
▁obtained	-10.3138
▁sectors	-10.3142
▁Academy	-10.3143
▁Thailand	-10.3143
io	-10.3144
▁inform	-10.3153
▁notified	-10.3153
▁smooth	-10.3154
▁sluggish	-10.316
▁courses	-10.3161
▁maintained	-10.3173
▁Brazil	-10.3176
▁complexes	-10.3176
▁shops	-10.3177
▁losing	-10.3178
▁pushing	-10.3181
▁collapse	-10.3185
ya	-10.3188
▁ecosystem	-10.3196
▁procedure	-10.3198
▁holidays	-10.3199
▁grades	-10.3203
▁lectures	-10.3205
▁code	-10.3212
▁flower	-10.3212
▁Company	-10.3213
▁Shim	-10.3215
▁YouTube	-10.3215
style	-10.3216
tu	-10.3218
▁gathering	-10.3221
▁subjects	-10.3223
▁Street	-10.3231
▁Hi	-10.3234
ber	-10.3234
▁comprised	-10.3244
▁Pompeo	-10.3249
▁powerful	-10.3252
▁killing	-10.3255
▁performing	-10.326
▁losses	-10.3261
qua	-10.3267
▁wake	-10.3267
cu	-10.3272
ped	-10.3275
mail	-10.3282
▁colors	-10.3282
▁sad	-10.3284
▁competitive	-10.3286
▁ease	-10.3286
ier	-10.3289
▁delicious	-10.3308
▁package	-10.3309
ning	-10.3312
shin	-10.3313
▁meals	-10.3322
This	-10.3323
▁CNN	-10.3329
▁Philippines	-10.3335
▁guidelines	-10.3339
▁proportion	-10.3339
▁SMEs	-10.3341
▁imposed	-10.3341
ology	-10.3344
▁Hu	-10.3347
▁Times	-10.3355
▁Have	-10.3364
▁feelings	-10.3365
▁flag	-10.3368
ical	-10.3369
▁Hanwha	-10.3369
ot	-10.3371
▁initial	-10.338
▁flowers	-10.3381
yeol	-10.3384
▁contributed	-10.3386
▁religious	-10.3386
▁negotiation	-10.3399
▁hike	-10.3405
▁rejected	-10.3409
▁grand	-10.341
▁studies	-10.341
▁sun	-10.3418
▁destination	-10.3423
▁cooking	-10.3429
▁buying	-10.3432
▁signing	-10.3437
▁diverse	-10.3441
▁predict	-10.3443
▁corner	-10.345
▁Global	-10.3457
▁phenomenon	-10.3459
▁rally	-10.3459
▁voting	-10.3459
▁factor	-10.3464
sion	-10.3465
▁closely	-10.3467
▁Operation	-10.3471
ities	-10.3473
▁replace	-10.3473
▁naturally	-10.348
▁brain	-10.3486
▁entrust	-10.3486
▁straight	-10.3489
▁hydrogen	-10.3495
▁suspicions	-10.3496
tan	-10.3497
▁Chun	-10.3499
▁Changwon	-10.3501
▁Zone	-10.3502
▁awarded	-10.3503
▁Workers	-10.3509
▁rapid	-10.3513
▁districts	-10.3514
▁Seocho	-10.3514
▁careful	-10.3517
▁dialogue	-10.352
▁bridge	-10.3523
▁medal	-10.3526
▁charm	-10.3526
▁applications	-10.353
▁exclusive	-10.3532
▁wedding	-10.3536
▁engaged	-10.3539
▁Ex	-10.3544
▁handed	-10.3548
▁successfully	-10.3551
pl	-10.3552
▁athletes	-10.3552
▁Other	-10.3563
▁Star	-10.3565
▁urged	-10.3566
▁connect	-10.3568
▁covered	-10.3569
deok	-10.357
▁customized	-10.3574
▁smile	-10.3577
▁super	-10.3577
He	-10.3578
▁smoke	-10.3581
▁fill	-10.3586
Re	-10.3586
▁teenagers	-10.3587
▁aircraft	-10.3587
▁gained	-10.3588
▁statutes	-10.359
▁concentrated	-10.3592
▁articles	-10.3605
▁partner	-10.3606
▁grant	-10.3616
▁reply	-10.3618
▁remove	-10.362
▁efficiently	-10.3622
▁stability	-10.3624
▁winner	-10.3629
ai	-10.3632
▁favor	-10.3633
▁bonds	-10.3634
▁regret	-10.3636
▁Motors	-10.3636
▁aged	-10.364
▁contracts	-10.3645
▁Free	-10.3652
low	-10.3653
ition	-10.3654
▁fraud	-10.3655
▁funeral	-10.3655
▁exposed	-10.3656
▁conflicts	-10.3657
▁b	-10.3659
▁sit	-10.3659
▁begun	-10.3669
▁prosecutors	-10.3674
▁enterprise	-10.3677
▁Yeouido	-10.3692
▁tests	-10.3692
▁grown	-10.3694
▁however	-10.3702
▁meantime	-10.3706
▁isn	-10.3714
fe	-10.3732
▁Bang	-10.3736
▁narrow	-10.3748
▁facing	-10.3754
▁Gangneung	-10.3754
ory	-10.3755
hyeon	-10.3759
▁ban	-10.3768
▁shareholders	-10.377
▁rating	-10.3772
▁managing	-10.378
▁dangerous	-10.3786
▁convenient	-10.3798
Korea	-10.3806
▁multiple	-10.381
▁catch	-10.381
▁Unification	-10.3817
▁statistics	-10.3823
▁researchers	-10.3826
▁fiscal	-10.3829
▁Love	-10.3831
▁vision	-10.3834
▁Forest	-10.3839
▁monitoring	-10.3842
▁degree	-10.3852
▁inevitable	-10.3855
▁deliberate	-10.3856
▁Community	-10.3861
▁Christmas	-10.3861
▁containing	-10.3863
▁resolved	-10.3863
▁Agriculture	-10.3867
▁subsidy	-10.3867
hour	-10.3868
ud	-10.3872
▁Music	-10.3878
▁continuing	-10.388
▁engine	-10.388
▁sharply	-10.3887
▁ICT	-10.3891
sta	-10.3899
▁Chuseok	-10.3899
▁Board	-10.39
▁easier	-10.3905
bong	-10.3905
▁mis	-10.3912
▁channel	-10.392
▁Saudi	-10.3924
▁blocked	-10.3926
▁gone	-10.3926
▁bear	-10.3928
▁blind	-10.3937
▁Im	-10.3951
▁sick	-10.3952
▁soft	-10.3953
▁Yongin	-10.3962
▁stadium	-10.3962
▁operators	-10.3964
ding	-10.3968
▁downtown	-10.397
▁Ansan	-10.3973
win	-10.3975
▁Yongsan	-10.3977
▁comment	-10.3977
▁hundreds	-10.398
▁pretty	-10.3982
▁discovered	-10.3988
ven	-10.4
pi	-10.4002
▁mutual	-10.402
▁Medium	-10.402
▁plays	-10.4022
▁linked	-10.4026
▁organize	-10.4031
▁boy	-10.4033
▁detail	-10.4038
▁Earlier	-10.4046
▁images	-10.4051
▁identity	-10.4052
▁hiring	-10.4052
fer	-10.4058
▁Would	-10.4062
▁sudden	-10.4065
▁advertising	-10.4071
▁extension	-10.4071
▁familiar	-10.4071
▁touch	-10.4076
▁farms	-10.4085
▁responded	-10.4087
▁Lu	-10.4095
▁combination	-10.4097
▁transport	-10.4103
▁tons	-10.4105
joo	-10.4106
▁tariffs	-10.4106
▁leisure	-10.411
▁Amid	-10.4111
pro	-10.4116
▁revolution	-10.4117
▁bigger	-10.4118
▁turning	-10.4123
▁Temple	-10.4123
▁Real	-10.4125
▁London	-10.4136
▁drivers	-10.4137
▁Big	-10.4137
▁disposal	-10.4143
▁fierce	-10.4162
▁legislation	-10.4162
▁supervision	-10.4162
▁knew	-10.4169
▁carefully	-10.417
~	-10.4187
▁College	-10.4188
point	-10.4191
▁auto	-10.4194
▁Turkey	-10.4195
▁investigated	-10.4202
▁mistake	-10.4205
▁bills	-10.4213
▁helping	-10.4216
▁publicly	-10.4218
▁differences	-10.4222
▁Vietnamese	-10.4228
▁page	-10.4241
▁wasn	-10.4243
ble	-10.4245
▁semester	-10.4247
▁cleaning	-10.4253
▁Engineering	-10.4253
ists	-10.4258
▁residence	-10.426
▁evaluated	-10.4262
▁dishes	-10.4263
rate	-10.4271
▁affect	-10.4273
cha	-10.4279
▁Show	-10.428
▁Spain	-10.4281
▁Senior	-10.4282
▁asset	-10.4284
▁greater	-10.4289
▁gaining	-10.429
▁Bureau	-10.4293
cy	-10.4294
pil	-10.43
▁acts	-10.4302
how	-10.4302
▁Gyeongsangnam	-10.4307
▁municipal	-10.4312
▁Town	-10.4313
▁Hyo	-10.432
▁cards	-10.4321
▁recognize	-10.4323
▁Until	-10.4326
▁originally	-10.4328
▁dispatched	-10.4334
▁king	-10.4335
▁revitalize	-10.4339
▁extreme	-10.4339
▁sources	-10.4344
▁guard	-10.4346
▁voices	-10.4349
▁seeking	-10.4349
▁recruit	-10.4352
▁realized	-10.4358
▁Innovation	-10.436
▁returning	-10.436
▁simply	-10.4366
▁river	-10.4369
tor	-10.4376
▁satisfaction	-10.4377
▁cook	-10.4384
▁deem	-10.4384
ible	-10.4386
▁passenger	-10.4389
▁detected	-10.4391
▁villages	-10.4392
yeong	-10.4394
▁beer	-10.4396
▁comply	-10.4397
ear	-10.4398
▁competent	-10.4402
▁monitor	-10.4405
▁crackdown	-10.4412
▁talked	-10.4414
▁import	-10.4416
▁widely	-10.4418
▁bureau	-10.4419
▁Planning	-10.4419
▁peak	-10.4421
kyu	-10.4423
▁heritage	-10.4426
▁African	-10.4428
▁dismissed	-10.4431
▁bags	-10.4433
▁litigation	-10.4439
▁approach	-10.4444
▁Bar	-10.4444
▁Urban	-10.4447
cho	-10.4451
▁window	-10.4459
▁Declaration	-10.4459
▁relief	-10.4459
king	-10.4461
▁Chi	-10.447
▁Ilbo	-10.4477
Kim	-10.4479
ice	-10.448
▁lease	-10.4483
▁Gangseo	-10.4483
▁replaced	-10.4484
person	-10.4485
▁aging	-10.4492
▁memorial	-10.4493
fu	-10.4493
▁marine	-10.4506
▁citizen	-10.4508
▁securing	-10.4513
nu	-10.4514
▁comfort	-10.4519
ving	-10.4527
▁Malaysia	-10.453
▁Bridge	-10.454
▁flu	-10.4542
▁singing	-10.4546
▁worse	-10.4553
▁invested	-10.4558
▁Plan	-10.4567
▁boat	-10.4567
▁demands	-10.4569
▁Gwang	-10.4569
▁Administrative	-10.4577
▁imported	-10.4579
▁south	-10.458
▁introducing	-10.458
▁Red	-10.4583
den	-10.4584
▁draft	-10.4587
▁pleasant	-10.4587
▁purchasing	-10.4587
▁quantity	-10.4587
▁adjust	-10.4587
▁Citizens	-10.4591
▁category	-10.4594
▁Cheongju	-10.4594
CEO	-10.46
▁capabilities	-10.4601
▁missile	-10.4601
▁steps	-10.4602
▁analyze	-10.4611
▁continuous	-10.4615
▁acquisition	-10.4621
▁exceeded	-10.4636
▁Independence	-10.4642
▁perspective	-10.4642
▁Olympic	-10.4642
▁beat	-10.4642
▁gate	-10.4654
graph	-10.4659
▁whom	-10.4659
▁brands	-10.466
▁refers	-10.4662
▁Attention	-10.4669
▁Strategy	-10.4669
oriented	-10.4669
▁Hwaseong	-10.467
▁bed	-10.4672
▁agriculture	-10.4676
▁requirements	-10.468
▁whenever	-10.4682
▁Disaster	-10.4683
▁replacement	-10.4691
▁la	-10.4696
▁Housing	-10.4697
▁Bong	-10.4704
▁Water	-10.4704
▁principal	-10.4704
▁entrustment	-10.4708
▁Especially	-10.471
▁landscape	-10.471
▁seal	-10.4717
▁Paris	-10.4721
▁shoes	-10.4729
▁thank	-10.4736
chon	-10.4745
▁filming	-10.4745
▁rare	-10.4745
for	-10.4747
▁withdrawal	-10.4748
▁smartphones	-10.4749
▁Q	-10.4754
▁reasonable	-10.4755
▁behalf	-10.4755
▁miss	-10.4758
▁votes	-10.4759
▁centered	-10.4759
▁fighting	-10.4764
▁handling	-10.4768
▁adults	-10.4769
▁consent	-10.4772
ever	-10.4772
▁solid	-10.4773
▁height	-10.478
▁utilize	-10.4796
▁patent	-10.4798
▁Matters	-10.48
▁Gyeongbuk	-10.48
▁traveling	-10.4813
▁plenary	-10.4814
ide	-10.4816
▁Pension	-10.4821
ag	-10.4821
▁uses	-10.4824
▁fruit	-10.4825
▁civilian	-10.4827
▁Another	-10.4835
▁cafe	-10.4839
▁massive	-10.4843
▁railway	-10.4846
▁Regional	-10.4849
▁refused	-10.4854
▁Northern	-10.4855
▁exemption	-10.4864
▁payments	-10.4865
▁Those	-10.4868
▁extend	-10.4872
hun	-10.4875
▁steel	-10.4876
▁empty	-10.4883
▁merchants	-10.4886
▁Mun	-10.4891
▁daycare	-10.4893
▁dogs	-10.4896
cheol	-10.4898
▁feet	-10.4903
▁happiness	-10.4918
▁disappeared	-10.492
▁raw	-10.4922
▁rock	-10.4924
▁England	-10.4932
▁Industries	-10.4932
▁noise	-10.4937
▁applicant	-10.4938
▁die	-10.4939
▁grew	-10.4939
▁dollar	-10.4941
▁Before	-10.4942
▁franchise	-10.4944
▁recover	-10.4945
ff	-10.4953
▁temple	-10.4953
▁Only	-10.4954
▁belonging	-10.4955
▁assembly	-10.4968
▁conclusion	-10.4968
▁discrimination	-10.497
▁upcoming	-10.4971
▁forget	-10.4975
shi	-10.4983
▁streets	-10.4986
▁singers	-10.4998
▁ranking	-10.5
▁remained	-10.5001
ny	-10.5005
▁Experts	-10.501
▁quick	-10.5011
▁Design	-10.5017
▁impose	-10.5021
▁celebrate	-10.5024
▁previously	-10.5024
▁composition	-10.5038
▁adjustment	-10.5044
ite	-10.5047
sook	-10.5048
▁Three	-10.5049
▁unusual	-10.5053
▁wonder	-10.5056
▁keen	-10.506
▁ordinance	-10.506
▁listening	-10.5075
▁Ta	-10.5078
▁wins	-10.5078
▁actress	-10.5085
ual	-10.5087
▁resignation	-10.5096
▁unlike	-10.5097
▁bomb	-10.5102
▁Military	-10.5102
▁communities	-10.5102
▁Jeollanam	-10.5103
▁chose	-10.5106
▁phase	-10.511
▁Officials	-10.511
▁mood	-10.5117
back	-10.5119
pyo	-10.5124
▁friendly	-10.5125
ple	-10.5127
▁freely	-10.5127
▁annually	-10.5129
employed	-10.5131
▁agent	-10.5136
▁Each	-10.514
▁Bio	-10.5142
▁recording	-10.5147
▁north	-10.515
▁faith	-10.5152
making	-10.5155
▁dish	-10.5163
gan	-10.5165
▁faster	-10.5166
▁specified	-10.5167
▁allowances	-10.517
tr	-10.5173
▁demonstration	-10.5177
▁mom	-10.5177
▁Press	-10.518
▁Congress	-10.518
▁respondents	-10.5181
▁leads	-10.5182
▁adult	-10.5192
▁climate	-10.5199
▁Z	-10.5199
▁Koo	-10.5204
▁relation	-10.5207
▁receives	-10.5216
▁curriculum	-10.5217
▁memories	-10.5217
▁dry	-10.5223
▁stood	-10.5225
▁Huawei	-10.5232
▁Intelligence	-10.5232
ach	-10.5235
ions	-10.5239
ley	-10.524
quality	-10.5244
▁yellow	-10.5246
▁worst	-10.5246
▁frequent	-10.5247
ab	-10.526
▁Singer	-10.5261
ea	-10.5262
let	-10.5275
▁Store	-10.5275
▁adopted	-10.5276
▁kilometers	-10.5276
▁stake	-10.5277
▁Home	-10.5283
▁attempt	-10.5284
?"	-10.5285
▁unveiled	-10.5286
like	-10.5289
generation	-10.5296
▁Jongno	-10.5296
▁trends	-10.5303
▁positions	-10.5311
▁awards	-10.5315
▁Good	-10.532
▁Command	-10.5321
▁enable	-10.5328
▁novel	-10.5331
▁attacks	-10.5333
Gun	-10.5333
▁owned	-10.5335
▁staying	-10.5336
▁fit	-10.5338
▁securities	-10.5341
▁usage	-10.5349
▁investments	-10.5351
our	-10.5351
▁succeeded	-10.5353
qui	-10.5355
▁emotional	-10.5356
▁Her	-10.5361
▁Exchange	-10.5363
▁serving	-10.5365
▁provinces	-10.5369
▁command	-10.537
▁smell	-10.5378
▁neighborhood	-10.5378
▁defeat	-10.538
aged	-10.5383
▁thousands	-10.5384
▁succeed	-10.5388
▁dedicated	-10.5392
▁yourself	-10.5394
▁attendance	-10.5402
▁mutati	-10.5407
▁writer	-10.5409
▁underground	-10.5411
▁Head	-10.5414
▁Pe	-10.5415
▁Inter	-10.5415
ui	-10.5417
▁internet	-10.5423
▁teaching	-10.5423
ification	-10.5426
▁minor	-10.5428
▁buyers	-10.5428
ging	-10.5428
▁prove	-10.5433
▁automatically	-10.5437
▁Cooperation	-10.5437
including	-10.5443
▁kimchi	-10.5444
▁Corp	-10.5446
▁El	-10.5448
▁cat	-10.5449
gang	-10.5449
▁closing	-10.5451
▁views	-10.5457
gok	-10.5466
▁mall	-10.5478
▁removed	-10.5486
▁par	-10.5488
▁illegally	-10.5489
▁magazine	-10.5496
▁refer	-10.5498
geun	-10.5505
▁wild	-10.5518
▁towards	-10.5522
▁Fisheries	-10.5526
▁copy	-10.5526
▁EU	-10.5527
▁Dan	-10.5528
cent	-10.5532
▁consensus	-10.5533
▁verification	-10.5533
▁episode	-10.5534
▁sets	-10.5538
▁Indian	-10.5539
mb	-10.5542
▁helps	-10.5542
▁prefer	-10.5547
▁Heritage	-10.5548
▁Valley	-10.5548
").	-10.5552
▁Shinhan	-10.556
▁Residents	-10.5563
▁critical	-10.5567
seon	-10.5581
lic	-10.5581
▁Republican	-10.5582
▁mine	-10.5585
ow	-10.5589
▁compete	-10.5594
jeon	-10.56
▁denied	-10.5601
▁flexible	-10.5601
▁Elementary	-10.5608
▁requests	-10.562
▁Open	-10.5622
▁presence	-10.5623
▁appreciate	-10.5635
▁supplies	-10.5638
▁seminar	-10.5638
▁disclosed	-10.5648
▁smoking	-10.5654
▁fallen	-10.5659
▁restrictions	-10.566
▁struggle	-10.5665
▁Kia	-10.5668
▁admitted	-10.5669
▁freedom	-10.5676
▁Africa	-10.5688
▁regulatory	-10.5693
▁Abe	-10.5695
▁interior	-10.5705
▁PC	-10.5708
▁bodies	-10.5714
▁Starting	-10.5714
▁Force	-10.5716
suk	-10.5717
▁Super	-10.5717
les	-10.5722
▁favorable	-10.5723
▁Hanoi	-10.5729
▁luxury	-10.5737
▁probably	-10.5744
▁Self	-10.5747
▁personality	-10.575
▁spaces	-10.5756
▁Ar	-10.5756
▁repeatedly	-10.5758
▁chosen	-10.5763
car	-10.5766
▁donated	-10.5766
uk	-10.5769
▁Joint	-10.5775
mu	-10.5776
▁Care	-10.5777
▁founded	-10.578
▁thus	-10.5784
▁Mar	-10.5786
pon	-10.5786
▁royal	-10.5798
▁permanent	-10.5799
▁Control	-10.5805
▁guess	-10.5805
▁Gyeongsangbuk	-10.5806
▁wine	-10.5811
ight	-10.5812
▁horse	-10.5813
▁bid	-10.5816
▁strengthened	-10.5821
▁diagnosis	-10.5828
▁UN	-10.5828
book	-10.583
▁portion	-10.5833
▁Buddhist	-10.5836
▁leaves	-10.5837
▁Thanks	-10.5843
▁Analysts	-10.5844
▁crew	-10.5844
▁usual	-10.5847
▁states	-10.5848
▁surprised	-10.5876
ue	-10.588
▁strategic	-10.5882
▁cited	-10.5882
▁Ham	-10.5888
▁collapsed	-10.5888
▁accompanied	-10.589
▁studio	-10.589
▁collecting	-10.5893
par	-10.5896
▁bereaved	-10.5898
▁treat	-10.5899
war	-10.5909
▁Look	-10.5914
▁cells	-10.5918
▁chat	-10.5922
▁institutes	-10.5926
▁keeping	-10.5927
▁strange	-10.593
▁starts	-10.5932
▁counter	-10.5935
Committee	-10.5935
▁subordinate	-10.5937
▁fake	-10.5944
▁proud	-10.5945
▁Who	-10.595
When	-10.5951
▁milk	-10.596
light	-10.5965
▁classified	-10.5969
ure	-10.5972
▁Britain	-10.5976
▁solo	-10.598
▁roof	-10.5983
▁perception	-10.5984
▁Lo	-10.5991
▁voluntary	-10.5992
▁visits	-10.5992
▁tears	-10.5994
▁paintings	-10.5996
▁afraid	-10.5999
▁safely	-10.6002
▁Square	-10.6007
▁Once	-10.601
▁escape	-10.6012
▁opposed	-10.6013
▁peninsula	-10.6015
▁Following	-10.6016
cre	-10.6017
▁begins	-10.6017
▁professors	-10.6019
▁repeated	-10.6022
▁closer	-10.6024
▁violations	-10.6025
▁lifelong	-10.6029
▁logistics	-10.6038
▁disclose	-10.6043
▁deeply	-10.6052
▁Michael	-10.6054
▁Pre	-10.6059
▁signal	-10.6061
▁Italy	-10.6062
▁Iranian	-10.6073
▁argument	-10.6077
▁Forum	-10.6082
▁preventing	-10.6084
▁expertise	-10.6086
▁assistant	-10.6088
bak	-10.609
▁guests	-10.609
▁matches	-10.6092
▁supporters	-10.6092
▁tough	-10.6093
▁cast	-10.6097
▁blow	-10.6097
▁zones	-10.6101
▁commander	-10.6102
▁cancellation	-10.6109
▁opponent	-10.612
▁pursue	-10.6122
▁channels	-10.6122
▁supplied	-10.6125
▁hidden	-10.6125
au	-10.613
▁subcommittee	-10.6133
gg	-10.6137
▁Rural	-10.6149
▁audiences	-10.615
▁thoughts	-10.6152
eo	-10.6157
▁Gun	-10.6164
▁controversial	-10.6164
guk	-10.6165
ries	-10.6183
▁withdraw	-10.6189
▁shareholder	-10.6193
▁graduate	-10.6198
▁phones	-10.62
▁solar	-10.621
▁Leader	-10.6212
▁formation	-10.6213
yo	-10.6226
▁studied	-10.6228
▁Living	-10.6229
▁smoothly	-10.6229
gye	-10.6234
▁manipulation	-10.6236
▁supposed	-10.6237
▁cup	-10.6237
▁Songpa	-10.6239
▁Ni	-10.6242
▁struggling	-10.6244
▁Girls	-10.6244
▁clubs	-10.6245
▁Mike	-10.6256
▁truck	-10.6258
▁steadily	-10.626
▁Southeast	-10.6262
hak	-10.6262
▁Dream	-10.6263
▁managers	-10.6265
▁mutandis	-10.6268
▁voluntarily	-10.6276
right	-10.6287
▁accumulated	-10.6287
▁expense	-10.6298
▁length	-10.6299
▁harassment	-10.63
▁uncomfortable	-10.63
form	-10.6306
Ma	-10.6308
▁Post	-10.6313
▁Twitter	-10.6316
▁messages	-10.6332
wan	-10.6334
▁momentum	-10.6335
▁battery	-10.6344
▁anxiety	-10.6349
▁governed	-10.635
▁Ltd	-10.6357
▁workshop	-10.6358
▁Bucheon	-10.6358
▁diet	-10.6362
▁tend	-10.6363
▁assist	-10.6368
profit	-10.6371
▁Myanmar	-10.6373
▁consult	-10.6375
▁Mapo	-10.6378
▁Naver	-10.6379
▁bicycle	-10.6381
▁Entertainment	-10.6381
▁restoration	-10.6381
▁Prize	-10.6381
j	-10.6382
▁fundamental	-10.6383
bok	-10.6384
▁gun	-10.6386
▁purposes	-10.6387
▁evaluate	-10.6387
▁autumn	-10.6389
▁violating	-10.6389
▁aims	-10.6391
▁Does	-10.6395
▁absence	-10.6397
▁refugees	-10.6411
▁ambassador	-10.6414
▁martial	-10.6414
▁Which	-10.6414
▁Election	-10.6414
▁minimize	-10.6415
lar	-10.6417
▁identify	-10.6418
▁Amazon	-10.643
▁implementing	-10.643
▁Chan	-10.644
▁seriously	-10.6459
▁particularly	-10.646
▁Gwanak	-10.6463
wing	-10.6464
▁certified	-10.6465
tain	-10.6469
▁accommodation	-10.6471
▁outcome	-10.6477
▁exit	-10.6483
work	-10.6485
▁resulting	-10.6486
▁valuable	-10.6487
yu	-10.6499
▁employed	-10.6499
▁KBS	-10.6505
room	-10.6505
▁leg	-10.6505
My	-10.6509
rae	-10.6511
▁Maritime	-10.6512
hae	-10.6515
▁sensitive	-10.6517
▁feels	-10.6519
ub	-10.6519
▁Hyung	-10.652
▁al	-10.6522
▁glass	-10.6526
hy	-10.6527
▁intellectual	-10.6528
▁row	-10.6529
▁appoint	-10.6536
▁subscription	-10.6537
▁Deliberation	-10.6537
▁Doosan	-10.6538
▁earth	-10.6539
▁maintaining	-10.6545
▁settled	-10.6546
▁institutional	-10.655
▁kick	-10.655
▁alliance	-10.6553
▁neighbors	-10.6554
▁error	-10.6555
▁soup	-10.6571
▁inspections	-10.6572
▁citing	-10.6578
▁Black	-10.6578
▁warned	-10.6582
▁factories	-10.6587
▁piece	-10.6599
▁im	-10.66
▁Israel	-10.6606
▁Galaxy	-10.6607
▁dreams	-10.6608
▁stick	-10.6611
▁routes	-10.6614
▁uniform	-10.6614
▁Hana	-10.6616
shaped	-10.6617
▁cake	-10.6622
▁willingness	-10.6629
▁hate	-10.6632
▁achievements	-10.6632
pen	-10.6633
▁danger	-10.6653
▁anymore	-10.6655
▁guest	-10.6657
▁issuance	-10.6659
od	-10.6663
Z	-10.6665
▁bond	-10.6667
cm	-10.6669
▁angry	-10.667
▁pork	-10.667
▁displayed	-10.6684
▁customs	-10.6691
▁Next	-10.6698
▁ships	-10.6701
ze	-10.6702
▁holds	-10.6712
▁ones	-10.6717
▁multicultural	-10.6717
▁Sewol	-10.672
▁radio	-10.6723
▁earnings	-10.6725
gon	-10.6727
▁shock	-10.6736
▁livelihood	-10.6737
▁workplace	-10.6747
▁indoor	-10.6749
▁thoroughly	-10.6751
▁Future	-10.6752
▁delegation	-10.6753
▁east	-10.6755
▁Australian	-10.676
▁anger	-10.6762
meter	-10.6763
▁situations	-10.6765
▁selecting	-10.6766
▁feasibility	-10.677
▁inspect	-10.6777
▁facts	-10.6782
▁engineering	-10.6786
gra	-10.6787
rn	-10.6789
▁producing	-10.6791
▁Investigation	-10.6793
▁aired	-10.6802
▁pieces	-10.6802
▁Competition	-10.6804
▁western	-10.6804
bal	-10.6813
▁attorney	-10.6813
▁percentage	-10.6816
▁insisted	-10.6819
▁California	-10.683
▁swimming	-10.683
▁larger	-10.6833
▁Tour	-10.6837
▁Branch	-10.6838
No	-10.6846
▁granted	-10.6846
▁mandatory	-10.6847
eng	-10.6847
▁Jeonju	-10.6849
ip	-10.685
Q	-10.6853
▁junior	-10.6855
chang	-10.6865
os	-10.6865
▁supports	-10.6866
ye	-10.687
▁sufficient	-10.6872
▁strategies	-10.6881
▁Audit	-10.6883
▁confident	-10.6889
▁incumbent	-10.6889
▁winners	-10.6893
med	-10.6896
▁subsidiary	-10.6898
month	-10.6901
▁west	-10.6905
▁regarded	-10.6917
▁imports	-10.6919
▁enjoying	-10.692
▁solved	-10.6923
▁sauce	-10.6924
▁informed	-10.6924
▁Pastor	-10.693
▁clothing	-10.6931
%.	-10.6931
▁invoice	-10.6932
▁convention	-10.6941
▁Songdo	-10.6945
uring	-10.6957
▁Bi	-10.6957
▁garbage	-10.6958
▁Awards	-10.6968
▁link	-10.6977
▁arranged	-10.698
board	-10.6982
▁recession	-10.6984
▁resume	-10.6991
Park	-10.6992
▁harmony	-10.6992
▁inauguration	-10.6992
▁rebound	-10.6993
▁joy	-10.6996
▁contain	-10.6998
▁Asiana	-10.6999
oc	-10.6999
▁Club	-10.7001
▁Job	-10.7009
▁festivals	-10.701
▁deficit	-10.7018
▁Here	-10.7019
▁assistance	-10.7019
▁missed	-10.7025
▁Yeo	-10.7026
▁guilty	-10.7028
mate	-10.7029
Constitutional	-10.7034
▁Conference	-10.7044
▁Judge	-10.7044
▁statue	-10.7044
▁sitting	-10.7046
▁hometown	-10.7046
▁honorary	-10.7047
▁earned	-10.7047
pre	-10.7048
bang	-10.7052
▁iron	-10.7053
▁Gen	-10.7055
▁spicy	-10.7062
▁Gwangjin	-10.7064
▁robot	-10.7065
▁origin	-10.7066
▁boyfriend	-10.7066
▁Any	-10.7066
▁theory	-10.7067
row	-10.7072
▁intended	-10.7073
▁Commerce	-10.7079
▁cream	-10.7079
▁Like	-10.708
▁democracy	-10.7086
▁Clinton	-10.7088
▁satisfied	-10.7088
▁girlfriend	-10.7089
▁Chae	-10.7096
▁Summit	-10.7096
▁harmful	-10.7097
▁disasters	-10.71
▁countermeasures	-10.7102
▁beach	-10.7103
▁tall	-10.7116
▁founder	-10.7122
▁provision	-10.7122
▁``	-10.7123
arious	-10.7123
▁assaulted	-10.7125
▁carbon	-10.7125
▁Every	-10.7125
▁weapon	-10.7126
▁promising	-10.7131
▁MBC	-10.7132
▁Area	-10.7133
ned	-10.7133
▁generations	-10.7138
▁parent	-10.714
▁dementia	-10.714
▁superior	-10.714
▁timing	-10.714
▁Airlines	-10.714
▁lowered	-10.7156
▁risen	-10.7157
▁accurate	-10.716
▁sp	-10.7162
▁exactly	-10.7162
▁Seon	-10.7163
▁Jakarta	-10.7166
▁crowd	-10.7172
iv	-10.7173
▁championship	-10.7175
▁funding	-10.7176
▁Ok	-10.7184
▁faced	-10.7189
▁Sha	-10.7189
▁stream	-10.7189
%),	-10.719
▁welcome	-10.7191
ray	-10.7197
▁note	-10.7201
sha	-10.7204
▁passion	-10.7206
▁slowdown	-10.7211
▁shortly	-10.7211
ix	-10.7213
▁posting	-10.7215
▁kitchen	-10.7219
▁pool	-10.722
▁Chosun	-10.7221
▁Resources	-10.7222
▁startups	-10.7229
▁Geum	-10.7238
▁showcase	-10.7238
ger	-10.7242
▁processed	-10.7244
▁formal	-10.7247
▁allowance	-10.7262
▁disputes	-10.7262
▁Coast	-10.7264
▁Theater	-10.7264
▁sixth	-10.7268
ku	-10.7273
▁arm	-10.7273
mar	-10.7273
▁somewhat	-10.7281
▁balanced	-10.7283
▁cutting	-10.7285
▁Gov	-10.7293
▁waves	-10.7295
▁Training	-10.7295
▁CCTV	-10.7296
▁bread	-10.7299
▁Exhibition	-10.7308
▁Spanish	-10.7308
▁joining	-10.7311
▁risks	-10.732
▁micro	-10.7321
ified	-10.7325
▁Major	-10.7326
▁fails	-10.7328
▁offers	-10.7328
chun	-10.733
family	-10.7331
▁precious	-10.7335
▁Wang	-10.7336
▁kids	-10.7339
▁generated	-10.7342
▁surprise	-10.7342
▁threat	-10.7344
▁answers	-10.735
▁Goryeo	-10.7352
▁impression	-10.7353
▁Protection	-10.7362
▁software	-10.7362
▁sexually	-10.7366
ern	-10.7367
▁primary	-10.7371
▁practices	-10.7375
▁effectively	-10.7378
AR	-10.7387
▁dress	-10.7387
▁Framework	-10.7397
▁folk	-10.7397
about	-10.7405
▁Kookmin	-10.7415
▁thorough	-10.7418
▁membership	-10.742
Chairman	-10.7422
ile	-10.7423
▁limitations	-10.7429
act	-10.7429
over	-10.7429
▁cap	-10.7433
▁stayed	-10.7433
▁Meanwhile	-10.7433
▁POSCO	-10.7433
To	-10.7434
▁stronger	-10.7435
▁Consumer	-10.7437
ery	-10.7439
ik	-10.744
▁Card	-10.7459
▁Uzbekistan	-10.7465
▁expiration	-10.7479
▁colonial	-10.7479
▁client	-10.7488
ig	-10.749
▁engage	-10.7494
President	-10.7496
▁Okay	-10.7497
▁cable	-10.75
gyu	-10.7504
▁humans	-10.7507
▁Environmental	-10.7508
▁typical	-10.7515
“	-10.7516
▁ma	-10.7517
▁symbol	-10.752
ren	-10.752
▁insufficient	-10.7531
lim	-10.7532
▁abundant	-10.7533
▁Chungnam	-10.7536
▁destroyed	-10.7541
▁Will	-10.7542
▁curious	-10.7542
▁Eui	-10.7545
▁partially	-10.7546
▁Winter	-10.7552
▁circles	-10.7554
buk	-10.7561
ium	-10.7565
▁́s	-10.757
▁suspend	-10.7576
▁beef	-10.7579
▁flood	-10.7583
▁vegetables	-10.7587
▁stamp	-10.7588
▁speculation	-10.7589
▁calm	-10.7591
▁temporarily	-10.7606
▁Or	-10.7607
▁demanding	-10.7615
▁utilizing	-10.7616
▁temperatures	-10.762
▁exhibitions	-10.7625
▁advertisement	-10.7628
▁tension	-10.7629
▁reviewing	-10.7632
▁reveal	-10.7632
▁cycle	-10.7634
▁literature	-10.7634
▁statements	-10.7649
▁breaking	-10.7651
▁settle	-10.7653
face	-10.7654
▁cloud	-10.7659
▁separated	-10.7665
▁comp	-10.7667
You	-10.7668
▁answered	-10.7672
▁Members	-10.7673
▁unexpected	-10.7674
kg	-10.7682
▁dealing	-10.7693
sam	-10.7696
▁shoot	-10.7697
▁Federal	-10.7699
▁collaboration	-10.7699
▁Los	-10.7705
ev	-10.7709
Presidential	-10.7712
▁indicators	-10.7719
▁Great	-10.7723
ser	-10.7725
▁restore	-10.7726
▁Thai	-10.7727
▁pace	-10.7728
General	-10.7729
▁passage	-10.773
▁UK	-10.7733
▁Guro	-10.7733
▁speaking	-10.7736
▁cr	-10.774
▁glad	-10.7745
▁tradition	-10.775
▁volunteers	-10.7751
▁concrete	-10.7754
▁violated	-10.7755
▁manpower	-10.7755
▁fulfill	-10.7761
art	-10.7763
kyun	-10.7767
▁boss	-10.777
▁Lake	-10.7773
▁Cooperative	-10.7773
▁constantly	-10.7778
▁strict	-10.778
za	-10.778
▁ill	-10.7786
▁preference	-10.7792
▁marks	-10.7797
▁marked	-10.78
▁preservation	-10.7801
▁option	-10.7805
▁panel	-10.7808
▁otherwise	-10.781
▁scores	-10.7813
▁guardian	-10.7814
▁ID	-10.7815
▁teach	-10.7819
▁Shanghai	-10.782
▁officio	-10.782
▁Jeonnam	-10.7821
▁Revolution	-10.7822
▁assigned	-10.7824
▁scholarship	-10.7826
▁belt	-10.783
▁visual	-10.7832
▁fires	-10.7832
▁ferry	-10.7839
▁cargo	-10.7847
▁expressing	-10.785
▁reserve	-10.7851
▁aim	-10.7852
▁tuition	-10.7857
ep	-10.7863
▁manual	-10.7869
lan	-10.7871
▁abandoned	-10.7871
▁ministries	-10.7876
▁intense	-10.7876
▁claiming	-10.7876
dan	-10.7877
▁Given	-10.7878
▁Unions	-10.7878
▁excluding	-10.7878
▁calculation	-10.7886
▁signature	-10.7886
▁shipment	-10.7887
▁immediate	-10.7888
▁patrol	-10.7895
▁shut	-10.7896
▁considerable	-10.7899
▁parliament	-10.7903
pyeong	-10.7904
▁pen	-10.791
▁artistic	-10.7912
▁Uijeongbu	-10.7914
▁Lunar	-10.7924
▁exist	-10.793
▁hire	-10.7932
▁intensive	-10.7933
▁pack	-10.7934
▁letters	-10.7935
▁flat	-10.7935
▁Gimpo	-10.7942
▁resort	-10.7942
▁correction	-10.7945
ious	-10.7947
▁Web	-10.795
▁donations	-10.7951
▁Buk	-10.7954
▁cheap	-10.7956
▁Both	-10.7956
tter	-10.7958
▁deaths	-10.7959
▁systematic	-10.7963
▁Heavy	-10.7971
▁academy	-10.7971
▁pitcher	-10.7972
▁Pi	-10.7975
▁Wall	-10.7978
▁Ru	-10.7981
▁reflecting	-10.7987
▁subscribers	-10.7989
▁smaller	-10.7999
▁metal	-10.8012
▁server	-10.8013
▁Fa	-10.8013
▁pastor	-10.8015
▁pledge	-10.8017
fledged	-10.8019
▁emotions	-10.802
▁Camp	-10.802
▁doctors	-10.8024
▁impressive	-10.8028
▁unemployment	-10.8029
▁fail	-10.8041
▁contained	-10.8042
▁attempted	-10.8044
▁observation	-10.8047
▁chair	-10.8049
▁secondary	-10.8061
ise	-10.8062
▁Transportation	-10.8063
▁consultations	-10.8064
▁manufacturers	-10.8068
minute	-10.8076
▁disposition	-10.8077
▁easing	-10.8082
▁kill	-10.8083
▁restricted	-10.8088
▁earn	-10.8093
hop	-10.8101
▁fat	-10.8105
▁fostering	-10.8105
▁rival	-10.8105
▁relocation	-10.8106
▁boom	-10.8108
▁wood	-10.8111
▁motor	-10.8115
▁interpretation	-10.8116
▁operates	-10.8116
▁flavor	-10.8121
▁Contest	-10.8125
▁Building	-10.8134
▁pregnant	-10.8134
▁apology	-10.8134
▁reviewed	-10.815
▁Football	-10.8153
▁En	-10.816
▁sustainable	-10.8163
▁noodles	-10.8166
dis	-10.8166
▁Yo	-10.8167
▁collective	-10.8169
▁expectation	-10.817
▁harm	-10.817
▁pending	-10.8173
▁hole	-10.8176
range	-10.818
▁hearts	-10.818
▁terminal	-10.8183
▁stages	-10.8184
ants	-10.8185
▁winds	-10.8188
▁attraction	-10.8188
▁rumors	-10.8192
ryong	-10.8194
▁bi	-10.8196
▁heating	-10.8198
▁Meeting	-10.8202
▁faces	-10.8212
▁Hello	-10.8212
hyuk	-10.8214
▁Except	-10.8224
▁telephone	-10.8231
▁politicians	-10.8235
▁violate	-10.824
▁Gangdong	-10.8244
▁objection	-10.8246
▁advertisements	-10.8248
Fi	-10.8249
▁Authority	-10.8251
▁tight	-10.8252
▁Deok	-10.8254
▁Over	-10.8258
▁recall	-10.8259
pan	-10.8259
▁deceased	-10.8261
▁species	-10.8261
▁desk	-10.8261
▁attractions	-10.8269
▁analyzing	-10.827
▁soil	-10.8272
▁nomination	-10.8274
▁coal	-10.8275
▁discharge	-10.828
▁Drug	-10.828
▁Instead	-10.8283
▁ultra	-10.829
▁solutions	-10.8296
▁publication	-10.8299
▁reviews	-10.8299
▁Arabia	-10.83
▁Doo	-10.8304
▁colorful	-10.8306
▁Ui	-10.8313
▁fare	-10.8316
▁booked	-10.8317
▁opposite	-10.832
▁targets	-10.8322
▁Class	-10.8324
▁walls	-10.8326
▁Ambassador	-10.8329
story	-10.8338
▁titled	-10.8338
▁reference	-10.834
rang	-10.8343
▁witness	-10.8344
▁qualification	-10.8344
▁achievement	-10.8348
port	-10.8348
▁dispatch	-10.8357
▁crack	-10.8357
▁hub	-10.8359
▁affiliates	-10.836
▁thick	-10.8368
▁Com	-10.8368
▁equity	-10.8369
▁Gyeongju	-10.8371
▁revise	-10.8378
tle	-10.8382
▁Woori	-10.8386
▁Library	-10.8389
▁Nations	-10.8389
ek	-10.8389
ram	-10.8391
▁analysts	-10.84
▁girls	-10.8409
▁detention	-10.8409
_	-10.8409
ably	-10.841
▁tariff	-10.8415
▁belief	-10.8419
▁furniture	-10.8419
▁interviews	-10.8421
▁crowded	-10.8423
▁frame	-10.8429
▁injuries	-10.8429
▁Byeong	-10.843
▁calculated	-10.8434
general	-10.8434
▁preferential	-10.8442
ged	-10.8445
▁adapt	-10.8447
▁restructuring	-10.8449
▁virtual	-10.8452
▁lights	-10.8454
ward	-10.8461
▁Students	-10.8462
Japan	-10.8464
▁turns	-10.8466
▁nations	-10.8467
▁equal	-10.8468
▁Period	-10.8469
▁attractive	-10.8471
chu	-10.8478
val	-10.8479
)"	-10.848
▁‘	-10.8484
ham	-10.8486
▁Ne	-10.8486
▁psychological	-10.8489
▁ministers	-10.8496
▁correspondent	-10.8499
▁incentives	-10.8499
▁ring	-10.85
made	-10.8502
Japanese	-10.8505
Ho	-10.8509
▁confrontation	-10.8509
governing	-10.8511
beom	-10.8516
▁Jinju	-10.8518
▁fever	-10.852
▁Officer	-10.8521
▁disappear	-10.8526
▁Lawmaker	-10.8529
▁characterized	-10.8531
▁Four	-10.8532
▁Daily	-10.8532
▁Prosecutor	-10.8537
▁extraordinary	-10.8539
field	-10.8544
▁promotional	-10.8548
▁legislative	-10.8549
▁happens	-10.8554
tal	-10.8555
▁Ya	-10.8561
▁graduates	-10.8564
▁Private	-10.8568
▁talented	-10.8571
▁scenes	-10.8573
▁prayer	-10.8573
▁nursing	-10.8579
▁Yeosu	-10.8587
▁apologize	-10.8589
▁hired	-10.859
management	-10.8597
▁excited	-10.8599
▁revitalization	-10.8599
▁solving	-10.8605
Since	-10.8608
▁monetary	-10.861
▁violent	-10.861
▁entity	-10.861
▁chain	-10.861
▁churches	-10.8612
sol	-10.8612
ranking	-10.8618
▁Prevention	-10.862
ps	-10.862
▁childbirth	-10.862
▁seniors	-10.8621
▁equality	-10.8633
▁Har	-10.8633
▁CJ	-10.8634
finding	-10.8639
▁departure	-10.864
▁Daewoo	-10.864
▁reflects	-10.8643
pping	-10.8648
▁Per	-10.8652
▁greeting	-10.8661
▁poll	-10.8669
▁grandmother	-10.8671
▁television	-10.8671
▁confusion	-10.8681
▁nervous	-10.8681
▁Heo	-10.8685
▁pet	-10.8687
▁everyday	-10.869
▁Property	-10.8691
▁passport	-10.8692
▁cute	-10.8698
▁Iraqi	-10.8699
▁stepped	-10.8703
▁hat	-10.8703
▁ratings	-10.8704
▁certificates	-10.8706
▁native	-10.8712
▁Jeonbuk	-10.8712
▁reconstruction	-10.8713
▁sponsored	-10.8713
▁fines	-10.8717
▁hitting	-10.8718
▁clinic	-10.8723
▁resource	-10.8723
▁dismissal	-10.8725
▁objective	-10.8727
▁notification	-10.8727
▁alley	-10.8731
▁neck	-10.8732
▁CD	-10.8739
▁Catholic	-10.8742
▁unknown	-10.8744
▁wastes	-10.8745
▁voters	-10.8745
fo	-10.8746
▁object	-10.8748
▁explains	-10.8751
cal	-10.8752
▁helpful	-10.8755
▁threatened	-10.8759
▁ancient	-10.8762
▁Brexit	-10.8763
▁Democracy	-10.8773
▁scenery	-10.8779
▁Turkish	-10.8784
▁Plaza	-10.8784
▁hopes	-10.8791
▁Bible	-10.8798
▁Test	-10.8804
▁wooden	-10.8806
▁arms	-10.8808
▁worship	-10.8815
▁pride	-10.8815
▁makeup	-10.8816
▁classroom	-10.8817
▁Sen	-10.8817
rin	-10.8818
ker	-10.8825
▁Persons	-10.8826
▁targeting	-10.8833
▁suggest	-10.8835
▁Establishment	-10.8836
rt	-10.8843
▁parks	-10.8844
nce	-10.8844
▁partnership	-10.8846
▁generally	-10.8848
▁Gumi	-10.8854
▁numbers	-10.8857
▁Game	-10.886
▁Book	-10.887
▁corresponding	-10.8873
▁declined	-10.8874
▁button	-10.8877
ura	-10.888
all	-10.8887
ill	-10.8889
▁acquired	-10.8895
bum	-10.8898
▁equivalent	-10.8898
▁Expressway	-10.8898
▁Nak	-10.8899
dle	-10.8902
▁utilization	-10.8908
▁bringing	-10.8914
▁leak	-10.8917
▁Christ	-10.8917
▁Dongdaemun	-10.8919
▁samples	-10.8921
Although	-10.8922
▁investigations	-10.8923
▁rear	-10.8924
▁transition	-10.8926
▁existence	-10.893
▁visa	-10.8931
▁Angeles	-10.8931
▁highway	-10.8932
chairperson	-10.8933
▁headed	-10.8934
▁pray	-10.8937
▁explosion	-10.894
▁sought	-10.894
member	-10.894
elecommunication	-10.8947
▁savings	-10.8948
▁Panmunjom	-10.895
▁distribute	-10.895
▁Guard	-10.8952
▁rehabilitation	-10.8961
▁knee	-10.8961
▁inning	-10.8969
▁organic	-10.8971
▁curiosity	-10.8971
▁FSS	-10.8971
▁semi	-10.8973
neighboring	-10.8974
▁moves	-10.8978
▁homepage	-10.8983
▁iPhone	-10.8992
▁shelter	-10.8992
▁te	-10.8996
▁peaceful	-10.8997
▁David	-10.8999
▁Smart	-10.9004
▁constructed	-10.9008
▁described	-10.9009
▁swing	-10.9017
▁reaction	-10.9021
▁Sweden	-10.9035
▁label	-10.9035
▁consultati	-10.9036
▁charging	-10.9038
▁estimate	-10.9041
▁chemical	-10.9045
▁Ocean	-10.9045
▁sleeping	-10.9045
▁complicated	-10.9046
▁largely	-10.9047
▁Regulations	-10.9047
bit	-10.9048
▁FC	-10.9048
▁unions	-10.9053
▁merit	-10.9056
▁stands	-10.9061
▁Reform	-10.9061
▁automobile	-10.9063
▁switch	-10.9066
▁tank	-10.9066
▁breakfast	-10.9067
▁Interior	-10.9069
▁Above	-10.9077
▁constitutional	-10.9084
▁Chungcheongnam	-10.9089
ration	-10.9089
▁cheering	-10.9092
▁instructors	-10.9093
▁root	-10.9093
▁lawyers	-10.9095
▁advisory	-10.9103
ov	-10.9107
▁Embassy	-10.9109
▁renewable	-10.9109
▁friendship	-10.9111
pr	-10.9113
gar	-10.9116
tch	-10.9127
Act	-10.9129
ces	-10.9129
▁SBS	-10.913
▁anywhere	-10.9131
▁defendant	-10.9132
▁phrase	-10.9141
▁couples	-10.9146
▁moon	-10.9152
▁casualties	-10.9152
▁bathroom	-10.9152
▁banned	-10.9152
ana	-10.9155
▁Pakistan	-10.9157
▁Wan	-10.9157
▁movements	-10.916
▁circle	-10.916
▁pharmaceutical	-10.916
clock	-10.9161
tation	-10.9162
▁celebrities	-10.9162
▁survival	-10.9162
maker	-10.9163
▁quit	-10.9168
▁guaranteed	-10.9169
lie	-10.9176
known	-10.9179
▁reaching	-10.9179
▁storm	-10.9185
priced	-10.9194
▁sweat	-10.9195
▁sing	-10.9199
▁virtually	-10.9202
▁edge	-10.9211
sin	-10.9216
▁Pay	-10.9223
▁Official	-10.9226
▁arrival	-10.9227
▁graduation	-10.9227
▁basketball	-10.9227
▁succession	-10.9232
▁ha	-10.9234
▁Memorial	-10.9238
▁Robert	-10.9238
▁Gang	-10.924
▁Confederation	-10.9249
▁Actress	-10.9249
▁BMW	-10.9249
▁sheet	-10.9253
night	-10.9255
▁judiciary	-10.9259
▁extremely	-10.9259
ino	-10.9264
▁unlikely	-10.9269
▁Earth	-10.927
▁realistic	-10.9273
▁GM	-10.9273
pt	-10.928
▁Pacific	-10.9283
▁lie	-10.9288
▁chances	-10.9291
▁installing	-10.9292
▁Budget	-10.9292
don	-10.9292
▁Network	-10.9292
▁App	-10.9294
CC	-10.9297
▁liked	-10.93
▁numerous	-10.9303
▁tower	-10.931
net	-10.9312
▁Cabinet	-10.9314
▁Agreement	-10.9314
▁removal	-10.9314
▁pattern	-10.9314
▁fired	-10.932
▁finals	-10.9321
▁saved	-10.9328
▁feed	-10.9329
▁tied	-10.9333
▁margin	-10.9335
▁slump	-10.9336
▁retail	-10.9341
▁plate	-10.9342
school	-10.9345
▁protests	-10.9346
▁adjusted	-10.9347
ob	-10.9349
▁elements	-10.935
cut	-10.9352
har	-10.9355
▁Celsius	-10.9357
▁mini	-10.9359
▁shortage	-10.9366
▁Anyang	-10.9367
▁Tong	-10.9367
▁accounted	-10.9368
▁normally	-10.9375
air	-10.9377
▁producer	-10.9379
▁Convention	-10.9379
▁Inspection	-10.9379
▁po	-10.9379
▁bo	-10.9384
▁gifts	-10.9385
dam	-10.939
▁destruction	-10.939
▁coalition	-10.9391
▁portal	-10.94
▁Hollywood	-10.9401
▁Yeongdeungpo	-10.9401
▁harvest	-10.9401
▁Work	-10.941
▁remind	-10.9411
▁Studies	-10.9412
De	-10.9415
▁transparent	-10.9423
▁pure	-10.9427
▁jumped	-10.9433
▁occupation	-10.9441
oh	-10.9444
▁Bay	-10.9444
▁chronic	-10.9445
▁quiet	-10.945
▁picked	-10.9454
¡	-10.9456
▁auction	-10.9456
sen	-10.9457
heung	-10.9461
▁banking	-10.9463
▁democratic	-10.9471
▁praised	-10.9475
CO	-10.9478
▁Reuters	-10.9478
▁Cheol	-10.9479
▁translation	-10.9489
▁web	-10.9491
gyo	-10.9491
▁startup	-10.9493
TV	-10.9495
public	-10.9498
▁Review	-10.9501
▁finishing	-10.9504
▁mode	-10.9505
▁Cheon	-10.9507
▁exceeding	-10.9509
▁adopt	-10.9509
▁experiencing	-10.9512
▁proposals	-10.9512
▁Tower	-10.9513
▁Indonesian	-10.952
▁launching	-10.952
▁chart	-10.9521
election	-10.9522
▁hoped	-10.9525
▁Hanjin	-10.9526
cor	-10.9527
▁outbreak	-10.9528
▁Mongolia	-10.9531
▁permit	-10.955
▁knowing	-10.9553
▁federal	-10.9556
▁loud	-10.9556
▁reign	-10.9559
▁refugee	-10.956
▁genre	-10.9561
▁tip	-10.9565
▁Hill	-10.9572
▁bottle	-10.9583
lecommunications	-10.9583
▁Paul	-10.9585
▁eastern	-10.959
▁discussing	-10.9594
▁observed	-10.9598
▁talents	-10.9605
▁gene	-10.9606
▁resistance	-10.9612
▁Joong	-10.9625
▁connecting	-10.9627
▁posts	-10.9628
▁partners	-10.9629
▁math	-10.9643
place	-10.965
▁exchanged	-10.9651
▁mask	-10.9652
▁Che	-10.9652
▁representing	-10.9653
▁ending	-10.9654
▁restrict	-10.9655
▁branches	-10.9657
▁resign	-10.9657
▁diagnosed	-10.9662
▁throw	-10.9668
top	-10.9671
▁Forces	-10.9676
▁captured	-10.9678
▁noted	-10.968
▁container	-10.9681
▁buried	-10.9691
ded	-10.9694
OS	-10.9698
▁scientific	-10.9702
▁convergence	-10.9702
▁split	-10.9702
ox	-10.9703
▁worldwide	-10.9705
▁progressive	-10.9707
▁Fe	-10.9709
▁integration	-10.9713
▁unclear	-10.9714
▁airline	-10.9715
▁indicted	-10.9716
▁Compar	-10.9717
wo	-10.9723
▁Emergency	-10.9725
▁fix	-10.9727
▁Seodaemun	-10.9736
▁supervisor	-10.9742
▁passes	-10.9748
▁nor	-10.9752
▁commitment	-10.976
▁Hope	-10.9765
tel	-10.9768
rk	-10.9768
▁Credit	-10.977
▁cheaper	-10.9777
my	-10.9781
▁clerk	-10.9782
▁...	-10.9783
▁spoke	-10.979
▁Articles	-10.979
▁wire	-10.9791
▁visible	-10.9805
▁Rather	-10.9805
▁Kenya	-10.9805
ey	-10.9823
▁advised	-10.9824
▁Instagram	-10.9827
▁governance	-10.9828
▁involvement	-10.9828
▁Gong	-10.9839
▁Talk	-10.9839
ina	-10.9841
uck	-10.9842
▁useful	-10.9844
▁remote	-10.985
▁mountains	-10.9853
hong	-10.9854
road	-10.9858
▁suggests	-10.9859
▁riding	-10.9866
▁Communication	-10.9871
▁lifted	-10.9873
▁explore	-10.9873
ral	-10.9874
▁feared	-10.9876
▁pursued	-10.9877
▁finalized	-10.9883
▁Italian	-10.9885
bb	-10.9886
▁directed	-10.9887
▁explosive	-10.9896
▁initiative	-10.9896
▁tonight	-10.9899
▁fly	-10.9901
▁offline	-10.9906
▁regularly	-10.9908
▁resulted	-10.9909
▁Child	-10.9911
▁sum	-10.9919
▁Candidate	-10.992
▁libraries	-10.992
▁seizure	-10.992
▁Gender	-10.9921
▁playground	-10.9921
▁Asset	-10.9926
▁steady	-10.9931
▁Palace	-10.9931
▁Media	-10.9932
▁leaked	-10.9933
▁slowly	-10.9933
▁vi	-10.9934
len	-10.9941
▁heated	-10.9941
imp	-10.9941
poli	-10.9963
fin	-10.9968
▁DMZ	-10.9974
▁poster	-10.9975
▁impeachment	-10.9978
▁Second	-10.9981
▁ties	-10.9983
▁identification	-10.9989
▁booth	-10.999
▁legs	-10.999
▁quarters	-10.9998
▁immigration	-11.0004
▁relatives	-11.0013
▁nominee	-11.0013
▁philosophy	-11.0013
▁ritual	-11.0013
▁survive	-11.0014
▁seekers	-11.0019
▁rainy	-11.0025
▁semiconductors	-11.003
▁liberal	-11.003
▁telling	-11.0035
▁amazing	-11.0036
▁Techno	-11.0037
▁sand	-11.0039
▁footage	-11.005
▁convey	-11.0057
hyung	-11.006
▁ownership	-11.0061
ens	-11.0065
▁responses	-11.0067
▁Pal	-11.0067
Mo	-11.0069
▁illness	-11.007
▁silver	-11.0071
▁thousand	-11.0072
▁personally	-11.0075
▁boxes	-11.0081
▁worsening	-11.0083
▁laugh	-11.0085
▁verify	-11.0086
▁merger	-11.0086
cc	-11.0089
▁immigrants	-11.0092
▁Canadian	-11.0095
▁stomach	-11.0095
▁heatwave	-11.0095
▁celebration	-11.0096
▁conclude	-11.0096
▁listing	-11.0098
▁constant	-11.01
▁exception	-11.0102
▁ledger	-11.0109
▁mention	-11.0112
▁tens	-11.0113
▁Pan	-11.0118
▁Capital	-11.0118
▁autonomy	-11.0118
▁jail	-11.0118
▁Senate	-11.0119
TE	-11.0121
▁separation	-11.013
▁infants	-11.0142
▁outlook	-11.0142
▁principles	-11.0143
tting	-11.0149
`	-11.0154
▁Kingdom	-11.0154
▁infection	-11.0154
▁Program	-11.0154
bearing	-11.0154
▁Southern	-11.0159
▁speaker	-11.0161
▁fewer	-11.0165
▁FTC	-11.0166
▁seventh	-11.0172
▁protecting	-11.0173
not	-11.0176
▁handled	-11.0177
▁repayment	-11.018
▁increasingly	-11.018
▁urgently	-11.0183
▁locations	-11.0188
▁commemorate	-11.0189
▁sugar	-11.0189
▁Cheongdo	-11.0191
▁defect	-11.0194
▁salt	-11.0197
mal	-11.02
▁Jinping	-11.0204
▁investing	-11.0207
ware	-11.021
▁ski	-11.0211
▁inappropriate	-11.0215
▁encouraged	-11.0217
▁communications	-11.0217
▁shoulder	-11.0225
▁reorganization	-11.0226
▁print	-11.0226
sco	-11.0227
party	-11.0228
▁closure	-11.0237
▁producers	-11.0239
sup	-11.024
ay	-11.0242
▁inevitably	-11.0249
▁functional	-11.0249
▁burned	-11.0249
▁pan	-11.0256
▁proportional	-11.0259
▁Fed	-11.026
▁preserve	-11.0262
▁Confucian	-11.0264
▁CSAT	-11.0267
▁differ	-11.0271
▁contacted	-11.0275
▁rank	-11.0278
▁burn	-11.0281
▁doubt	-11.0287
▁premiums	-11.0287
▁Well	-11.0292
▁harder	-11.0301
▁fabric	-11.0302
▁helicopter	-11.0302
▁Americans	-11.0306
▁bowl	-11.0307
▁completing	-11.0309
▁Jackson	-11.0309
▁Chungbuk	-11.031
▁invite	-11.0311
▁hang	-11.0317
▁wouldn	-11.0326
▁decades	-11.0326
▁flights	-11.0327
▁religion	-11.0333
▁networks	-11.0335
▁Y	-11.0339
▁Sim	-11.0345
▁Gwanghwamun	-11.0345
▁cameras	-11.0346
▁Along	-11.0355
▁finger	-11.0357
▁testing	-11.0359
▁hip	-11.0361
▁essay	-11.0369
▁contrary	-11.0369
▁Dis	-11.0373
▁instructor	-11.0376
▁wealth	-11.0376
bae	-11.0378
▁invitation	-11.0379
▁lyrics	-11.038
▁encouraging	-11.0381
▁concentrate	-11.0383
▁journalists	-11.0387
▁decade	-11.0388
▁complained	-11.0389
▁Chamber	-11.0394
▁bidding	-11.0394
uc	-11.0394
▁counsel	-11.0395
EC	-11.04
▁ca	-11.0401
ture	-11.0401
▁sounds	-11.0402
▁drinks	-11.0403
▁weekly	-11.0407
▁fairness	-11.0411
▁Kyu	-11.0412
▁inner	-11.0413
▁represent	-11.0415
life	-11.0416
▁discover	-11.0417
▁conservation	-11.0418
▁featuring	-11.0418
▁reputation	-11.0418
▁healing	-11.0418
▁Putin	-11.0421
▁processes	-11.0423
▁compromise	-11.043
▁Standards	-11.0433
▁Lord	-11.0434
▁contrast	-11.0442
▁exciting	-11.0442
ari	-11.0444
eum	-11.0446
tar	-11.0449
▁argue	-11.0452
For	-11.0452
▁Communications	-11.0456
▁logic	-11.0457
▁forms	-11.0459
▁wheel	-11.0466
▁Buddha	-11.0466
▁scoring	-11.0466
▁Mokpo	-11.0467
▁Silla	-11.0468
▁Such	-11.0471
▁vessels	-11.0473
zi	-11.0475
▁clinical	-11.0477
▁sport	-11.0478
▁capture	-11.0481
▁underway	-11.0486
▁combines	-11.0487
ec	-11.0488
▁Kindergarten	-11.0498
▁Take	-11.0501
ute	-11.0502
▁satellite	-11.0503
▁slogan	-11.0503
▁weekends	-11.0513
▁papers	-11.0513
▁James	-11.0515
▁fruits	-11.052
▁firefighters	-11.0521
▁ordinances	-11.0527
▁dawn	-11.0528
hand	-11.0532
▁log	-11.0535
▁AP	-11.0536
▁fellow	-11.0541
ball	-11.0542
seop	-11.0548
MO	-11.0551
▁shipbuilding	-11.0552
▁Report	-11.056
▁juvenile	-11.0562
▁measurement	-11.057
▁USD	-11.0575
▁Namyangju	-11.0577
▁Everyone	-11.0578
▁Coach	-11.0579
▁Electric	-11.0589
▁mu	-11.0591
▁Pangyo	-11.0602
▁Siheung	-11.0603
▁driven	-11.0603
▁greenhouse	-11.0603
▁Suk	-11.0607
verse	-11.0608
▁hasn	-11.0614
▁Mark	-11.0614
▁Premier	-11.0614
▁Treasury	-11.0614
▁prolonged	-11.0614
▁decisions	-11.0616
▁alert	-11.0617
▁sat	-11.0618
▁crash	-11.0627
▁oppose	-11.0628
▁Pu	-11.0632
▁substances	-11.0636
▁experiment	-11.0638
▁mothers	-11.0647
▁Israeli	-11.0647
ori	-11.0648
▁runner	-11.0651
▁armed	-11.0651
▁techniques	-11.0652
▁willing	-11.0654
▁emissions	-11.0654
▁investor	-11.0655
▁defined	-11.0657
Ha	-11.0664
▁Play	-11.0664
▁Kaesong	-11.0664
yoon	-11.0668
▁birds	-11.0668
▁Anti	-11.0675
investigative	-11.0676
▁submission	-11.0676
▁laughter	-11.0677
▁trips	-11.0677
▁Yeah	-11.0678
▁ongoing	-11.0689
▁Eastern	-11.069
▁blocking	-11.0699
▁Gimhae	-11.0701
▁powder	-11.0701
▁threw	-11.0701
▁History	-11.0702
gal	-11.0704
▁bulletin	-11.0704
▁Sky	-11.0705
▁sight	-11.0707
▁protected	-11.0709
Chairperson	-11.0712
▁Nuclear	-11.0714
▁abortion	-11.0714
▁unified	-11.0716
▁contractor	-11.0721
ick	-11.0725
▁Manager	-11.0726
NA	-11.0727
▁discharged	-11.0727
▁Out	-11.0729
▁trials	-11.073
wn	-11.0738
▁Afghanistan	-11.0739
▁Islamic	-11.074
▁issuing	-11.074
lon	-11.0741
government	-11.0747
▁Prince	-11.0747
▁raises	-11.0748
▁w	-11.0749
▁intervention	-11.0751
▁harsh	-11.0751
▁Right	-11.0753
▁searching	-11.0758
▁abolition	-11.0764
▁acid	-11.0767
▁scholars	-11.0767
▁netizens	-11.0772
▁grateful	-11.0777
▁Concert	-11.0777
py	-11.0782
▁hits	-11.0787
▁decreasing	-11.0789
▁replied	-11.0789
▁compensate	-11.0791
▁shipped	-11.0803
▁failing	-11.0803
▁Space	-11.0812
▁Argentina	-11.0814
▁Taekwondo	-11.0814
ency	-11.082
▁determination	-11.082
FA	-11.0822
▁patterns	-11.0827
▁Sorry	-11.0829
▁stabilize	-11.0829
wol	-11.0833
sil	-11.0837
▁mistakes	-11.0839
▁stating	-11.084
▁Shi	-11.0843
▁nose	-11.0843
taek	-11.0843
ced	-11.0845
fla	-11.0858
moon	-11.086
▁historic	-11.086
▁tells	-11.0861
▁Egypt	-11.0863
cus	-11.0867
q	-11.087
▁Ku	-11.0871
▁automatic	-11.0878
real	-11.088
▁Equality	-11.0881
▁advisor	-11.0888
▁Ten	-11.089
▁Experience	-11.0891
cheong	-11.0895
▁Their	-11.09
bra	-11.0901
▁lighting	-11.0901
▁fisheries	-11.0903
▁structural	-11.0903
▁rains	-11.0904
▁Jeollabuk	-11.0904
▁systematically	-11.0904
sul	-11.0912
▁stir	-11.0916
▁evil	-11.0917
▁profitability	-11.0918
uff	-11.0918
▁rescued	-11.0919
▁defeated	-11.0925
▁purchases	-11.0925
▁warehouse	-11.0929
▁hide	-11.0938
ose	-11.0938
▁recovered	-11.0951
▁miles	-11.0956
▁sessions	-11.0959
▁featured	-11.0966
▁saving	-11.0966
▁enters	-11.0966
▁punished	-11.0967
▁grave	-11.0968
▁deployed	-11.0974
▁Gunsan	-11.0983
▁guys	-11.0983
▁allegedly	-11.0988
▁Taliban	-11.0993
▁chef	-11.0993
▁approve	-11.0996
▁coverage	-11.0996
▁Te	-11.0997
▁fault	-11.1001
del	-11.1004
▁herself	-11.1004
▁spots	-11.1005
▁clause	-11.1006
▁Though	-11.1007
▁productivity	-11.1008
▁terrorist	-11.101
▁Sure	-11.1012
▁lift	-11.1016
▁desirable	-11.1019
▁Constitution	-11.1021
ink	-11.1022
ied	-11.1027
▁campus	-11.1029
▁competitions	-11.1029
▁Representatives	-11.103
▁Hoe	-11.1032
▁Dongjak	-11.1032
▁Time	-11.1032
▁lo	-11.1035
▁writers	-11.1037
fire	-11.1039
▁aspects	-11.1039
attached	-11.1049
▁lending	-11.1051
pat	-11.1053
iz	-11.1056
▁bloom	-11.1058
▁understood	-11.1058
▁Up	-11.1059
▁pair	-11.106
city	-11.1061
▁regeneration	-11.1064
▁Golden	-11.1068
▁entrepreneurs	-11.107
▁Champions	-11.1071
▁tastes	-11.1074
regular	-11.1075
▁appliances	-11.1075
Lee	-11.1079
▁shower	-11.1079
▁exposure	-11.1084
▁mediation	-11.1089
DA	-11.1093
part	-11.1094
▁grass	-11.1097
▁download	-11.1098
▁Fan	-11.11
▁retired	-11.1102
ological	-11.1106
▁frozen	-11.111
ER	-11.1112
▁Brazilian	-11.1112
With	-11.1122
▁Kumho	-11.1124
▁controlled	-11.1125
▁Tottenham	-11.1128
▁reverse	-11.1129
▁punish	-11.1135
▁treasury	-11.1136
▁cyber	-11.1136
▁burst	-11.1136
▁Burning	-11.114
▁remark	-11.1144
▁taxation	-11.1146
▁competing	-11.1149
▁opposing	-11.1149
istic	-11.1156
▁Sp	-11.1156
▁yard	-11.1157
▁conditioner	-11.1167
▁Suncheon	-11.1168
grade	-11.1168
gy	-11.1173
▁skill	-11.1175
▁Chul	-11.1175
Po	-11.1177
▁Jan	-11.1177
▁challenges	-11.1179
wha	-11.1183
▁abolish	-11.1189
▁Master	-11.1191
▁eggs	-11.1194
▁Bre	-11.12
lip	-11.12
▁technological	-11.1201
▁disability	-11.1203
▁agents	-11.1212
▁objects	-11.1213
▁Kwak	-11.1215
▁Should	-11.1215
▁Cor	-11.1216
▁washing	-11.122
▁Ph	-11.1221
▁marking	-11.1225
▁happening	-11.1226
▁dancing	-11.1228
▁imprisonment	-11.1228
▁coordination	-11.1228
▁railroad	-11.1228
▁recruiting	-11.1229
▁alive	-11.1231
▁blog	-11.1234
▁preferred	-11.1242
▁dam	-11.1242
▁count	-11.1242
▁ordering	-11.1253
▁electoral	-11.1254
▁Gapyeong	-11.1255
▁stored	-11.1259
▁fried	-11.1265
▁depression	-11.1267
▁chocolate	-11.1281
▁pad	-11.1282
▁refuse	-11.1283
.“	-11.1287
nic	-11.1288
▁taught	-11.1294
▁Beach	-11.1295
▁meets	-11.1296
▁therapy	-11.1299
▁cope	-11.1304
▁highlight	-11.1307
▁Plant	-11.131
▁Broadcasting	-11.132
▁Queen	-11.132
▁hurry	-11.132
star	-11.1322
▁options	-11.1326
▁Pocheon	-11.1327
rak	-11.1329
ties	-11.1334
▁hill	-11.1335
▁decorated	-11.1337
▁km	-11.1339
stone	-11.1339
▁walked	-11.134
set	-11.1342
▁Noh	-11.1343
sim	-11.1343
ano	-11.1345
▁Boo	-11.1349
▁wa	-11.1354
eul	-11.1356
▁critics	-11.1358
▁ecological	-11.1361
Mon	-11.1363
hui	-11.1366
▁borrow	-11.1366
▁delegated	-11.1367
pp	-11.1369
▁machines	-11.1371
▁painful	-11.1376
▁tools	-11.1377
▁attempts	-11.1379
▁adviser	-11.1381
▁luggage	-11.1387
▁scar	-11.1392
IT	-11.1392
▁Kyo	-11.1393
▁envoy	-11.1401
▁negligence	-11.1401
▁quoted	-11.1404
▁effectiveness	-11.1405
▁businessmen	-11.1406
▁classical	-11.1406
▁pot	-11.1408
▁midst	-11.1411
▁hosting	-11.1412
▁lay	-11.1413
▁simultaneously	-11.1417
▁cuts	-11.1418
▁Huh	-11.1421
▁civilians	-11.1421
▁destroy	-11.1422
▁tap	-11.1422
▁Hyeon	-11.1423
▁heading	-11.1424
chairman	-11.1425
▁Navy	-11.1428
▁Dam	-11.1432
▁financing	-11.1433
▁Municipal	-11.1441
▁childhood	-11.1442
▁Shinsegae	-11.1454
CE	-11.1465
▁Ver	-11.1466
▁Night	-11.1469
stop	-11.147
ella	-11.1475
▁roles	-11.1478
MA	-11.1481
▁explaining	-11.1481
▁Seungri	-11.1481
▁heavily	-11.1481
▁march	-11.1482
▁proved	-11.1487
An	-11.1492
▁petitions	-11.1494
▁Men	-11.1494
▁quarantine	-11.1495
▁filter	-11.1495
nov	-11.1495
▁manufacturer	-11.1497
▁capable	-11.1497
▁Dal	-11.1503
▁rush	-11.1504
▁Arab	-11.1504
▁George	-11.1508
▁Previously	-11.1508
▁unfamiliar	-11.1508
▁stuff	-11.1509
▁Content	-11.1509
▁generate	-11.1512
lam	-11.1515
▁Critics	-11.1522
▁Madrid	-11.1522
▁missionary	-11.1526
▁absolute	-11.1529
gging	-11.153
▁cage	-11.1531
▁acknowledged	-11.1531
▁outlets	-11.1533
mouth	-11.1534
▁ocean	-11.1536
▁aren	-11.1539
▁Five	-11.1544
▁trail	-11.1546
▁testimony	-11.1549
▁Dance	-11.1552
▁linking	-11.1554
▁Inc	-11.1555
pass	-11.1555
▁update	-11.1556
▁sort	-11.1559
gn	-11.1561
>	-11.1563
▁Mexican	-11.1563
▁Palestinian	-11.1563
▁Political	-11.1563
▁infant	-11.1563
▁lend	-11.1564
American	-11.1564
▁initially	-11.1564
Even	-11.1564
▁auditor	-11.1567
▁expressions	-11.1571
▁ends	-11.1571
At	-11.1575
▁Cross	-11.1576
▁drove	-11.1577
track	-11.1579
ground	-11.158
yn	-11.158
▁lifestyle	-11.1585
▁Anseong	-11.1586
▁negotiating	-11.159
▁unavoidable	-11.159
▁Taiwanese	-11.1591
▁examples	-11.1593
▁dozens	-11.1595
▁Gate	-11.1604
▁instant	-11.1604
▁restriction	-11.1606
▁colleagues	-11.1611
▁designer	-11.1617
▁Journal	-11.1618
▁Sydney	-11.1618
▁Volunteer	-11.1618
▁maritime	-11.1618
▁Room	-11.1619
▁stroke	-11.1621
▁wireless	-11.1625
▁Am	-11.1625
dol	-11.1628
▁Ben	-11.1629
moo	-11.1631
ack	-11.1631
▁publishing	-11.1634
▁yield	-11.1636
PA	-11.1636
▁categories	-11.1645
SA	-11.1653
▁prospective	-11.166
▁laid	-11.166
▁relieve	-11.1661
▁Wal	-11.1662
▁virus	-11.1667
▁commendation	-11.1673
▁daytime	-11.1678
▁lifting	-11.1681
▁champion	-11.1686
▁newsletter	-11.1686
DI	-11.1687
▁Site	-11.1692
▁postponed	-11.1693
▁offensive	-11.17
▁clip	-11.1701
ara	-11.1701
▁layer	-11.1709
▁dismiss	-11.1712
▁McCain	-11.1714
pu	-11.1717
▁forming	-11.1721
▁guards	-11.1722
▁facilitate	-11.1724
▁activists	-11.1727
▁Autonomy	-11.1728
▁struck	-11.1728
▁audition	-11.1728
▁publicity	-11.1736
▁teeth	-11.1742
▁belongs	-11.1743
What	-11.1744
▁depends	-11.1745
▁directions	-11.1747
ional	-11.1751
iness	-11.1751
▁requesting	-11.1752
▁Chuncheon	-11.1752
▁reside	-11.1754
▁Ad	-11.1755
▁Bundang	-11.1756
▁broad	-11.1757
▁characteristic	-11.176
heon	-11.176
▁dominated	-11.1762
▁honest	-11.1763
▁ate	-11.1765
▁snacks	-11.1767
▁wallet	-11.1772
Mayor	-11.1773
▁poured	-11.1775
▁provisional	-11.1775
▁uniforms	-11.1778
▁Superintendent	-11.1779
▁Traditional	-11.1783
▁scenario	-11.1783
▁Ed	-11.1787
▁pig	-11.1792
▁Dobong	-11.1792
▁Live	-11.1793
▁Bill	-11.1794
▁contributing	-11.1797
▁goalkeeper	-11.1798
▁exceeds	-11.1798
▁arise	-11.1799
▁acquire	-11.1801
ically	-11.1802
▁rankings	-11.1802
ero	-11.1803
▁Chu	-11.1807
▁Manchester	-11.1811
▁grace	-11.1811
▁Barack	-11.1812
▁striker	-11.1818
oma	-11.1819
▁flying	-11.1822
▁afford	-11.1824
▁Disabled	-11.1825
▁KOSPI	-11.1825
▁Notwithstanding	-11.1825
▁prohibited	-11.1834
▁jump	-11.1835
yun	-11.1835
▁wonderful	-11.1837
▁enthusiastic	-11.1842
▁liquid	-11.185
▁inflation	-11.1853
▁poet	-11.1854
▁offense	-11.1855
▁definitely	-11.1855
ign	-11.1858
▁KB	-11.186
▁newspapers	-11.1865
Me	-11.1868
▁everywhere	-11.1868
▁files	-11.187
▁pose	-11.187
van	-11.1881
▁Nexen	-11.1881
▁commemorative	-11.1881
▁synergy	-11.1881
ade	-11.1882
cle	-11.1883
▁revealing	-11.1884
▁voted	-11.1886
▁maximize	-11.1888
▁toilet	-11.1889
PS	-11.189
lia	-11.1892
▁Companies	-11.1896
▁cluster	-11.1896
▁architecture	-11.1896
▁Yangcheon	-11.1906
des	-11.1907
▁inland	-11.1909
▁malls	-11.1909
▁lobby	-11.191
▁zero	-11.191
▁sponsor	-11.1911
▁suspects	-11.1916
▁designs	-11.1917
▁veterans	-11.1918
▁Happy	-11.1918
▁Tom	-11.1925
▁broadcaster	-11.1928
▁du	-11.1929
▁NC	-11.1935
ib	-11.1935
▁captain	-11.1938
▁Best	-11.194
▁installment	-11.1942
▁Tri	-11.1942
▁confessed	-11.1943
support	-11.1944
▁components	-11.1945
dro	-11.1945
▁abnormal	-11.195
▁attacked	-11.1953
bro	-11.1956
▁floors	-11.1961
▁wishes	-11.1965
▁worries	-11.1966
▁protested	-11.1967
▁propose	-11.1973
▁aggressive	-11.1974
tz	-11.1975
▁millions	-11.1978
▁economies	-11.198
▁monument	-11.198
cro	-11.1981
▁Staff	-11.1981
▁emerge	-11.1984
lit	-11.1984
gro	-11.1984
La	-11.1989
▁cheer	-11.1992
clo	-11.1992
▁journey	-11.1995
▁irregularities	-11.1995
▁bra	-11.1995
▁dating	-11.1996
▁knows	-11.2001
▁Garden	-11.2009
▁indictment	-11.2009
▁golden	-11.2014
vis	-11.202
▁Evaluation	-11.2023
▁palace	-11.2023
▁territory	-11.2023
▁disappointed	-11.2023
▁grows	-11.2029
▁attach	-11.2033
She	-11.2035
▁returns	-11.2035
gyeong	-11.2035
▁buyer	-11.2037
▁Sal	-11.2037
▁leap	-11.2038
▁booths	-11.2038
▁organizing	-11.2038
▁bound	-11.204
▁massage	-11.2049
▁KOSDAQ	-11.2052
▁bath	-11.2053
▁musicians	-11.2055
AI	-11.2055
▁homeless	-11.2063
▁Stock	-11.2066
▁bribery	-11.2066
▁prestigious	-11.208
▁Osaka	-11.208
▁framework	-11.2081
▁alarm	-11.2081
specializing	-11.2082
▁surge	-11.2083
body	-11.2091
ei	-11.2093
▁excavation	-11.2095
▁romance	-11.2095
▁diesel	-11.2095
▁confirming	-11.2097
▁FA	-11.2103
▁presenting	-11.2108
▁Corps	-11.2111
▁affection	-11.2113
list	-11.2114
▁seed	-11.2115
die	-11.2115
count	-11.2116
▁exempted	-11.212
Integrated	-11.2124
▁Dokdo	-11.2124
▁conversion	-11.2124
▁wholesale	-11.2125
▁observe	-11.2127
▁questioned	-11.2127
empt	-11.2128
▁influenced	-11.2133
ult	-11.2134
lay	-11.2138
▁Statistics	-11.2138
▁pregnancy	-11.2138
▁Yeoncheon	-11.2141
▁praise	-11.2142
▁printing	-11.2149
▁disorder	-11.2149
▁commit	-11.2149
▁hotels	-11.2157
spi	-11.2159
▁Druking	-11.2165
▁sewage	-11.2167
▁shutdown	-11.2167
ani	-11.2168
ire	-11.2168
yon	-11.2171
▁FTA	-11.2175
seung	-11.2181
▁Gil	-11.2182
▁<	-11.2185
▁graduated	-11.2186
▁occasion	-11.2188
▁creates	-11.2192
nk	-11.2194
▁operational	-11.2198
ez	-11.2199
▁Basic	-11.221
dding	-11.2211
▁fence	-11.2213
▁Goseong	-11.2214
down	-11.2214
aries	-11.2216
▁shake	-11.2217
▁induce	-11.2217
▁USA	-11.2221
▁cleaner	-11.2224
▁valley	-11.2225
▁screened	-11.2228
ica	-11.2228
▁overtime	-11.2231
app	-11.2231
leg	-11.2236
press	-11.2236
▁keeps	-11.2239
▁judging	-11.224
▁releasing	-11.224
Li	-11.224
myeong	-11.2241
▁defender	-11.2245
PO	-11.2246
IS	-11.2247
sale	-11.2247
private	-11.225
▁attributed	-11.2254
▁shouldn	-11.2254
▁sin	-11.2256
▁stops	-11.2263
▁pulled	-11.2265
▁batter	-11.2265
▁coordinate	-11.2269
hyang	-11.2271
▁faithfully	-11.2273
▁nights	-11.2276
▁meant	-11.2278
▁Bento	-11.2279
▁gains	-11.228
▁Kwan	-11.2288
hal	-11.229
▁greatest	-11.2292
▁documentary	-11.2293
fully	-11.2299
▁passionate	-11.2299
▁Nov	-11.23
coastal	-11.23
high	-11.2303
▁Susan	-11.2306
bar	-11.2311
clusive	-11.2312
▁rarely	-11.2312
▁exams	-11.2313
▁Bloomberg	-11.2313
▁shuttle	-11.2313
▁giant	-11.2313
kwon	-11.2314
▁restored	-11.2315
▁draws	-11.2318
▁transformed	-11.2325
▁therefore	-11.2331
pic	-11.2332
▁twin	-11.2339
▁tomb	-11.234
▁theaters	-11.2342
▁transparency	-11.2342
▁recycling	-11.2343
▁deduction	-11.2344
▁thin	-11.2346
▁basement	-11.2352
rch	-11.2357
▁indicating	-11.2357
▁grandfather	-11.2357
▁imposition	-11.2357
▁concerts	-11.2357
take	-11.2362
▁Yangju	-11.2365
▁responding	-11.2366
vol	-11.2369
South	-11.237
▁technique	-11.2371
▁Orchestra	-11.2372
▁resigned	-11.2373
▁Later	-11.2377
▁shed	-11.238
▁inquiry	-11.2387
▁lung	-11.2387
▁lying	-11.2389
▁exists	-11.2391
fine	-11.2393
ement	-11.2394
gram	-11.2398
▁soul	-11.2402
▁machinery	-11.2404
▁Councilor	-11.2407
▁apart	-11.2408
ese	-11.2409
pur	-11.2414
▁cartoon	-11.2416
▁referring	-11.2417
▁Icheon	-11.242
▁languages	-11.2425
▁uploaded	-11.2427
ranging	-11.2429
▁beating	-11.243
▁cheese	-11.2431
▁nominated	-11.2431
▁Steel	-11.2431
▁fought	-11.2431
▁Berlin	-11.2432
▁targeted	-11.2432
▁expecting	-11.2433
▁Tu	-11.2435
▁promptly	-11.2437
▁format	-11.2438
▁covering	-11.2447
▁detect	-11.2451
▁represents	-11.2452
▁slowing	-11.2455
box	-11.2456
IST	-11.2456
▁surpassed	-11.2457
▁undergo	-11.2459
▁Extension	-11.2461
▁aftermath	-11.2461
play	-11.2464
▁cautious	-11.2476
▁context	-11.2476
▁Natural	-11.2476
fish	-11.2479
lor	-11.2479
▁fate	-11.248
▁sacrifice	-11.248
▁supervise	-11.248
▁suggesting	-11.249
▁lodging	-11.2491
▁prominent	-11.2491
▁unprecedented	-11.2491
▁Championship	-11.2492
▁amounts	-11.2492
▁rises	-11.2493
▁agreements	-11.2497
▁Tak	-11.2499
▁Sol	-11.25
)."	-11.2504
▁dignity	-11.2506
▁photographs	-11.251
▁checks	-11.2514
▁ceiling	-11.2521
▁noteworthy	-11.2521
▁signboard	-11.2522
▁textbooks	-11.2523
▁Gar	-11.2524
▁Op	-11.2524
▁relationships	-11.2529
▁robots	-11.2531
Ro	-11.2531
▁Facilities	-11.2536
▁yuan	-11.2536
speed	-11.2538
under	-11.254
Com	-11.254
▁cave	-11.2541
can	-11.2543
▁manufactured	-11.2544
▁Call	-11.2546
▁instructions	-11.2547
▁borrowed	-11.2549
▁announcing	-11.2551
▁cruise	-11.2551
▁workplaces	-11.2556
▁ages	-11.2562
▁deposits	-11.2564
▁Furthermore	-11.2566
▁vocational	-11.2566
▁worn	-11.2566
▁assignment	-11.2567
▁Fu	-11.2568
▁Pil	-11.2576
teen	-11.2578
▁piano	-11.2581
▁accusation	-11.2582
▁Isn	-11.2582
▁paragraphs	-11.2584
standing	-11.2589
▁magic	-11.2591
lation	-11.2592
dra	-11.2593
▁Wol	-11.2595
Co	-11.2595
▁Traffic	-11.2596
▁silent	-11.2596
▁chest	-11.2596
▁relax	-11.2597
▁focuses	-11.2598
▁Kimchi	-11.2607
▁threatening	-11.2607
▁recruited	-11.2609
▁cultures	-11.261
▁Baseball	-11.2612
%).	-11.2613
▁touching	-11.2614
▁welcomed	-11.2614
▁van	-11.2617
▁sc	-11.2624
▁Oct	-11.2628
depth	-11.2629
▁computers	-11.2629
▁Northeast	-11.2632
sia	-11.2638
▁steering	-11.2641
▁conglomerates	-11.2646
▁youths	-11.2649
cer	-11.265
wer	-11.2651
gol	-11.2652
Mart	-11.2655
▁absent	-11.2657
▁Creative	-11.2657
▁Shopping	-11.2657
hang	-11.2661
▁waters	-11.2663
▁Non	-11.2664
▁tool	-11.2667
▁liquor	-11.2672
cker	-11.2673
MS	-11.2675
▁lies	-11.2676
av	-11.2681
▁Miss	-11.2684
▁Farm	-11.2686
▁subsidized	-11.2687
▁rid	-11.2688
▁revive	-11.2692
▁wash	-11.2693
▁transform	-11.2697
▁questioning	-11.2699
▁Ge	-11.2704
▁representation	-11.2704
▁exclude	-11.2707
▁bike	-11.271
▁serves	-11.2713
▁landing	-11.2715
▁Yonsei	-11.2718
▁applies	-11.2718
▁script	-11.2728
▁spray	-11.2733
▁adoption	-11.2735
ook	-11.2738
▁renewed	-11.274
pot	-11.2742
▁crops	-11.2746
▁Fortress	-11.2748
▁MERS	-11.2748
▁Zealand	-11.2748
▁refrain	-11.2748
▁stepping	-11.2751
▁acceptance	-11.2751
▁trucks	-11.2753
digit	-11.2754
sure	-11.2754
▁hospitalized	-11.2755
▁Rice	-11.2756
▁traveled	-11.2759
▁Liberal	-11.2764
▁ginseng	-11.2764
▁Sometimes	-11.2764
▁drastically	-11.2764
Director	-11.2768
fra	-11.2772
▁soldier	-11.2772
▁severely	-11.2776
▁substantial	-11.2779
▁truly	-11.2779
▁tunnel	-11.2779
▁guarantees	-11.2779
▁Expo	-11.2785
▁floating	-11.2785
ken	-11.2789
Pa	-11.2789
az	-11.2791
▁Bus	-11.2794
▁cultivation	-11.2795
▁portrait	-11.2795
▁batteries	-11.2795
▁Old	-11.2796
▁Use	-11.2797
▁executed	-11.2801
▁searched	-11.2802
▁polls	-11.2806
▁Learning	-11.281
▁thwart	-11.281
▁somewhere	-11.2811
▁KBO	-11.2815
non	-11.2816
▁innocent	-11.2825
▁Advisory	-11.2828
▁II	-11.283
uch	-11.2832
▁vessel	-11.2832
▁Mal	-11.2833
▁overwhelming	-11.2836
▁quota	-11.2841
▁Criminal	-11.2841
▁perpetrator	-11.2841
▁romantic	-11.2841
▁Paulo	-11.2844
▁Reserve	-11.2846
▁Democrats	-11.2847
▁weakened	-11.2849
▁pine	-11.2856
▁abilities	-11.2856
▁gratitude	-11.2856
▁Sta	-11.2857
▁genetic	-11.2859
▁breath	-11.2862
Ba	-11.2863
ctor	-11.2867
▁rough	-11.2871
▁invasion	-11.2872
eon	-11.2878
New	-11.2879
▁forests	-11.2882
▁qualifications	-11.2895
▁wounded	-11.2897
▁Ti	-11.2901
▁animation	-11.2903
▁diplomacy	-11.2903
▁bacteria	-11.2904
water	-11.2905
▁seized	-11.2907
▁retain	-11.291
nc	-11.2913
▁journalist	-11.2915
▁column	-11.2919
°	-11.2919
BC	-11.2919
▁cur	-11.292
▁witnesses	-11.2923
▁Ilsan	-11.2923
▁prospect	-11.2926
▁camping	-11.293
▁Spring	-11.2933
▁Texas	-11.2934
▁informatization	-11.2934
▁pizza	-11.2934
▁crude	-11.2934
▁contributions	-11.2937
▁prediction	-11.2939
▁crashed	-11.295
▁congratulatory	-11.295
▁Sharing	-11.2951
▁dad	-11.2952
AP	-11.2958
▁Stream	-11.2966
▁elevator	-11.2966
▁Kazakhstan	-11.2966
▁sells	-11.2966
▁Light	-11.2967
▁ear	-11.2971
▁instruments	-11.2972
▁sang	-11.2972
▁prep	-11.2976
▁accurately	-11.2977
▁textile	-11.2982
▁windows	-11.2983
Let	-11.2991
▁instrument	-11.2991
▁Hang	-11.2993
BA	-11.2994
▁rewards	-11.2996
▁Gwacheon	-11.2997
▁Moscow	-11.2997
▁additionally	-11.2997
▁Ama	-11.3001
▁photograph	-11.3003
▁deleted	-11.3003
▁advantages	-11.3004
▁Vo	-11.3006
▁luck	-11.3008
▁incidents	-11.3008
▁doors	-11.301
▁abolished	-11.3012
Ang	-11.3018
▁appearing	-11.302
hoe	-11.3021
▁breast	-11.3029
nation	-11.3031
▁Data	-11.3032
ON	-11.3044
responsibilities	-11.3044
▁spouse	-11.3044
combining	-11.3045
▁tracking	-11.3049
▁congestion	-11.306
▁specialty	-11.307
▁obligation	-11.3072
rac	-11.3075
▁creativity	-11.3076
▁necessity	-11.3076
▁shaking	-11.3076
▁Associated	-11.3077
▁texture	-11.3077
xi	-11.3082
▁stuck	-11.3092
▁carriers	-11.3105
▁desired	-11.3107
▁occupied	-11.3108
▁redevelopment	-11.3109
They	-11.3111
▁emission	-11.3121
▁bilateral	-11.3124
▁Venture	-11.3124
▁uncertainty	-11.3124
▁Mongolian	-11.3129
▁discovery	-11.3131
owned	-11.3137
▁excitement	-11.314
▁stimulate	-11.314
nal	-11.3141
▁colon	-11.3141
▁Tell	-11.3145
▁successor	-11.3146
▁lowering	-11.3146
▁roll	-11.3146
Be	-11.3148
▁scientists	-11.3152
Corruption	-11.3156
▁mathematics	-11.3156
▁Glove	-11.3156
CI	-11.3156
▁packaging	-11.3156
▁GS	-11.3159
▁Unit	-11.316
▁reserved	-11.3164
▁readers	-11.3167
▁anticipated	-11.317
▁Rock	-11.3172
▁orphanage	-11.3172
▁rape	-11.3181
kin	-11.3182
▁Ke	-11.3184
▁abused	-11.3186
▁repeat	-11.3187
▁pocket	-11.3188
▁pursuing	-11.3188
▁shame	-11.3188
▁tendency	-11.3188
▁suspicious	-11.3188
bul	-11.319
ao	-11.3202
▁Seongdong	-11.3203
mok	-11.3203
▁engines	-11.3216
og	-11.3217
▁drone	-11.3217
▁Mac	-11.3218
▁criticizing	-11.322
▁midterm	-11.3227
▁habits	-11.3233
▁Jamsil	-11.3236
▁boats	-11.3238
▁Geo	-11.3247
suming	-11.3251
▁aviation	-11.3252
▁Geumcheon	-11.3254
Star	-11.3266
▁Toronto	-11.3268
▁occurrence	-11.3268
▁Royal	-11.3273
▁Lab	-11.3274
▁Mok	-11.3275
bat	-11.3277
song	-11.3281
▁tie	-11.3284
▁dessert	-11.3284
▁width	-11.3284
▁Flying	-11.3284
uri	-11.329
log	-11.3295
smoking	-11.3299
▁muscle	-11.3299
sharing	-11.33
▁Accounting	-11.3301
▁rational	-11.3304
▁divorce	-11.3306
▁PM	-11.3311
▁clouds	-11.3311
cted	-11.3312
ney	-11.3316
▁dump	-11.3317
▁integrity	-11.3317
▁muscles	-11.3318
▁arrangement	-11.3318
▁exclusively	-11.3318
▁warnings	-11.3321
▁assessed	-11.3326
get	-11.3327
Ex	-11.3329
ened	-11.3332
▁Girl	-11.3332
▁babies	-11.3333
▁enemy	-11.3333
▁predecessor	-11.3333
▁apple	-11.3336
▁lacking	-11.3338
▁downward	-11.3338
Qu	-11.3338
view	-11.3346
▁tri	-11.3348
▁examined	-11.3349
▁mortgage	-11.3349
▁surveillance	-11.3349
▁Mount	-11.3349
▁mix	-11.335
ada	-11.335
▁Jecheon	-11.3352
▁surpass	-11.3353
ome	-11.3354
phone	-11.3354
ivity	-11.3361
▁surplus	-11.3366
▁inquiries	-11.3366
▁literary	-11.3366
▁pull	-11.3369
▁consistently	-11.3372
▁shocked	-11.3373
some	-11.3373
▁obtaining	-11.3378
▁vary	-11.3382
▁Watch	-11.3383
▁Gochang	-11.3386
▁substitute	-11.3388
gate	-11.3388
▁rail	-11.3388
▁Venezuela	-11.3395
▁choosing	-11.3398
▁poverty	-11.3398
▁Veterans	-11.3399
▁impressed	-11.3401
fighting	-11.3401
▁differentiated	-11.3402
▁travelers	-11.3404
▁shocking	-11.3405
▁neglected	-11.3406
▁revenues	-11.3406
▁faction	-11.3412
▁tent	-11.3414
Han	-11.3414
▁comparison	-11.3415
▁Prior	-11.3418
▁Bok	-11.3419
,“	-11.3419
▁upload	-11.3425
▁Telecom	-11.3431
▁excellence	-11.3431
▁seasons	-11.3432
▁platforms	-11.3434
▁Gam	-11.3436
▁medals	-11.3441
▁Bon	-11.3446
▁Sch	-11.3447
▁wrap	-11.3447
▁reunion	-11.3448
driving	-11.3448
cl	-11.3448
▁edition	-11.3449
▁insist	-11.3453
▁sincerely	-11.3454
itis	-11.3457
▁burning	-11.3459
cover	-11.346
▁Language	-11.3464
▁breakthrough	-11.3464
▁hobby	-11.3464
▁Cu	-11.3466
▁cats	-11.347
▁barriers	-11.3472
▁frequency	-11.3477
▁unstable	-11.3481
▁accepting	-11.3481
▁compare	-11.3487
▁Chungju	-11.3491
▁belong	-11.3493
▁surveys	-11.3494
▁requiring	-11.3497
▁asleep	-11.3497
▁mock	-11.3497
▁comfortably	-11.3498
▁taxpayer	-11.3499
rry	-11.3501
rok	-11.3503
▁Gye	-11.3507
▁thereby	-11.3509
▁trick	-11.3513
▁benchmark	-11.3514
shirt	-11.3517
gri	-11.3524
ug	-11.3526
▁Netflix	-11.353
▁Participants	-11.353
▁shrine	-11.353
▁vitamin	-11.353
▁juice	-11.353
▁tries	-11.3534
largest	-11.3534
▁Maybe	-11.3538
▁opens	-11.354
cation	-11.3546
▁painted	-11.3547
Un	-11.3549
dent	-11.3552
▁cow	-11.3555
▁converted	-11.3558
elect	-11.3559
▁vitality	-11.3564
▁Asan	-11.3564
After	-11.3566
▁carrier	-11.3567
▁packed	-11.3568
▁Pri	-11.3572
▁presents	-11.3576
state	-11.3577
▁discipline	-11.3577
▁Sokcho	-11.358
▁removing	-11.358
▁Hun	-11.3582
▁holder	-11.3582
▁Mc	-11.3582
▁liver	-11.3583
▁suppliers	-11.3591
pel	-11.3591
▁errors	-11.3592
▁sincere	-11.3595
▁shots	-11.3597
▁Campus	-11.3599
▁advantageous	-11.3599
▁describe	-11.3603
dal	-11.3604
▁pointing	-11.361
▁Za	-11.3612
▁sincerity	-11.3614
▁tennis	-11.3614
▁exempt	-11.3616
sign	-11.3617
▁substance	-11.3618
▁bitter	-11.362
ians	-11.3629
▁shorter	-11.363
▁unnecessary	-11.363
▁Morning	-11.3631
▁Ik	-11.3634
▁Em	-11.3635
▁indicated	-11.3637
▁Seol	-11.3638
▁defects	-11.364
▁Six	-11.3642
mic	-11.3645
▁Draft	-11.3647
▁distributing	-11.3647
▁pleasure	-11.3647
▁Travel	-11.3647
▁seafood	-11.3648
▁Vision	-11.3648
aging	-11.3651
▁dramatic	-11.3652
▁delivering	-11.3656
▁egg	-11.366
▁Make	-11.3662
▁donate	-11.3662
▁reception	-11.3666
vin	-11.367
▁trained	-11.3671
▁freeze	-11.368
▁stem	-11.3683
▁renewal	-11.3683
gong	-11.3689
▁Executive	-11.3698
▁caution	-11.3698
bri	-11.3698
▁jet	-11.3699
ld	-11.3701
▁mat	-11.3701
▁variable	-11.3703
▁tire	-11.3705
care	-11.3709
▁filmed	-11.3711
▁embezzlement	-11.3715
▁soared	-11.3715
▁Golf	-11.3715
▁Seongbuk	-11.3716
▁constitution	-11.3721
▁forecasters	-11.3721
well	-11.3724
▁sections	-11.3725
▁outer	-11.3726
▁Baekje	-11.3729
▁fishery	-11.3732
▁flagship	-11.3733
chae	-11.3738
▁diversity	-11.3748
▁wore	-11.3749
▁Dec	-11.3749
▁disposable	-11.3749
gwan	-11.375
▁onto	-11.3752
▁hero	-11.3753
hor	-11.3755
▁lineup	-11.3756
SC	-11.3756
▁prizes	-11.376
Palembang	-11.3765
▁qualified	-11.3765
▁Chungcheongbuk	-11.3766
▁batting	-11.3766
Go	-11.377
▁summon	-11.3771
▁protesters	-11.3772
▁ideal	-11.3772
▁Malaysian	-11.3774
TA	-11.3778
woong	-11.378
▁Yeoju	-11.3781
▁missiles	-11.3782
▁measuring	-11.3782
▁vaccine	-11.3782
▁copies	-11.3782
▁Researcher	-11.3785
▁partial	-11.3785
▁aiming	-11.3787
▁viewing	-11.379
centered	-11.3793
▁deals	-11.3793
▁Enterprises	-11.3795
▁Change	-11.3798
▁Chicago	-11.3799
▁Nonghyup	-11.3799
▁custody	-11.3799
matic	-11.3803
▁maker	-11.3805
illa	-11.3809
AT	-11.3813
nes	-11.3813
print	-11.3814
▁specifically	-11.3819
▁celebrity	-11.3834
▁ethics	-11.3834
▁exemplary	-11.3834
▁topped	-11.3835
▁vocal	-11.3844
▁Haeundae	-11.3851
▁rhythm	-11.3851
▁Ae	-11.3856
kyo	-11.386
ters	-11.3862
▁makers	-11.3864
▁William	-11.3868
▁sail	-11.3868
gak	-11.387
▁aspect	-11.3872
▁proven	-11.3878
▁trains	-11.3879
▁paint	-11.3881
▁squad	-11.3885
▁verified	-11.3885
▁Ssangyong	-11.3885
▁leakage	-11.3886
put	-11.3889
▁Week	-11.389
▁dressed	-11.3891
lum	-11.3894
▁homework	-11.3894
Jo	-11.3894
▁positively	-11.3897
▁suits	-11.3902
▁transmission	-11.3902
▁rooftop	-11.3903
▁Ronaldo	-11.3903
▁underprivileged	-11.3904
▁prospects	-11.391
▁Boy	-11.3911
▁confidential	-11.3919
▁KEPCO	-11.3919
▁universal	-11.3919
▁motion	-11.392
▁Bupyeong	-11.392
AN	-11.392
▁publish	-11.3924
▁estimates	-11.3926
ase	-11.3928
▁barrier	-11.3929
▁schedules	-11.3932
lock	-11.3933
Bo	-11.3934
DC	-11.3934
▁relics	-11.3937
▁tissue	-11.3937
▁secretly	-11.3941
▁passive	-11.3943
▁Mt	-11.3954
▁hygiene	-11.3954
▁string	-11.3954
▁doubled	-11.3959
▁declare	-11.3961
▁climat	-11.3964
▁approached	-11.3968
▁valid	-11.397
▁Improvement	-11.3971
▁lonely	-11.3971
▁consciousness	-11.3971
▁infected	-11.3972
▁trash	-11.3972
woon	-11.3976
▁bell	-11.3983
▁laptop	-11.3989
▁Excuse	-11.3989
▁intersection	-11.3989
▁commencement	-11.3989
▁lady	-11.399
▁acquaintances	-11.3993
▁encounter	-11.3994
▁treaty	-11.4001
▁inspector	-11.4003
▁MC	-11.4005
▁kid	-11.4006
▁Kuk	-11.4006
▁spiritual	-11.4007
▁Bur	-11.402
▁hoping	-11.4024
▁spotlight	-11.4024
▁resolving	-11.4025
▁networking	-11.4026
▁appeals	-11.4028
come	-11.4034
▁Starbucks	-11.4041
▁brush	-11.4041
▁revitalizing	-11.4042
▁elect	-11.4048
▁aside	-11.4052
▁undergoing	-11.4052
▁breaks	-11.4052
▁Student	-11.4053
KA	-11.4055
▁suppress	-11.4057
▁founding	-11.4058
▁taxis	-11.4058
▁Barcelona	-11.4058
▁Steering	-11.4058
▁filling	-11.4064
driven	-11.4069
▁Comp	-11.4073
▁professionals	-11.4073
▁upward	-11.4075
▁protein	-11.4076
▁Animal	-11.4076
▁Generation	-11.4076
▁mature	-11.4077
▁developers	-11.4079
▁scent	-11.4083
▁Gas	-11.4086
▁desperate	-11.4087
▁Fortunately	-11.4094
▁yen	-11.4094
▁endure	-11.4095
▁KTX	-11.4096
▁ears	-11.4096
▁breathing	-11.4099
▁escaped	-11.4099
▁dealt	-11.4104
order	-11.4105
▁Christians	-11.4105
▁Disease	-11.4111
▁Judicial	-11.4111
▁brunt	-11.4111
▁pepper	-11.4111
▁steep	-11.4111
▁Lawyer	-11.4111
▁criticize	-11.4119
▁comeback	-11.4119
▁genres	-11.4122
▁trainees	-11.4125
▁facial	-11.4129
▁eliminate	-11.413
rating	-11.413
Mi	-11.4131
▁resumed	-11.4132
ify	-11.4136
▁rely	-11.4137
▁brothers	-11.4139
▁reject	-11.414
▁acquaintance	-11.4142
▁enhancing	-11.4146
▁reluctant	-11.4146
▁cherry	-11.4146
▁moisture	-11.4146
▁innings	-11.4147
mber	-11.4148
▁appealed	-11.4154
▁prompt	-11.4155
▁Roman	-11.4159
tric	-11.4161
▁dividend	-11.4162
▁apologized	-11.4165
ef	-11.4175
pit	-11.4176
▁sensor	-11.4178
▁Sae	-11.418
ou	-11.4181
▁parade	-11.4182
▁midnight	-11.4183
▁surrounded	-11.4184
▁Gyo	-11.4185
rey	-11.4186
CA	-11.4192
▁Junior	-11.4199
▁unreasonable	-11.4199
new	-11.42
▁guy	-11.42
▁fe	-11.4204
Pro	-11.4208
position	-11.4208
▁displays	-11.4213
▁conventional	-11.4216
]	-11.4217
▁diabetes	-11.4217
▁distributor	-11.4217
▁liberation	-11.4217
▁Latin	-11.4218
▁Seosan	-11.4218
▁artwork	-11.422
▁divide	-11.4222
ET	-11.4227
▁obvious	-11.4228
▁Startups	-11.4233
▁Solidarity	-11.4235
▁barrel	-11.4235
▁Index	-11.4235
▁flash	-11.4236
▁Boyle	-11.4237
▁threats	-11.4239
▁Cur	-11.4242
▁cooling	-11.4243
▁adjacent	-11.4253
▁laundry	-11.4253
▁Domestic	-11.4253
▁examining	-11.4253
▁Flake	-11.4253
▁Senator	-11.4253
▁topics	-11.4255
▁downturn	-11.4256
mul	-11.4258
there	-11.4261
▁Age	-11.4265
▁hanging	-11.4266
▁emotion	-11.4268
▁fl	-11.427
glo	-11.427
▁embassy	-11.4271
▁grasp	-11.4271
▁forever	-11.4273
Con	-11.428
▁fined	-11.4283
▁LA	-11.4286
Pacific	-11.4286
▁touched	-11.4287
ene	-11.4288
▁Soviet	-11.4289
▁decisive	-11.4289
▁solidarity	-11.4289
▁capability	-11.4289
▁bone	-11.4291
▁mobilized	-11.4292
door	-11.4296
▁competitors	-11.4296
cept	-11.4297
▁persuade	-11.4297
article	-11.4298
using	-11.4298
▁eaten	-11.43
▁upset	-11.4303
▁Mom	-11.4305
▁courage	-11.4306
▁therefor	-11.4306
▁Florida	-11.4306
▁Guarantee	-11.4306
▁dynamic	-11.4306
▁longest	-11.431
▁designers	-11.4316
▁militants	-11.4317
▁seller	-11.432
▁anytime	-11.4321
▁preserved	-11.4323
▁pipe	-11.4323
▁ethnic	-11.4324
▁mirror	-11.4324
▁oxygen	-11.4324
▁viewed	-11.4326
▁corrective	-11.4328
gam	-11.433
▁cafes	-11.4332
eung	-11.4338
▁wondering	-11.434
é	-11.4342
▁exploration	-11.4342
Governing	-11.4342
▁Gwangmyeong	-11.4343
▁complain	-11.4343
▁banner	-11.4344
▁mainstream	-11.4344
▁Harry	-11.4346
▁traces	-11.4346
▁humanities	-11.4347
▁Pung	-11.4349
▁noticeable	-11.4349
▁supplying	-11.4351
▁villa	-11.4355
▁excess	-11.4359
▁Survey	-11.436
▁LED	-11.436
▁circulation	-11.4361
▁comic	-11.4362
▁automobiles	-11.4367
▁warming	-11.4367
misunderstanding	-11.4368
▁submitting	-11.437
One	-11.4371
▁eased	-11.4374
▁elepha	-11.4375
▁jacket	-11.4378
▁vacancy	-11.4378
▁guitar	-11.4379
▁infectious	-11.4379
af	-11.4379
duk	-11.4379
▁Long	-11.4383
▁tenants	-11.4383
▁Seven	-11.4384
▁reflection	-11.439
eu	-11.439
▁comedy	-11.439
▁VR	-11.4393
▁humanitarian	-11.4397
▁juveniles	-11.4401
▁god	-11.4406
▁uncertain	-11.4414
▁lake	-11.4416
▁conducts	-11.4417
▁exhaust	-11.4421
mark	-11.4421
▁relative	-11.4426
▁Commissioner	-11.4432
commerce	-11.4432
▁scattered	-11.4433
▁detection	-11.4435
▁slowed	-11.4436
rap	-11.4438
▁arrange	-11.4439
▁Case	-11.4441
▁eighth	-11.4442
▁meetin	-11.4449
▁recalled	-11.445
▁Belgium	-11.4451
▁Th	-11.4453
▁organizational	-11.4453
▁zoo	-11.4457
▁rumor	-11.4458
rated	-11.446
▁undermine	-11.4461
▁surprising	-11.4463
▁vaccination	-11.4469
▁welcoming	-11.4469
▁Shipbuilding	-11.4469
▁cabinet	-11.447
def	-11.447
FI	-11.4471
▁spa	-11.4474
▁pink	-11.4478
▁Syria	-11.4484
▁grain	-11.4488
▁activist	-11.4489
▁pitchers	-11.4492
▁perfectly	-11.4492
▁staged	-11.4494
▁prevented	-11.45
▁strictly	-11.45
bot	-11.4503
▁JTBC	-11.4506
▁achieving	-11.4506
▁represented	-11.4506
▁auditorium	-11.4506
▁soaring	-11.4506
▁allocation	-11.4506
▁listened	-11.4507
▁tear	-11.4513
turn	-11.4519
tur	-11.452
employment	-11.4524
▁Renault	-11.4524
▁Dubai	-11.4524
▁believing	-11.4524
▁heaven	-11.4524
▁Yangpyeong	-11.4527
▁flooded	-11.453
▁seasonal	-11.4536
▁fatal	-11.4537
▁consistent	-11.4539
▁depicts	-11.454
▁fled	-11.4541
▁Baghdad	-11.4542
▁Creation	-11.4544
ace	-11.4544
▁minority	-11.4546
▁Choo	-11.4548
▁inspected	-11.4551
▁Products	-11.4554
▁Ter	-11.4556
▁tested	-11.4558
▁broker	-11.456
▁Pyeongchang	-11.4561
▁feedback	-11.4561
▁indicates	-11.4562
▁injection	-11.4563
▁ASEAN	-11.4567
▁boys	-11.4569
▁amended	-11.457
▁Ce	-11.4571
cat	-11.4575
▁Mart	-11.4578
▁sympathy	-11.4579
▁printed	-11.458
▁noticed	-11.4581
▁habit	-11.4588
▁discounts	-11.4589
zo	-11.4594
▁proof	-11.4597
▁evasion	-11.4598
▁Plus	-11.4598
▁certainly	-11.4598
hold	-11.4599
KRW	-11.46
hoo	-11.46
▁Peter	-11.46
▁snack	-11.4601
▁structures	-11.4604
geum	-11.4611
▁speeding	-11.4611
▁Fo	-11.4614
▁fatigue	-11.4616
▁properties	-11.4617
▁convert	-11.4622
ature	-11.4622
SO	-11.4624
▁lessons	-11.4631
▁cooked	-11.4632
▁gasoline	-11.4635
▁menus	-11.4636
▁Eunpyeong	-11.4636
▁pollutants	-11.4637
Governor	-11.4637
▁apparently	-11.4639
▁pants	-11.464
hole	-11.464
▁acted	-11.4645
▁catching	-11.4646
▁Bin	-11.4664
▁ranks	-11.4665
▁pouring	-11.4665
blo	-11.4669
▁rot	-11.467
▁lesson	-11.4671
▁Crime	-11.4672
▁mound	-11.4672
▁Summer	-11.4672
▁adds	-11.4673
▁Sept	-11.4674
col	-11.4675
▁dual	-11.4677
only	-11.4686
name	-11.4689
▁pump	-11.469
▁Attorney	-11.469
▁deterioration	-11.469
▁supermarket	-11.4691
fic	-11.4695
▁imagine	-11.4699
▁outlet	-11.4706
▁highlighted	-11.4708
GB	-11.471
▁commentator	-11.471
▁confused	-11.4711
AM	-11.4712
▁convened	-11.4719
▁charts	-11.4722
▁Alliance	-11.4728
▁crossing	-11.4732
▁relay	-11.4732
▁Enterprise	-11.4733
TO	-11.4734
▁traded	-11.4736
even	-11.4736
▁conservatives	-11.4737
▁bird	-11.4737
geo	-11.474
▁poisoning	-11.4741
post	-11.4743
▁Bolton	-11.4747
▁Particularly	-11.4747
▁reconciliation	-11.4747
▁dried	-11.4747
cen	-11.4749
▁Honam	-11.4751
▁detained	-11.4751
▁Gwan	-11.4754
table	-11.4754
▁stairs	-11.4765
▁excuse	-11.4765
▁Angel	-11.4765
▁Holdings	-11.4765
▁Export	-11.4766
yi	-11.4766
Seo	-11.4767
gae	-11.477
▁pedestrian	-11.4771
▁preparations	-11.4773
▁convene	-11.4774
yard	-11.4774
▁oldest	-11.4775
▁overnight	-11.4778
▁angle	-11.4784
▁pottery	-11.4784
▁approaching	-11.4785
▁sticker	-11.4792
▁Ah	-11.4792
more	-11.4795
▁output	-11.4797
▁rushed	-11.4801
▁enthusiasm	-11.4803
▁extensive	-11.4803
▁imagination	-11.4803
▁Indeed	-11.4803
awa	-11.4805
ening	-11.4806
▁comprehensively	-11.4808
▁Sales	-11.4809
cost	-11.4811
▁hiding	-11.4811
▁strongest	-11.4814
▁bronze	-11.4815
▁depth	-11.4819
▁gym	-11.4822
▁nail	-11.4822
▁remarkable	-11.4824
▁prohibit	-11.4826
▁exhausted	-11.4834
band	-11.4837
▁Working	-11.4838
▁Expenses	-11.4841
▁produces	-11.4843
▁surveyed	-11.4846
▁greet	-11.4846
▁notable	-11.4848
RO	-11.4849
▁demonstrate	-11.4849
▁distinguish	-11.4851
▁defend	-11.4855
▁supreme	-11.486
▁unmanned	-11.486
▁tablet	-11.4865
▁Artist	-11.4869
raw	-11.4872
▁FIFA	-11.4879
▁calculating	-11.4879
▁waited	-11.488
▁nurse	-11.4885
▁veteran	-11.4886
lli	-11.4889
▁Citizen	-11.4889
hood	-11.4895
▁dealer	-11.4895
▁Convergence	-11.4898
▁plenty	-11.4898
▁Brown	-11.4898
IC	-11.49
bed	-11.49
baek	-11.4902
from	-11.4905
▁commissioner	-11.4906
▁none	-11.4907
umb	-11.4907
gwang	-11.4909
▁grammar	-11.4917
▁pioneer	-11.4917
▁significance	-11.4917
▁lover	-11.4923
▁renowned	-11.4923
ound	-11.4924
utonomous	-11.4926
▁cakes	-11.4929
▁Inside	-11.4929
▁aides	-11.4931
power	-11.4931
▁urge	-11.4934
▁Switzerland	-11.4936
▁replacing	-11.4936
▁Relations	-11.4936
▁Fish	-11.4941
aid	-11.4942
▁lucky	-11.4942
▁melt	-11.4945
▁Nuri	-11.4947
▁[	-11.4951
On	-11.4958
een	-11.4959
▁Cla	-11.4962
▁blame	-11.4964
hosted	-11.4967
▁combat	-11.4969
▁bombing	-11.4971
rmed	-11.4972
▁custom	-11.4974
▁tropical	-11.4974
▁bin	-11.4976
▁meter	-11.4976
▁rocket	-11.4976
▁specify	-11.4983
▁statute	-11.4983
▁differently	-11.4984
▁moral	-11.4987
▁proceeded	-11.499
open	-11.4991
▁tape	-11.4992
▁Afghan	-11.4993
▁immune	-11.4993
▁parcel	-11.4993
#	-11.4993
▁doll	-11.4994
▁Col	-11.5005
vert	-11.5006
▁emphasis	-11.5012
▁urging	-11.5012
▁Story	-11.5014
▁backlash	-11.5015
▁disc	-11.5018
▁aide	-11.5021
▁interpret	-11.5024
SI	-11.5027
▁residing	-11.5032
▁prostitution	-11.5032
▁Gwanggyo	-11.5032
▁defectors	-11.5032
town	-11.5033
▁manufacture	-11.5036
bli	-11.5044
▁throwing	-11.5047
▁collusion	-11.5051
▁plot	-11.5051
▁referee	-11.5053
▁funny	-11.5053
▁starring	-11.5053
▁posture	-11.5053
▁lovers	-11.5059
▁ignored	-11.5061
IN	-11.5067
tier	-11.5069
▁irregular	-11.507
▁appreciation	-11.507
▁café	-11.507
sports	-11.507
▁Mirae	-11.5072
▁manages	-11.5073
▁expired	-11.5074
▁credibility	-11.509
▁unauthorized	-11.509
▁copyright	-11.509
▁refunded	-11.5094
▁pin	-11.5095
▁interim	-11.5097
▁Ball	-11.5104
▁eliminated	-11.5108
▁Personnel	-11.5109
▁mobility	-11.5109
▁crush	-11.511
▁weakness	-11.5112
tang	-11.5114
▁glasses	-11.5116
▁indirect	-11.5117
▁specialist	-11.5118
▁Ali	-11.5119
with	-11.512
▁Top	-11.512
burg	-11.512
▁practicing	-11.5129
▁swept	-11.5129
▁umbrella	-11.5129
▁flows	-11.5131
ibility	-11.5135
▁intentionally	-11.5136
▁Andong	-11.514
▁bribes	-11.514
▁deliberated	-11.5141
rum	-11.5146
▁coexist	-11.5148
▁fortress	-11.5148
▁cigarette	-11.515
pect	-11.5154
▁ward	-11.5156
▁villagers	-11.5158
▁rivers	-11.5158
▁crossed	-11.5158
▁cry	-11.5166
▁determining	-11.5168
▁emphasizing	-11.5168
▁prescribing	-11.5168
▁inflow	-11.5168
▁inequality	-11.5168
▁pillar	-11.5169
▁cleared	-11.517
▁Whether	-11.517
owner	-11.517
Gyeonggi	-11.518
ched	-11.5181
▁Pen	-11.5181
▁compulsory	-11.5187
▁prejudice	-11.5187
▁accessibility	-11.5188
▁interfere	-11.5188
▁NIS	-11.5188
bel	-11.5189
▁bull	-11.5191
▁climb	-11.5194
but	-11.5195
▁pets	-11.5199
▁tag	-11.5199
▁Part	-11.5207
▁fighters	-11.5207
▁embarrassed	-11.5207
▁utility	-11.5207
▁bother	-11.5207
▁DSC	-11.5209
▁reborn	-11.5209
▁drones	-11.521
breaking	-11.5223
▁Quality	-11.5226
▁gambling	-11.5226
▁refrigerator	-11.5226
▁bat	-11.5227
fr	-11.5234
rise	-11.5234
▁enacted	-11.5235
wang	-11.5238
▁Masan	-11.524
▁Mae	-11.5243
▁Hadong	-11.5244
▁brilliant	-11.5246
▁enormous	-11.5246
▁widespread	-11.5246
▁Daniel	-11.5246
▁marry	-11.5246
▁Osan	-11.5247
▁disruption	-11.5251
▁stones	-11.5253
▁assaulting	-11.5254
▁Come	-11.5255
▁scholar	-11.526
ahn	-11.5261
▁cheered	-11.5263
ric	-11.5266
▁Parliament	-11.5266
▁defensive	-11.5266
▁mysterious	-11.5266
▁recipe	-11.5266
▁wrapped	-11.5266
cher	-11.527
▁dye	-11.5271
▁tensions	-11.5281
▁sentences	-11.5285
▁Apartment	-11.5286
▁exercising	-11.5286
▁penalties	-11.5286
▁troupe	-11.5286
▁distrust	-11.5286
▁unity	-11.5288
▁flooding	-11.529
▁Ms	-11.529
▁overcoming	-11.5292
▁revoke	-11.5295
▁minds	-11.53
read	-11.5301
▁poem	-11.5301
▁SUV	-11.5302
▁Tomorrow	-11.5305
▁airplane	-11.5305
▁recurrence	-11.5305
▁instability	-11.5306
▁crying	-11.5306
▁tale	-11.5307
iti	-11.5311
▁Yeom	-11.5312
▁neighbor	-11.5319
▁depend	-11.532
Seoul	-11.532
now	-11.5324
▁Professional	-11.5325
▁dormitory	-11.5325
▁nurture	-11.5325
▁motorcycle	-11.5325
▁filing	-11.5326
▁Floor	-11.5326
▁Va	-11.5329
▁See	-11.5331
▁newborn	-11.5331
▁Rose	-11.5333
▁Around	-11.5336
wide	-11.5343
▁tenant	-11.5344
▁arriving	-11.5345
▁prescription	-11.5345
▁Performance	-11.5345
▁arose	-11.5346
▁occurring	-11.5347
ifying	-11.5349
▁allocated	-11.5352
▁airlines	-11.5353
▁reveals	-11.5359
▁Yeongdong	-11.5359
▁toxic	-11.5359
▁Mer	-11.5364
▁Cambodia	-11.5365
▁omitted	-11.5365
▁reliable	-11.5365
▁Measures	-11.5368
▁Wind	-11.537
hr	-11.5372
▁trans	-11.5376
active	-11.5377
▁boiler	-11.5377
▁kit	-11.5379
▁chemistry	-11.5385
▁vacant	-11.5385
▁covers	-11.5393
▁profile	-11.5394
▁petitioner	-11.54
▁Dongducheon	-11.5405
▁crucial	-11.5405
▁drought	-11.5405
▁medication	-11.5405
▁bubble	-11.5405
▁shook	-11.5405
▁ramen	-11.5405
▁threaten	-11.5408
▁Namsan	-11.5409
▁Hanyang	-11.5413
▁walks	-11.5414
So	-11.5416
▁demonstrations	-11.5418
ane	-11.5423
▁textbook	-11.5423
▁bold	-11.5424
▁hikes	-11.5425
▁plaintiff	-11.5425
▁presumed	-11.5425
chief	-11.5425
▁password	-11.5425
▁blanket	-11.5426
▁Psy	-11.5426
▁flowing	-11.5426
▁Oil	-11.5427
▁upgrade	-11.5429
▁jam	-11.5431
▁Pass	-11.5432
▁realizing	-11.5434
▁crafts	-11.5434
▁approximately	-11.5435
▁joke	-11.5439
▁Concern	-11.5443
shing	-11.5444
▁halls	-11.5444
▁Battle	-11.5445
▁Digital	-11.5445
▁description	-11.5445
▁messenger	-11.5445
▁occupancy	-11.5445
▁sorrow	-11.5445
▁flew	-11.5445
▁slight	-11.5445
▁strip	-11.5447
▁affiliate	-11.5452
▁activated	-11.5454
▁Teachers	-11.5456
▁elder	-11.5457
▁Cre	-11.5458
ES	-11.5461
▁electrical	-11.5461
▁predicts	-11.5463
▁sophisticated	-11.5465
▁brokerage	-11.5466
▁electronics	-11.5467
▁besides	-11.5468
▁Chemical	-11.5485
▁pavilion	-11.5485
▁Francisco	-11.5486
▁Gaza	-11.5487
▁detective	-11.5487
▁exhibit	-11.549
▁weekdays	-11.5491
▁spare	-11.5495
▁preferentially	-11.5499
AC	-11.5501
▁leaking	-11.5504
▁Tra	-11.5505
▁Gymnasium	-11.5506
▁Nexon	-11.5506
reliance	-11.5506
▁fingerprint	-11.5506
▁Gold	-11.5507
▁problematic	-11.5507
▁parked	-11.5509
▁ingredient	-11.5525
▁Account	-11.5526
▁daughters	-11.5526
▁deregulation	-11.5527
▁hitter	-11.5528
▁painter	-11.5532
▁translated	-11.5534
▁Sub	-11.5541
▁extract	-11.5543
▁reaches	-11.5544
prop	-11.5544
economic	-11.5545
▁clients	-11.5546
▁companion	-11.5546
▁extenuati	-11.5546
▁essence	-11.5546
▁bases	-11.555
▁exploded	-11.555
▁bottles	-11.5558
▁whatever	-11.5559
▁drill	-11.5566
▁reshuffle	-11.5567
▁terrible	-11.5567
bank	-11.5567
EN	-11.5568
▁conveniently	-11.5568
▁brief	-11.5568
ography	-11.557
▁worsen	-11.5573
▁viewer	-11.5573
▁Fine	-11.5575
▁conversations	-11.5576
▁emphasize	-11.5576
oon	-11.5576
▁ignore	-11.5576
▁recipients	-11.5577
▁Gyu	-11.5578
▁Bra	-11.5582
▁logo	-11.5584
▁allegation	-11.5587
▁inheritance	-11.5587
▁attends	-11.5588
▁till	-11.5588
▁nutrition	-11.5595
▁cigarettes	-11.5595
pet	-11.5597
▁Arena	-11.5597
▁suggestions	-11.56
▁Fourth	-11.5606
▁congress	-11.5607
third	-11.5607
▁ninth	-11.5607
▁routine	-11.5607
▁Parents	-11.5608
▁ankle	-11.5609
▁Finally	-11.561
▁Santa	-11.5615
mination	-11.5615
▁mentor	-11.5616
ryeong	-11.5619
▁poly	-11.5621
▁Mary	-11.5625
▁Perhaps	-11.5628
▁artifacts	-11.5628
▁imposing	-11.5628
▁reservoir	-11.5628
▁invention	-11.5628
▁Thus	-11.5629
▁prosperity	-11.5629
▁Gwangyang	-11.5629
ale	-11.5629
▁islands	-11.563
▁wise	-11.5632
▁organ	-11.5641
added	-11.5642
▁consultant	-11.5642
▁Edu	-11.5643
▁cuisine	-11.5648
ient	-11.5656
ugh	-11.5659
▁remembered	-11.5666
▁influential	-11.5669
▁slope	-11.5669
FC	-11.567
▁investigator	-11.567
▁Ram	-11.5677
▁Institution	-11.5678
▁calculate	-11.5679
▁Lion	-11.5684
▁deposited	-11.5686
▁input	-11.5686
▁entitled	-11.5689
▁syndrome	-11.5689
▁Muslim	-11.569
▁Monet	-11.5691
▁teaser	-11.5691
▁Asked	-11.5695
▁wound	-11.57
▁Nan	-11.5703
▁seeds	-11.5704
▁Hynix	-11.571
▁commuting	-11.571
▁inconvenient	-11.571
▁resumption	-11.571
▁grape	-11.571
ash	-11.5712
▁monk	-11.5712
▁Yeongam	-11.5715
▁associated	-11.5717
▁accelerate	-11.572
▁recommendations	-11.5721
rye	-11.5722
▁diplomat	-11.5726
▁confront	-11.5729
▁Compensation	-11.5731
▁absurd	-11.5731
▁subsidiaries	-11.5731
▁Advanced	-11.5731
▁Order	-11.5732
era	-11.5733
▁charter	-11.5741
▁introduces	-11.5743
phe	-11.5745
▁tours	-11.5749
▁architect	-11.5751
▁UNESCO	-11.5751
▁emphasizes	-11.5752
▁stolen	-11.5754
ST	-11.5764
tive	-11.577
▁Expectations	-11.5772
▁intangible	-11.5772
▁architectural	-11.5772
▁associations	-11.5773
▁fairly	-11.5779
▁united	-11.5781
▁Rev	-11.5782
▁hacking	-11.5793
▁Besides	-11.5793
▁Third	-11.5794
▁coat	-11.5796
POP	-11.5797
▁Stone	-11.5797
Ta	-11.5797
▁Beom	-11.5801
rain	-11.5802
▁bow	-11.5809
inter	-11.5812
▁pages	-11.5813
▁Statistical	-11.5814
▁leaf	-11.5814
▁Tree	-11.5814
▁radiation	-11.5814
▁avoiding	-11.5823
ban	-11.5825
▁wider	-11.5832
▁cumulative	-11.5835
phy	-11.5836
▁Hoon	-11.5843
▁negotiate	-11.5845
▁Mall	-11.5851
▁inconveniences	-11.5852
▁Bitcoin	-11.5855
▁obesity	-11.5855
▁orchestra	-11.5855
▁glance	-11.5855
vid	-11.5858
▁boasts	-11.586
▁coupon	-11.5861
OP	-11.5863
▁descendants	-11.5864
▁utilized	-11.5866
▁scan	-11.5874
ria	-11.5876
decentralization	-11.5876
▁challenging	-11.5876
▁preemptive	-11.5876
▁Pursu	-11.5877
▁photographer	-11.5881
▁Price	-11.5882
▁indirectly	-11.5884
mart	-11.5886
▁Code	-11.5887
▁summoned	-11.5891
▁legally	-11.5892
▁exercises	-11.5894
▁adjusting	-11.5897
▁Biegun	-11.5897
▁Terminal	-11.5897
▁default	-11.5897
▁evaluating	-11.5897
▁authorized	-11.59
▁righteous	-11.59
connect	-11.5904
▁retailers	-11.5908
▁Jincheon	-11.5909
▁cloudy	-11.5909
▁controlling	-11.591
▁privacy	-11.5919
▁Tech	-11.5921
▁Season	-11.5922
▁hundred	-11.5924
Su	-11.5929
tent	-11.5939
▁anxious	-11.594
▁delicate	-11.594
▁desert	-11.594
▁realization	-11.5941
▁Hanbok	-11.5944
▁counterpart	-11.595
▁Hanam	-11.595
▁rounds	-11.5953
Clo	-11.5955
▁combine	-11.5956
bol	-11.5959
▁Studio	-11.5961
▁Usually	-11.5961
▁intensified	-11.5961
▁Customs	-11.5962
▁Dar	-11.5962
▁developmental	-11.5963
▁pledged	-11.5963
▁kiss	-11.5964
National	-11.5966
▁avoided	-11.5966
▁evacuated	-11.5967
▁reactions	-11.597
FT	-11.597
▁variables	-11.5975
▁apps	-11.5977
▁bail	-11.5981
▁applause	-11.5982
▁deployment	-11.5983
aving	-11.5984
Because	-11.5987
▁thrown	-11.5988
▁triggered	-11.599
working	-11.5999
bor	-11.6003
▁awkward	-11.6003
▁CBS	-11.6003
▁repay	-11.6004
▁Interest	-11.6005
▁Nobel	-11.6005
pla	-11.6007
▁assess	-11.6014
harm	-11.6017
▁administrator	-11.6024
▁ourselves	-11.6024
▁exceptional	-11.6028
▁admissions	-11.6029
▁Study	-11.6031
▁broadcasters	-11.6031
▁lock	-11.6033
▁admit	-11.6039
▁probe	-11.604
Dragon	-11.6046
▁debts	-11.6048
▁cultivate	-11.6057
sub	-11.6061
▁opera	-11.6063
▁fairy	-11.6064
▁Nae	-11.6065
▁proceeding	-11.6067
▁Spokesman	-11.6067
▁cease	-11.6067
▁dramatically	-11.6068
▁Series	-11.6071
lib	-11.6071
▁workweek	-11.6073
▁interact	-11.6073
▁speakers	-11.6074
▁foreigner	-11.6081
▁Poli	-11.6085
gyun	-11.6086
▁Dodgers	-11.6089
▁reversal	-11.6089
▁kicked	-11.6099
▁suggestion	-11.61
ished	-11.61
▁blocks	-11.61
berg	-11.6101
▁Eco	-11.6104
▁commonly	-11.6106
▁Spirit	-11.611
▁brown	-11.611
▁clue	-11.611
▁convicted	-11.611
▁dependent	-11.6112
▁Choe	-11.6113
▁Bri	-11.6113
▁coin	-11.6114
▁Futures	-11.6118
▁worsened	-11.6124
▁Assessment	-11.6132
▁eldest	-11.6132
▁fishermen	-11.6132
▁pagoda	-11.6132
▁spectators	-11.6132
▁Railroad	-11.6132
▁Paldang	-11.6132
▁Actually	-11.6135
TC	-11.6139
▁assumed	-11.6141
▁resting	-11.6142
▁socially	-11.6144
▁Pla	-11.6144
▁containers	-11.6146
▁reforms	-11.6153
▁Graduate	-11.6153
▁knife	-11.6153
▁rookie	-11.6153
▁soybean	-11.6153
▁surname	-11.6153
▁pesticide	-11.6153
ffi	-11.6154
▁transferring	-11.6157
area	-11.6157
▁briefly	-11.616
▁reservations	-11.6164
▁intensively	-11.6168
▁investigators	-11.6173
▁module	-11.6175
▁stabilization	-11.6175
▁Wonju	-11.6175
▁belatedly	-11.6177
▁inventory	-11.6178
▁Jack	-11.618
▁unemployed	-11.618
▁blamed	-11.6186
joong	-11.6187
▁Multi	-11.6191
▁lamp	-11.6191
▁dismantle	-11.6195
▁Heroes	-11.6196
▁sunlight	-11.6197
▁IP	-11.6198
▁transformation	-11.6199
▁NH	-11.6201
▁compliance	-11.6202
▁Koh	-11.6203
League	-11.6205
▁Byun	-11.6208
zer	-11.6208
Dong	-11.6209
▁helicopters	-11.6209
▁nurses	-11.6209
▁Bal	-11.6209
▁pros	-11.6211
▁breeding	-11.6212
▁Far	-11.6216
▁occupy	-11.6218
▁mounting	-11.6218
▁compound	-11.6218
▁reappointed	-11.6219
▁respected	-11.6223
▁allies	-11.6226
▁regain	-11.6228
▁raid	-11.6228
have	-11.6228
▁affair	-11.6229
edge	-11.6229
▁Aug	-11.6236
▁brings	-11.6238
▁specialists	-11.6239
▁BioLogics	-11.624
▁nickname	-11.624
▁salad	-11.624
▁Shinzo	-11.6242
▁Guardian	-11.6242
▁maybe	-11.6245
Dae	-11.6245
purpose	-11.6252
▁fighter	-11.6255
NE	-11.6256
than	-11.626
▁Liverpool	-11.6262
▁clarify	-11.6262
▁measured	-11.6265
▁normalize	-11.6267
▁shorten	-11.6267
chol	-11.6267
▁shouted	-11.6269
▁attaching	-11.6271
round	-11.6272
▁component	-11.6273
coming	-11.6273
▁boarding	-11.6273
nel	-11.6278
▁relieved	-11.6278
▁Commercial	-11.6283
▁erupted	-11.6283
▁gentle	-11.6283
▁odor	-11.6284
▁reactor	-11.6289
late	-11.6291
▁withdrawn	-11.6292
▁servant	-11.6295
▁youngest	-11.6297
▁firmly	-11.6297
▁corrected	-11.6297
Sa	-11.6301
wood	-11.6304
▁Happiness	-11.6305
▁Microsoft	-11.6305
▁consignment	-11.6305
▁strive	-11.6305
▁choir	-11.6305
▁headache	-11.6305
▁Hyuk	-11.6306
▁vertical	-11.6306
▁possession	-11.6308
▁load	-11.6308
▁notes	-11.6309
week	-11.631
flu	-11.6314
most	-11.6321
▁pyeong	-11.6321
Our	-11.6324
▁Stephen	-11.6327
▁modified	-11.6327
▁uncertainties	-11.6327
▁minus	-11.6328
▁climbing	-11.6328
▁bicycles	-11.6329
▁shoe	-11.6335
▁unfold	-11.6338
▁merchant	-11.634
▁decreases	-11.6341
▁celebrated	-11.6342
▁findings	-11.6343
▁vivid	-11.6343
▁shirt	-11.6345
▁Communist	-11.6349
▁KakaoTalk	-11.6349
▁Resort	-11.6349
▁wisdom	-11.6349
▁ideology	-11.6349
ax	-11.6349
▁commerce	-11.635
▁Mil	-11.6355
▁broadcasted	-11.6358
handed	-11.6362
BO	-11.6367
▁declining	-11.6371
▁sympathize	-11.6371
pal	-11.6371
▁publicize	-11.6373
▁SM	-11.6377
▁symbolic	-11.6378
▁treating	-11.6385
nn	-11.6389
▁opt	-11.6394
▁headquarter	-11.6394
koo	-11.6394
▁starter	-11.6394
▁bones	-11.6396
▁DNA	-11.6396
▁delegate	-11.6396
ltitude	-11.6399
▁photography	-11.6401
▁afterward	-11.6402
dia	-11.6405
weight	-11.6407
lf	-11.6409
▁journal	-11.6409
▁concepts	-11.6414
▁Challenge	-11.6415
▁Medicine	-11.6415
▁beneficiaries	-11.6415
▁grievance	-11.6415
▁PyeongChang	-11.6415
▁disbursement	-11.6416
▁triple	-11.6422
aw	-11.6423
▁warrants	-11.6426
▁accommodate	-11.6427
▁lasted	-11.6427
▁moderate	-11.6427
▁politician	-11.6429
▁reversed	-11.6433
▁caring	-11.6433
lee	-11.6436
rough	-11.6436
gel	-11.6436
▁providers	-11.6437
▁delinquent	-11.6438
RA	-11.6438
▁circuit	-11.6439
Da	-11.6441
▁stopping	-11.6442
▁postpone	-11.6448
▁believers	-11.645
▁pretend	-11.645
nified	-11.6452
▁matching	-11.6453
cast	-11.6457
▁IC	-11.6457
▁Fashion	-11.646
▁gallery	-11.646
▁protocol	-11.646
ette	-11.6463
kwang	-11.6466
▁masks	-11.647
Samsung	-11.6474
▁remodeling	-11.6482
▁boycott	-11.6482
▁Scholastic	-11.6483
▁hungry	-11.6483
ala	-11.6484
▁fog	-11.6484
▁crown	-11.6488
mission	-11.6494
▁shaken	-11.6495
interest	-11.6497
▁Dai	-11.6498
complete	-11.6498
▁closest	-11.6504
▁amusement	-11.6504
▁chamber	-11.6504
▁Photo	-11.6504
▁Gyeyang	-11.6505
▁sunset	-11.6505
▁permitted	-11.6506
▁stew	-11.6507
RE	-11.6507
▁Ability	-11.6509
▁lecturer	-11.6518
Ordinance	-11.6519
▁Standard	-11.652
▁Subsidies	-11.6527
▁calendar	-11.6527
▁commodity	-11.6527
▁regrettable	-11.6527
▁disagreement	-11.6528
▁intend	-11.6536
▁steam	-11.6538
▁stressing	-11.6539
reum	-11.6542
▁alternatives	-11.6543
▁subscribe	-11.6545
dimensional	-11.6547
▁ancestors	-11.6549
▁overdue	-11.6549
▁kingdom	-11.6549
kan	-11.655
▁poetry	-11.6551
▁classic	-11.6553
▁acknowledge	-11.6553
▁secrets	-11.6556
▁delegates	-11.6558
▁advise	-11.6562
special	-11.6564
▁proceeds	-11.6565
▁neutral	-11.657
▁thankful	-11.657
▁constitute	-11.6572
▁smiling	-11.6572
▁unconscious	-11.6573
▁firefighting	-11.6575
▁weigh	-11.6576
fact	-11.6582
▁craft	-11.6585
▁hospitalization	-11.6585
▁athlete	-11.6589
▁advancement	-11.659
▁dental	-11.6594
▁blast	-11.6595
▁lovely	-11.6595
▁decides	-11.66
▁drank	-11.6617
▁souvenir	-11.6617
▁lottery	-11.6617
▁reckless	-11.6617
▁Hangeul	-11.6617
▁procurement	-11.6617
▁conveyed	-11.6618
▁foldable	-11.6618
▁forgot	-11.6618
▁mess	-11.6622
▁terminated	-11.6626
▁Ser	-11.6632
▁engineer	-11.6632
▁Mid	-11.6633
▁Holy	-11.6637
▁landslide	-11.6639
▁malicious	-11.6639
▁chaos	-11.6639
▁contemporary	-11.664
▁Things	-11.664
▁reinforcement	-11.6641
▁restroom	-11.6642
▁complaining	-11.6642
▁sisters	-11.6643
ita	-11.6643
▁enhanced	-11.6648
RI	-11.6649
▁Mur	-11.6649
rack	-11.665
east	-11.6652
▁Kar	-11.6652
▁Deal	-11.6653
oe	-11.6654
▁Cold	-11.6657
▁beverage	-11.6658
▁Put	-11.6658
▁keynote	-11.6662
▁comparing	-11.6662
▁eager	-11.6662
▁click	-11.6662
▁Gangbuk	-11.6662
▁Zero	-11.6664
oy	-11.6668
▁accountant	-11.6672
live	-11.6673
cin	-11.6673
▁anyway	-11.6674
itu	-11.6679
▁Regulation	-11.6681
away	-11.6683
▁revelation	-11.6685
▁unfavorable	-11.6685
▁scrap	-11.6685
MI	-11.669
▁gang	-11.6691
▁encouragement	-11.6692
▁celebrating	-11.6692
▁Bum	-11.6704
▁overlap	-11.6707
▁Express	-11.6707
▁Pharmaceutical	-11.6708
▁orange	-11.6709
▁farmland	-11.6709
nae	-11.6711
bla	-11.6713
oli	-11.6718
▁Allowances	-11.6722
▁pity	-11.6724
▁relaxed	-11.6726
keeper	-11.6727
inch	-11.6727
match	-11.6729
▁Newspaper	-11.673
▁collision	-11.673
▁decoration	-11.673
▁faculty	-11.673
▁vacuum	-11.673
▁straw	-11.673
yeo	-11.6731
▁terrorism	-11.6731
paid	-11.6732
ole	-11.6733
▁hurts	-11.6734
▁shine	-11.6735
▁physically	-11.6736
▁Gae	-11.6737
▁Start	-11.6739
▁brake	-11.6739
▁protesting	-11.6741
▁practiced	-11.6742
pin	-11.6745
▁taxpayers	-11.675
▁Netherlands	-11.6753
▁paradigm	-11.6753
▁Growth	-11.6753
▁hanbok	-11.6753
▁Railway	-11.6754
▁sovereignty	-11.6754
▁lifetime	-11.6759
▁obligations	-11.676
▁Low	-11.6761
ID	-11.6765
▁Player	-11.6773
▁sanction	-11.6774
SE	-11.6775
▁Note	-11.6776
▁enactment	-11.6777
▁Main	-11.678
rooted	-11.6782
▁pleased	-11.6786
▁sparked	-11.6786
▁locked	-11.679
▁outline	-11.6793
▁intensity	-11.6796
ele	-11.6797
Ar	-11.6799
▁honey	-11.6799
▁ambulance	-11.6799
▁tragedy	-11.6799
▁addiction	-11.6799
▁Early	-11.6799
▁Smith	-11.6799
▁gospel	-11.6799
bon	-11.68
▁Estate	-11.6802
▁halt	-11.6807
▁Ab	-11.6808
▁Mobile	-11.6809
▁planted	-11.681
▁exported	-11.6811
▁Add	-11.6811
▁Duk	-11.6812
Ju	-11.6814
▁Win	-11.6814
▁thermal	-11.6815
▁choices	-11.6817
vil	-11.6817
▁preventive	-11.682
▁motivation	-11.6822
▁observers	-11.6824
▁chip	-11.6825
▁Gyeonggido	-11.6826
▁Qua	-11.6831
▁mentally	-11.6834
ridge	-11.684
▁incentive	-11.6844
▁holes	-11.6844
▁Judiciary	-11.6845
▁commemoration	-11.6845
▁burial	-11.6845
▁luncheon	-11.6846
everal	-11.6851
▁paste	-11.6853
▁pensions	-11.6857
▁deepening	-11.6857
▁execute	-11.6858
DP	-11.6863
cap	-11.6863
▁Colombia	-11.6865
PGA	-11.6865
craft	-11.6866
▁sculpture	-11.6867
▁auxiliary	-11.6868
▁evacuation	-11.6868
▁fusion	-11.6868
▁Flower	-11.6869
▁audio	-11.6874
▁Christianity	-11.6875
▁possess	-11.6877
governmental	-11.6877
▁Sand	-11.688
▁mechanical	-11.6881
rie	-11.6883
▁Ceremony	-11.6892
▁nowadays	-11.6892
▁trapped	-11.6892
▁forgotten	-11.6892
▁rejection	-11.6894
▁forcing	-11.6894
▁pressed	-11.6902
▁endless	-11.6905
▁Rome	-11.6906
hai	-11.6909
nar	-11.6912
lly	-11.6912
▁Ethics	-11.6915
▁Juvenile	-11.6915
▁OLED	-11.6915
▁volatility	-11.6915
▁hardly	-11.6917
▁waist	-11.6917
fect	-11.6918
▁satisfy	-11.6918
▁flock	-11.6927
▁engineers	-11.6928
▁communist	-11.6931
AD	-11.6931
▁weakening	-11.6934
▁beans	-11.6935
▁lunar	-11.6938
▁coaches	-11.6938
▁cooperatives	-11.6943
▁plunged	-11.6946
▁competed	-11.6947
▁Ac	-11.6955
▁rap	-11.6956
liter	-11.6964
▁BBC	-11.6965
▁Doctor	-11.6968
▁Mat	-11.6969
▁Abu	-11.6972
▁Gal	-11.6972
eva	-11.6978
▁spy	-11.698
▁publisher	-11.6981
cade	-11.6983
▁burdened	-11.6983
▁shoulders	-11.6983
▁extending	-11.6983
▁fantastic	-11.6985
▁isolated	-11.6985
▁legend	-11.6985
▁Resident	-11.6986
▁portray	-11.6998
▁Beauty	-11.6998
▁token	-11.7001
▁Gap	-11.7005
▁NATO	-11.7008
▁workforce	-11.7008
▁comedian	-11.7009
▁keyword	-11.7009
▁rocks	-11.7009
nyeong	-11.7011
▁continent	-11.7012
▁normalization	-11.7014
LE	-11.7015
west	-11.7015
▁deploy	-11.7018
▁unveil	-11.702
▁treasure	-11.7027
ential	-11.703
▁Austria	-11.7032
▁cliff	-11.7032
▁arguing	-11.7032
▁Father	-11.7032
▁ROK	-11.7032
▁vast	-11.7032
▁disappearance	-11.7033
▁testified	-11.7037
▁Wage	-11.704
check	-11.7041
▁assume	-11.7046
LO	-11.7048
▁geographical	-11.7056
esthetic	-11.7056
▁criminals	-11.7056
▁Egyptian	-11.706
▁pitch	-11.706
▁fastest	-11.7061
dar	-11.7064
▁worrying	-11.7068
lessly	-11.7073
▁construct	-11.7073
▁Too	-11.7075
▁wounds	-11.7077
▁chapter	-11.7079
▁withdrew	-11.7079
▁Richard	-11.7079
▁Yellow	-11.708
▁whale	-11.708
▁Coin	-11.708
▁calligraphy	-11.7083
▁barely	-11.7083
▁reserves	-11.7087
▁nano	-11.7087
▁lens	-11.7089
ini	-11.7092
▁recognizes	-11.7096
▁attendant	-11.7099
▁Bangkok	-11.7103
▁commodities	-11.7103
PM	-11.7104
zu	-11.7105
▁mold	-11.7106
▁developer	-11.7107
ama	-11.7108
▁reorganized	-11.7111
▁Reporter	-11.7115
▁intensifying	-11.7117
TI	-11.7122
▁pond	-11.7122
OT	-11.7126
▁Controversy	-11.7127
▁deciding	-11.7127
▁woke	-11.7127
▁polarization	-11.7127
gyeom	-11.7128
▁Suh	-11.7128
▁Poland	-11.713
▁toys	-11.713
▁compiled	-11.7131
▁Nine	-11.7134
test	-11.7135
▁intervene	-11.714
▁revived	-11.7143
▁hung	-11.7145
▁selects	-11.7148
▁COEX	-11.715
▁kiln	-11.715
▁priest	-11.7151
▁Cafe	-11.7152
floor	-11.7153
ranked	-11.7154
▁healthcare	-11.7154
▁vegetable	-11.7154
trust	-11.7159
▁trauma	-11.7159
▁mining	-11.7159
▁Hand	-11.7161
wed	-11.7163
▁upgraded	-11.7163
ew	-11.7165
▁Mor	-11.717
▁performers	-11.717
▁specialize	-11.7186
▁insult	-11.7187
bay	-11.7189
▁Max	-11.7191
ites	-11.7194
▁stole	-11.7195
AL	-11.7197
▁liquidity	-11.7201
▁auditors	-11.7203
▁unilaterally	-11.7204
▁Mars	-11.7204
▁fears	-11.7209
EX	-11.7209
▁bump	-11.7212
▁planet	-11.7216
▁belly	-11.7217
▁commented	-11.722
▁occupant	-11.7222
▁respective	-11.7222
▁subsequent	-11.7222
Provisional	-11.7222
▁Philip	-11.7222
▁Honor	-11.7223
▁experiments	-11.7225
▁classification	-11.7227
▁activate	-11.7236
▁PD	-11.7244
▁hinder	-11.7246
▁sibling	-11.7246
▁termination	-11.7246
▁cinema	-11.7246
▁Folk	-11.7246
▁VIP	-11.7247
▁icon	-11.7247
lov	-11.7252
▁dominate	-11.726
▁define	-11.7262
▁Kun	-11.7267
▁Chelsea	-11.727
▁outflow	-11.727
▁spectacular	-11.727
▁webtoon	-11.727
▁Standing	-11.727
▁wildfire	-11.7271
▁biological	-11.7271
▁breakdown	-11.7272
▁burdensome	-11.7272
▁Personal	-11.7272
cia	-11.7276
▁absorb	-11.7281
All	-11.7282
▁prisoners	-11.7287
▁Sho	-11.7287
▁mud	-11.7287
▁episodes	-11.729
dec	-11.7291
▁KINTEX	-11.7295
▁retaliation	-11.7295
gap	-11.7295
▁SW	-11.7296
▁accordingly	-11.73
▁~	-11.73
you	-11.7306
▁intent	-11.7308
▁distinguished	-11.731
ologist	-11.7317
▁demolition	-11.7319
▁Disney	-11.7319
▁pill	-11.7323
Russia	-11.7325
▁Ze	-11.733
cular	-11.7333
▁Hav	-11.7333
pped	-11.7336
▁TF	-11.7337
▁dispose	-11.7341
▁planting	-11.7342
▁Gallery	-11.7343
▁communicating	-11.7343
▁diversify	-11.7343
▁luxurious	-11.7343
▁remittance	-11.7343
▁freezing	-11.7343
core	-11.7343
▁Auto	-11.7344
▁boring	-11.7344
IMF	-11.7348
Please	-11.7349
▁panels	-11.7353
▁cups	-11.7353
yl	-11.7361
▁employers	-11.7361
keun	-11.7361
▁Unfortunately	-11.7367
▁Yongbyon	-11.7367
▁appraisal	-11.7367
▁chaebol	-11.7367
▁collateral	-11.7367
▁fraudulent	-11.7367
▁immunity	-11.7367
▁sanitary	-11.7367
▁naval	-11.7367
▁adverse	-11.7368
▁pledges	-11.7368
ique	-11.7368
▁pipes	-11.7369
▁Pyeong	-11.737
iver	-11.7374
▁carries	-11.7375
▁soap	-11.7376
▁provider	-11.7379
case	-11.7386
quarter	-11.7387
▁scared	-11.7389
▁beneficial	-11.7392
▁migrant	-11.7392
▁miracle	-11.7392
▁tobacco	-11.7392
▁abusing	-11.7392
▁automaker	-11.7392
▁sidewalk	-11.7392
▁dying	-11.7394
payment	-11.7396
▁countless	-11.7396
▁cloth	-11.7396
▁witnessed	-11.7397
▁Sign	-11.7399
▁pastors	-11.7404
logical	-11.7406
▁pigs	-11.741
▁ratification	-11.7416
▁cotton	-11.7416
▁indication	-11.7416
▁validity	-11.7418
▁preach	-11.742
EM	-11.7433
▁expresses	-11.7434
▁Trans	-11.7435
▁disadvantage	-11.7438
aka	-11.7439
▁Cuba	-11.7441
▁legitimate	-11.7441
▁oriental	-11.7441
▁anchor	-11.7442
▁devoted	-11.7446
▁totally	-11.7452
▁designating	-11.7452
▁Feb	-11.7454
▁updated	-11.746
▁tombs	-11.7465
▁eligibility	-11.7465
▁deserve	-11.7465
▁plain	-11.7465
▁Display	-11.7466
▁Tongyeong	-11.7466
▁Lot	-11.7469
▁Guide	-11.747
▁sensors	-11.7471
▁lane	-11.7474
key	-11.7474
▁countermeasure	-11.7474
▁supplier	-11.7474
▁clock	-11.7474
▁bookstore	-11.7475
▁earning	-11.7477
▁economically	-11.7482
▁pitching	-11.7486
load	-11.7489
▁optimal	-11.749
▁modify	-11.749
▁ripple	-11.749
▁dragon	-11.7491
two	-11.7491
▁Educational	-11.7493
▁Cat	-11.7508
▁GDP	-11.7508
tail	-11.7511
iya	-11.7512
▁Together	-11.7515
▁backdrop	-11.7515
▁hesitate	-11.7515
▁commute	-11.7516
▁gray	-11.7516
vision	-11.7516
▁probation	-11.7524
cies	-11.7524
▁struggled	-11.7524
cla	-11.7528
▁Seogwipo	-11.7539
▁virtuous	-11.7539
▁specifications	-11.754
▁accessible	-11.7542
▁fitness	-11.7544
▁dividends	-11.7545
season	-11.7548
▁Cam	-11.7552
▁recogniz	-11.7555
▁eradicate	-11.7562
▁conceal	-11.7564
▁happily	-11.7564
▁Collection	-11.7564
▁exterior	-11.7564
rich	-11.7564
▁unjust	-11.7565
▁rite	-11.7567
MB	-11.7569
gress	-11.7569
ender	-11.7571
will	-11.7571
▁organizers	-11.7572
▁shell	-11.7573
While	-11.7574
▁Front	-11.7574
vice	-11.7578
duct	-11.7583
▁ruin	-11.7585
▁IoT	-11.7586
▁aptitude	-11.7589
▁athletic	-11.7589
▁craze	-11.7589
▁neither	-11.7589
▁scratch	-11.7589
▁entities	-11.7589
▁verge	-11.7589
▁emergence	-11.7589
▁dining	-11.7591
▁Anyone	-11.7591
▁shadow	-11.7591
flight	-11.7602
▁requirement	-11.7608
▁freight	-11.7614
urge	-11.7616
▁steal	-11.7619
▁guided	-11.7623
Council	-11.7625
sexual	-11.7625
vor	-11.7626
CP	-11.7634
▁Martin	-11.7638
▁Pavilion	-11.7639
▁Presbyterian	-11.7639
▁Tru	-11.7642
MC	-11.7645
▁patents	-11.7647
▁conductor	-11.7649
▁retire	-11.7649
▁recipient	-11.7651
rator	-11.7655
▁Ci	-11.7657
▁Ve	-11.7659
▁faithful	-11.766
▁Material	-11.7664
▁salaries	-11.7664
▁spokesperson	-11.7664
▁Kiwoom	-11.7664
▁attendees	-11.7664
▁infringement	-11.7665
▁tube	-11.7665
▁Sector	-11.7666
bre	-11.7666
▁raining	-11.7667
▁euros	-11.7669
bing	-11.767
▁disorders	-11.7671
gor	-11.7677
▁picking	-11.768
▁terror	-11.7681
▁Still	-11.7686
holder	-11.7686
▁strengths	-11.7687
▁intelligent	-11.7689
▁fintech	-11.7689
▁hiking	-11.7689
▁harmonize	-11.7689
osis	-11.7697
▁railways	-11.7698
▁tile	-11.7699
▁Inha	-11.7699
first	-11.7701
child	-11.7702
market	-11.7702
▁entirely	-11.7706
▁strain	-11.7709
▁conjunction	-11.7714
▁fluctuation	-11.7714
▁measles	-11.7714
▁refusal	-11.7714
▁torture	-11.7715
MD	-11.7724
▁tail	-11.7731
▁expires	-11.7734
ked	-11.7736
▁generous	-11.774
▁Coordination	-11.774
▁drum	-11.774
▁rented	-11.7741
▁noble	-11.7741
▁precedent	-11.7742
▁Messi	-11.7743
▁Duty	-11.7743
ili	-11.7746
played	-11.7747
▁midfielder	-11.7751
food	-11.7752
kilometer	-11.7762
unconstitutional	-11.7765
▁Overseas	-11.7765
▁refreshing	-11.7765
▁EXO	-11.7765
▁gross	-11.7765
▁headlines	-11.7767
▁landmark	-11.7767
▁Rain	-11.7768
▁poems	-11.7771
▁consumed	-11.7774
▁demonstrated	-11.7779
▁habitat	-11.7782
president	-11.7782
director	-11.7783
▁soju	-11.7783
▁assign	-11.7785
▁Typhoon	-11.779
▁dioxide	-11.779
▁spatial	-11.779
▁Livestock	-11.779
▁balloon	-11.7791
▁fluent	-11.7792
▁retreat	-11.7793
▁attachment	-11.7793
uma	-11.7793
▁Eight	-11.7799
atory	-11.7799
▁abandon	-11.7802
▁Event	-11.7804
▁wing	-11.7806
▁Choir	-11.7807
page	-11.7809
rest	-11.7809
▁trusted	-11.7813
▁silence	-11.7816
▁Distribution	-11.7816
▁committing	-11.7817
▁vowed	-11.7821
▁consisted	-11.7824
▁rub	-11.7825
bap	-11.7828
▁borrowing	-11.7829
▁reinforce	-11.7829
▁resemble	-11.783
▁depart	-11.7835
cient	-11.7836
▁Liberation	-11.7841
▁Qaeda	-11.7841
▁Saemaul	-11.7841
▁exchanging	-11.7841
▁fortune	-11.7841
▁booking	-11.7845
Some	-11.7847
▁distorted	-11.7847
▁packages	-11.7847
▁fits	-11.785
▁weaken	-11.785
▁runway	-11.7853
▁stationed	-11.7856
▁Whenever	-11.7858
woman	-11.7859
lk	-11.786
itive	-11.7865
conscious	-11.7865
▁casual	-11.7867
▁marathon	-11.7867
▁breach	-11.7867
▁Billboard	-11.7867
▁Spec	-11.7867
step	-11.7872
very	-11.7873
ato	-11.7873
▁Check	-11.7874
▁finances	-11.7875
▁chips	-11.788
▁renew	-11.788
▁lit	-11.7881
▁forgive	-11.7885
▁recovering	-11.789
▁taekwondo	-11.7892
▁Tang	-11.7893
▁queen	-11.7893
▁unpaid	-11.7894
mae	-11.7895
ular	-11.7895
▁Lady	-11.7896
▁Pat	-11.7898
▁lab	-11.7899
▁Ship	-11.7901
▁individually	-11.7903
▁excessively	-11.7903
▁frustrated	-11.7918
▁cried	-11.7919
▁Style	-11.7919
▁idle	-11.7921
▁stipulated	-11.7925
▁Countermeasures	-11.7931
▁independently	-11.7933
▁amend	-11.7937
ffer	-11.7937
·	-11.7944
▁memorable	-11.7944
▁penetrate	-11.7944
ashi	-11.7944
▁rainfall	-11.7945
▁Dow	-11.7945
▁editor	-11.7946
▁Tim	-11.7956
▁blowing	-11.7959
▁noon	-11.7962
cult	-11.7962
▁arch	-11.7964
▁Knowledge	-11.797
▁Nowadays	-11.797
▁liaison	-11.797
▁blessing	-11.797
▁dominant	-11.797
▁fiber	-11.797
▁martyr	-11.797
▁elite	-11.797
▁sponsorship	-11.797
▁commentary	-11.7976
▁openly	-11.7978
▁enforced	-11.7978
rc	-11.798
neung	-11.7983
Sun	-11.7984
ena	-11.7986
▁overlook	-11.7988
▁employ	-11.7989
tomic	-11.7989
▁attacking	-11.799
▁Geoje	-11.7991
▁assert	-11.7991
▁beds	-11.7991
rail	-11.7993
colored	-11.7993
▁costumes	-11.7994
▁Hawaii	-11.7996
▁Modern	-11.7996
▁radar	-11.7996
▁flour	-11.7996
▁fiercely	-11.7996
▁spill	-11.7997
PC	-11.7997
▁excavated	-11.7998
▁YG	-11.8
▁Trust	-11.8001
hyo	-11.8002
▁predicting	-11.8005
▁scholarships	-11.8005
▁element	-11.8013
▁Lin	-11.8016
▁coupons	-11.8016
▁farmer	-11.802
▁disturb	-11.8021
▁arrears	-11.8022
▁cabbage	-11.8022
▁revival	-11.8022
▁steak	-11.8022
▁Everything	-11.8022
other	-11.8022
▁mineral	-11.8022
▁cellphone	-11.8022
UN	-11.8023
▁latter	-11.8023
▁laser	-11.8024
▁absolutely	-11.8034
mmer	-11.8037
looking	-11.8037
shot	-11.8039
▁noodle	-11.8041
▁outcomes	-11.8044
▁fur	-11.8045
▁lotus	-11.8046
▁Michuhol	-11.8048
▁Vladimir	-11.8048
▁naked	-11.8048
▁foul	-11.8048
zen	-11.805
▁prince	-11.8051
▁ghost	-11.8051
▁Host	-11.8052
▁odds	-11.8054
base	-11.8054
▁stalled	-11.8056
▁disadvantages	-11.8065
watch	-11.8067
▁potato	-11.8071
▁Assistant	-11.8074
▁forefront	-11.8074
▁wheelchair	-11.8074
▁ballistic	-11.8075
▁Moreover	-11.8075
▁purifiers	-11.8079
Moon	-11.8081
MP	-11.8082
▁coaching	-11.8085
park	-11.8089
▁Pur	-11.8094
▁indicator	-11.8094
▁obstacle	-11.8094
Bu	-11.8094
▁skating	-11.81
▁spokeswoman	-11.81
▁mild	-11.81
being	-11.81
born	-11.81
▁persist	-11.8102
▁Kids	-11.8103
BI	-11.8105
▁protective	-11.811
▁shouting	-11.8115
▁bars	-11.8115
Gangnam	-11.812
▁Guri	-11.812
▁thereto	-11.8123
▁trace	-11.8125
▁carpool	-11.8126
▁Forestry	-11.813
▁chemicals	-11.8137
taking	-11.8137
NC	-11.814
▁checkup	-11.8141
▁doubts	-11.8142
national	-11.8142
▁definition	-11.8143
▁greeted	-11.8143
Lo	-11.8146
people	-11.8146
worker	-11.8152
▁shrimp	-11.8153
▁Depend	-11.8153
▁enabl	-11.8155
gation	-11.8156
nan	-11.8157
arian	-11.8161
▁breathe	-11.8161
▁alien	-11.8162
▁favors	-11.8162
tem	-11.8163
▁accumulate	-11.8169
▁delete	-11.8169
excluding	-11.8173
second	-11.8173
claim	-11.8173
▁bullet	-11.8175
▁Band	-11.8175
evolution	-11.8178
▁Disabilities	-11.8179
▁recreation	-11.8179
▁corps	-11.8179
ulation	-11.8179
LA	-11.8181
winning	-11.8181
▁flaw	-11.8182
▁Hillary	-11.8182
EU	-11.8184
▁obstacles	-11.8185
▁react	-11.8195
▁terminate	-11.8195
▁translate	-11.8195
▁affects	-11.8198
rian	-11.8198
▁bonus	-11.8203
▁consortium	-11.8205
▁hormone	-11.8205
▁leather	-11.8205
▁nephew	-11.8205
▁Cinema	-11.8206
▁Islam	-11.8206
ola	-11.8206
▁Mother	-11.8207
▁Mission	-11.8208
▁ballot	-11.8208
But	-11.8217
▁quarterly	-11.8222
sided	-11.8232
▁lump	-11.8232
▁Subway	-11.8233
▁opponents	-11.8247
nor	-11.8248
kuk	-11.8249
self	-11.8251
▁transplant	-11.8257
+	-11.8259
▁Corporate	-11.8259
▁advocate	-11.8259
▁autopsy	-11.8259
▁disturbance	-11.8259
▁Hol	-11.8262
▁Near	-11.8264
kook	-11.8266
▁CCTVs	-11.8267
ky	-11.827
RP	-11.8273
▁electro	-11.8276
▁UAE	-11.8278
▁Zi	-11.8279
tax	-11.828
▁Empire	-11.8285
▁Employees	-11.8285
▁dismantling	-11.8285
▁presidency	-11.8285
▁pursuit	-11.8285
▁twenty	-11.8285
▁Cyber	-11.8285
former	-11.8286
▁tide	-11.8287
trip	-11.8291
vy	-11.8292
▁toilets	-11.8301
▁exhibited	-11.8301
risk	-11.8303
▁survived	-11.8309
▁AM	-11.8311
▁infinite	-11.8312
▁overlapping	-11.8312
▁Para	-11.832
▁cheers	-11.8324
▁Cook	-11.8328
▁permits	-11.8329
rmal	-11.8329
Cha	-11.833
▁borne	-11.8335
▁ceramic	-11.8336
KI	-11.8337
▁baggage	-11.8339
▁maturity	-11.8339
▁modification	-11.8339
▁stagnant	-11.8339
▁varieties	-11.8339
▁Think	-11.8339
▁devise	-11.834
▁guideline	-11.8341
▁potatoes	-11.8342
▁packing	-11.8343
▁hunt	-11.8345
▁presided	-11.8346
▁practically	-11.8351
pm	-11.8353
▁indicate	-11.8353
▁donor	-11.8355
▁neglect	-11.836
▁MOU	-11.8366
▁inviting	-11.8366
▁towel	-11.8366
▁occasions	-11.8372
▁LH	-11.8379
▁Radio	-11.8385
▁Namdaemun	-11.8393
▁inflammation	-11.8393
▁probability	-11.8393
▁tasting	-11.8393
▁Smartphone	-11.8393
▁sculptures	-11.8394
▁duck	-11.8394
▁roots	-11.8399
▁honored	-11.8399
▁Ly	-11.8401
▁stretch	-11.8414
▁mart	-11.8417
▁tremendous	-11.842
▁tuberculosis	-11.842
▁Large	-11.842
▁duration	-11.842
▁Soft	-11.843
▁correctly	-11.8431
▁revoked	-11.8434
▁Bob	-11.8437
ata	-11.8442
▁threshold	-11.8447
▁Castle	-11.8447
▁bench	-11.8448
lash	-11.8448
▁Waste	-11.8448
▁exert	-11.8449
▁Nu	-11.845
▁Yeongnam	-11.845
▁counselors	-11.8454
▁Dasan	-11.8454
▁commercialized	-11.846
Le	-11.8461
ME	-11.8462
▁mushrooms	-11.8465
▁Literature	-11.8474
▁gesture	-11.8474
▁parallel	-11.8474
▁verdict	-11.8474
▁composer	-11.8474
▁denuclearize	-11.8474
▁insurer	-11.8475
▁ultimately	-11.8479
▁Little	-11.8481
▁lacked	-11.8494
▁repaired	-11.8495
bil	-11.8497
▁Comprehensive	-11.8498
▁Sri	-11.85
▁mechanism	-11.8501
▁Musharraf	-11.8501
▁Sexual	-11.8501
▁academia	-11.8501
▁Euro	-11.8502
▁Uber	-11.851
▁Chile	-11.8512
▁disadvantaged	-11.8513
ural	-11.8514
▁integrate	-11.8518
▁Try	-11.8519
▁proceedings	-11.8521
▁unfortunate	-11.8522
▁Chicken	-11.8528
▁Infinite	-11.8528
▁Merchant	-11.8528
▁detached	-11.8528
▁slaughter	-11.8528
▁plaza	-11.8528
▁challenged	-11.8529
▁premise	-11.8529
▁brew	-11.853
▁Tan	-11.8531
How	-11.8531
▁Brand	-11.8533
oid	-11.8539
▁Clean	-11.8541
▁THAAD	-11.8542
▁stipulates	-11.8552
stream	-11.8555
▁voucher	-11.8556
▁amateur	-11.8556
▁Nepal	-11.8556
▁defending	-11.8558
▁extinguish	-11.8558
RC	-11.8559
cru	-11.8574
▁stealing	-11.8578
▁Donghae	-11.858
▁spark	-11.8581
▁blossoms	-11.8583
▁defamation	-11.8583
▁dividing	-11.8583
▁monopoly	-11.8583
▁tailored	-11.8583
▁volleyball	-11.8583
▁Boston	-11.8583
▁wipe	-11.8586
▁refuted	-11.8586
Jung	-11.8588
▁editing	-11.8593
▁DJ	-11.8593
▁Bell	-11.8594
▁equally	-11.8602
▁answering	-11.8606
▁Vehicle	-11.8611
▁memorandum	-11.8611
eration	-11.8611
▁plaque	-11.8611
RT	-11.8611
Secret	-11.8611
▁GP	-11.8615
▁costume	-11.8616
▁Action	-11.8617
▁slip	-11.8618
▁Rio	-11.862
▁Way	-11.862
parent	-11.863
llow	-11.8632
▁Ice	-11.8632
▁intermediate	-11.8638
▁reliability	-11.8638
▁respiratory	-11.8638
▁varies	-11.8639
▁kidney	-11.8639
▁blend	-11.8639
▁instance	-11.8639
▁Vol	-11.864
▁boundary	-11.8641
▁Cal	-11.8647
▁streaming	-11.8648
▁Metro	-11.865
ised	-11.8654
▁involve	-11.8657
▁interpreter	-11.8662
▁lately	-11.8664
▁Organiz	-11.8665
OL	-11.8666
▁Participation	-11.8666
▁accessories	-11.8666
▁landlord	-11.8666
▁translator	-11.8666
▁radical	-11.8666
▁Hamas	-11.8669
▁confession	-11.867
▁unfairly	-11.8676
▁deeper	-11.8677
▁signals	-11.868
▁Pakistani	-11.8681
▁View	-11.8684
▁coins	-11.8685
rock	-11.8687
▁ABC	-11.8689
–	-11.8694
▁condolence	-11.8694
▁depressed	-11.8694
▁Trend	-11.8694
▁crab	-11.8695
sea	-11.8697
▁funded	-11.8699
▁Startup	-11.87
▁stain	-11.8704
▁internally	-11.8708
▁nationality	-11.8709
▁educate	-11.8711
▁Steve	-11.8719
▁Examination	-11.8722
▁Treatment	-11.8722
▁vague	-11.8722
ison	-11.8723
itude	-11.8724
▁Laos	-11.8724
business	-11.8725
▁sued	-11.8725
LC	-11.8727
patient	-11.8727
▁beverages	-11.8727
▁Opera	-11.8729
▁humanity	-11.873
▁flee	-11.8731
▁crop	-11.8733
▁tightening	-11.8734
▁neuro	-11.8741
lig	-11.8742
▁surged	-11.8742
cell	-11.8742
▁simultaneous	-11.8743
▁sellers	-11.8746
Je	-11.8746
▁planner	-11.8747
▁narrowed	-11.8748
▁Intellectual	-11.875
▁acquitted	-11.875
▁automotive	-11.875
▁swift	-11.875
▁masterpiece	-11.875
▁Heart	-11.8751
▁Accordingly	-11.8751
▁bonuses	-11.8753
▁elders	-11.8753
▁Thi	-11.8763
▁someday	-11.8766
Total	-11.8767
ounce	-11.8769
▁Sir	-11.8771
▁Hankyoreh	-11.8778
▁LNG	-11.8778
▁Video	-11.8778
▁candlelight	-11.8778
▁motive	-11.8778
▁Hydro	-11.8778
▁Dutch	-11.8779
▁intake	-11.8779
▁pave	-11.878
▁weird	-11.8781
People	-11.8782
▁Fox	-11.8782
▁deteriorated	-11.8785
▁shifted	-11.8785
selling	-11.8788
▁argues	-11.8788
▁regulate	-11.8795
▁lined	-11.88
▁nerves	-11.8801
▁links	-11.8803
▁evenly	-11.8803
▁enact	-11.8805
▁Prosecution	-11.8806
▁refusing	-11.8806
▁revenge	-11.8806
▁tumor	-11.8806
▁democratization	-11.8806
▁pressing	-11.8817
▁dreamed	-11.8819
▁($	-11.882
▁lecturers	-11.8822
▁climbed	-11.8823
▁crazy	-11.8834
▁economist	-11.8834
▁embrace	-11.8834
Academic	-11.8834
▁horizontal	-11.8834
▁missionaries	-11.8835
▁Model	-11.8835
ville	-11.8836
▁tender	-11.8836
▁Against	-11.8837
▁instructed	-11.884
▁cosmetic	-11.884
four	-11.8845
▁inspectors	-11.8846
▁cheerful	-11.8847
▁consume	-11.8848
▁conscientious	-11.8856
▁Shop	-11.8858
▁Championships	-11.886
▁killer	-11.886
esteem	-11.8862
▁Jones	-11.8864
▁trademark	-11.8865
bun	-11.8866
examination	-11.8867
proof	-11.8868
fried	-11.8868
three	-11.8868
posed	-11.887
yeop	-11.887
▁verbal	-11.8884
▁Buddhism	-11.8891
▁Ukraine	-11.8891
▁bamboo	-11.8891
▁innocence	-11.8891
▁brutal	-11.8891
▁annex	-11.8891
▁discomfort	-11.8891
▁rope	-11.8891
▁poison	-11.8899
▁gotten	-11.8899
▁pear	-11.89
Ra	-11.891
▁Deliberati	-11.8917
▁Emirates	-11.8919
▁Field	-11.8919
▁placing	-11.8919
▁greed	-11.8919
▁Legislation	-11.892
▁gear	-11.8921
▁cleaned	-11.8922
▁Hyang	-11.8923
wage	-11.893
▁guns	-11.8933
▁instruction	-11.8936
met	-11.8942
foot	-11.8944
▁Val	-11.8945
▁favored	-11.8947
▁ICO	-11.8947
▁exclusion	-11.8948
ckle	-11.8948
▁Mobis	-11.8948
▁crane	-11.8948
rick	-11.8949
▁Qui	-11.8951
▁relocated	-11.8955
▁desperately	-11.8958
PE	-11.8959
▁profitable	-11.896
▁announcer	-11.8965
▁pedestrians	-11.8967
served	-11.897
▁briquette	-11.8976
▁genuine	-11.8976
▁stabbed	-11.8976
▁mystery	-11.8976
▁Uiwang	-11.8976
eous	-11.8979
▁Yeonsu	-11.8983
ume	-11.8984
▁regulated	-11.8999
▁Jobs	-11.9
▁Yul	-11.9
▁plates	-11.9004
▁licensing	-11.9005
▁discretion	-11.9005
▁Sookmyung	-11.9005
pound	-11.9006
▁nursery	-11.9006
▁Ken	-11.9008
▁shipments	-11.9012
Special	-11.9013
▁breed	-11.9013
effective	-11.9014
▁bargaining	-11.9015
shore	-11.9018
issue	-11.902
▁civilization	-11.9023
▁depict	-11.9026
mmy	-11.903
▁drastic	-11.9033
▁bracket	-11.9033
▁Qatar	-11.9033
▁Namwon	-11.9035
▁Ber	-11.9037
▁incorporated	-11.904
EL	-11.9049
▁employer	-11.9049
▁inherit	-11.9051
PP	-11.9056
▁hardships	-11.9056
▁coup	-11.9056
▁intern	-11.9058
▁acquiring	-11.9062
▁tsunami	-11.9062
▁literally	-11.9062
▁Pink	-11.9065
▁survivors	-11.907
▁insect	-11.9072
▁deny	-11.9077
eb	-11.9082
▁attempting	-11.9085
▁oversee	-11.9086
▁Belgian	-11.9091
▁Campaign	-11.9091
▁quantities	-11.9091
▁whereabouts	-11.9092
▁magnitude	-11.9092
▁dumpling	-11.9093
▁indeed	-11.9094
▁interviewed	-11.9118
▁ads	-11.9118
bur	-11.9118
Benz	-11.9119
▁businessman	-11.912
▁distinctive	-11.9121
▁Gojong	-11.9125
▁existed	-11.9128
performance	-11.913
▁piled	-11.913
fold	-11.913
stein	-11.9131
▁approaches	-11.9132
herself	-11.9132
▁depicted	-11.9132
pack	-11.9134
▁identifying	-11.9135
▁dolls	-11.9143
▁Pra	-11.9144
ffe	-11.9144
hard	-11.9149
▁portfolio	-11.9149
▁possibilities	-11.9149
▁Woman	-11.9149
▁Brother	-11.9149
▁sake	-11.9149
▁proving	-11.9153
pung	-11.9154
▁Hot	-11.9155
▁basically	-11.9157
▁Product	-11.9158
rance	-11.9162
actic	-11.9164
▁retro	-11.9169
▁delaying	-11.917
▁broth	-11.9172
boy	-11.9176
▁skilled	-11.9176
▁Biennale	-11.9178
▁anticipation	-11.9178
▁housewives	-11.9178
▁Cloud	-11.9178
▁NASA	-11.9178
▁loving	-11.918
▁contacting	-11.9188
▁falsely	-11.9188
▁mad	-11.9191
▁List	-11.9192
media	-11.9194
▁Fall	-11.9201
▁Gaya	-11.9202
▁Jordan	-11.9208
▁imbalance	-11.9208
▁cousin	-11.9208
▁roast	-11.9208
▁Shimbun	-11.9208
var	-11.9209
▁offenders	-11.921
▁sole	-11.9214
▁inherited	-11.922
▁cure	-11.9221
NT	-11.9222
▁Ch	-11.9223
▁lanes	-11.9229
▁mentioning	-11.9229
▁deadly	-11.9232
fil	-11.9233
▁melody	-11.9237
▁phishing	-11.9237
▁virtue	-11.9237
▁mileage	-11.9237
▁mill	-11.9239
quire	-11.9242
pul	-11.9242
▁colored	-11.9246
Fri	-11.9248
value	-11.9251
▁Joe	-11.9253
block	-11.9257
▁partly	-11.9259
▁chairs	-11.9261
▁fold	-11.9262
▁curve	-11.9262
▁privilege	-11.9265
▁circumstantial	-11.9266
▁improper	-11.9266
▁reunification	-11.9266
▁yacht	-11.9266
▁unchanged	-11.9266
▁conviction	-11.9266
▁skirt	-11.9267
▁pole	-11.9267
▁Money	-11.9267
▁alter	-11.9273
▁Dia	-11.9276
horn	-11.9279
▁colleague	-11.928
raising	-11.9281
▁verifying	-11.9288
▁intentional	-11.929
▁arbitration	-11.9296
▁incorrect	-11.9296
▁progressed	-11.9296
▁Fre	-11.9299
▁Milan	-11.9302
▁Bears	-11.9304
cultural	-11.9308
▁destroying	-11.9311
▁surely	-11.9317
▁shortages	-11.9323
▁fountain	-11.9325
▁counterattack	-11.9326
▁Taxi	-11.9327
▁Didn	-11.933
▁Highway	-11.9335
▁PO	-11.9336
▁landed	-11.934
▁Bern	-11.9345
▁Woods	-11.9349
▁unilateral	-11.9349
▁Ceramic	-11.9355
▁terrestrial	-11.9355
▁vicious	-11.9355
▁implant	-11.9355
▁rapper	-11.9356
▁lightning	-11.936
▁authorization	-11.9361
▁Independent	-11.9362
▁sensation	-11.9366
last	-11.937
saving	-11.9373
Mr	-11.9377
hara	-11.9378
▁courier	-11.9385
▁empathy	-11.9385
▁negotiator	-11.9385
▁wield	-11.9385
▁bankruptcy	-11.9385
▁cough	-11.9387
▁Merit	-11.9389
ense	-11.9389
▁Steven	-11.9389
▁Know	-11.939
▁hopeful	-11.9391
▁Kangwon	-11.9396
▁shrinking	-11.9403
▁arises	-11.9405
▁SME	-11.9409
▁entertain	-11.941
▁dense	-11.9411
Hu	-11.9414
▁skip	-11.9414
▁Maduro	-11.9415
▁secretariat	-11.9415
▁Grade	-11.9415
▁bride	-11.9415
▁carved	-11.9415
▁cooperating	-11.9415
▁uncle	-11.9417
▁hunger	-11.9421
Man	-11.9428
▁meaningless	-11.9429
ule	-11.9431
▁adolescents	-11.9432
Yong	-11.9434
▁OECD	-11.9438
vant	-11.9439
SP	-11.9441
▁mentoring	-11.9444
▁scream	-11.9445
▁disappointing	-11.9445
▁altogether	-11.9445
▁Paik	-11.9446
▁bored	-11.9446
▁rotation	-11.9447
▁Eagles	-11.9453
▁sexy	-11.9457
▁Kane	-11.9458
▁quietly	-11.9463
▁plunge	-11.9464
photo	-11.9467
acco	-11.9469
aga	-11.9472
▁Entrustment	-11.9475
▁centimeters	-11.9475
▁fantasy	-11.9475
▁sanitation	-11.9475
▁Frank	-11.9475
▁jury	-11.9475
▁minimal	-11.9475
▁preview	-11.9476
▁originated	-11.9477
▁exhibits	-11.9477
▁sadness	-11.9481
LL	-11.9484
▁Back	-11.949
▁circumstance	-11.9492
▁Electronic	-11.9492
▁Give	-11.9494
▁belonged	-11.9497
cca	-11.9498
▁sour	-11.9502
▁Carolina	-11.9505
▁Counseling	-11.9505
▁Hungary	-11.9505
▁Minimum	-11.9505
▁endangered	-11.9505
▁erected	-11.9505
▁psychology	-11.9505
▁tribute	-11.9505
▁Originally	-11.9505
▁Factory	-11.9505
▁Sao	-11.9507
▁Eric	-11.9507
▁anonymous	-11.9507
▁initiated	-11.9508
▁Micro	-11.951
▁Reading	-11.9515
▁diagnose	-11.9522
▁grab	-11.9531
▁cheat	-11.9532
▁Geumgang	-11.9535
▁dictatorship	-11.9535
▁karaoke	-11.9535
▁invalid	-11.9535
▁firing	-11.9535
▁salon	-11.9535
▁handsome	-11.9539
▁Hwan	-11.9539
▁spotted	-11.954
elected	-11.9542
▁Virginia	-11.955
▁Hui	-11.9552
sky	-11.9553
▁jar	-11.9564
▁disappointment	-11.9565
▁galleries	-11.9565
▁rallies	-11.9565
▁slept	-11.9565
▁swim	-11.9566
▁Dang	-11.9568
▁Pope	-11.9572
▁sensitivity	-11.9572
▁Full	-11.9573
▁trailer	-11.9574
▁slim	-11.9576
▁appreciated	-11.9577
▁catches	-11.9579
▁Supervis	-11.958
▁twist	-11.9584
tec	-11.9595
▁bleeding	-11.9596
▁elegant	-11.9596
▁necessarily	-11.9596
▁possibly	-11.9596
▁wrist	-11.9596
▁senator	-11.9596
▁Boeing	-11.9596
▁Balance	-11.9597
▁Nature	-11.9599
▁inspired	-11.96
▁Cheil	-11.9601
rov	-11.9601
zar	-11.9604
▁enhancement	-11.9605
mile	-11.9607
▁nutrients	-11.9609
ographic	-11.961
▁Bro	-11.9611
▁lightly	-11.9612
▁dock	-11.9618
▁Truth	-11.9619
▁wings	-11.962
NI	-11.962
cate	-11.9624
▁Saemangeum	-11.9626
▁accuracy	-11.9626
▁applicable	-11.9626
▁radon	-11.9626
▁bulk	-11.9627
Che	-11.9629
▁defective	-11.9629
after	-11.9632
▁discarded	-11.9634
main	-11.9636
▁dig	-11.9636
▁aggregate	-11.9642
▁appliance	-11.9646
▁discovering	-11.9647
vie	-11.965
▁curb	-11.9651
▁Liu	-11.9655
▁slave	-11.9656
▁sink	-11.9656
▁Scholarship	-11.9657
▁Kevin	-11.9657
miss	-11.9658
rom	-11.9662
▁directing	-11.9671
▁Sul	-11.9675
catching	-11.9677
Na	-11.9679
▁loose	-11.9682
▁End	-11.9682
liner	-11.9686
▁saint	-11.9687
▁finalize	-11.9688
▁establishes	-11.9692
▁rebels	-11.9694
ford	-11.97
▁Cap	-11.97
boo	-11.97
rio	-11.9701
ental	-11.9705
design	-11.971
▁Eye	-11.9711
▁semifinals	-11.9718
▁Coalition	-11.9718
▁atmospheric	-11.9718
▁culprit	-11.9718
▁influenza	-11.9718
▁remuneration	-11.9718
▁seaweed	-11.9718
▁liability	-11.9718
space	-11.9718
▁brick	-11.9719
▁quarterfinals	-11.9719
▁cattle	-11.9719
▁slavery	-11.9719
▁tanks	-11.9724
▁corn	-11.9727
▁boast	-11.973
▁scary	-11.9733
thirds	-11.9733
ett	-11.9735
ude	-11.9739
renowned	-11.9739
▁conglomerate	-11.974
▁wondered	-11.974
minister	-11.974
▁Place	-11.9741
chin	-11.9746
▁precede	-11.9749
▁Petition	-11.9749
▁reiterated	-11.9749
▁tactics	-11.9749
▁tangible	-11.9749
▁monster	-11.9749
▁Nissan	-11.9749
▁kidnapped	-11.9749
▁Lanka	-11.975
▁humidity	-11.975
▁lively	-11.975
▁KO	-11.975
lift	-11.9755
berry	-11.9766
ML	-11.9769
▁apparent	-11.9773
▁hint	-11.9774
▁Jeff	-11.9776
▁experimental	-11.9778
▁organs	-11.978
▁Shilla	-11.978
▁Tehran	-11.978
▁congratulate	-11.978
▁horror	-11.978
▁Mercedes	-11.978
▁unlimited	-11.9781
▁reforming	-11.9781
▁shade	-11.9782
▁deliberately	-11.9782
▁ceramics	-11.9783
▁dirty	-11.9784
▁mountainous	-11.9784
▁beaten	-11.9787
▁pulling	-11.9788
wear	-11.9794
▁consulted	-11.9796
Hi	-11.9798
▁trigger	-11.9799
▁Commander	-11.9802
▁Get	-11.9803
uce	-11.9805
▁advertise	-11.9808
▁Muslims	-11.981
▁Oriental	-11.9811
▁flexibility	-11.9811
▁referendum	-11.9811
▁Rod	-11.9811
▁KIA	-11.9812
▁appealing	-11.9812
▁groundbreaking	-11.9812
▁macro	-11.9813
▁laboratory	-11.9814
▁Wanna	-11.9817
▁lid	-11.9821
▁appropriateness	-11.9821
▁Dongtan	-11.9823
▁boosting	-11.9826
▁accompanying	-11.9827
emia	-11.9828
▁loaded	-11.9829
▁Mong	-11.9834
▁Ahead	-11.9835
▁mega	-11.9836
▁Member	-11.9838
▁blank	-11.9841
▁Violence	-11.9842
▁embroiled	-11.9842
▁meticulous	-11.9842
▁overhaul	-11.9842
▁sandwich	-11.9842
▁serial	-11.9842
▁collided	-11.9845
going	-11.9845
▁insert	-11.9847
Love	-11.9853
Ga	-11.9859
▁tram	-11.9859
▁distinct	-11.987
▁counselor	-11.9871
▁Assistance	-11.9874
▁algorithm	-11.9874
▁hybrid	-11.9874
▁quantitative	-11.9874
▁tiger	-11.9874
atic	-11.9874
▁addresses	-11.9876
▁gateway	-11.9877
▁politically	-11.9878
▁councilors	-11.9883
large	-11.9887
ancy	-11.9892
world	-11.9897
efficient	-11.9898
▁purifier	-11.9898
▁emperor	-11.9905
▁glimpse	-11.9905
▁navigation	-11.9905
▁provocation	-11.9905
▁Inspector	-11.9905
▁conscience	-11.9905
▁database	-11.9908
▁Mag	-11.9911
▁granting	-11.9914
▁jumping	-11.9919
▁departed	-11.992
rai	-11.9923
▁enforce	-11.9925
▁mono	-11.993
▁Appraisal	-11.9936
▁Charles	-11.9936
▁catalyst	-11.9936
▁dinosaur	-11.9936
▁Country	-11.9936
▁restoring	-11.9936
▁fireworks	-11.9937
▁Libya	-11.9937
▁Ganghwa	-11.9938
Al	-11.994
▁Boat	-11.9945
▁organizer	-11.9946
▁wealthy	-11.995
▁Phil	-11.996
▁analyst	-11.9962
finals	-11.9965
▁counted	-11.9966
Life	-11.9966
▁Coffee	-11.9968
▁Emperor	-11.9968
▁Greece	-11.9968
▁Thomas	-11.9968
▁optimistic	-11.9968
▁salmon	-11.9968
▁creature	-11.9968
▁summarize	-11.9968
=	-11.9968
▁boundaries	-11.9968
▁drills	-11.9968
▁pipeline	-11.9969
▁occasional	-11.997
▁gases	-11.9972
▁biased	-11.9976
▁roughly	-11.9982
zy	-11.9988
▁associate	-11.9989
▁printer	-11.9992
gung	-11.9997
▁choreography	-12
▁perhaps	-12
▁beloved	-12
▁foregoing	-12
▁ethical	-12
▁Sachs	-12
▁thunder	-12
▁Shall	-12.0001
▁Sindang	-12.0002
▁hyper	-12.0005
▁Tire	-12.0007
▁Dol	-12.0007
yer	-12.0009
▁Van	-12.0012
▁parental	-12.0014
▁peer	-12.0014
▁appointing	-12.0014
final	-12.0017
▁raided	-12.0017
▁disk	-12.0019
▁followers	-12.0025
▁charcoal	-12.0031
▁graduating	-12.0031
▁Tesla	-12.0031
▁bullpen	-12.0032
▁Turn	-12.0032
leaning	-12.0033
▁volunteering	-12.0034
firm	-12.0035
▁grilled	-12.004
report	-12.0041
▁accidentally	-12.0042
▁suburb	-12.0045
▁extinguished	-12.0045
plan	-12.0048
funded	-12.0055
bell	-12.0057
▁hostages	-12.006
▁disagree	-12.0062
▁accomplice	-12.0063
▁dynasty	-12.0063
▁Authorities	-12.0063
▁persistent	-12.0064
▁mole	-12.0065
▁offshore	-12.0066
▁birthrate	-12.0066
▁riot	-12.0066
▁Online	-12.0067
▁convinced	-12.0067
▁Taean	-12.0068
ux	-12.007
▁Tea	-12.0077
▁Mang	-12.0079
ister	-12.008
anda	-12.0085
▁Mega	-12.0088
▁conspiracy	-12.0095
▁exotic	-12.0095
▁rubber	-12.0095
▁ensur	-12.0096
▁sword	-12.0097
▁congressman	-12.0097
▁Seongsan	-12.01
▁Section	-12.01
▁boiled	-12.0102
▁insisting	-12.0102
GR	-12.0103
▁thanked	-12.0104
▁Dun	-12.0105
▁musician	-12.0108
▁Bak	-12.0113
change	-12.0114
▁sinking	-12.0117
HD	-12.0122
▁councilor	-12.0122
▁participant	-12.0124
▁impaired	-12.0125
▁Prefecture	-12.0127
▁exploring	-12.0127
▁Arirang	-12.0127
▁filial	-12.0127
▁digest	-12.0127
Related	-12.0127
EA	-12.0128
▁swear	-12.013
▁flames	-12.0131
▁rebuild	-12.0133
ius	-12.0134
▁vent	-12.0142
▁catcher	-12.0144
▁sir	-12.0144
▁bookstores	-12.0147
▁pasta	-12.0151
▁vest	-12.0151
▁washed	-12.0155
▁Facility	-12.0159
▁consequence	-12.0159
▁renovation	-12.0159
▁engaging	-12.0159
▁Ireland	-12.0159
▁Sur	-12.0166
directed	-12.0166
▁Sport	-12.0166
▁Hy	-12.0167
▁rolling	-12.0168
rav	-12.0173
enter	-12.0173
▁clash	-12.0177
fall	-12.0181
▁Mass	-12.0186
ichi	-12.0189
stage	-12.019
▁Civic	-12.0192
▁Greek	-12.0192
▁accelerating	-12.0192
▁advancing	-12.0192
▁hamburger	-12.0192
▁tutor	-12.0192
▁sushi	-12.0192
▁southeastern	-12.0192
▁GTX	-12.0193
▁compress	-12.0193
▁Goldman	-12.0194
▁creditors	-12.0198
▁correspond	-12.0203
▁exile	-12.0203
▁exporting	-12.0208
pay	-12.0211
▁insects	-12.0213
▁licensed	-12.0214
▁polling	-12.0224
▁Restaurant	-12.0224
▁pencil	-12.0224
▁surgical	-12.0224
▁ventilation	-12.0224
▁influx	-12.0224
powered	-12.0224
▁northwest	-12.0224
▁console	-12.0225
nim	-12.0228
HA	-12.0242
▁Key	-12.0244
▁Cy	-12.0247
▁monks	-12.0253
▁Yangsan	-12.0254
prosperity	-12.0254
specific	-12.0254
▁Logistics	-12.0256
▁imprisoned	-12.0256
▁revising	-12.0256
▁drunken	-12.0263
Gyeong	-12.0263
▁poorly	-12.0263
▁portable	-12.0265
IM	-12.0266
▁Cent	-12.0267
▁concessions	-12.0268
▁transit	-12.0271
▁Tourist	-12.0283
▁Audi	-12.0285
hearted	-12.0286
Shin	-12.0287
▁Portugal	-12.0289
▁Sungkyunkwan	-12.0289
▁charity	-12.0289
▁Vegas	-12.0289
▁activation	-12.0289
▁subcontractors	-12.029
▁subcontractor	-12.029
pac	-12.0293
▁Body	-12.0294
▁Sangju	-12.0298
▁discounted	-12.03
encing	-12.0314
▁Wood	-12.0314
human	-12.0318
▁Samcheok	-12.0322
▁candidacy	-12.0322
▁density	-12.0322
▁forcibly	-12.0322
▁blossom	-12.0322
▁Taegeukgi	-12.0322
Min	-12.0325
▁Gunpo	-12.0326
▁axis	-12.0327
▁Shortly	-12.0327
loss	-12.0334
enti	-12.0336
▁accelerated	-12.0338
▁Hub	-12.0344
plex	-12.0352
operative	-12.0353
▁Gimje	-12.0354
▁cheek	-12.0354
▁massacre	-12.0354
▁quiz	-12.0355
▁isolation	-12.0355
▁Nongak	-12.0355
▁spoon	-12.0355
▁obstruction	-12.0355
▁resist	-12.0356
▁profession	-12.0366
▁hinted	-12.0367
▁pour	-12.0367
▁defended	-12.0376
▁fundamentally	-12.0381
IP	-12.0386
▁Sarah	-12.0387
▁vocabulary	-12.0387
▁tongue	-12.0387
▁Chilgok	-12.0388
▁entertainers	-12.0388
▁affecting	-12.039
▁inducement	-12.039
▁plum	-12.0394
▁Gan	-12.0398
takers	-12.0408
▁Wu	-12.0409
▁registering	-12.0415
▁blacklist	-12.0415
▁interrupt	-12.0416
half	-12.0417
augural	-12.042
▁Behind	-12.042
▁CGV	-12.042
▁imminent	-12.042
▁acute	-12.0421
▁stern	-12.0421
▁laughed	-12.0421
▁Tomb	-12.0422
▁Anna	-12.0422
▁formulation	-12.0422
▁warmth	-12.0424
▁lips	-12.0427
▁PR	-12.0431
▁Hap	-12.0431
▁entrusting	-12.0432
▁clearance	-12.0432
eui	-12.0432
plication	-12.0441
May	-12.0445
▁Uzbek	-12.0453
▁tweet	-12.0453
▁universe	-12.0453
▁intact	-12.0455
invested	-12.0455
establish	-12.0456
▁manipulated	-12.046
▁Par	-12.0461
▁insight	-12.0464
▁supervisory	-12.0469
▁mistaken	-12.047
seat	-12.0478
▁teenage	-12.0483
▁evad	-12.0483
▁globalization	-12.0484
▁Illinois	-12.0487
▁Technical	-12.0487
▁Freedom	-12.0487
▁dragged	-12.0487
worth	-12.0489
▁wh	-12.0489
criminat	-12.049
▁Johnson	-12.049
▁SAT	-12.0492
▁Eo	-12.0496
Vi	-12.0498
▁beforehand	-12.05
Car	-12.0513
liness	-12.0514
▁involves	-12.0516
▁repository	-12.052
▁helmet	-12.052
▁Mental	-12.0522
▁useless	-12.0524
rong	-12.0533
▁interaction	-12.0537
▁disciples	-12.0541
▁Assemblyman	-12.0543
▁Pak	-12.0544
code	-12.0547
▁ceremonies	-12.0553
▁porcelain	-12.0553
▁newlyweds	-12.0553
▁ambition	-12.0553
▁Joseph	-12.0554
▁Macron	-12.0554
▁altar	-12.0554
▁Dangjin	-12.0555
pple	-12.0556
Why	-12.056
▁slice	-12.056
help	-12.056
▁educated	-12.0575
▁fracture	-12.0587
▁Swiss	-12.0587
▁Pyeongyang	-12.0588
▁bakery	-12.0588
▁prohibition	-12.0591
▁interval	-12.0591
▁Payment	-12.0591
▁Eul	-12.0591
Yeon	-12.0592
screen	-12.0592
▁Ewha	-12.0592
five	-12.0595
lio	-12.0595
▁Tam	-12.0597
▁teaches	-12.0597
corporate	-12.0601
▁Hyeong	-12.0602
▁critic	-12.0604
▁bud	-12.0608
▁evacuate	-12.061
▁calmly	-12.0611
MR	-12.0614
▁Mul	-12.0615
kyum	-12.0618
▁federation	-12.0621
▁stimulus	-12.0621
▁Louis	-12.0621
▁admire	-12.0621
▁sisterhood	-12.0621
▁Income	-12.0624
listed	-12.0625
▁starred	-12.0625
▁teens	-12.0627
▁Patriots	-12.0632
▁gaze	-12.0633
▁widening	-12.0638
rench	-12.0642
home	-12.0649
▁complement	-12.0653
▁Twenty	-12.0654
▁scheme	-12.0654
▁KEB	-12.0654
▁Kumgang	-12.0655
▁dissemination	-12.0655
▁rampant	-12.0655
▁algae	-12.0655
▁reconsider	-12.0655
▁dropping	-12.0659
▁pile	-12.066
NU	-12.0661
▁nerve	-12.0661
▁Ever	-12.0666
▁nut	-12.0666
TR	-12.0674
erie	-12.0675
Wi	-12.0675
cial	-12.0676
vian	-12.0684
▁casino	-12.0688
▁violin	-12.0688
▁loop	-12.069
written	-12.0693
length	-12.0694
▁immigrant	-12.0695
▁Drama	-12.0695
game	-12.0705
▁creators	-12.0709
timate	-12.071
resistant	-12.071
corn	-12.0714
they	-12.0716
▁accus	-12.0717
doo	-12.072
▁corrupt	-12.0721
*	-12.0722
▁earliest	-12.0722
▁frustration	-12.0722
▁justifiable	-12.0722
▁merchandise	-12.0722
▁petrochemical	-12.0722
▁symposium	-12.0722
▁Henry	-12.0722
▁Word	-12.0722
▁rude	-12.0723
▁merely	-12.0723
▁posing	-12.0723
▁pounds	-12.0726
▁Namhae	-12.0727
▁hardware	-12.0729
▁Minh	-12.0729
▁professionalism	-12.0735
▁officetel	-12.0735
▁shrink	-12.0736
▁pier	-12.0737
▁rushing	-12.0739
wind	-12.074
▁cord	-12.0745
▁Tigers	-12.0746
Artificial	-12.0756
▁Legend	-12.0756
▁memorize	-12.0756
▁millimeters	-12.0756
▁satisfactory	-12.0756
▁summary	-12.0756
▁alumni	-12.0756
▁decree	-12.0757
▁Task	-12.0757
▁silk	-12.0758
rous	-12.0758
▁palm	-12.0759
▁Yeongjong	-12.076
▁handmade	-12.076
▁prompting	-12.0762
▁Jinhae	-12.0762
▁Tony	-12.0763
▁castle	-12.0769
▁disrupt	-12.077
▁Sai	-12.077
▁contracted	-12.0771
▁Bul	-12.0771
crib	-12.0771
▁seriousness	-12.0772
▁Sook	-12.0779
ogue	-12.0786
ception	-12.0787
▁Records	-12.0791
▁retaliatory	-12.0791
▁Gimcheon	-12.0791
▁purification	-12.0791
▁distant	-12.0791
▁authentication	-12.0792
▁limiting	-12.0795
development	-12.0795
▁Wonder	-12.0798
▁underwear	-12.0799
▁clam	-12.0801
tong	-12.0804
▁letting	-12.0815
UR	-12.0819
▁Lastly	-12.082
!"	-12.0823
▁Rob	-12.0823
▁troubled	-12.0824
▁orbit	-12.0825
▁Reconciliation	-12.0825
▁fermented	-12.0825
▁participatory	-12.0825
▁stiff	-12.0825
▁Crown	-12.0825
▁speculative	-12.0826
▁Gongju	-12.0828
rium	-12.0829
distance	-12.0833
daero	-12.0842
▁casting	-12.0846
▁Clan	-12.0848
▁hunting	-12.0851
▁formulated	-12.0854
▁calligraph	-12.0854
▁timetable	-12.0856
icide	-12.0859
Jin	-12.0859
▁Sarkozy	-12.086
▁abusive	-12.086
▁striking	-12.086
▁adventure	-12.086
▁Strait	-12.0861
▁Legal	-12.0861
▁QR	-12.0863
▁Being	-12.0863
bie	-12.0867
product	-12.0868
▁modernization	-12.0868
▁tense	-12.0869
Tech	-12.0869
▁epi	-12.0879
▁disposed	-12.0881
▁collaborate	-12.0884
unit	-12.0884
▁alleviate	-12.0886
▁exploit	-12.0893
▁divulge	-12.0894
▁kilograms	-12.0895
PT	-12.0896
gger	-12.0897
store	-12.0898
▁Congressman	-12.0901
▁aroma	-12.0903
Chief	-12.0903
social	-12.0904
▁Chil	-12.0904
too	-12.0905
▁qualifying	-12.0906
▁unite	-12.0917
▁Hanok	-12.092
▁precise	-12.0922
▁stranger	-12.0923
▁eliminat	-12.0927
▁Yemeni	-12.0928
▁beneficiary	-12.0929
▁necessities	-12.0929
▁dissatisfaction	-12.0929
▁damaging	-12.0929
▁repatriation	-12.093
nyang	-12.0932
script	-12.0939
Hyun	-12.0942
▁inspecting	-12.0943
▁mourn	-12.0943
small	-12.0949
▁fist	-12.0958
bble	-12.0963
▁declaring	-12.0964
▁expedition	-12.0964
▁thirst	-12.0964
▁editorial	-12.0964
KO	-12.0965
▁banning	-12.0966
▁Metal	-12.0966
▁nest	-12.097
▁intensify	-12.0978
▁confess	-12.0982
▁minimiz	-12.0995
▁hydro	-12.0998
▁basket	-12.0999
▁compliment	-12.0999
▁urgency	-12.0999
Now	-12.0999
▁postponement	-12.1001
▁Saint	-12.1002
▁pub	-12.1009
language	-12.1009
▁mushroom	-12.1011
▁disrupted	-12.1011
▁flowed	-12.1013
▁premiere	-12.1018
▁Dome	-12.1019
▁trap	-12.1024
▁Advisor	-12.1029
▁Chong	-12.1029
fly	-12.1029
▁intending	-12.1031
▁symboliz	-12.1033
▁Analysis	-12.1034
▁Georgia	-12.1034
▁Treaty	-12.1034
▁constituency	-12.1034
▁distress	-12.1034
▁tvN	-12.1034
▁lounge	-12.1034
▁Morgan	-12.1034
▁patch	-12.1034
▁Hangul	-12.1035
▁bidder	-12.1036
▁proactively	-12.1037
▁vendors	-12.104
grad	-12.1041
keeping	-12.1042
According	-12.1045
▁statistical	-12.1057
tentative	-12.1057
▁laughing	-12.1059
▁consecutively	-12.1063
hua	-12.1064
▁negatively	-12.1066
▁Response	-12.1069
▁Suspicion	-12.1069
▁attributable	-12.1069
▁charisma	-12.1069
▁nurturing	-12.1069
▁splendid	-12.1069
▁supervising	-12.1069
▁vibration	-12.1069
▁trophy	-12.1069
▁inscription	-12.1069
Count	-12.1069
OR	-12.107
▁Pusan	-12.1073
▁Venezuelan	-12.1076
▁dressing	-12.1079
District	-12.1081
culture	-12.1082
kwan	-12.1085
▁OK	-12.1098
▁constructing	-12.11
patriot	-12.1102
▁Procedure	-12.1104
▁Keep	-12.1105
▁Giants	-12.1106
▁Kolon	-12.1106
▁Dongnae	-12.1108
▁recycled	-12.111
green	-12.1126
▁subside	-12.1127
▁Geon	-12.1135
▁throat	-12.114
▁transcript	-12.114
▁stack	-12.114
▁slide	-12.1141
homeowners	-12.1141
▁wastewater	-12.1142
▁underdeveloped	-12.1146
▁Perform	-12.1148
▁Jose	-12.1149
organized	-12.115
▁kindly	-12.1155
▁Mel	-12.1156
BL	-12.116
▁neat	-12.1169
▁Blockchain	-12.1175
▁Czech	-12.1175
▁Vladivostok	-12.1175
▁Contract	-12.1175
▁grabbed	-12.1176
▁chairmen	-12.1177
▁carpet	-12.118
Happy	-12.1189
BM	-12.1191
▁kindness	-12.1198
▁rolled	-12.1203
operation	-12.1208
Beautiful	-12.1211
▁Xinhua	-12.1211
▁misconduct	-12.1211
▁reminiscent	-12.1211
▁tragic	-12.1211
▁ultrafine	-12.1212
▁shout	-12.1215
Don	-12.1216
produce	-12.1217
▁KCC	-12.1222
▁Kara	-12.1229
host	-12.1232
▁globally	-12.124
▁Run	-12.1243
▁Eulji	-12.1246
▁consolation	-12.1247
▁derived	-12.1247
▁refined	-12.1247
▁farewell	-12.1247
▁internship	-12.1247
▁blueprint	-12.1248
▁dismantlement	-12.1249
▁overturned	-12.1253
▁widened	-12.1258
far	-12.126
▁subtitles	-12.1263
▁Teacher	-12.1263
▁Trip	-12.1266
▁Guk	-12.1272
▁Point	-12.1279
▁Croatia	-12.1283
▁asbestos	-12.1283
▁cafeteria	-12.1283
▁celadon	-12.1283
▁circular	-12.1283
▁sightseeing	-12.1283
▁roadmap	-12.1283
▁Photograph	-12.1283
▁strap	-12.1284
▁surf	-12.1284
▁sunny	-12.1285
▁Bun	-12.1288
▁Alex	-12.1299
▁Mari	-12.1306
▁Ger	-12.1314
▁Maria	-12.1318
▁ignoring	-12.1319
▁patience	-12.1319
▁protagonist	-12.1319
▁sprout	-12.1319
▁harbor	-12.1319
▁administer	-12.1319
▁disappearing	-12.132
▁heightened	-12.132
▁Shiite	-12.1322
▁exercised	-12.1324
▁graders	-12.1329
degree	-12.1335
▁symptom	-12.1336
yul	-12.1336
▁Kyeong	-12.1336
▁repairing	-12.1342
anti	-12.1347
▁Elderly	-12.1355
▁Forensic	-12.1355
▁currencies	-12.1355
▁dubbed	-12.1355
▁friction	-12.1355
▁harassed	-12.1355
▁harmonious	-12.1355
▁streak	-12.1355
▁archives	-12.1355
▁chasing	-12.1355
▁wrapping	-12.1356
▁ornament	-12.1356
▁optical	-12.1358
▁Bareun	-12.1358
▁Whi	-12.1359
▁fame	-12.1364
▁bomber	-12.1365
▁compact	-12.1366
▁Gugak	-12.1371
flower	-12.1373
▁restrain	-12.1375
wife	-12.1377
▁Customers	-12.1382
nne	-12.1382
kind	-12.1388
▁rabbit	-12.1392
▁wrinkles	-12.1392
▁Meng	-12.1392
▁interrogation	-12.1393
▁spite	-12.1393
▁Share	-12.1393
▁consolidated	-12.1399
▁merged	-12.1399
▁occasionally	-12.14
▁decent	-12.1406
▁Hannam	-12.141
▁flocked	-12.1411
▁subcontracting	-12.1412
came	-12.1414
▁fortunate	-12.1421
evertheless	-12.1424
▁Flo	-12.1428
sufficiency	-12.1428
▁DPRK	-12.1428
▁KORAIL	-12.1428
▁Khashoggi	-12.1428
▁Participatory	-12.1428
▁Passenger	-12.1428
▁appetite	-12.1428
▁expelled	-12.1428
▁jazz	-12.1428
▁constraints	-12.1428
▁radioactive	-12.1429
▁drainage	-12.1429
▁hostile	-12.143
▁Minjoo	-12.1432
▁Baekdu	-12.1433
▁landfill	-12.1435
▁Sound	-12.1436
▁Fer	-12.1437
▁Hangang	-12.1437
▁relie	-12.144
▁backward	-12.144
held	-12.1443
▁aunt	-12.1444
▁mainland	-12.1448
saeng	-12.1464
Treasure	-12.1465
▁southwestern	-12.1465
▁Kelly	-12.1465
▁limitation	-12.1465
▁cancelled	-12.1471
▁Syrian	-12.1471
▁injected	-12.1474
▁laborers	-12.1475
▁spoken	-12.1475
MW	-12.1479
▁nobody	-12.1482
producing	-12.1484
good	-12.1487
NK	-12.1488
▁shortened	-12.1488
CK	-12.1492
asse	-12.1494
▁drying	-12.1495
talk	-12.1496
▁Conservation	-12.1501
▁Investigator	-12.1501
▁Pennsylvania	-12.1501
▁envelope	-12.1501
▁inferior	-12.1501
▁surviving	-12.1501
▁elaborate	-12.1502
▁perfume	-12.1502
▁dentist	-12.1502
▁cub	-12.1502
▁readjustment	-12.1503
FTA	-12.1505
▁ribs	-12.1506
mitt	-12.1509
building	-12.1509
▁honorable	-12.151
▁Dongguk	-12.1512
▁Princess	-12.1515
▁sometime	-12.1518
▁nearest	-12.1518
▁Sony	-12.1521
NO	-12.1529
▁Friends	-12.1538
▁swallow	-12.1538
▁ascertain	-12.1538
▁sandbox	-12.1539
Dis	-12.1539
▁beginner	-12.1542
▁Liga	-12.1543
▁Block	-12.1543
▁diary	-12.1551
▁subcontract	-12.1553
▁salty	-12.1555
Local	-12.1559
▁counting	-12.156
▁stall	-12.1564
bling	-12.1566
▁Arizona	-12.1575
▁Semiconductor	-12.1575
▁proposing	-12.1575
▁puppy	-12.1575
▁technician	-12.1575
▁Gospel	-12.1575
▁Saenuri	-12.1576
▁northeast	-12.1576
▁clashes	-12.1579
▁Meal	-12.1579
▁reminded	-12.1582
vit	-12.1586
Won	-12.1587
▁implementer	-12.1587
▁roadside	-12.1587
▁displaying	-12.1593
entrepreneurship	-12.1596
approximately	-12.1597
▁Philippine	-12.1598
▁teamwork	-12.1598
▁condemn	-12.16
activat	-12.1606
▁formula	-12.1612
Autumn	-12.1613
▁adequate	-12.1613
▁cognitive	-12.1613
▁petroleum	-12.1613
▁yoga	-12.1613
▁Subcommittee	-12.1613
action	-12.1613
▁Channel	-12.1613
▁deadlock	-12.1614
▁Month	-12.1614
▁hallyu	-12.1617
▁Farmers	-12.1618
lav	-12.1619
▁elephant	-12.1619
▁Nakdong	-12.1623
▁Regardless	-12.1624
▁Classic	-12.1628
▁absorbed	-12.1631
dollar	-12.1635
▁relocate	-12.1639
▁Short	-12.1644
▁Swedish	-12.165
▁prototype	-12.165
▁rupture	-12.165
▁turmoil	-12.165
▁Silver	-12.165
▁strawberry	-12.165
▁valve	-12.165
▁crosswalk	-12.165
▁Everland	-12.165
▁secretaries	-12.1651
▁vigil	-12.1651
▁Aid	-12.1651
▁RBI	-12.1651
▁lean	-12.1655
▁enrolled	-12.1656
VR	-12.166
GA	-12.1664
▁Actual	-12.1666
▁Train	-12.1667
▁bite	-12.1667
▁projectile	-12.167
education	-12.1673
Young	-12.1676
▁encountered	-12.1676
▁enjoyable	-12.168
Song	-12.1684
▁Disclosure	-12.1687
▁assemble	-12.1687
▁manipulating	-12.1687
▁maternity	-12.1687
▁octopus	-12.1687
▁¡°	-12.1687
▁pronunciation	-12.1688
▁discharging	-12.1688
▁citizenship	-12.169
▁relaxation	-12.1691
▁Rich	-12.1692
▁Yemen	-12.1692
roll	-12.1693
Medi	-12.1697
▁Imjin	-12.1698
Nam	-12.1703
lick	-12.1705
OO	-12.171
uous	-12.1713
hap	-12.1713
▁Families	-12.1725
▁Okinawa	-12.1725
▁Pentagon	-12.1725
▁Punishment	-12.1725
▁accumulation	-12.1725
▁arbitrarily	-12.1725
▁duplicate	-12.1725
▁manuscript	-12.1725
▁Silicon	-12.1725
▁Rescue	-12.1725
▁thrill	-12.1725
▁Diego	-12.1725
▁birthplace	-12.1727
▁Gijang	-12.1727
▁Snow	-12.173
uro	-12.173
leading	-12.1736
KMA	-12.1739
▁tele	-12.1739
user	-12.1741
▁Neo	-12.1742
WHO	-12.1745
electric	-12.175
Free	-12.1752
▁appropriately	-12.1752
▁fixing	-12.1755
▁Kei	-12.176
▁pest	-12.1761
▁Bhutto	-12.1763
▁ambiguous	-12.1763
▁caregiver	-12.1763
▁despair	-12.1763
▁enemies	-12.1763
▁fertilizer	-12.1763
▁Locate	-12.1764
▁mankind	-12.1765
▁layout	-12.1765
▁perceived	-12.1768
▁Naju	-12.1769
▁lighter	-12.1769
▁unify	-12.1769
▁lent	-12.1771
▁Namyang	-12.1771
▁selective	-12.1773
contract	-12.1787
▁sparking	-12.1791
▁Merkel	-12.1801
▁cemetery	-12.1801
▁controversies	-12.1801
▁ombudsman	-12.1801
▁copper	-12.1801
▁Exist	-12.1807
big	-12.1811
▁placement	-12.1812
▁supplemented	-12.1813
▁Jane	-12.1814
▁shy	-12.1814
▁intervened	-12.1817
▁informing	-12.1819
jik	-12.1821
CH	-12.1823
▁troop	-12.1828
▁wherever	-12.1828
▁internationally	-12.1829
▁exporters	-12.1831
cious	-12.1831
▁ultimate	-12.1832
▁Commodity	-12.1839
▁Jewish	-12.1839
▁Konkuk	-12.1839
▁Platform	-12.1839
▁assailant	-12.1839
▁pharmacy	-12.1839
inducing	-12.1839
▁minorities	-12.184
▁Selection	-12.1848
▁deducted	-12.185
▁Net	-12.1851
▁reinforced	-12.1854
▁underwater	-12.1858
▁baseman	-12.1862
amine	-12.1864
Chinese	-12.1865
SNS	-12.1865
▁homeland	-12.1866
▁transported	-12.1872
▁Netmarble	-12.1877
▁diversified	-12.1877
▁inadequate	-12.1877
ppellate	-12.1877
▁cruel	-12.1877
▁crystal	-12.1877
WSJ	-12.1877
▁northeastern	-12.1877
▁booming	-12.1881
▁badly	-12.1882
▁everybody	-12.1884
▁cracked	-12.1886
▁inserted	-12.1892
ryul	-12.1893
lab	-12.1896
▁Chen	-12.1901
▁unexpectedly	-12.1904
▁Resource	-12.1906
▁Infant	-12.1914
▁handicapped	-12.1915
▁Toyota	-12.1915
▁preceding	-12.1915
GNP	-12.1915
▁plug	-12.1916
▁formulating	-12.1916
▁subtle	-12.1917
▁earners	-12.1924
▁Past	-12.1924
▁span	-12.1927
IO	-12.1937
▁divorced	-12.194
▁tightly	-12.1941
bound	-12.1942
Through	-12.1943
▁drain	-12.1953
▁Individual	-12.1954
▁Course	-12.1954
▁LCD	-12.1954
▁elsewhere	-12.1954
▁Citing	-12.1955
▁Taek	-12.1955
▁transmit	-12.1956
▁Iksan	-12.1957
▁herald	-12.1959
▁inroads	-12.1962
▁spin	-12.1967
▁Ran	-12.1968
ima	-12.1971
▁voiced	-12.1975
▁Range	-12.1977
▁countryside	-12.198
scenes	-12.1984
OM	-12.1984
bee	-12.1986
▁authentic	-12.1989
▁praying	-12.199
▁Biologics	-12.1992
▁Shrine	-12.1992
▁contaminated	-12.1992
▁diligent	-12.1992
▁courtesy	-12.1992
▁arranging	-12.1992
▁robe	-12.1993
▁transmitted	-12.1993
▁notebook	-12.1993
▁safer	-12.1998
aught	-12.1999
▁Bit	-12.2001
friend	-12.2014
dustrialization	-12.2018
▁euro	-12.2024
▁random	-12.2024
dari	-12.2026
▁inventor	-12.2026
▁median	-12.2027
▁throne	-12.2031
▁vinyl	-12.2031
▁overheated	-12.2031
▁proviso	-12.2031
oi	-12.2032
▁elimination	-12.2032
▁darkness	-12.2039
▁treasurer	-12.204
▁bug	-12.2049
▁portrayed	-12.2051
oul	-12.2052
him	-12.2053
▁quote	-12.2059
▁extinguisher	-12.206
piece	-12.206
zone	-12.2063
▁Ven	-12.2065
▁pressured	-12.2068
▁Consultati	-12.2068
Many	-12.2069
▁Anniversary	-12.207
▁Hungarian	-12.207
▁engraved	-12.207
▁legitimacy	-12.207
▁militia	-12.207
▁revocation	-12.207
▁Uljin	-12.207
▁injuring	-12.207
▁freshmen	-12.2074
▁cram	-12.2076
▁vividly	-12.2082
▁Box	-12.2089
▁hardest	-12.2098
▁Stra	-12.2099
▁rebel	-12.2099
cop	-12.2108
witch	-12.2108
▁Cemetery	-12.2109
▁phenomena	-12.2109
▁punch	-12.2109
▁Visitors	-12.2109
▁envy	-12.211
▁Healing	-12.211
▁Round	-12.2111
fit	-12.2117
▁tightened	-12.2119
▁soundness	-12.2127
▁aggressively	-12.2127
▁accompany	-12.2128
▁Rhee	-12.213
left	-12.2134
▁Fuji	-12.2136
▁visually	-12.2137
▁gum	-12.2141
▁Milk	-12.2144
direct	-12.2145
▁reimburse	-12.2147
▁Guangzhou	-12.2148
▁Severance	-12.2148
▁embark	-12.2148
▁fluctuate	-12.2148
▁illustration	-12.2148
▁impracticable	-12.2148
▁incidence	-12.2148
▁vicinity	-12.2148
▁tasty	-12.2148
▁hamper	-12.2148
▁Oscar	-12.2148
▁interference	-12.2148
▁Nancy	-12.2149
▁sentencing	-12.215
arily	-12.2151
▁Eung	-12.2151
▁suppression	-12.2151
▁oneself	-12.2163
▁spec	-12.2165
▁accomplish	-12.2174
father	-12.2181
▁Basketball	-12.2187
▁diarrhea	-12.2187
▁fertility	-12.2187
▁fossil	-12.2187
▁sausage	-12.2187
▁Afterwards	-12.2188
▁subsidization	-12.2188
▁loyalty	-12.2188
▁mutually	-12.2189
▁angel	-12.2195
▁Cell	-12.2198
▁vested	-12.2202
lex	-12.2203
▁trim	-12.2204
treat	-12.2204
▁possessed	-12.2208
▁joyful	-12.2214
date	-12.2215
EP	-12.2215
▁Excel	-12.2216
That	-12.2221
▁clan	-12.2223
▁Android	-12.2227
▁optimized	-12.2227
▁sacred	-12.2227
▁striving	-12.2227
▁unpredictable	-12.2227
▁valuation	-12.2227
▁genius	-12.2227
▁bare	-12.2227
▁aerial	-12.2228
gli	-12.2228
▁feast	-12.2228
▁clay	-12.2228
▁Anyway	-12.223
▁Baby	-12.2232
▁Secondary	-12.2232
ego	-12.2233
ige	-12.2238
▁lag	-12.2239
▁wandering	-12.2243
▁rumored	-12.2254
▁Jungang	-12.2256
Consider	-12.2261
▁tasted	-12.2261
Every	-12.2263
▁exaggeration	-12.2267
▁propaganda	-12.2267
▁ridiculous	-12.2267
▁orientation	-12.2267
▁flame	-12.2267
▁southeast	-12.2267
▁racing	-12.2267
▁solely	-12.2276
▁Shu	-12.2281
▁coating	-12.2282
▁hotter	-12.2283
Pre	-12.2285
▁differential	-12.2287
▁justification	-12.2287
▁laying	-12.2288
nyeo	-12.229
bury	-12.2291
▁Ski	-12.2295
▁conspir	-12.2296
▁chase	-12.2299
interpret	-12.2301
▁princess	-12.2302
examine	-12.2304
▁Yesterday	-12.2307
▁embarrassing	-12.2307
▁quarrel	-12.2307
▁sensibility	-12.2307
▁turtle	-12.2307
▁garlic	-12.2307
▁Automobile	-12.2307
▁offender	-12.2307
▁jewelry	-12.2307
▁Youtube	-12.2307
▁Scr	-12.2315
mount	-12.2318
WTO	-12.2322
ush	-12.2324
▁neo	-12.2335
▁burnt	-12.2336
▁environmentally	-12.2343
▁LPG	-12.2345
▁Incident	-12.2347
▁Practice	-12.2347
▁abstract	-12.2347
▁chorus	-12.2347
▁quake	-12.2347
▁Nakdonggang	-12.2347
▁prioritize	-12.2347
▁innovate	-12.2348
storm	-12.2349
▁capitalization	-12.2367
▁yes	-12.2368
PL	-12.2372
ONE	-12.2374
Cho	-12.2376
▁masse	-12.2381
cancer	-12.2383
evaluation	-12.2383
▁infringe	-12.2386
▁ambitious	-12.2387
ncestral	-12.2387
▁Nigeria	-12.2387
▁liable	-12.2387
▁Conduct	-12.2387
▁Potter	-12.2389
▁Tele	-12.2392
▁Hold	-12.2395
App	-12.2411
ula	-12.2414
▁tract	-12.2414
▁Send	-12.2415
▁deteriorate	-12.2417
▁deck	-12.2417
▁Intel	-12.2417
Good	-12.2425
▁Cathedral	-12.2427
▁Saemaeul	-12.2427
▁Speaking	-12.2427
▁coordinator	-12.2427
▁demonstrating	-12.2427
▁invisible	-12.2427
▁dominance	-12.2427
▁navy	-12.2427
[...]
