<pad>	0
<unk>	0
<s>	0
</s>	0
<mask>	0
<0x00>	0
<0x01>	0
<0x02>	0
<0x03>	0
<0x04>	0
<0x05>	0
<0x06>	0
<0x07>	0
<0x08>	0
<0x09>	0
<0x0A>	0
<0x0B>	0
<0x0C>	0
<0x0D>	0
<0x0E>	0
<0x0F>	0
<0x10>	0
<0x11>	0
<0x12>	0
<0x13>	0
<0x14>	0
<0x15>	0
<0x16>	0
<0x17>	0
<0x18>	0
<0x19>	0
<0x1A>	0
<0x1B>	0
<0x1C>	0
<0x1D>	0
<0x1E>	0
<0x1F>	0
<0x20>	0
<0x21>	0
<0x22>	0
<0x23>	0
<0x24>	0
<0x25>	0
<0x26>	0
<0x27>	0
<0x28>	0
<0x29>	0
<0x2A>	0
<0x2B>	0
<0x2C>	0
<0x2D>	0
<0x2E>	0
<0x2F>	0
<0x30>	0
<0x31>	0
<0x32>	0
<0x33>	0
<0x34>	0
<0x35>	0
<0x36>	0
<0x37>	0
<0x38>	0
<0x39>	0
<0x3A>	0
<0x3B>	0
<0x3C>	0
<0x3D>	0
<0x3E>	0
<0x3F>	0
<0x40>	0
<0x41>	0
<0x42>	0
<0x43>	0
<0x44>	0
<0x45>	0
<0x46>	0
<0x47>	0
<0x48>	0
<0x49>	0
<0x4A>	0
<0x4B>	0
<0x4C>	0
<0x4D>	0
<0x4E>	0
<0x4F>	0
<0x50>	0
<0x51>	0
<0x52>	0
<0x53>	0
<0x54>	0
<0x55>	0
<0x56>	0
<0x57>	0
<0x58>	0
<0x59>	0
<0x5A>	0
<0x5B>	0
<0x5C>	0
<0x5D>	0
<0x5E>	0
<0x5F>	0
<0x60>	0
<0x61>	0
<0x62>	0
<0x63>	0
<0x64>	0
<0x65>	0
<0x66>	0
<0x67>	0
<0x68>	0
<0x69>	0
<0x6A>	0
<0x6B>	0
<0x6C>	0
<0x6D>	0
<0x6E>	0
<0x6F>	0
<0x70>	0
<0x71>	0
<0x72>	0
<0x73>	0
<0x74>	0
<0x75>	0
<0x76>	0
<0x77>	0
<0x78>	0
<0x79>	0
<0x7A>	0
<0x7B>	0
<0x7C>	0
<0x7D>	0
<0x7E>	0
<0x7F>	0
<0x80>	0
<0x81>	0
<0x82>	0
<0x83>	0
<0x84>	0
<0x85>	0
<0x86>	0
<0x87>	0
<0x88>	0
<0x89>	0
<0x8A>	0
<0x8B>	0
<0x8C>	0
<0x8D>	0
<0x8E>	0
<0x8F>	0
<0x90>	0
<0x91>	0
<0x92>	0
<0x93>	0
<0x94>	0
<0x95>	0
<0x96>	0
<0x97>	0
<0x98>	0
<0x99>	0
<0x9A>	0
<0x9B>	0
<0x9C>	0
<0x9D>	0
<0x9E>	0
<0x9F>	0
<0xA0>	0
<0xA1>	0
<0xA2>	0
<0xA3>	0
<0xA4>	0
<0xA5>	0
<0xA6>	0
<0xA7>	0
<0xA8>	0
<0xA9>	0
<0xAA>	0
<0xAB>	0
<0xAC>	0
<0xAD>	0
<0xAE>	0
<0xAF>	0
<0xB0>	0
<0xB1>	0
<0xB2>	0
<0xB3>	0
<0xB4>	0
<0xB5>	0
<0xB6>	0
<0xB7>	0
<0xB8>	0
<0xB9>	0
<0xBA>	0
<0xBB>	0
<0xBC>	0
<0xBD>	0
<0xBE>	0
<0xBF>	0
<0xC0>	0
<0xC1>	0
<0xC2>	0
<0xC3>	0
<0xC4>	0
<0xC5>	0
<0xC6>	0
<0xC7>	0
<0xC8>	0
<0xC9>	0
<0xCA>	0
<0xCB>	0
<0xCC>	0
<0xCD>	0
<0xCE>	0
<0xCF>	0
<0xD0>	0
<0xD1>	0
<0xD2>	0
<0xD3>	0
<0xD4>	0
<0xD5>	0
<0xD6>	0
<0xD7>	0
<0xD8>	0
<0xD9>	0
<0xDA>	0
<0xDB>	0
<0xDC>	0
<0xDD>	0
<0xDE>	0
<0xDF>	0
<0xE0>	0
<0xE1>	0
<0xE2>	0
<0xE3>	0
<0xE4>	0
<0xE5>	0
<0xE6>	0
<0xE7>	0
<0xE8>	0
<0xE9>	0
<0xEA>	0
<0xEB>	0
<0xEC>	0
<0xED>	0
<0xEE>	0
<0xEF>	0
<0xF0>	0
<0xF1>	0
<0xF2>	0
<0xF3>	0
<0xF4>	0
<0xF5>	0
<0xF6>	0
<0xF7>	0
<0xF8>	0
<0xF9>	0
<0xFA>	0
<0xFB>	0
<0xFC>	0
<0xFD>	0
<0xFE>	0
<0xFF>	0
.	-2.8418
▁the	-3.4062
,	-3.5082
▁to	-3.79637
▁I	-3.81943
s	-3.93454
▁a	-4.00234
'	-4.13571
▁	-4.19502
▁and	-4.27655
▁of	-4.34717
▁is	-4.39072
▁in	-4.39079
▁you	-4.55247
0	-4.78676
?	-4.92602
▁that	-4.92735
▁it	-4.93957
▁for	-5.00615
-	-5.04004
t	-5.17086
1	-5.19005
▁The	-5.22319
▁on	-5.25114
▁with	-5.29783
▁was	-5.31562
▁be	-5.33337
▁are	-5.33542
2	-5.39147
▁have	-5.40879
▁can	-5.43326
▁will	-5.46204
▁this	-5.53273
▁not	-5.61457
▁my	-5.65928
▁at	-5.74483
▁as	-5.75423
▁me	-5.76022
▁by	-5.80419
▁It	-5.80962
m	-5.85882
▁"	-5.86018
▁but	-5.87605
ing	-5.9004
▁your	-5.926
▁we	-5.9288
▁from	-5.9595
▁so	-6.0283
3	-6.04631
▁has	-6.06682
5	-6.07661
▁do	-6.09
▁like	-6.12984
▁We	-6.14307
▁about	-6.14572
▁said	-6.1761
▁time	-6.17934
▁an	-6.21725
▁he	-6.21775
▁who	-6.30968
4	-6.33497
▁there	-6.34322
▁people	-6.34482
▁more	-6.34704
▁want	-6.36275
▁think	-6.39425
▁if	-6.40373
ed	-6.42471
▁his	-6.43223
▁one	-6.43593
▁or	-6.4372
▁when	-6.44273
9	-6.46078
d	-6.47587
▁You	-6.47996
▁were	-6.50777
6	-6.50947
▁In	-6.51899
▁A	-6.5282
▁This	-6.52984
▁all	-6.5382
▁go	-6.54044
▁Korea	-6.54238
8	-6.5498
▁get	-6.58381
ll	-6.5853
▁out	-6.59611
▁don	-6.60011
7	-6.60033
▁they	-6.60102
▁know	-6.61026
▁up	-6.65076
▁He	-6.66872
▁what	-6.67141
▁also	-6.68548
▁now	-6.69667
▁had	-6.7128
▁our	-6.71602
▁good	-6.72636
▁Korean	-6.72663
▁after	-6.73536
▁than	-6.74192
▁because	-6.75164
▁been	-6.76757
▁would	-6.7797
▁If	-6.78268
▁am	-6.79719
▁their	-6.80662
▁which	-6.80705
▁first	-6.82183
▁work	-6.82838
"	-6.82997
▁make	-6.87113
th	-6.87904
▁her	-6.89501
▁how	-6.90776
▁many	-6.91905
▁new	-6.92599
▁should	-6.92692
▁need	-6.9359
▁other	-6.93729
▁year	-6.94402
▁only	-6.9481
▁just	-6.95666
▁What	-6.97653
▁day	-6.9777
▁There	-6.97963
▁see	-6.98078
▁no	-6.98579
▁take	-6.98721
▁Please	-6.99736
▁two	-7.00915
▁here	-7.02273
▁them	-7.04736
▁very	-7.06449
▁use	-7.07107
▁last	-7.07231
▁My	-7.09008
▁well	-7.10839
re	-7.12418
."	-7.13332
▁much	-7.1347
▁today	-7.13478
▁could	-7.15345
▁us	-7.16422
ly	-7.18277
▁made	-7.18371
e	-7.18519
,"	-7.23464
▁too	-7.23673
▁him	-7.23751
▁next	-7.24044
▁some	-7.24153
▁over	-7.244
▁any	-7.24679
▁most	-7.25356
▁How	-7.25497
▁(	-7.25969
▁won	-7.26322
▁did	-7.27393
▁Can	-7.27571
▁lot	-7.28426
▁Do	-7.28847
▁But	-7.29112
ve	-7.3045
▁going	-7.30734
S	-7.3108
▁right	-7.32894
▁where	-7.34304
▁way	-7.34819
▁As	-7.35169
y	-7.35439
▁When	-7.35735
▁come	-7.35844
▁Kim	-7.38204
▁again	-7.39656
▁life	-7.40501
▁she	-7.41062
▁before	-7.416
▁help	-7.42647
▁may	-7.42969
▁hope	-7.43246
▁long	-7.43992
▁home	-7.4436
▁company	-7.44411
▁back	-7.44751
▁food	-7.45049
▁even	-7.46286
:	-7.46681
er	-7.47168
▁love	-7.48066
▁send	-7.48217
▁through	-7.48624
▁So	-7.48899
▁such	-7.48926
▁That	-7.49397
▁say	-7.49636
I	-7.50075
▁best	-7.50469
▁She	-7.50543
▁into	-7.508
▁hard	-7.50891
▁feel	-7.51853
▁give	-7.51994
▁years	-7.5233
▁week	-7.53486
▁please	-7.53733
%	-7.54225
▁world	-7.54715
▁product	-7.55892
▁place	-7.56377
▁check	-7.56597
▁its	-7.58025
▁why	-7.58118
▁really	-7.58203
▁since	-7.58393
▁order	-7.58649
▁used	-7.60103
▁They	-7.60198
)	-7.60334
▁tell	-7.61551
▁these	-7.61851
▁still	-7.61871
▁school	-7.62263
▁K	-7.62734
▁Then	-7.63668
’	-7.65646
▁got	-7.6574
▁didn	-7.6616
▁around	-7.6701
▁while	-7.6777
▁days	-7.6863
▁always	-7.69838
▁better	-7.70237
▁person	-7.70695
▁U	-7.7082
▁let	-7.7413
▁Yes	-7.74839
▁being	-7.75161
▁find	-7.75608
▁look	-7.76111
▁meet	-7.76311
▁each	-7.7729
▁car	-7.78488
▁show	-7.79636
▁came	-7.79842
▁number	-7.80115
▁never	-7.80739
▁friend	-7.80804
▁three	-7.81118
▁every	-7.8123
▁eat	-7.81878
▁family	-7.82059
▁same	-7.82317
▁then	-7.8277
▁China	-7.82799
▁team	-7.82906
al	-7.8291
▁live	-7.83061
▁without	-7.83094
▁high	-7.83589
▁change	-7.84118
in	-7.84323
▁English	-7.84791
▁buy	-7.85304
n	-7.86352
▁happy	-7.86528
▁pay	-7.87033
▁must	-7.8794
▁things	-7.88038
▁try	-7.88106
r	-7.88136
▁house	-7.88502
▁friends	-7.89418
▁sorry	-7.89696
▁great	-7.8972
▁call	-7.90133
▁off	-7.90211
▁down	-7.90408
▁went	-7.90825
▁No	-7.90826
▁money	-7.91008
▁left	-7.91423
▁problem	-7.91544
▁room	-7.92509
▁B	-7.92922
▁man	-7.93032
▁thought	-7.94457
▁market	-7.94706
▁held	-7.95212
▁game	-7.95578
▁name	-7.95699
▁products	-7.9605
a	-7.96263
▁Let	-7.96529
o	-7.96563
▁together	-7.96936
▁And	-7.96983
▁children	-7.97063
▁told	-7.97812
▁found	-7.97859
▁price	-7.98121
...	-7.98273
▁does	-7.98355
▁movie	-7.98393
▁President	-7.98886
▁ask	-7.99899
▁month	-8.00578
▁put	-8.0184
▁Seoul	-8.01961
▁Lee	-8.02547
▁already	-8.02893
▁job	-8.03032
▁visit	-8.03095
▁part	-8.04242
▁talk	-8.047
▁Why	-8.05065
es	-8.05143
▁play	-8.05279
▁called	-8.05414
▁own	-8.05414
▁using	-8.05501
▁“	-8.05733
▁another	-8.06136
▁million	-8.0649
▁something	-8.06866
▁big	-8.06978
▁book	-8.07138
▁God	-8.07287
▁often	-8.07442
▁once	-8.07649
▁music	-8.07712
▁event	-8.07892
▁keep	-8.08272
▁until	-8.08837
▁little	-8.09037
▁important	-8.09437
▁become	-8.10654
▁took	-8.10834
/	-8.10866
▁second	-8.10908
▁country	-8.11254
▁study	-8.13167
▁soon	-8.13261
▁Japan	-8.13505
▁away	-8.14378
▁meeting	-8.14587
▁different	-8.15047
▁$	-8.15254
▁business	-8.15438
▁those	-8.15531
▁police	-8.16492
▁students	-8.16596
▁sent	-8.16604
▁working	-8.16618
▁possible	-8.17355
▁women	-8.17627
▁during	-8.17627
▁end	-8.17922
▁group	-8.18318
▁various	-8.1861
▁G	-8.18776
▁S	-8.18791
▁cannot	-8.19132
▁due	-8.19162
▁case	-8.19522
▁set	-8.1955
▁fans	-8.20393
▁tomorrow	-8.21393
▁expected	-8.21413
▁After	-8.21714
▁night	-8.21871
▁bus	-8.22149
▁T	-8.22401
▁For	-8.22943
▁At	-8.23042
▁On	-8.23492
▁reason	-8.23747
▁understand	-8.2375
▁free	-8.2399
▁says	-8.24387
▁popular	-8.2442
▁water	-8.24518
▁asked	-8.25105
A	-8.25192
▁small	-8.25303
▁later	-8.256
▁doesn	-8.26428
▁yet	-8.2643
▁doing	-8.26639
▁Because	-8.26937
▁seems	-8.27614
▁class	-8.28283
▁Park	-8.28704
▁late	-8.28869
▁video	-8.29157
▁start	-8.29404
▁companies	-8.29994
▁between	-8.29995
▁US	-8.30113
▁May	-8.30313
▁Thank	-8.30429
▁under	-8.30612
▁North	-8.30835
▁old	-8.30954
▁including	-8.31046
▁plan	-8.31453
▁government	-8.31542
▁able	-8.31804
▁making	-8.32126
▁service	-8.32393
▁future	-8.33119
▁New	-8.33596
▁heard	-8.33612
▁enjoy	-8.33943
▁phone	-8.34067
▁kind	-8.3428
▁C	-8.34373
▁picture	-8.34586
▁far	-8.3483
The	-8.34875
do	-8.35042
▁E	-8.35235
▁bad	-8.35666
▁Are	-8.35896
▁To	-8.36203
▁means	-8.36922
▁mind	-8.3766
▁wanted	-8.3807
g	-8.38172
▁makes	-8.38862
▁trip	-8.39107
▁thing	-8.39587
▁members	-8.39871
l	-8.3989
▁four	-8.40009
▁local	-8.40093
▁ago	-8.40165
▁One	-8.40329
▁face	-8.40543
▁un	-8.40564
▁anything	-8.40973
▁open	-8.40988
▁young	-8.41125
▁media	-8.41244
▁body	-8.41306
▁w	-8.41416
▁hours	-8.41427
▁test	-8.41478
▁top	-8.41649
▁saying	-8.41794
▁leave	-8.41808
▁enough	-8.42425
▁support	-8.42504
▁Don	-8.42752
▁might	-8.42844
i	-8.42859
▁among	-8.43013
▁office	-8.43238
▁story	-8.43415
▁care	-8.43549
▁public	-8.43604
k	-8.43694
▁Chinese	-8.43703
▁believe	-8.44078
▁both	-8.44301
▁sure	-8.44322
▁p	-8.44416
▁early	-8.44613
ri	-8.45049
▁parents	-8.45151
▁looking	-8.45442
▁fact	-8.45475
▁area	-8.456
▁released	-8.45611
▁move	-8.45622
▁stay	-8.45902
▁Where	-8.46056
▁Could	-8.46187
▁However	-8.46657
▁reported	-8.46776
▁someone	-8.46784
▁bring	-8.47186
▁saw	-8.47278
▁sales	-8.47286
▁heart	-8.4735
▁morning	-8.47351
ers	-8.4774
▁city	-8.47787
▁wait	-8.4845
▁information	-8.48532
▁against	-8.48539
▁few	-8.48622
▁report	-8.48681
▁news	-8.48969
▁times	-8.49177
▁power	-8.49353
C	-8.49543
▁Some	-8.50375
▁total	-8.50377
▁woman	-8.50428
▁program	-8.50546
▁system	-8.50586
▁head	-8.50698
▁following	-8.51065
▁percent	-8.51074
▁special	-8.51381
▁song	-8.51675
▁Trump	-8.51861
▁started	-8.51966
came	-8.52002
▁side	-8.52359
▁seen	-8.52476
▁data	-8.5261
▁known	-8.53021
▁alone	-8.53152
▁others	-8.5319
▁store	-8.53373
▁wish	-8.53427
▁card	-8.53886
▁full	-8.53956
▁men	-8.54003
▁past	-8.54012
▁fun	-8.54108
▁yesterday	-8.54242
▁Our	-8.54553
▁Many	-8.54685
D	-8.54795
▁read	-8.55118
▁gave	-8.55426
▁lost	-8.55428
▁felt	-8.56085
▁contact	-8.56106
▁size	-8.56136
▁getting	-8.56148
▁easy	-8.56302
▁done	-8.56643
▁dream	-8.56708
based	-8.56715
▁child	-8.56731
▁difficult	-8.56791
▁hotel	-8.56961
▁experience	-8.57036
▁D	-8.57298
▁learn	-8.5748
▁mother	-8.57724
▁TV	-8.57766
▁watch	-8.57904
▁Your	-8.57994
▁wrong	-8.57997
▁minutes	-8.58277
▁stop	-8.5858
on	-8.58704
▁All	-8.58734
▁five	-8.58865
▁re	-8.59189
▁having	-8.59308
▁near	-8.59468
▁real	-8.59641
▁per	-8.59688
▁situation	-8.59867
▁couldn	-8.60066
.”	-8.60113
▁issue	-8.60163
▁photo	-8.60262
hether	-8.60293
▁strong	-8.60435
▁run	-8.60953
▁design	-8.60994
▁received	-8.61297
G	-8.61483
▁Even	-8.61546
▁hit	-8.62199
an	-8.62342
or	-8.62414
▁line	-8.62649
▁famous	-8.62728
▁favorite	-8.62748
le	-8.62939
▁attention	-8.63261
▁shows	-8.63346
▁Monday	-8.63348
▁close	-8.63392
▁everything	-8.63778
▁color	-8.63909
▁South	-8.64
▁Japanese	-8.64075
▁project	-8.64091
▁culture	-8.64124
▁words	-8.64231
▁living	-8.64296
▁air	-8.64879
▁began	-8.65132
▁billion	-8.65207
c	-8.65352
▁travel	-8.65355
st	-8.65376
▁front	-8.65387
▁ever	-8.65441
able	-8.65648
▁large	-8.65991
▁myself	-8.66408
▁met	-8.6665
▁cost	-8.66692
▁Now	-8.66757
▁taking	-8.66889
▁Mr	-8.67558
▁email	-8.67563
▁receive	-8.68023
▁seem	-8.6817
▁father	-8.68222
▁nice	-8.68291
▁performance	-8.68531
▁party	-8.68554
▁major	-8.68644
▁coming	-8.69064
▁added	-8.69094
▁months	-8.69205
▁point	-8.69312
▁usually	-8.69565
▁film	-8.70629
▁result	-8.71058
▁cash	-8.7148
▁below	-8.71483
▁less	-8.71835
▁eyes	-8.71955
▁official	-8.72477
▁trying	-8.72585
▁beautiful	-8.72626
▁cold	-8.72838
▁goal	-8.73122
▁hand	-8.73149
▁drink	-8.73438
▁process	-8.73514
▁hair	-8.73933
▁least	-8.73936
P	-8.73952
▁players	-8.74027
▁true	-8.74064
▁share	-8.74145
▁bit	-8.74604
▁main	-8.74872
▁changed	-8.74987
▁message	-8.75087
▁everyone	-8.751
▁course	-8.76217
▁Did	-8.76232
▁These	-8.76293
year	-8.76412
▁countries	-8.76449
▁age	-8.76477
▁season	-8.76808
▁fire	-8.76854
h	-8.76995
▁return	-8.77245
▁showed	-8.77464
▁fine	-8.77733
ro	-8.77743
▁available	-8.77928
▁site	-8.77951
▁short	-8.783
▁ordered	-8.78359
We	-8.78379
▁looks	-8.79014
▁Since	-8.79078
en	-8.79274
▁hot	-8.79314
▁schedule	-8.79369
▁interested	-8.79487
p	-8.79513
▁F	-8.7971
B	-8.79797
▁online	-8.8013
▁space	-8.80206
L	-8.80279
▁moment	-8.80352
▁half	-8.80361
▁customers	-8.80461
▁Sunday	-8.80752
▁interest	-8.80863
gu	-8.80988
▁account	-8.80995
▁sleep	-8.81053
▁win	-8.81149
▁Friday	-8.81486
▁global	-8.81494
▁decided	-8.81543
▁dinner	-8.81777
▁several	-8.8188
▁mean	-8.82088
▁Today	-8.82133
ic	-8.82241
▁human	-8.82371
▁war	-8.82501
▁nothing	-8.82505
▁lead	-8.82508
▁low	-8.82732
M	-8.82752
▁social	-8.82755
▁died	-8.82924
▁amount	-8.83023
up	-8.83095
▁sold	-8.83099
▁visited	-8.83487
pop	-8.83583
▁His	-8.83632
ra	-8.84045
▁According	-8.84091
▁skin	-8.84188
▁tried	-8.8419
▁speak	-8.84448
▁With	-8.84606
▁rest	-8.84618
▁list	-8.84757
man	-8.85484
▁coffee	-8.85565
▁World	-8.85811
▁double	-8.86271
▁within	-8.86303
▁paid	-8.86574
il	-8.866
▁idea	-8.86624
▁date	-8.86679
▁Also	-8.86753
▁son	-8.86798
el	-8.86842
▁Have	-8.86891
▁promise	-8.87066
T	-8.87315
▁quickly	-8.87424
▁rate	-8.87435
▁works	-8.87498
▁summer	-8.87514
!	-8.87727
▁restaurant	-8.8777
ho	-8.87776
nd	-8.87985
▁health	-8.88041
▁foreign	-8.88095
▁comes	-8.88113
▁waiting	-8.8858
K	-8.88787
▁easily	-8.88946
▁bought	-8.88946
▁problems	-8.88966
▁stage	-8.89028
ation	-8.89052
▁An	-8.89121
▁matter	-8.89124
▁model	-8.89146
▁games	-8.89544
▁cases	-8.89608
▁hear	-8.89673
▁items	-8.89716
▁death	-8.8992
▁red	-8.90009
▁clear	-8.90024
▁killed	-8.90446
▁lives	-8.90654
▁points	-8.90657
▁word	-8.91205
▁history	-8.91303
▁host	-8.91372
▁sell	-8.91409
▁wife	-8.91488
▁P	-8.91599
▁provide	-8.91627
▁clothes	-8.91648
▁light	-8.9193
▁e	-8.92361
ion	-8.92832
▁increase	-8.92931
It	-8.92977
▁First	-8.93083
▁remember	-8.93324
▁answer	-8.93556
ar	-8.9358
▁industry	-8.9361
to	-8.93717
▁takes	-8.93864
▁create	-8.93989
less	-8.94017
▁debut	-8.94021
▁request	-8.94033
min	-8.94075
▁recently	-8.94241
▁continue	-8.94318
▁hour	-8.94461
▁concert	-8.94479
▁likely	-8.94622
▁black	-8.94794
▁teacher	-8.95002
▁played	-8.95281
▁match	-8.95583
▁People	-8.95704
▁outside	-8.95753
▁six	-8.95853
▁cause	-8.96027
▁March	-8.96196
old	-8.96855
▁though	-8.9694
▁final	-8.97164
▁inside	-8.97268
▁charge	-8.97273
▁along	-8.98029
▁Most	-8.98289
▁M	-8.98546
▁busy	-8.98741
▁chance	-8.98752
▁Obama	-8.98971
▁Busan	-8.9899
▁Hong	-8.99222
▁needed	-8.99242
▁art	-8.99294
▁bag	-8.99314
ir	-8.99326
▁dog	-8.99342
u	-8.99567
se	-9.00086
▁key	-9.00139
▁books	-9.00163
▁taken	-9.00237
▁club	-9.00512
”	-9.00578
▁question	-9.007
▁building	-9.00962
▁United	-9.01085
▁led	-9.01239
▁contract	-9.01334
▁cut	-9.01387
▁society	-9.0158
▁girl	-9.01583
▁okay	-9.01707
▁president	-9.0198
▁role	-9.02053
▁Saturday	-9.0223
▁clean	-9.02323
▁box	-9.02449
▁finish	-9.02907
▁rather	-9.02975
▁drama	-9.03
▁thinking	-9.03082
▁wear	-9.03322
▁aid	-9.03378
▁choose	-9.03615
▁June	-9.03689
▁Women	-9.04029
▁related	-9.04078
▁ready	-9.04104
▁single	-9.04147
O	-9.04459
▁hospital	-9.04646
▁shall	-9.04775
▁content	-9.0479
▁item	-9.04998
▁address	-9.05006
▁movies	-9.05054
▁image	-9.05057
▁users	-9.05104
N	-9.05147
▁fell	-9.05185
▁write	-9.05186
▁given	-9.05211
▁national	-9.05262
▁brand	-9.05365
▁July	-9.05453
▁talking	-9.05524
▁present	-9.05581
▁tired	-9.05581
▁prepare	-9.05668
f	-9.05695
▁Tuesday	-9.05706
▁bank	-9.05794
▁growth	-9.05809
▁similar	-9.05845
▁pictures	-9.05961
▁anyone	-9.06116
),	-9.06573
▁pm	-9.06584
▁almost	-9.06614
▁American	-9.06631
ness	-9.06698
▁lunch	-9.06736
▁white	-9.06794
▁April	-9.06902
▁walk	-9.07147
▁center	-9.0718
▁isn	-9.072
▁train	-9.07314
▁watching	-9.07326
▁fast	-9.07368
▁Michael	-9.07411
▁studying	-9.07446
▁flight	-9.07758
▁playing	-9.0777
▁economic	-9.07864
te	-9.08015
▁O	-9.08266
▁record	-9.08408
▁introduce	-9.08496
▁particular	-9.08543
▁BTS	-9.08672
▁officials	-9.08834
▁payment	-9.09359
▁warm	-9.09436
▁third	-9.09556
▁happened	-9.09575
▁taste	-9.09662
▁level	-9.0991
▁focus	-9.09929
▁recommend	-9.0994
▁goes	-9.09998
b	-9.1006
▁file	-9.10108
▁Jung	-9.10192
▁enter	-9.10304
F	-9.1033
us	-9.10393
un	-9.10404
▁haven	-9.10564
▁deal	-9.10625
ity	-9.1067
▁instead	-9.10687
▁spend	-9.10806
▁eating	-9.10973
mi	-9.11079
▁mom	-9.11269
▁civil	-9.11347
▁Gyeonggi	-9.11357
▁workers	-9.1154
▁worked	-9.11546
▁turn	-9.11695
▁African	-9.11928
▁flu	-9.11981
▁V	-9.12138
▁airport	-9.12198
▁member	-9.12207
▁control	-9.12219
▁grow	-9.1237
▁station	-9.12372
▁pain	-9.12812
▁results	-9.12878
▁break	-9.12987
▁plans	-9.13324
▁state	-9.13354
▁questions	-9.13394
▁wants	-9.13498
▁gift	-9.13511
▁weekend	-9.13533
▁sets	-9.13597
▁de	-9.13677
▁according	-9.13684
▁Which	-9.13745
▁prepared	-9.13803
▁dollars	-9.13994
▁reply	-9.14035
▁Asian	-9.1422
▁Ban	-9.14365
▁hurt	-9.14393
▁By	-9.14479
▁longer	-9.14479
▁economy	-9.14616
▁York	-9.14671
▁Koreans	-9.14698
▁staff	-9.14746
▁hold	-9.14777
▁Ji	-9.1488
▁husband	-9.14936
▁CD	-9.15023
▁currently	-9.15105
▁arrived	-9.15182
▁Although	-9.15369
▁value	-9.15449
▁weather	-9.15484
▁Who	-9.15678
▁R	-9.15732
time	-9.15745
▁decision	-9.15853
▁Would	-9.15862
▁military	-9.15919
▁N	-9.16046
▁needs	-9.16066
▁apply	-9.16115
▁expect	-9.16288
▁field	-9.16469
ting	-9.16769
▁ticket	-9.16915
▁fall	-9.16992
▁manager	-9.17063
▁scene	-9.17183
▁type	-9.17289
▁winter	-9.17375
▁simple	-9.17511
▁City	-9.1754
▁arrive	-9.1764
▁pick	-9.1771
ment	-9.17775
ur	-9.17803
▁else	-9.17806
▁co	-9.17915
▁computer	-9.18097
▁forward	-9.18126
▁Of	-9.18446
it	-9.18541
▁Wednesday	-9.18549
▁floor	-9.18596
▁stock	-9.18611
▁current	-9.18799
▁former	-9.18834
▁follow	-9.18866
▁songs	-9.18902
▁taxi	-9.18939
▁student	-9.19007
▁H	-9.1904
▁behind	-9.19298
▁sea	-9.19602
▁whole	-9.1961
▁exchange	-9.19622
▁poor	-9.19828
▁album	-9.19856
▁oil	-9.19998
▁solve	-9.2005
▁recent	-9.20286
out	-9.20304
▁”	-9.20363
▁table	-9.20572
li	-9.20607
na	-9.20802
▁necessary	-9.20812
▁interview	-9.20862
▁example	-9.20864
lo	-9.20968
▁add	-9.21093
ha	-9.21278
▁photos	-9.213
▁Samsung	-9.21454
▁delivery	-9.21648
▁happen	-9.21659
▁round	-9.21667
▁events	-9.21675
▁largest	-9.21725
▁explain	-9.21827
▁sound	-9.21879
▁unique	-9.21887
▁technology	-9.22081
▁Jeju	-9.22196
▁Moon	-9.22212
▁attached	-9.22224
▁sign	-9.22264
▁sad	-9.2251
▁sometimes	-9.22578
▁fee	-9.22592
▁period	-9.22814
▁Jackson	-9.22816
Pop	-9.23022
▁Gu	-9.23394
ry	-9.23407
ne	-9.23431
▁Jesus	-9.23617
▁growing	-9.23792
▁worried	-9.24068
▁Among	-9.2407
▁loved	-9.24175
▁Internet	-9.24226
▁road	-9.24227
▁October	-9.24263
▁sports	-9.24317
▁brother	-9.24351
▁prevent	-9.24407
▁worry	-9.24425
▁court	-9.24437
▁seat	-9.24477
rd	-9.24535
▁purchase	-9.24554
▁January	-9.24562
▁view	-9.2461
▁opened	-9.24754
▁pretty	-9.2488
key	-9.24918
▁confirmed	-9.25005
▁fan	-9.25012
▁save	-9.25027
▁tour	-9.25037
▁wonder	-9.25059
▁attract	-9.25153
▁post	-9.25239
▁paper	-9.25315
▁customer	-9.25325
▁passed	-9.25326
▁listen	-9.25404
▁Fla	-9.25546
w	-9.25658
▁exist	-9.25712
▁offer	-9.25777
▁baby	-9.25817
▁earlier	-9.25817
▁leader	-9.25943
▁policy	-9.25977
▁Go	-9.26092
¡	-9.2646
▁Thursday	-9.26471
▁anymore	-9.2663
▁vacation	-9.26784
▁daughter	-9.26832
▁planning	-9.26956
▁checked	-9.27018
▁...	-9.27083
▁active	-9.27229
▁voice	-9.27454
E	-9.27488
▁jobs	-9.27603
▁higher	-9.27669
▁servants	-9.27868
;	-9.27924
▁sample	-9.27952
▁healthy	-9.28018
H	-9.28026
▁Han	-9.28083
▁subway	-9.2809
▁law	-9.28092
▁prices	-9.28116
▁created	-9.28141
▁ball	-9.2835
▁House	-9.28418
de	-9.28518
▁church	-9.28548
▁dance	-9.2855
▁Okay	-9.28582
▁dead	-9.28664
ia	-9.28829
▁August	-9.28948
▁camera	-9.29024
▁natural	-9.29038
▁common	-9.29167
▁meal	-9.29296
▁hands	-9.29412
▁sense	-9.29412
▁huge	-9.29451
▁website	-9.29471
▁Ha	-9.29551
▁Facebook	-9.29575
▁Not	-9.29744
▁hate	-9.29796
▁opinion	-9.29807
▁sister	-9.29813
▁raise	-9.29922
▁ship	-9.29961
▁miss	-9.30117
▁Ama	-9.30191
▁wasn	-9.30305
su	-9.30307
▁damage	-9.30336
▁reach	-9.3039
▁energy	-9.30411
▁CEO	-9.30676
▁W	-9.3068
ist	-9.30717
▁express	-9.30726
bearing	-9.3076
▁self	-9.30803
▁player	-9.30856
▁parts	-9.30861
▁trade	-9.30923
▁refund	-9.30924
▁born	-9.30963
▁looked	-9.30997
▁prep	-9.31064
▁accident	-9.31175
▁quality	-9.31223
▁ice	-9.3126
▁announced	-9.31291
▁menu	-9.31313
▁positive	-9.31348
dong	-9.31399
▁Susan	-9.31429
▁release	-9.31656
▁weeks	-9.31659
▁America	-9.31692
▁Songdo	-9.31778
▁From	-9.31812
▁costs	-9.31905
W	-9.31919
U	-9.32026
▁caused	-9.32049
she	-9.3205
▁position	-9.32054
▁ways	-9.32115
▁Choi	-9.32184
▁Christmas	-9.32447
▁Does	-9.32493
ce	-9.32509
▁bed	-9.32764
▁feeling	-9.32839
▁land	-9.33066
▁moved	-9.33159
▁credit	-9.3316
▁areas	-9.33174
▁thank	-9.33296
▁pass	-9.33309
▁Germany	-9.33354
▁fish	-9.33379
▁star	-9.33413
).	-9.33442
R	-9.33587
▁appeared	-9.33598
▁daily	-9.33654
▁Her	-9.33734
▁Be	-9.33779
▁Whil	-9.33878
▁accept	-9.33891
▁plane	-9.33898
▁shot	-9.33911
▁wearing	-9.34026
▁Cup	-9.34066
▁delicious	-9.34176
▁birthday	-9.34179
▁lose	-9.34234
▁More	-9.3427
▁lower	-9.34336
▁Just	-9.34377
▁Bush	-9.34397
▁eye	-9.34519
▁employees	-9.3454
▁Here	-9.34558
▁finished	-9.34571
▁shop	-9.34695
ies	-9.34758
▁trust	-9.34768
▁States	-9.34924
ta	-9.35014
▁domestic	-9.35051
▁Flying	-9.35052
▁directly	-9.3509
▁action	-9.35113
la	-9.35208
jin	-9.35239
▁quite	-9.35265
▁average	-9.35286
▁Iran	-9.35434
▁forget	-9.35571
▁France	-9.35581
ul	-9.35669
▁forecaster	-9.35708
▁extra	-9.35715
▁knew	-9.35758
▁Glove	-9.3576
▁mail	-9.35834
▁drive	-9.35889
▁ahead	-9.35904
▁stand	-9.36021
▁December	-9.36112
▁reading	-9.36197
▁above	-9.36225
ive	-9.36484
▁choice	-9.36626
▁thwart	-9.36647
▁spread	-9.36732
▁glad	-9.36749
▁festival	-9.3686
▁research	-9.36928
▁running	-9.37013
▁services	-9.37132
▁brunt	-9.37365
▁climat	-9.37453
▁addition	-9.37504
▁Boyle	-9.37548
▁character	-9.37558
▁document	-9.37584
▁itself	-9.37586
▁Hello	-9.37589
▁rice	-9.37614
com	-9.37634
▁learned	-9.37723
▁November	-9.3776
▁meetin	-9.379
▁biggest	-9.37906
▁include	-9.37988
▁places	-9.37989
▁letter	-9.38001
▁style	-9.3801
▁step	-9.38063
▁followed	-9.38101
▁boy	-9.38313
▁mobile	-9.38477
▁meat	-9.38593
▁form	-9.38715
the	-9.38852
▁exercise	-9.38907
▁improve	-9.392
▁Last	-9.3927
▁afraid	-9.39549
▁Police	-9.39584
▁join	-9.39586
▁yourself	-9.39749
▁additional	-9.39882
▁prefer	-9.39912
ch	-9.39931
ty	-9.39954
▁personal	-9.40043
▁Russia	-9.40115
▁Kong	-9.40132
▁De	-9.40145
▁door	-9.40216
▁success	-9.40219
▁details	-9.40284
▁develop	-9.40321
▁discount	-9.40417
▁citizens	-9.40449
▁deliver	-9.40531
▁changes	-9.40594
▁Kang	-9.40692
▁singer	-9.40803
▁further	-9.40845
▁writing	-9.40878
▁cell	-9.4088
▁Jae	-9.41068
▁weight	-9.41137
▁advance	-9.41258
▁attack	-9.41284
▁training	-9.41415
▁applied	-9.41439
▁driving	-9.41476
▁skills	-9.41514
▁attend	-9.41522
▁groups	-9.41653
▁private	-9.41893
▁boyfriend	-9.41896
▁activities	-9.4197
▁himself	-9.41974
▁dramas	-9.42005
▁increased	-9.42033
▁safe	-9.42037
▁giving	-9.42037
no	-9.42135
▁rain	-9.4217
▁cat	-9.4235
▁abroad	-9.42537
▁Sorry	-9.4255
▁screen	-9.4256
▁production	-9.4269
▁cars	-9.42817
▁Na	-9.4286
▁actor	-9.43019
▁shown	-9.43108
▁security	-9.43153
▁Cho	-9.43175
▁cool	-9.43189
▁Day	-9.43377
▁Europe	-9.43472
▁smile	-9.43508
▁showing	-9.43746
▁education	-9.4396
▁Ma	-9.43962
espite	-9.44065
▁park	-9.44172
▁kids	-9.44174
▁college	-9.44258
▁shopping	-9.44293
▁L	-9.44335
▁allow	-9.44339
▁Re	-9.4437
▁explained	-9.44459
▁Iraq	-9.44633
▁language	-9.44697
▁John	-9.44888
▁KRW	-9.44934
▁invoice	-9.45032
▁twice	-9.45032
▁blue	-9.45068
ton	-9.4517
▁tax	-9.45259
▁female	-9.45651
▁viewers	-9.45697
▁tonight	-9.4573
me	-9.4584
▁animals	-9.45893
▁Su	-9.45996
ant	-9.45999
▁guess	-9.46009
▁Min	-9.4615
▁chicken	-9.46206
▁agree	-9.46237
▁couple	-9.46239
▁worth	-9.46259
▁included	-9.4657
▁audience	-9.46636
▁shoes	-9.46636
ter	-9.46655
▁Thanks	-9.4666
won	-9.46681
▁written	-9.46696
▁married	-9.46797
▁deep	-9.46822
▁street	-9.47194
▁reasons	-9.47284
▁heat	-9.47423
▁actually	-9.47428
▁act	-9.47463
▁effect	-9.47468
▁trend	-9.47723
▁sick	-9.47785
▁Canada	-9.47808
▁effort	-9.47851
▁build	-9.47917
▁rise	-9.47923
▁base	-9.48041
▁caught	-9.48191
▁competition	-9.48208
▁residents	-9.48283
et	-9.48368
▁agency	-9.48392
▁Vietnam	-9.48414
▁Will	-9.4851
▁via	-9.48552
▁nearby	-9.48602
▁turned	-9.48625
▁helped	-9.48643
▁demand	-9.48674
▁survey	-9.48835
▁September	-9.49029
V	-9.49098
▁pre	-9.49101
mail	-9.4932
▁wrote	-9.49435
▁driver	-9.49539
am	-9.49744
ga	-9.49755
▁Asia	-9.49835
▁summit	-9.50013
▁Oh	-9.5009
▁previous	-9.50142
▁stress	-9.50392
▁practice	-9.50473
▁girlfriend	-9.50497
age	-9.50532
▁lack	-9.50605
▁lived	-9.50628
▁French	-9.5063
Y	-9.50737
▁Shin	-9.50851
ma	-9.50982
▁middle	-9.5104
▁heavy	-9.5106
▁National	-9.51083
▁moving	-9.51118
▁respect	-9.51352
▁Me	-9.51375
is	-9.51418
▁Se	-9.5142
▁general	-9.51437
▁expensive	-9.51453
▁sweet	-9.51481
▁page	-9.51562
ent	-9.51756
▁app	-9.51831
▁reports	-9.51885
▁sending	-9.51886
est	-9.52041
▁confirm	-9.52043
▁fresh	-9.52046
ine	-9.52073
▁opportunity	-9.52077
▁named	-9.52294
▁February	-9.5231
▁decide	-9.52341
▁d	-9.52481
▁memory	-9.52497
▁properly	-9.52534
▁town	-9.52689
▁across	-9.52773
▁learning	-9.52837
▁safety	-9.52924
▁die	-9.52946
▁participate	-9.52971
▁issues	-9.52973
▁financial	-9.5307
▁fight	-9.53087
▁Co	-9.53314
gi	-9.53352
▁ground	-9.53452
▁perfect	-9.53458
▁method	-9.53513
▁relationship	-9.53514
▁especially	-9.53548
mo	-9.53659
▁basic	-9.53756
▁Therefore	-9.53766
sa	-9.5383
▁efforts	-9.53908
ji	-9.54017
▁reduce	-9.5403
▁development	-9.54031
her	-9.54031
▁serious	-9.54109
▁Australia	-9.54173
▁transfer	-9.54179
▁ability	-9.5438
▁score	-9.54383
▁continued	-9.54472
go	-9.54564
▁Young	-9.54566
▁cook	-9.54597
▁raised	-9.54695
▁review	-9.55252
▁spent	-9.55257
▁artists	-9.55359
▁political	-9.55679
▁selling	-9.5569
▁response	-9.55694
ary	-9.55768
▁programs	-9.55896
▁reality	-9.55932
▁cancel	-9.55958
▁leading	-9.56039
▁consider	-9.56082
▁text	-9.56129
▁non	-9.56173
▁ride	-9.56299
▁Jin	-9.56333
▁press	-9.56426
▁requested	-9.56638
▁stars	-9.56737
ism	-9.56922
▁material	-9.5725
▁popularity	-9.57254
",	-9.57289
▁dish	-9.57301
at	-9.57476
ki	-9.57547
▁delivered	-9.57622
▁seven	-9.57772
▁meaning	-9.57869
▁Dong	-9.57956
▁broke	-9.58046
▁teams	-9.58149
▁figure	-9.58274
▁built	-9.58352
▁catch	-9.58368
▁experts	-9.58377
▁speed	-9.58393
▁proceed	-9.58546
▁beauty	-9.58638
▁developed	-9.59252
▁tea	-9.59305
▁region	-9.59474
▁ended	-9.59647
▁board	-9.59651
be	-9.59703
▁Sure	-9.59798
▁talks	-9.59978
▁o	-9.60076
▁budget	-9.60108
▁Jong	-9.60128
▁variety	-9.60334
▁snow	-9.60503
▁closed	-9.60514
▁stories	-9.60561
▁posted	-9.60562
▁treatment	-9.60569
▁consumers	-9.6068
▁J	-9.60817
▁Two	-9.60845
ba	-9.60845
as	-9.61013
▁kept	-9.61016
▁agreement	-9.61028
▁condition	-9.61072
▁cream	-9.6113
▁finally	-9.61159
▁stores	-9.61225
▁dust	-9.61244
▁exactly	-9.61297
▁traditional	-9.61305
ck	-9.614
▁probably	-9.61473
▁community	-9.61473
▁mistake	-9.6156
▁reservation	-9.61597
▁interesting	-9.61629
▁suddenly	-9.6174
▁colors	-9.61798
▁exhibition	-9.61938
▁avoid	-9.61955
▁compared	-9.62228
co	-9.62237
▁guys	-9.6225
▁goods	-9.62497
▁university	-9.62625
bo	-9.62626
▁fashion	-9.62714
&	-9.62742
▁asking	-9.62804
▁watched	-9.62852
▁themselves	-9.62857
▁Minister	-9.62858
▁except	-9.63042
▁angry	-9.6309
▁cute	-9.63461
▁seeing	-9.63464
▁holiday	-9.63487
▁original	-9.63518
▁environment	-9.63536
▁atmosphere	-9.63556
▁brought	-9.63556
hose	-9.63631
▁appreciate	-9.63638
▁tourists	-9.63698
▁exam	-9.63718
x	-9.6375
▁series	-9.63791
▁cover	-9.6381
▁drawing	-9.63811
▁German	-9.63965
▁certain	-9.6399
▁overseas	-9.64025
▁nature	-9.64025
▁soccer	-9.64025
▁talked	-9.64111
▁crisis	-9.6426
_	-9.64261
▁protect	-9.6427
▁title	-9.64286
▁touch	-9.64441
▁peace	-9.647
▁appear	-9.6472
▁leaving	-9.64733
po	-9.64736
rs	-9.64808
▁introduced	-9.64815
▁cultural	-9.64818
▁injured	-9.6497
▁broken	-9.6501
▁campaign	-9.65207
▁progress	-9.65274
▁provided	-9.65291
bi	-9.65353
▁CNN	-9.65406
▁gas	-9.6553
▁statement	-9.65672
▁located	-9.65688
young	-9.65711
▁sale	-9.65762
▁contains	-9.65827
▁older	-9.65902
▁director	-9.66077
▁films	-9.6614
▁University	-9.66163
▁considered	-9.66341
▁dress	-9.66417
▁La	-9.66565
▁sky	-9.66626
▁boss	-9.66645
▁thanks	-9.66706
▁correct	-9.66746
▁Island	-9.66915
▁green	-9.6697
▁teach	-9.66995
▁starting	-9.67015
▁rich	-9.67018
▁term	-9.67058
▁beer	-9.67072
▁highest	-9.67175
▁version	-9.6718
▁Hyun	-9.67188
▁evening	-9.67192
pe	-9.67315
▁user	-9.67335
▁doctor	-9.67425
▁revealed	-9.67455
▁opening	-9.67609
If	-9.67672
▁guide	-9.67706
▁enjoyed	-9.67739
▁missing	-9.67772
▁dark	-9.67791
▁access	-9.67886
▁gone	-9.67978
▁bill	-9.68136
▁entered	-9.68145
tic	-9.68172
▁White	-9.68181
▁afternoon	-9.68347
▁risk	-9.68371
▁Incheon	-9.68411
▁Po	-9.68626
▁Tell	-9.68633
▁complete	-9.68686
▁Ho	-9.68774
▁India	-9.68811
▁capital	-9.68863
▁completed	-9.69013
▁incident	-9.69124
id	-9.69151
▁normal	-9.69258
▁London	-9.69334
sh	-9.69355
▁gives	-9.69382
▁supply	-9.69385
▁bar	-9.69429
▁etc	-9.6947
▁election	-9.69571
▁preparing	-9.69582
ner	-9.69637
▁gathered	-9.69675
▁article	-9.69679
▁selected	-9.69686
▁British	-9.7008
▁foreigners	-9.70175
▁search	-9.70396
▁seats	-9.70408
ful	-9.70548
▁visitors	-9.7056
▁investigation	-9.70581
▁draw	-9.70587
▁race	-9.70974
▁Taiwan	-9.71083
▁ate	-9.71276
▁War	-9.71288
▁X	-9.71311
ate	-9.71352
▁dishes	-9.71375
▁management	-9.71389
▁machine	-9.71426
▁Only	-9.71514
▁produced	-9.71605
▁nation	-9.71747
▁helps	-9.71761
▁international	-9.71844
▁Everyone	-9.719
▁liked	-9.72064
▁Group	-9.721
▁ten	-9.72323
▁fully	-9.72324
▁allowed	-9.72326
▁planned	-9.72363
▁function	-9.72539
▁happiness	-9.72609
▁traffic	-9.72609
▁cake	-9.72721
▁rose	-9.72866
▁carry	-9.72917
▁solution	-9.73094
▁either	-9.73122
▁client	-9.73244
woo	-9.73289
▁Sa	-9.73341
▁owner	-9.73441
▁career	-9.73498
▁eight	-9.73583
▁contents	-9.73614
▁blood	-9.73616
▁mine	-9.73739
▁&	-9.73766
▁Bo	-9.73816
▁proud	-9.73824
▁dogs	-9.73849
▁Province	-9.73903
▁terms	-9.7392
▁becoming	-9.73946
ni	-9.7408
▁toward	-9.74084
▁trouble	-9.74142
▁produce	-9.74147
▁artist	-9.74158
▁fit	-9.74195
▁documents	-9.74351
▁failed	-9.74494
▁About	-9.74679
▁conference	-9.74679
▁Yeah	-9.74681
▁kinds	-9.74708
vi	-9.74834
ci	-9.74927
▁features	-9.75017
▁achieve	-9.75127
▁wine	-9.75177
ah	-9.75178
▁truth	-9.75203
▁occurred	-9.75205
▁pressure	-9.75207
▁visiting	-9.75417
▁sit	-9.75423
▁expressed	-9.75477
▁Air	-9.75503
▁Maybe	-9.75554
▁package	-9.75703
▁filled	-9.75719
▁Next	-9.7573
▁Center	-9.7574
san	-9.75768
▁leaders	-9.75807
▁memories	-9.75995
ized	-9.76035
▁Man	-9.76279
▁Chairman	-9.76315
▁shape	-9.76357
▁bright	-9.76524
▁milk	-9.76526
▁comfortable	-9.76536
▁pro	-9.76617
▁chose	-9.76759
▁families	-9.76792
op	-9.76813
day	-9.76897
▁Malaysia	-9.77025
ong	-9.77086
▁Google	-9.77107
ie	-9.77246
▁Ra	-9.77312
▁gold	-9.77354
▁Sun	-9.7737
▁Wave	-9.77371
▁rent	-9.77413
▁Al	-9.77428
▁maintain	-9.77435
▁actively	-9.77453
▁impact	-9.77597
hyun	-9.77623
▁golf	-9.7763
ling	-9.77642
▁projects	-9.77695
▁classes	-9.77745
▁calling	-9.77762
▁ran	-9.77976
▁breakfast	-9.78137
▁appearance	-9.78142
▁purpose	-9.78149
▁diet	-9.78198
▁completely	-9.7822
▁marketing	-9.78224
▁soft	-9.78253
ti	-9.78285
▁male	-9.78426
mm	-9.78629
▁materials	-9.78633
▁regret	-9.7866
▁immediately	-9.78699
▁actors	-9.78743
▁happens	-9.78855
▁videos	-9.78862
▁increasing	-9.78935
▁medical	-9.78953
▁shipping	-9.78959
▁Cha	-9.7896
▁Mi	-9.79013
▁influence	-9.79132
▁handle	-9.7927
▁trial	-9.79344
▁ex	-9.79361
▁realized	-9.79388
▁department	-9.79502
▁European	-9.79525
son	-9.79529
▁League	-9.79529
ak	-9.79556
▁mentioned	-9.79615
▁Dae	-9.79686
▁successful	-9.79707
di	-9.79726
ol	-9.7974
▁investment	-9.79762
▁nuclear	-9.79774
▁patients	-9.79865
▁fear	-9.79871
soo	-9.8001
▁tree	-9.80131
▁mid	-9.80145
line	-9.80158
▁Isn	-9.80186
▁beach	-9.80225
▁regular	-9.80302
▁apartment	-9.80325
▁studied	-9.80325
▁walking	-9.80341
▁vote	-9.80457
▁loss	-9.8058
▁spring	-9.80603
▁Apple	-9.80607
▁cup	-9.80617
J	-9.80691
▁detail	-9.80725
da	-9.80829
▁Every	-9.80888
▁latest	-9.81011
▁Dur	-9.81105
▁map	-9.81435
▁occur	-9.81451
▁Jang	-9.81483
ge	-9.81564
▁wind	-9.81584
▁attended	-9.81678
▁ideas	-9.8168
▁Mexico	-9.81755
▁Singapore	-9.81981
▁museum	-9.81999
▁broadcast	-9.82081
▁wide	-9.82185
▁drinking	-9.82246
▁nearly	-9.82257
▁difference	-9.82317
▁waste	-9.82393
per	-9.82466
▁Each	-9.82574
▁village	-9.82605
ian	-9.82846
▁spicy	-9.82846
▁changing	-9.82848
▁specific	-9.82883
▁network	-9.82901
▁Well	-9.83003
ang	-9.8304
▁Bank	-9.83044
▁Donald	-9.83131
▁acting	-9.83242
ke	-9.83261
▁returned	-9.8331
article	-9.83335
ju	-9.83372
▁band	-9.83645
▁victory	-9.83701
▁factory	-9.83735
▁cooking	-9.83781
um	-9.83881
▁rooms	-9.83882
▁Festival	-9.83988
ad	-9.84262
▁Song	-9.84273
▁Son	-9.84337
▁Tae	-9.84483
▁bread	-9.84564
▁fill	-9.84579
▁tickets	-9.84623
▁coach	-9.84837
▁behavior	-9.84938
▁pop	-9.84968
▁serve	-9.84982
▁gets	-9.85179
▁Russian	-9.85213
▁beat	-9.85327
ja	-9.85347
▁begin	-9.85356
▁traveling	-9.85468
▁feelings	-9.85568
▁participated	-9.85646
▁careful	-9.85674
▁Yu	-9.85764
▁realize	-9.85877
▁scheduled	-9.85879
bu	-9.85893
▁Seo	-9.85909
,”	-9.8598
▁Or	-9.85999
▁code	-9.86065
▁treat	-9.86074
▁grade	-9.86117
▁girls	-9.86133
▁ranked	-9.86194
▁legal	-9.86264
▁holding	-9.86282
▁missed	-9.86301
▁Currently	-9.86315
▁Italy	-9.86316
▁Spain	-9.86317
▁platform	-9.86426
▁island	-9.86448
▁desire	-9.86449
ex	-9.8646
▁labor	-9.86607
▁sex	-9.86762
hi	-9.868
▁scored	-9.86817
▁Si	-9.86884
▁secret	-9.86941
▁surprised	-9.86982
▁regarding	-9.87014
▁lots	-9.87187
way	-9.8719
ous	-9.87272
▁cafe	-9.87329
▁Excuse	-9.87492
▁remain	-9.87502
z	-9.87544
▁SNS	-9.87549
▁tend	-9.87609
▁clearly	-9.87692
▁samples	-9.87738
hee	-9.87796
▁types	-9.87846
▁display	-9.87928
▁Z	-9.87976
▁Another	-9.88088
▁spokesman	-9.88091
▁LG	-9.88117
▁victims	-9.88199
▁faster	-9.88214
▁buying	-9.88372
▁sauce	-9.88387
▁Recently	-9.88393
▁Da	-9.88647
▁designed	-9.88663
▁smart	-9.8869
▁Tokyo	-9.8869
▁excited	-9.88694
▁discuss	-9.88708
▁Tom	-9.88753
▁effective	-9.88811
▁cross	-9.88899
pa	-9.88906
▁reportedly	-9.89001
▁whenever	-9.89143
▁continues	-9.89154
▁idol	-9.89163
▁crime	-9.89163
▁troops	-9.89165
ance	-9.8922
▁equipment	-9.89291
▁makeup	-9.89306
ated	-9.89397
▁Like	-9.89402
▁foods	-9.89407
▁vehicle	-9.89472
▁track	-9.89485
▁calm	-9.89521
▁agreed	-9.89528
▁San	-9.89623
▁force	-9.89632
▁minute	-9.89642
▁Ki	-9.89719
▁guy	-9.89785
▁lie	-9.89948
▁YouTube	-9.90055
▁smartphone	-9.90093
der	-9.90139
▁claim	-9.90144
led	-9.90157
▁stopped	-9.90218
wa	-9.90335
▁winning	-9.9045
▁library	-9.90509
▁Lotte	-9.9051
▁confidence	-9.90628
▁ID	-9.90665
▁damaged	-9.9079
▁Amazon	-9.90815
▁limited	-9.90955
▁illegal	-9.91047
▁professional	-9.9108
▁modern	-9.91123
▁shipment	-9.91142
ung	-9.91285
▁subject	-9.91335
▁disease	-9.91343
▁joined	-9.91393
▁cities	-9.91434
▁smell	-9.91671
▁suit	-9.91677
ru	-9.91699
▁promote	-9.91897
▁quiet	-9.91976
▁desk	-9.92051
▁deposit	-9.92074
▁feels	-9.921
▁Ba	-9.9214
▁drop	-9.92284
▁application	-9.92292
v	-9.92309
▁extreme	-9.92363
▁smoke	-9.92512
▁Take	-9.92525
▁stressed	-9.92609
▁Ga	-9.92657
▁reached	-9.92663
▁Yang	-9.9267
▁trillion	-9.92676
▁AI	-9.92731
▁b	-9.92758
▁challenge	-9.92799
▁operation	-9.92811
▁mouth	-9.92812
ever	-9.92819
▁England	-9.92989
▁bigger	-9.9301
▁Clinton	-9.93304
one	-9.93436
ver	-9.93461
▁fair	-9.93466
▁starts	-9.935
▁checking	-9.93699
▁killing	-9.93848
▁device	-9.93897
▁Mo	-9.93907
▁soldiers	-9.93964
▁sing	-9.93969
ca	-9.94003
▁conditions	-9.94093
▁Washington	-9.94253
▁marriage	-9.94253
▁presentation	-9.94287
▁dad	-9.94295
▁goals	-9.9435
▁pray	-9.94386
▁entire	-9.94495
▁strength	-9.94524
▁Should	-9.94528
▁senior	-9.94544
▁employee	-9.94546
▁duty	-9.94572
▁Sung	-9.94633
▁meaningful	-9.94685
▁staying	-9.94824
▁simply	-9.94891
▁wave	-9.9502
▁helpful	-9.95064
con	-9.95091
▁restaurants	-9.95102
▁forever	-9.95258
▁inform	-9.95271
▁Look	-9.95303
▁shouldn	-9.9534
▁Le	-9.9535
▁adults	-9.95383
▁soup	-9.95412
▁Di	-9.95459
▁contest	-9.95534
▁Yoon	-9.95562
▁fix	-9.95563
ok	-9.9561
▁rising	-9.95629
▁calls	-9.95728
▁beginning	-9.9586
▁favor	-9.95996
▁manage	-9.96026
ish	-9.96039
▁Ko	-9.96099
▁exact	-9.96104
▁beyond	-9.96179
▁spot	-9.96187
lu	-9.96248
▁wouldn	-9.96334
X	-9.96347
▁weak	-9.96432
▁``	-9.96504
ber	-9.96654
▁honor	-9.96668
▁harder	-9.96831
▁becomes	-9.96844
▁perform	-9.96975
▁aren	-9.9714
▁standard	-9.97185
▁dry	-9.97335
▁younger	-9.97457
▁chocolate	-9.97484
▁Paris	-9.97539
▁rights	-9.97547
si	-9.97617
▁fixed	-9.97649
▁shooting	-9.97669
He	-9.97722
▁birth	-9.97806
▁amazing	-9.97814
▁David	-9.97815
▁income	-9.9793
off	-9.98051
▁overall	-9.98173
▁hall	-9.98208
▁wedding	-9.98227
▁Hyundai	-9.98475
▁ceremony	-9.98475
▁Sometimes	-9.98475
▁published	-9.98503
▁slow	-9.98586
men	-9.98649
▁trees	-9.98817
chi	-9.98905
ial	-9.98927
▁license	-9.99037
▁sun	-9.99133
▁precious	-9.9914
▁status	-9.9914
im	-9.99262
related	-9.99306
▁medicine	-9.99475
▁promotion	-9.99475
▁losing	-9.99476
▁Party	-9.99488
▁partner	-9.99583
▁runs	-9.99838
▁required	-9.99915
▁closer	-9.99967
▁pointed	-10.0007
▁evidence	-10.0015
▁impossible	-10.0015
▁naturally	-10.003
(	-10.0033
▁feet	-10.0037
▁listening	-10.0039
▁population	-10.0048
▁straight	-10.0048
▁nine	-10.0049
▁joy	-10.0051
▁faith	-10.0051
▁path	-10.0053
▁cosmetics	-10.0061
▁forces	-10.0065
▁Yoo	-10.007
▁Hi	-10.0076
ors	-10.0093
▁author	-10.0098
▁involved	-10.0119
▁considering	-10.0125
▁booked	-10.0126
▁helping	-10.0138
▁singing	-10.0146
▁update	-10.0147
▁attitude	-10.0151
▁concern	-10.0152
▁province	-10.0162
▁Israel	-10.0167
▁Philippines	-10.0179
▁painting	-10.0179
▁East	-10.0183
▁concept	-10.0191
▁negative	-10.0211
▁Seung	-10.0218
▁yellow	-10.0219
▁mood	-10.0219
▁California	-10.0221
end	-10.0228
▁Dr	-10.0231
▁theater	-10.0232
▁apologize	-10.0238
▁Ka	-10.024
▁thoughts	-10.0245
▁Indonesia	-10.0248
▁violence	-10.0254
▁remains	-10.0271
▁burden	-10.0272
▁includes	-10.0278
▁contain	-10.0281
There	-10.0284
▁highly	-10.0287
▁Other	-10.0288
▁passion	-10.0291
tion	-10.0294
▁characters	-10.0313
km	-10.0323
▁comments	-10.0324
▁performances	-10.0336
▁kid	-10.0338
▁worse	-10.0339
▁hearing	-10.0339
▁launch	-10.0349
▁Brazil	-10.0356
▁advice	-10.0358
▁pork	-10.0358
▁wake	-10.0359
▁window	-10.0365
clock	-10.0382
▁con	-10.0386
▁direct	-10.0387
▁issued	-10.0388
▁grew	-10.0393
▁Before	-10.0393
▁Hwang	-10.0393
▁believed	-10.0399
▁tall	-10.0402
ut	-10.0405
▁launched	-10.0409
▁movement	-10.0414
▁musical	-10.0414
▁Governor	-10.0428
▁SK	-10.0428
▁g	-10.0429
▁remind	-10.0432
▁Good	-10.0448
▁allows	-10.0463
▁creating	-10.0463
▁strange	-10.0486
and	-10.0489
▁King	-10.0491
om	-10.0498
▁Beijing	-10.0498
▁dangerous	-10.0499
ac	-10.0506
▁piece	-10.0506
▁limit	-10.0512
▁humans	-10.0521
ping	-10.0525
▁theme	-10.0526
▁communication	-10.0534
▁easier	-10.0534
▁empty	-10.0534
▁surgery	-10.0534
▁Jeong	-10.0541
▁recorded	-10.0541
▁slowly	-10.0542
▁raising	-10.0542
▁treated	-10.0553
▁separate	-10.0582
▁gain	-10.0582
▁topic	-10.0586
▁performed	-10.0587
▁professor	-10.0589
▁quit	-10.0597
▁falling	-10.06
land	-10.0602
▁earn	-10.0602
▁sitting	-10.0607
▁earth	-10.0609
▁carefully	-10.0615
In	-10.0616
▁funds	-10.0622
▁animal	-10.0626
▁sites	-10.0627
▁direction	-10.0628
▁mission	-10.0632
ize	-10.0632
ka	-10.0638
▁St	-10.064
▁submit	-10.0641
▁representative	-10.0641
▁authorities	-10.0641
▁Year	-10.0642
dy	-10.0643
▁charges	-10.0643
▁investors	-10.0646
▁estimated	-10.0652
▁however	-10.0652
▁parking	-10.0656
▁mostly	-10.0659
▁button	-10.0694
▁shared	-10.0699
▁victim	-10.07
▁complex	-10.071
▁standing	-10.071
▁plastic	-10.0713
▁Show	-10.0716
▁Through	-10.0717
▁suffering	-10.0735
▁dreams	-10.0747
▁follows	-10.0747
▁whom	-10.0748
▁Thailand	-10.075
kg	-10.0771
▁refer	-10.0773
▁patient	-10.0788
%)	-10.0794
▁lecture	-10.0798
▁Wi	-10.0798
ng	-10.0808
▁luggage	-10.0822
▁potential	-10.0822
▁structure	-10.0822
▁Un	-10.0829
▁count	-10.0832
▁judge	-10.0832
▁target	-10.084
▁claimed	-10.0841
▁aware	-10.0843
▁sleeping	-10.0847
▁Hu	-10.0848
▁paying	-10.0853
▁confident	-10.0858
▁foot	-10.0866
▁alcohol	-10.0866
▁Both	-10.0878
▁Ca	-10.0881
▁State	-10.0886
▁arrested	-10.0906
▁freely	-10.0907
▁rules	-10.0921
▁newly	-10.0927
▁pizza	-10.0932
▁responsible	-10.0932
▁Nam	-10.0935
▁era	-10.0941
like	-10.095
▁Ro	-10.0951
▁tears	-10.0956
jo	-10.0958
▁youth	-10.0967
▁drunk	-10.0968
▁Hollywood	-10.0969
▁anywhere	-10.097
▁hasn	-10.098
▁Hallyu	-10.0982
▁sounds	-10.0991
▁remove	-10.0993
▁guest	-10.0998
▁images	-10.1001
▁familiar	-10.1007
▁delayed	-10.1022
▁receipt	-10.1036
▁al	-10.1038
▁facilities	-10.1044
▁nervous	-10.1044
▁responsibility	-10.1044
▁corner	-10.1049
▁served	-10.1064
va	-10.1067
▁participants	-10.1067
▁Americans	-10.1069
▁measures	-10.1069
▁tough	-10.1076
▁supposed	-10.1083
▁emergency	-10.1085
▁Bar	-10.1086
▁Once	-10.1087
▁stuff	-10.1113
▁range	-10.1115
yeon	-10.1131
ating	-10.1136
▁firm	-10.1143
▁speech	-10.1153
▁link	-10.1156
▁Red	-10.1164
ped	-10.1165
▁deeply	-10.1171
term	-10.1179
▁anti	-10.1179
▁expectations	-10.1185
▁remaining	-10.1192
▁knowledge	-10.1195
▁kill	-10.1199
ization	-10.1199
▁camp	-10.1215
▁error	-10.1229
▁bottom	-10.1233
▁relatively	-10.1234
▁Christ	-10.1242
▁defense	-10.1246
▁fruit	-10.1247
▁quarter	-10.1247
▁repair	-10.1253
▁concerns	-10.1258
▁location	-10.1267
▁quantity	-10.1271
▁curious	-10.1271
▁Lord	-10.1272
ea	-10.1285
▁construction	-10.1309
▁baseball	-10.1309
▁Right	-10.131
▁guests	-10.1317
▁charm	-10.132
▁installed	-10.1321
▁comment	-10.1329
▁teachers	-10.1329
▁delay	-10.1332
▁gap	-10.1348
▁forgot	-10.1348
cm	-10.1353
▁plant	-10.1356
▁fees	-10.1367
▁adding	-10.1368
▁depend	-10.1369
▁select	-10.1369
we	-10.1375
▁hobby	-10.1386
free	-10.139
▁Woo	-10.14
▁schools	-10.1401
▁profit	-10.1407
▁sentence	-10.1412
▁mainly	-10.1417
▁Sang	-10.1417
▁laugh	-10.1419
▁mountain	-10.1423
▁affect	-10.1458
▁accepted	-10.1461
▁Gangnam	-10.1461
▁worst	-10.1464
▁football	-10.1464
▁wall	-10.1465
ally	-10.147
▁Hotel	-10.1504
▁separately	-10.1511
ct	-10.1512
▁benefits	-10.1512
▁pack	-10.1523
▁physical	-10.154
▁leg	-10.1546
▁markets	-10.1562
▁respond	-10.1577
▁grateful	-10.1582
▁Unlike	-10.1582
▁brain	-10.1583
▁Kakao	-10.1586
▁focused	-10.1603
▁plays	-10.1619
▁chief	-10.1621
▁proposal	-10.1621
▁annual	-10.1627
▁AP	-10.1627
▁wonderful	-10.1631
▁master	-10.1632
▁drug	-10.1632
▁affected	-10.1637
▁block	-10.1645
han	-10.1659
▁operating	-10.1661
▁exit	-10.1662
▁throughout	-10.1675
▁safely	-10.1677
pt	-10.1694
▁meals	-10.1694
▁prison	-10.1698
▁digital	-10.1701
▁dis	-10.171
▁promised	-10.1717
▁effects	-10.173
▁piano	-10.1741
mp	-10.1745
▁Ahn	-10.1745
▁actions	-10.1745
pi	-10.1747
ning	-10.1767
▁usual	-10.1773
▁Africa	-10.1777
▁strategy	-10.1781
▁Italian	-10.1781
▁internet	-10.1781
▁signed	-10.1782
▁reporters	-10.1784
▁accused	-10.1786
▁sexual	-10.1791
▁league	-10.1792
▁Star	-10.1798
▁singers	-10.18
▁Life	-10.1805
▁improved	-10.1815
▁powerful	-10.1817
▁funny	-10.1822
▁doll	-10.1831
▁conducted	-10.1832
▁opinions	-10.1846
▁Los	-10.1847
▁cheap	-10.1855
▁leaves	-10.1857
▁speaking	-10.1857
▁Jun	-10.1867
“	-10.1868
▁glass	-10.187
▁detailed	-10.1885
▁experienced	-10.1899
▁hat	-10.1901
▁passport	-10.1903
▁shipped	-10.1903
▁buildings	-10.1923
▁sharing	-10.1934
▁fault	-10.1937
▁impressive	-10.1943
io	-10.1945
▁forced	-10.1945
ag	-10.1946
▁vehicles	-10.1959
▁radio	-10.196
▁Won	-10.1967
▁Ju	-10.1967
▁units	-10.1969
coming	-10.1969
▁proper	-10.1979
▁receiving	-10.1984
▁Ja	-10.1989
▁border	-10.1994
▁urgent	-10.2018
ep	-10.2022
▁stocks	-10.2023
▁magazine	-10.2025
▁downtown	-10.2026
ya	-10.2031
local	-10.204
▁rule	-10.2042
ier	-10.205
▁Car	-10.2051
▁telling	-10.2058
▁luck	-10.206
ron	-10.2061
▁Prime	-10.2066
▁truly	-10.2066
▁McCain	-10.2067
▁rock	-10.2068
▁chart	-10.2074
▁setting	-10.2076
▁charged	-10.2078
▁forest	-10.208
▁Sam	-10.2089
▁Love	-10.2098
▁science	-10.2108
▁visa	-10.2108
▁joint	-10.2111
▁conversation	-10.2121
▁Super	-10.2127
▁succeed	-10.2133
▁quick	-10.2141
▁Spanish	-10.215
▁entertainment	-10.215
▁offered	-10.215
▁Real	-10.2167
▁Big	-10.2167
▁fourth	-10.2171
▁lines	-10.2182
▁entering	-10.2191
▁insurance	-10.2191
▁software	-10.2192
▁Paul	-10.2194
vo	-10.2197
by	-10.221
▁unit	-10.2214
▁fly	-10.2216
▁borrow	-10.2217
fi	-10.2218
▁Web	-10.2222
▁pen	-10.2228
▁analysis	-10.2233
▁communicate	-10.2233
▁Gwangju	-10.2234
▁stable	-10.2234
▁Daegu	-10.2236
▁crew	-10.2241
▁expects	-10.2245
ran	-10.2248
▁solo	-10.2257
▁balance	-10.226
▁passengers	-10.227
▁Pro	-10.2271
=	-10.2276
▁activity	-10.2276
▁index	-10.2276
▁throw	-10.2287
▁cats	-10.2288
que	-10.2288
▁register	-10.2302
side	-10.2303
▁actual	-10.2316
▁Li	-10.2318
▁blockchain	-10.2318
▁debate	-10.2318
▁pet	-10.2322
▁ingredients	-10.2323
▁replace	-10.2328
Barack	-10.233
▁seriously	-10.2333
▁hang	-10.2334
▁begins	-10.2345
▁requires	-10.2357
▁section	-10.2361
▁overcome	-10.2362
▁appears	-10.2369
ko	-10.237
▁individual	-10.2371
▁caus	-10.2376
▁suggest	-10.2377
▁models	-10.2378
▁lawyer	-10.238
▁adult	-10.238
▁Vi	-10.2394
▁notice	-10.2406
▁homes	-10.2407
he	-10.2409
▁lucky	-10.241
▁Games	-10.2423
▁consumer	-10.2425
▁c	-10.2436
▁gather	-10.2446
▁Jo	-10.2446
▁Instagram	-10.2446
▁Station	-10.2448
▁frequently	-10.2449
▁army	-10.2452
▁fighting	-10.2459
▁upset	-10.2462
▁registered	-10.2463
ph	-10.2469
▁honest	-10.2475
▁math	-10.2476
▁International	-10.2489
▁suffered	-10.2505
▁doubt	-10.251
if	-10.251
▁channel	-10.2512
▁expression	-10.2515
long	-10.2521
▁secure	-10.2527
▁somewhere	-10.2534
▁consist	-10.2535
▁houses	-10.2545
▁Eun	-10.2546
▁businesses	-10.256
lthough	-10.2562
▁flowers	-10.2566
▁fried	-10.2568
▁poll	-10.257
▁spending	-10.2575
▁essential	-10.2576
▁James	-10.2576
ai	-10.2578
▁Lo	-10.2581
▁Everything	-10.2585
▁alive	-10.2591
▁drinks	-10.2591
▁ones	-10.2596
▁Christian	-10.26
▁task	-10.26
▁smoking	-10.2602
ator	-10.2609
▁purchased	-10.2619
▁mass	-10.2619
▁venue	-10.262
ence	-10.262
▁dropped	-10.262
▁Hye	-10.2621
▁Ta	-10.2621
▁Roh	-10.2623
▁Iraqi	-10.2632
▁nor	-10.2635
▁grades	-10.2648
mer	-10.265
▁Turkey	-10.2664
▁beef	-10.2686
▁newspaper	-10.2689
▁chair	-10.269
▁note	-10.2699
du	-10.2699
▁wins	-10.2704
▁provides	-10.2708
▁carried	-10.2708
▁expand	-10.2708
▁fat	-10.272
▁soul	-10.2723
mon	-10.2726
This	-10.2734
▁minister	-10.2734
▁conflict	-10.2734
▁banks	-10.274
▁unusual	-10.2744
fe	-10.2746
▁West	-10.2748
▁legs	-10.275
▁eventually	-10.2752
▁advantage	-10.2779
▁knows	-10.2792
▁tournament	-10.2796
▁swimming	-10.2796
%,	-10.2799
▁source	-10.28
▁Wa	-10.2802
ee	-10.2806
▁connected	-10.2812
tor	-10.2816
▁Hall	-10.2832
▁cheese	-10.2841
▁copy	-10.2843
▁enjoying	-10.2853
▁values	-10.2859
▁mask	-10.2871
▁ring	-10.2879
▁iPhone	-10.2886
▁volume	-10.2886
▁cable	-10.2889
che	-10.2901
▁king	-10.2912
▁occurs	-10.2928
▁approval	-10.2931
▁failure	-10.2931
ide	-10.2939
▁Try	-10.2942
▁PM	-10.2942
▁feature	-10.2948
em	-10.2954
▁battle	-10.2962
▁mark	-10.2963
▁option	-10.2963
▁understanding	-10.2964
▁sudden	-10.2969
▁severe	-10.2969
▁approach	-10.2974
▁prize	-10.2976
sung	-10.2989
▁useful	-10.2994
▁spirit	-10.2998
▁central	-10.3006
▁Pe	-10.3007
▁canceled	-10.301
▁uses	-10.3017
~	-10.3022
▁commercial	-10.3026
▁teaching	-10.3028
▁placed	-10.3034
▁flow	-10.304
▁Mu	-10.3043
▁reserve	-10.3052
▁benefit	-10.3057
▁PC	-10.3058
▁cards	-10.3059
▁Yong	-10.3063
▁appeal	-10.3069
▁suffer	-10.307
▁Such	-10.307
▁rapidly	-10.3071
▁Make	-10.3072
▁causes	-10.3082
king	-10.3088
▁garden	-10.3113
▁salary	-10.3113
▁Thai	-10.3113
▁chairman	-10.3125
▁supported	-10.3127
▁UK	-10.3132
▁reveal	-10.3133
▁lovely	-10.3149
▁Secretary	-10.3159
▁Twitter	-10.3159
▁politics	-10.3159
▁messages	-10.316
▁boat	-10.3162
▁buyer	-10.3168
▁lying	-10.3169
▁arm	-10.3173
les	-10.319
eun	-10.3194
ub	-10.3203
▁saved	-10.3204
▁controversy	-10.3206
▁river	-10.3206
▁wallet	-10.3206
▁award	-10.3208
▁shops	-10.3208
▁satisfied	-10.3212
ig	-10.3213
▁comfort	-10.3214
▁net	-10.3219
▁Pa	-10.3219
▁tight	-10.3225
▁Put	-10.3227
os	-10.3232
▁welcome	-10.3237
▁reduced	-10.3239
tro	-10.324
▁row	-10.3242
▁rare	-10.3245
▁experiences	-10.325
▁possibility	-10.3252
▁chat	-10.3256
▁cheaper	-10.3258
low	-10.3259
▁rarely	-10.326
lin	-10.3274
Korean	-10.329
wi	-10.3294
▁marry	-10.3299
▁miles	-10.33
▁divided	-10.3306
▁recommended	-10.3307
▁meters	-10.3309
▁predicted	-10.3314
▁connect	-10.3315
▁whatever	-10.3318
▁suspect	-10.3323
▁keeps	-10.3339
▁destination	-10.3346
▁earthquake	-10.3346
▁minimum	-10.3346
▁multi	-10.3352
▁criticized	-10.3355
▁Mayor	-10.336
▁neck	-10.3362
▁High	-10.3367
▁orders	-10.3368
▁exports	-10.3386
▁entrance	-10.3393
▁lonely	-10.3393
▁debt	-10.3393
▁taught	-10.3393
▁bathroom	-10.3393
▁sub	-10.3396
▁bike	-10.3396
▁George	-10.3397
▁Blue	-10.3405
▁putting	-10.3405
▁mixed	-10.3407
▁towards	-10.3419
ley	-10.3422
▁murder	-10.3424
▁Indian	-10.3439
▁Angeles	-10.3441
▁massage	-10.3445
▁Three	-10.3452
▁f	-10.3454
▁worker	-10.3458
▁Music	-10.3461
▁operate	-10.3469
Z	-10.3478
▁brands	-10.3479
▁recognize	-10.3488
▁recognized	-10.3505
▁sides	-10.3507
▁gained	-10.3509
shi	-10.351
▁anytime	-10.3512
made	-10.3516
▁wage	-10.3523
▁organization	-10.3533
▁thick	-10.3535
▁Experts	-10.3536
▁explanation	-10.3536
▁ordinary	-10.3536
▁Until	-10.3536
▁exciting	-10.3536
▁Airport	-10.3536
▁established	-10.3546
▁stayed	-10.3547
▁print	-10.3557
▁Gi	-10.3574
▁dancing	-10.3584
▁stood	-10.3584
▁normally	-10.3599
je	-10.3599
▁Lim	-10.3606
▁developing	-10.3607
ten	-10.3611
▁passing	-10.3612
▁attach	-10.3615
▁significant	-10.3625
▁School	-10.3632
▁penalty	-10.3632
▁steak	-10.3632
▁diverse	-10.3632
▁presidential	-10.3634
hu	-10.3635
ship	-10.3643
▁someday	-10.3645
▁pool	-10.3646
▁suggested	-10.365
▁cancer	-10.3654
▁hole	-10.3665
ger	-10.3674
▁bicycle	-10.3681
▁route	-10.3681
▁depends	-10.3682
▁worldwide	-10.3682
▁shoot	-10.3682
▁attractive	-10.3683
▁personality	-10.3684
▁Earth	-10.3686
▁Con	-10.3687
▁pieces	-10.3705
▁predict	-10.371
ring	-10.3719
▁valuable	-10.3729
▁El	-10.3732
▁crowded	-10.3745
▁kick	-10.3763
hwan	-10.3763
▁bags	-10.3766
▁gate	-10.3772
▁collect	-10.3773
Q	-10.3774
▁excellent	-10.3778
▁hurry	-10.3778
▁policies	-10.3778
▁sugar	-10.3779
▁pants	-10.3779
cy	-10.3779
yeong	-10.3786
ip	-10.379
▁Chung	-10.3796
▁Men	-10.3821
▁anger	-10.3827
▁administration	-10.3828
▁agent	-10.3833
▁airline	-10.3834
▁Chi	-10.3848
tu	-10.3854
You	-10.3856
▁fishing	-10.3857
▁require	-10.3865
▁estimate	-10.3866
▁strike	-10.387
▁inter	-10.3871
▁premium	-10.3877
▁walked	-10.3888
▁distance	-10.3888
▁faces	-10.3889
▁invited	-10.3894
gun	-10.3903
▁finding	-10.3906
▁Time	-10.3908
▁crowd	-10.3917
▁Especially	-10.3927
▁Street	-10.3927
▁kimchi	-10.3927
▁suicide	-10.3927
▁ruling	-10.3927
▁background	-10.3928
▁pink	-10.3928
▁formed	-10.3932
▁push	-10.3933
▁noise	-10.3936
▁News	-10.394
den	-10.3955
▁cast	-10.3957
▁cheer	-10.3963
▁Times	-10.3973
▁novel	-10.3979
▁install	-10.3981
▁views	-10.3989
▁turns	-10.3993
▁union	-10.4006
ab	-10.4007
cent	-10.4009
▁export	-10.4012
▁correspondent	-10.4027
nu	-10.4028
▁picked	-10.4032
hour	-10.4034
run	-10.4041
?"	-10.4059
▁smaller	-10.4075
▁wash	-10.4076
▁Professor	-10.4078
▁Democratic	-10.4078
▁pride	-10.4078
▁solved	-10.4079
▁asleep	-10.4094
▁signs	-10.4103
▁imagine	-10.4113
▁meant	-10.4116
▁pleasant	-10.4129
▁injury	-10.4129
▁laptop	-10.4129
▁television	-10.4129
▁Olympics	-10.413
▁homework	-10.4132
▁Tour	-10.4132
▁carrying	-10.4132
▁Open	-10.4132
▁Mom	-10.4132
▁records	-10.4147
▁download	-10.4166
▁convenient	-10.4172
▁sharp	-10.4172
▁criticism	-10.418
▁label	-10.418
▁symptoms	-10.4181
▁Q	-10.4183
▁invest	-10.4185
▁attacks	-10.4199
▁Black	-10.4199
▁Base	-10.4211
ud	-10.4218
▁elections	-10.4222
▁emotions	-10.4226
▁reporter	-10.4229
▁names	-10.423
▁denied	-10.4231
▁gradually	-10.4232
▁sport	-10.4246
ster	-10.4248
▁reserved	-10.4248
▁frame	-10.4249
▁steps	-10.4261
▁covered	-10.4266
`	-10.4282
▁Chicago	-10.4282
▁typical	-10.4282
▁Hanwha	-10.4283
▁definitely	-10.4284
ple	-10.4287
▁genre	-10.4295
▁height	-10.4297
▁EU	-10.4298
▁vegetables	-10.4298
▁Lu	-10.4298
▁riding	-10.4306
▁managed	-10.4309
▁fabric	-10.4315
pped	-10.4316
▁harm	-10.4322
▁dollar	-10.4329
▁See	-10.433
▁bodies	-10.4334
▁Actually	-10.4334
▁gym	-10.4334
▁hungry	-10.4335
▁fuel	-10.4335
▁contacted	-10.4335
▁taxes	-10.4343
▁plants	-10.4343
▁square	-10.4345
▁Art	-10.4347
▁Sir	-10.4357
▁flower	-10.4362
▁Call	-10.4373
▁tests	-10.4382
▁studies	-10.4386
▁reform	-10.4388
▁hip	-10.4391
▁storm	-10.4395
ite	-10.4397
▁Chang	-10.4399
▁numbers	-10.4402
Fi	-10.4407
▁ma	-10.4409
ise	-10.4412
▁cap	-10.4413
▁writer	-10.4416
ot	-10.4418
▁letters	-10.4423
▁engine	-10.4431
▁reflect	-10.4436
▁talent	-10.4438
▁Madrid	-10.4439
▁kitchen	-10.4439
▁Court	-10.4439
▁Saudi	-10.4439
▁Bible	-10.4441
▁hide	-10.4443
▁difficulties	-10.4444
▁south	-10.4446
▁Am	-10.4451
▁winner	-10.4457
▁Heung	-10.446
ler	-10.4464
▁Second	-10.4489
▁bear	-10.449
▁narrow	-10.4491
▁measure	-10.4492
▁disappointed	-10.4493
▁maybe	-10.4505
▁sanctions	-10.4514
▁sang	-10.4516
ard	-10.4519
▁leads	-10.4522
port	-10.4524
▁assault	-10.4528
▁decline	-10.4529
▁semester	-10.4544
▁Stadium	-10.4544
▁stadium	-10.4544
▁Singer	-10.4545
▁leadership	-10.4545
▁slightly	-10.4547
▁Give	-10.4552
▁Come	-10.4558
▁candidate	-10.4563
▁locals	-10.4565
▁candidates	-10.4579
ren	-10.4583
▁rates	-10.4585
au	-10.459
▁freedom	-10.4597
▁Western	-10.4598
▁Sea	-10.4598
▁arms	-10.4608
▁described	-10.4609
▁refused	-10.461
▁matches	-10.4612
▁stick	-10.4613
▁server	-10.4615
▁claims	-10.4617
ID	-10.462
▁pasta	-10.4624
▁clubs	-10.4626
▁di	-10.464
▁factors	-10.4645
▁spoke	-10.4647
▁convenience	-10.4651
▁prosecution	-10.4651
▁bridge	-10.4651
▁impression	-10.4651
▁hometown	-10.4653
▁counter	-10.4659
▁parties	-10.4661
▁tastes	-10.4661
▁object	-10.4664
▁gun	-10.4671
▁ban	-10.4672
▁accidents	-10.4675
No	-10.4692
▁happening	-10.4693
ction	-10.4702
▁Sydney	-10.4705
▁studio	-10.4705
nam	-10.4706
▁hero	-10.4711
▁adjust	-10.4714
▁mix	-10.4715
▁perfectly	-10.4724
▁Didn	-10.4725
▁crimes	-10.4727
▁tourist	-10.473
▁Ri	-10.4731
▁blow	-10.4732
▁shower	-10.4732
▁organized	-10.4733
▁offers	-10.4739
▁states	-10.4742
▁shuttle	-10.4759
▁generation	-10.4759
▁solid	-10.4759
▁transportation	-10.4759
izing	-10.4763
▁boost	-10.4764
▁files	-10.4766
▁truck	-10.4781
▁monthly	-10.4794
▁drew	-10.4813
▁facing	-10.4813
▁creative	-10.4813
▁battery	-10.4816
▁warned	-10.4819
▁noodles	-10.4825
ino	-10.4827
▁USD	-10.483
▁cloud	-10.483
▁spa	-10.4837
▁updated	-10.4838
▁monitor	-10.484
▁grown	-10.4842
My	-10.4846
▁mis	-10.4858
▁electric	-10.4867
▁Vietnamese	-10.4868
▁employment	-10.4868
▁Check	-10.4869
▁deadline	-10.4869
▁sincerely	-10.4874
gen	-10.4876
▁Market	-10.4878
▁Naver	-10.4882
cho	-10.4887
▁concerned	-10.4893
▁temperature	-10.4898
▁fail	-10.4904
▁stronger	-10.4904
▁surprise	-10.4907
▁snacks	-10.4911
▁Pakistan	-10.4916
▁housing	-10.4923
▁welfare	-10.4923
▁blind	-10.4923
▁hidden	-10.4923
▁appointment	-10.4923
▁Thus	-10.4924
▁eggs	-10.4928
▁designer	-10.4929
▁Ni	-10.493
▁tells	-10.4952
▁discussed	-10.4952
▁Form	-10.4959
cat	-10.4964
▁audiences	-10.4968
▁Egypt	-10.4976
▁uncomfortable	-10.4978
▁surface	-10.4978
▁brown	-10.4978
▁toilet	-10.498
wan	-10.4981
▁Press	-10.4982
▁Iranian	-10.4983
▁Shall	-10.499
hwa	-10.4993
ging	-10.4994
ana	-10.4994
▁sight	-10.5001
▁Pi	-10.5006
▁listed	-10.5006
▁hurts	-10.5007
▁thousands	-10.5022
▁unexpected	-10.5026
▁till	-10.5034
▁constantly	-10.5038
▁sheet	-10.5051
▁matters	-10.5056
▁Israeli	-10.5062
▁en	-10.5063
▁abuse	-10.5075
▁friendly	-10.5077
▁web	-10.5088
▁typhoon	-10.5089
▁basis	-10.5089
▁appropriate	-10.5095
▁chosen	-10.5097
▁sensitive	-10.5103
▁boxes	-10.5104
▁larger	-10.5113
▁prove	-10.5114
ven	-10.5122
▁rescue	-10.5129
▁streets	-10.5145
▁salad	-10.5145
▁maximum	-10.5145
▁teenagers	-10.5146
▁fake	-10.5146
▁elderly	-10.5148
▁connection	-10.515
▁fund	-10.5151
▁Children	-10.5155
▁Former	-10.5155
▁regularly	-10.5161
qua	-10.5167
▁Ryu	-10.5169
▁crying	-10.5173
▁remained	-10.5176
▁buses	-10.5178
▁upon	-10.518
▁cry	-10.518
▁hearts	-10.5182
▁arrest	-10.5186
▁compete	-10.5186
US	-10.5191
▁keeping	-10.5199
▁shirt	-10.5199
▁Myanmar	-10.5202
▁Perhaps	-10.5202
▁cooperation	-10.5202
▁Robert	-10.5202
▁Finally	-10.5203
▁scale	-10.5204
▁zoo	-10.5205
▁options	-10.5218
▁bowl	-10.5242
▁crash	-10.5243
▁Australian	-10.5244
▁lesson	-10.5247
▁north	-10.5256
▁threw	-10.5259
▁heaven	-10.5259
▁orange	-10.5259
▁property	-10.526
▁Any	-10.5264
▁length	-10.5297
cheon	-10.5306
▁smooth	-10.5308
▁Director	-10.5316
▁Texas	-10.5316
▁identity	-10.5316
▁everywhere	-10.5317
▁inspection	-10.5317
▁wild	-10.5318
▁unveiled	-10.5319
▁Actor	-10.5328
▁scared	-10.5328
▁iron	-10.5332
form	-10.5342
cu	-10.5342
▁Du	-10.5351
▁defeat	-10.5357
▁loud	-10.536
▁lawmakers	-10.537
za	-10.5372
▁trading	-10.5373
▁grandmother	-10.5373
▁identified	-10.5374
▁log	-10.5377
▁remarks	-10.5378
▁approved	-10.538
nt	-10.5381
▁everyday	-10.5382
▁shares	-10.5384
▁Sen	-10.5389
▁ill	-10.5425
▁seek	-10.5425
▁corporate	-10.5431
▁Com	-10.5441
▁waited	-10.5441
▁""	-10.5442
▁protest	-10.5452
▁coat	-10.5452
iv	-10.5454
minute	-10.5455
▁Soo	-10.5459
▁dessert	-10.5469
▁drugs	-10.5473
▁escape	-10.5474
▁Mark	-10.5487
▁certificate	-10.5489
▁respectively	-10.5489
▁Britain	-10.5489
▁rival	-10.5489
▁committed	-10.5492
▁Kimchi	-10.5501
▁anyway	-10.5503
tter	-10.5504
▁widely	-10.5505
house	-10.5513
▁mini	-10.552
▁customs	-10.5521
▁threat	-10.5527
▁coast	-10.5528
▁Foreign	-10.5546
▁CCTV	-10.5548
▁celebrities	-10.5548
▁elevator	-10.5548
▁gender	-10.5548
▁investigating	-10.5548
▁flat	-10.5561
▁successfully	-10.5564
▁reasonable	-10.5565
▁greater	-10.5569
▁expenses	-10.5571
▁tape	-10.5571
car	-10.5572
▁robot	-10.5589
sha	-10.5589
▁v	-10.5596
▁import	-10.5599
▁accurate	-10.5599
▁Consider	-10.5607
▁unknown	-10.5608
▁weird	-10.5609
▁impressed	-10.5611
▁devices	-10.5614
▁proposed	-10.5614
▁critical	-10.5618
ble	-10.5621
▁ends	-10.5627
▁attending	-10.5634
▁Smith	-10.5637
▁expert	-10.5649
let	-10.5655
▁Ne	-10.5656
tra	-10.5659
▁knowing	-10.5662
▁unlike	-10.5662
▁district	-10.5666
▁switch	-10.5666
▁resort	-10.5667
▁wounded	-10.5674
▁cleaning	-10.5675
▁determined	-10.5679
▁praised	-10.568
▁profile	-10.5682
▁painful	-10.5696
point	-10.5696
▁uniform	-10.571
▁assets	-10.571
▁guarantee	-10.571
▁survive	-10.571
▁advanced	-10.5717
▁ourselves	-10.5725
▁pleasure	-10.5725
▁feedback	-10.5725
▁governor	-10.5726
▁ranking	-10.5746
▁bomb	-10.5756
▁farm	-10.5758
▁fired	-10.5759
▁port	-10.5765
▁resources	-10.577
▁invite	-10.5776
▁internal	-10.5779
▁strongly	-10.578
▁danger	-10.5785
▁autumn	-10.5785
▁drank	-10.5785
▁phrase	-10.5785
▁understood	-10.5785
▁Instead	-10.5786
ina	-10.5788
▁lowest	-10.579
▁fruits	-10.5791
POP	-10.5793
▁drawn	-10.5803
▁sources	-10.5807
▁answered	-10.5808
▁lyrics	-10.5813
shaped	-10.5816
▁personally	-10.5817
▁functions	-10.582
yo	-10.583
qui	-10.5833
tan	-10.5833
▁Grand	-10.584
chan	-10.5844
▁academy	-10.5845
▁jacket	-10.5846
▁priority	-10.5846
▁Psy	-10.5846
▁Beach	-10.5847
▁Use	-10.5852
▁cargo	-10.5857
ay	-10.5857
▁officer	-10.5865
▁marked	-10.5867
▁attempt	-10.5877
ability	-10.5882
ists	-10.5887
▁encourage	-10.5889
ow	-10.5893
▁sector	-10.5893
▁providing	-10.5906
▁session	-10.5906
▁woke	-10.5906
▁password	-10.5906
▁southern	-10.5906
▁profits	-10.5907
▁volunteer	-10.5911
nna	-10.5918
▁Due	-10.5918
cc	-10.5925
▁mistakes	-10.5934
class	-10.594
▁rid	-10.5941
▁celebrate	-10.5951
pro	-10.5953
ries	-10.5955
▁closely	-10.596
ities	-10.5961
▁juice	-10.5967
▁loves	-10.5974
They	-10.5999
▁Mar	-10.5999
When	-10.6001
▁supporting	-10.6023
▁thin	-10.6025
▁tie	-10.6026
▁begun	-10.6027
▁facility	-10.6028
▁boring	-10.6028
▁LA	-10.6028
▁opposition	-10.6028
▁confused	-10.6032
▁phones	-10.6032
▁Per	-10.6039
▁shift	-10.6041
▁operated	-10.6048
of	-10.606
ach	-10.6063
▁intention	-10.6076
▁UN	-10.6079
▁ending	-10.6083
j	-10.6083
▁actress	-10.6087
▁super	-10.6088
▁Ministry	-10.609
▁curiosity	-10.609
▁inconvenience	-10.609
▁smiling	-10.609
▁cellphone	-10.609
▁handsome	-10.6091
▁estate	-10.6091
▁regardless	-10.6091
▁Cheong	-10.6092
▁continuously	-10.6095
▁Daejeon	-10.61
▁conduct	-10.6104
▁ideal	-10.611
▁usage	-10.6113
▁fare	-10.6116
jung	-10.6118
▁Wall	-10.6134
ze	-10.6143
▁IT	-10.6146
▁relieve	-10.6146
▁pure	-10.6147
▁minor	-10.6151
▁Congress	-10.6152
▁Toronto	-10.6152
▁happily	-10.6152
▁phenomenon	-10.6152
▁committee	-10.6152
▁wore	-10.6152
▁mode	-10.6155
▁farmers	-10.6156
▁cooked	-10.6158
▁sand	-10.6159
▁Global	-10.6161
▁scenes	-10.6162
▁shocked	-10.6167
▁deaths	-10.6168
▁suits	-10.6168
▁jump	-10.6171
▁stone	-10.6173
hop	-10.6174
▁previously	-10.6175
▁eaten	-10.6177
how	-10.6178
▁mad	-10.6186
▁gathering	-10.6192
▁toys	-10.6203
▁aired	-10.6207
▁commission	-10.6215
▁journey	-10.6215
▁kindergarten	-10.6215
▁ramen	-10.6215
▁fever	-10.6216
▁Y	-10.6227
mu	-10.6238
▁sin	-10.6243
▁amid	-10.6245
▁thankful	-10.6253
▁colorful	-10.6256
▁achieved	-10.6257
▁PO	-10.6258
▁moon	-10.6261
▁figures	-10.6262
▁decrease	-10.6262
▁Ye	-10.6277
▁café	-10.6278
▁nowadays	-10.6278
▁Ronaldo	-10.6278
▁computers	-10.628
▁warning	-10.6283
room	-10.6284
▁prime	-10.629
▁KT	-10.6295
win	-10.6303
▁blocked	-10.6303
ns	-10.631
▁habit	-10.6313
▁experiment	-10.6318
▁Send	-10.6323
▁paint	-10.633
▁Act	-10.633
▁General	-10.6333
▁filming	-10.6338
▁Uzbekistan	-10.6341
▁chain	-10.6343
▁analyzed	-10.6355
▁uploaded	-10.6357
sized	-10.6358
▁relax	-10.6359
▁suspected	-10.6363
▁pull	-10.6363
▁ski	-10.6365
▁Je	-10.6376
▁Hee	-10.639
tal	-10.6391
▁egg	-10.6399
▁stands	-10.6402
so	-10.6403
▁competitive	-10.6403
▁drove	-10.6405
▁struck	-10.6405
▁reference	-10.6405
▁guilty	-10.6406
▁outdoor	-10.6407
▁Line	-10.641
▁adapt	-10.6414
▁Human	-10.6416
▁mall	-10.6418
▁disappeared	-10.642
light	-10.6425
▁lover	-10.6427
▁hosted	-10.6431
▁upload	-10.6431
▁wrap	-10.6434
▁negotiations	-10.6434
▁vision	-10.6439
▁drivers	-10.6441
▁flying	-10.6446
▁wondering	-10.6451
▁Ok	-10.6458
head	-10.6462
▁Olympic	-10.6467
▁stomach	-10.6469
▁disaster	-10.6469
▁Osaka	-10.6469
▁nationwide	-10.6469
▁intense	-10.6469
▁emphasized	-10.6477
ek	-10.648
▁burned	-10.6482
▁medal	-10.6486
▁supporters	-10.6489
▁Qu	-10.6494
▁responded	-10.6495
▁Yi	-10.6499
▁gifts	-10.651
▁weekends	-10.651
▁Sha	-10.6522
▁sells	-10.6533
▁Afghanistan	-10.6533
▁Earlier	-10.6533
▁submitted	-10.6533
▁composed	-10.6535
▁suitable	-10.6537
red	-10.6539
▁wood	-10.6541
▁ABC	-10.6545
▁sweat	-10.6552
▁loving	-10.6558
▁worship	-10.6558
▁tasks	-10.6562
ged	-10.6566
▁peak	-10.6582
▁mention	-10.6586
ain	-10.6589
▁l	-10.6595
▁owners	-10.6597
▁opportunities	-10.6598
▁athletes	-10.6598
▁click	-10.6598
▁loan	-10.66
▁Over	-10.6601
rate	-10.6601
ER	-10.6603
▁Huawei	-10.6605
▁Malaysian	-10.6612
▁fields	-10.6618
▁exceed	-10.662
▁originally	-10.662
ile	-10.662
▁systems	-10.6631
style	-10.6637
▁po	-10.664
▁degrees	-10.6642
▁buyers	-10.6648
▁traveled	-10.6653
▁Under	-10.6654
▁salt	-10.6657
▁mental	-10.6658
use	-10.6659
▁unfair	-10.6663
▁Rather	-10.6664
▁bottle	-10.6666
▁Galaxy	-10.6675
▁believes	-10.6676
▁forecast	-10.6682
▁generally	-10.6688
▁informed	-10.6697
asp	-10.6698
sta	-10.6699
▁command	-10.6705
▁colleagues	-10.6705
ray	-10.671
▁tool	-10.671
over	-10.6712
▁hire	-10.6719
▁Mexican	-10.6729
▁puppy	-10.6729
▁lady	-10.673
▁auto	-10.673
▁reaction	-10.6733
▁capacity	-10.6737
▁majority	-10.6737
▁roads	-10.6748
▁holidays	-10.6749
▁shock	-10.6752
▁Pre	-10.6753
▁nose	-10.6753
ure	-10.6753
▁manual	-10.6771
hoon	-10.6775
▁touched	-10.6775
▁argue	-10.678
▁acts	-10.6785
Ï	-10.6796
▁Department	-10.6796
▁interior	-10.6796
▁patent	-10.6796
▁tennis	-10.6796
▁entry	-10.6796
▁tank	-10.6796
▁River	-10.6796
ions	-10.6797
▁shut	-10.6799
▁coupon	-10.68
▁courage	-10.6803
▁criminal	-10.6806
▁Mon	-10.6813
▁smartphones	-10.682
▁lies	-10.6823
▁boys	-10.6841
▁feed	-10.6845
▁extend	-10.6846
▁accounts	-10.6852
▁upgrade	-10.6852
▁turning	-10.686
ward	-10.6861
▁crazy	-10.6862
▁researchers	-10.6862
▁Middle	-10.6862
▁split	-10.6862
▁Green	-10.6863
▁dating	-10.6864
▁Jeon	-10.6867
▁glasses	-10.6868
▁pair	-10.687
▁rental	-10.6872
▁Great	-10.6874
▁regulations	-10.6878
▁Brown	-10.6879
uring	-10.688
▁pushed	-10.6884
▁cameras	-10.6909
▁Office	-10.6915
▁Pyongyang	-10.6929
▁presence	-10.6929
▁trash	-10.6929
▁Film	-10.6929
▁voting	-10.6929
▁earnest	-10.6931
▁voters	-10.6931
▁belt	-10.6933
▁medium	-10.694
▁filed	-10.6942
▁Has	-10.6943
▁Bang	-10.6955
▁hop	-10.6968
▁earned	-10.6969
▁raw	-10.6969
▁Sin	-10.6973
▁praise	-10.6981
▁logo	-10.6988
▁sort	-10.6992
▁Taliban	-10.6997
▁baggage	-10.6997
▁false	-10.6997
▁Doosan	-10.6997
▁texture	-10.6998
ned	-10.7001
▁lay	-10.7004
law	-10.7006
▁Indonesian	-10.7008
▁anniversary	-10.7009
▁presented	-10.7012
▁virus	-10.7016
eng	-10.7025
▁pot	-10.7042
▁Ms	-10.7047
▁convey	-10.7049
book	-10.705
field	-10.705
▁grand	-10.7051
▁flavor	-10.7056
▁apart	-10.7058
▁Steve	-10.7063
▁Still	-10.7065
▁Kyung	-10.7066
▁herself	-10.7067
▁tourism	-10.7068
▁surely	-10.7069
▁Talk	-10.708
▁Kwon	-10.7082
▁century	-10.7091
▁removed	-10.71
ham	-10.7117
▁determine	-10.7118
Kim	-10.7123
▁articles	-10.7127
▁lights	-10.7128
▁grandfather	-10.7133
seok	-10.7138
▁improvement	-10.7144
▁chef	-10.7144
▁methods	-10.7145
▁talented	-10.7155
▁factor	-10.7155
▁disappear	-10.7158
▁signal	-10.7162
▁USA	-10.7163
▁Electronics	-10.7163
▁founded	-10.7175
▁/	-10.7179
bin	-10.7181
▁Sol	-10.7195
mun	-10.72
▁Ulsan	-10.7202
▁ocean	-10.7202
▁revenue	-10.7202
▁translation	-10.7202
▁Turkish	-10.7202
▁rally	-10.7203
jae	-10.7204
▁collection	-10.7206
▁Live	-10.7207
board	-10.7213
net	-10.7215
▁striker	-10.7218
▁certainly	-10.7225
star	-10.7239
bove	-10.7248
▁zone	-10.7252
▁recall	-10.7256
called	-10.7259
▁expecting	-10.7263
▁Ru	-10.7266
▁cryptocurrency	-10.7272
▁judgment	-10.7272
▁pilot	-10.7272
▁slept	-10.7272
▁temple	-10.7272
▁shy	-10.7272
▁Keep	-10.7272
▁sat	-10.7274
▁repeated	-10.728
▁weapons	-10.7285
▁snack	-10.7287
▁officers	-10.7294
yang	-10.7294
CC	-10.7303
ey	-10.7307
▁lock	-10.7311
▁stops	-10.7311
▁Ben	-10.7314
▁regions	-10.7316
▁hundreds	-10.7316
▁charts	-10.732
ight	-10.7321
▁gaining	-10.7325
▁analyze	-10.7326
ative	-10.7328
▁greatly	-10.7331
▁multiple	-10.7332
▁Was	-10.7333
▁afford	-10.734
▁cousin	-10.7342
▁Unfortunately	-10.7342
▁aircraft	-10.7342
▁arrival	-10.7342
▁steadily	-10.7342
▁combination	-10.7342
▁resolution	-10.7342
▁announcement	-10.7343
▁authority	-10.7344
▁Suwon	-10.7344
▁Union	-10.7345
▁Peter	-10.7347
▁scary	-10.7347
▁Manchester	-10.735
▁Up	-10.735
▁shots	-10.7352
dic	-10.7366
▁neighbors	-10.7372
▁regard	-10.7383
cal	-10.7394
▁Th	-10.74
▁FC	-10.74
▁tariffs	-10.7402
sun	-10.7403
▁Mike	-10.7403
box	-10.7407
▁standards	-10.7407
▁votes	-10.7411
▁alternative	-10.7412
▁Hanoi	-10.7412
▁seafood	-10.7413
▁Harry	-10.7414
▁Bill	-10.7417
▁Joo	-10.7429
▁horse	-10.7429
▁Republican	-10.743
my	-10.7432
ace	-10.7442
dge	-10.7447
eo	-10.7463
▁perspective	-10.7483
▁plenty	-10.7483
▁romantic	-10.7483
▁terrible	-10.7483
▁rude	-10.7483
▁Berlin	-10.7483
▁represent	-10.7484
▁Students	-10.7495
▁clothing	-10.7502
▁tension	-10.7502
▁grace	-10.7503
▁foundation	-10.7505
del	-10.751
yong	-10.7512
▁packed	-10.7513
▁industrial	-10.752
ny	-10.7521
▁announce	-10.7525
ari	-10.753
▁bother	-10.7533
ade	-10.7539
To	-10.7539
▁Abe	-10.7545
#	-10.7547
▁violent	-10.7554
▁languages	-10.7555
▁complicated	-10.7556
▁teeth	-10.7557
▁seniors	-10.7561
▁exists	-10.7562
▁plate	-10.7576
▁replaced	-10.7586
ps	-10.7604
▁increases	-10.7608
▁describe	-10.7611
▁officially	-10.7612
code	-10.7617
▁loans	-10.7625
▁Service	-10.7626
▁Sweden	-10.7626
▁preparation	-10.7626
▁relevant	-10.7626
▁Reuters	-10.7626
▁MBC	-10.7626
▁respondents	-10.7626
▁EXO	-10.7627
▁Anyone	-10.7627
▁audition	-10.7628
▁homepage	-10.7628
uk	-10.763
▁fallen	-10.7634
▁settled	-10.7643
AR	-10.7647
▁clients	-10.7665
▁spreading	-10.7665
ture	-10.7665
▁cheering	-10.7666
ral	-10.7667
▁Awards	-10.7675
▁hits	-10.7679
▁polls	-10.768
▁branch	-10.7696
▁airplane	-10.7699
▁luxury	-10.7699
▁temporary	-10.7699
▁storage	-10.7699
▁draft	-10.77
▁recovery	-10.7705
▁graduate	-10.7707
▁sexy	-10.7715
seong	-10.7717
▁tested	-10.7723
▁pitcher	-10.7726
▁holds	-10.7734
▁container	-10.7734
ou	-10.7746
▁posting	-10.7751
▁repeat	-10.7756
▁relations	-10.7758
▁rush	-10.7765
What	-10.7768
▁bio	-10.7769
▁resolve	-10.7769
ect	-10.7772
▁struggling	-10.7772
▁worries	-10.7772
▁disabled	-10.7772
▁childhood	-10.7773
▁creation	-10.7773
▁friendship	-10.7778
▁Fortunately	-10.7778
ura	-10.7783
▁Hyo	-10.7785
ik	-10.7788
▁Har	-10.7792
▁rains	-10.7794
▁Ya	-10.7794
▁cells	-10.7801
▁Lastly	-10.7802
▁fits	-10.7806
ser	-10.7814
▁ears	-10.7824
▁Hae	-10.7836
known	-10.784
▁Hill	-10.7842
▁ratio	-10.7843
▁Food	-10.7845
▁mirror	-10.7845
▁Senate	-10.7846
▁dominate	-10.7848
▁Seong	-10.7851
pr	-10.7867
▁wise	-10.787
▁sir	-10.787
▁recover	-10.787
▁noticed	-10.7873
▁channels	-10.7881
▁suggests	-10.7886
▁pets	-10.7888
uff	-10.7889
▁pattern	-10.7895
TV	-10.79
▁Yeon	-10.7904
ake	-10.7905
▁Dow	-10.7908
▁independent	-10.7912
▁champion	-10.7919
▁Florida	-10.7919
▁advertising	-10.7919
▁consecutive	-10.7919
▁umbrella	-10.7919
▁worn	-10.792
▁keen	-10.792
▁grass	-10.7922
▁wire	-10.7922
▁flights	-10.7924
rry	-10.7926
▁Ad	-10.7927
▁smoothly	-10.7929
▁dolls	-10.7935
▁awards	-10.7938
ice	-10.7945
▁episode	-10.7948
ving	-10.7948
▁parent	-10.795
▁lessons	-10.7951
▁pig	-10.7962
ign	-10.797
▁sta	-10.7971
▁concentrate	-10.7979
▁resume	-10.7979
gr	-10.7993
kin	-10.7993
▁designs	-10.7993
▁pa	-10.7993
▁fifth	-10.7994
▁franchise	-10.7994
▁memorable	-10.7994
▁replied	-10.7994
▁conclusion	-10.7994
▁fastest	-10.7998
▁edge	-10.8003
▁discovered	-10.8004
▁levels	-10.8007
lon	-10.8007
jun	-10.8011
▁democracy	-10.8012
▁lately	-10.8013
▁pleased	-10.8022
und	-10.8038
▁Ham	-10.8042
▁enable	-10.8049
zi	-10.8052
▁difficulty	-10.8054
ax	-10.8054
▁skill	-10.8061
▁doctors	-10.8068
▁roof	-10.8069
As	-10.8069
▁identify	-10.8069
▁innovation	-10.8069
▁Watch	-10.807
▁importance	-10.807
bal	-10.8072
▁Putin	-10.8076
▁sponsor	-10.8079
▁rejected	-10.808
▁tied	-10.8089
▁surrounding	-10.809
▁core	-10.8092
ae	-10.8095
▁featured	-10.8095
▁Bu	-10.8099
▁joke	-10.8104
▁expanding	-10.8116
▁aged	-10.812
▁paintings	-10.812
▁Baghdad	-10.8129
▁equal	-10.8138
▁emotional	-10.814
▁admitted	-10.8145
▁northern	-10.8145
▁soap	-10.8146
▁KBS	-10.8147
▁totally	-10.8148
lar	-10.8148
▁scent	-10.815
▁urged	-10.8152
▁Tottenham	-10.8154
▁losses	-10.8154
▁Jane	-10.8154
month	-10.8164
▁Baek	-10.8169
▁collected	-10.817
▁custom	-10.8171
▁opponent	-10.8179
▁shoulder	-10.8186
yu	-10.8191
ov	-10.8195
▁netizens	-10.82
▁applying	-10.8213
▁rough	-10.8214
▁Prince	-10.8218
▁tons	-10.8219
▁Company	-10.8221
▁dawn	-10.8221
▁Nothing	-10.8222
▁exposed	-10.8225
▁Entertainment	-10.8227
▁meantime	-10.8229
▁touching	-10.8235
og	-10.824
▁Ar	-10.824
▁Che	-10.8244
▁MC	-10.8261
back	-10.8262
▁Sp	-10.8265
▁ease	-10.8284
▁blame	-10.8287
▁tag	-10.8289
▁Start	-10.8297
▁settle	-10.8297
▁Barcelona	-10.8298
▁Meanwhile	-10.8298
▁agencies	-10.8298
▁pocket	-10.8298
▁protein	-10.8298
▁alarm	-10.8299
▁Later	-10.8302
▁revised	-10.8307
iz	-10.8308
▁offline	-10.8309
ue	-10.8313
ress	-10.8314
ious	-10.8314
▁argued	-10.8316
oo	-10.8319
ken	-10.8335
▁explains	-10.8341
▁ok	-10.8342
▁Ge	-10.8344
Total	-10.8345
▁ignore	-10.836
▁indicate	-10.836
▁capture	-10.8361
▁differences	-10.8366
▁god	-10.8368
ery	-10.8373
▁currency	-10.8376
▁injuries	-10.8376
▁serving	-10.8376
▁Though	-10.8376
▁finals	-10.8381
scale	-10.8383
▁hitting	-10.8387
▁passes	-10.8391
▁captured	-10.8391
ical	-10.8394
ug	-10.8399
▁onto	-10.8409
▁Yun	-10.841
▁upper	-10.8412
py	-10.8414
▁meetings	-10.8415
▁requests	-10.8419
istic	-10.8424
▁translate	-10.8438
van	-10.8445
▁Third	-10.8454
▁choosing	-10.8454
▁ensure	-10.8454
▁championship	-10.8454
▁Gaza	-10.8455
▁Islamic	-10.8455
▁seller	-10.8455
▁recording	-10.8457
▁tries	-10.8457
▁pursue	-10.8458
ara	-10.8458
ition	-10.8464
▁tools	-10.8466
▁aimed	-10.8468
▁bath	-10.8469
▁destroyed	-10.8469
rim	-10.8478
▁aging	-10.8489
▁guard	-10.8496
▁booth	-10.8498
▁introduc	-10.8498
▁discussion	-10.8499
▁dressed	-10.8507
▁implement	-10.8515
ably	-10.8516
▁voices	-10.8523
▁Four	-10.8524
ible	-10.8525
▁wealth	-10.8527
▁willing	-10.8529
▁establish	-10.8529
▁liquid	-10.8532
▁bored	-10.8532
▁Shanghai	-10.8533
▁numerous	-10.8533
▁wanna	-10.8533
▁relief	-10.8533
▁Anyway	-10.8533
▁trends	-10.8534
▁dirty	-10.8535
▁Someone	-10.8538
▁scenery	-10.8538
▁declared	-10.8539
▁Santa	-10.8541
▁Gen	-10.8548
▁households	-10.8552
▁imported	-10.8554
ory	-10.8559
▁Bento	-10.8565
▁aunt	-10.8566
▁Xi	-10.8567
▁belief	-10.8575
ec	-10.8581
fa	-10.8582
▁prayer	-10.8589
▁moves	-10.8592
ei	-10.8593
sis	-10.8594
play	-10.8595
▁grows	-10.8596
▁Game	-10.86
▁initial	-10.8604
▁burn	-10.8605
▁Assembly	-10.8612
▁Liverpool	-10.8612
▁consumption	-10.8612
▁animation	-10.8612
▁agenda	-10.8612
▁Central	-10.8612
▁Church	-10.8612
▁neighborhood	-10.8612
▁Local	-10.8612
▁mo	-10.8624
▁formal	-10.8626
▁falls	-10.8627
▁situations	-10.8631
▁Happy	-10.8648
▁yen	-10.8649
▁vitamin	-10.8657
▁neighbor	-10.8658
▁km	-10.8672
gan	-10.8673
▁laws	-10.868
▁roll	-10.8683
▁planet	-10.8688
▁swim	-10.8692
▁Bitcoin	-10.8692
▁Out	-10.8694
▁readers	-10.8695
▁Given	-10.8698
▁highway	-10.8703
jeong	-10.8704
all	-10.8707
▁i	-10.8707
▁Welcome	-10.8707
▁complaints	-10.8708
▁pulled	-10.8712
▁birds	-10.8724
▁Post	-10.8738
ev	-10.8738
▁Girl	-10.8739
▁answers	-10.8743
▁nations	-10.8745
▁accounting	-10.8746
▁im	-10.8749
▁heading	-10.8751
Do	-10.8751
▁shortly	-10.8753
app	-10.8754
▁elements	-10.8765
▁visual	-10.8765
ix	-10.8765
▁Dan	-10.8772
▁Supreme	-10.8773
▁Zealand	-10.8773
▁babies	-10.8773
▁inquiry	-10.8773
▁Hanbok	-10.8773
▁permission	-10.8773
▁Gangwon	-10.8773
▁massive	-10.8774
▁lift	-10.8775
▁searching	-10.878
▁Play	-10.8796
▁Ku	-10.8813
▁creates	-10.8819
▁breaking	-10.882
▁bird	-10.882
▁blog	-10.8822
▁expense	-10.8822
▁offering	-10.8831
▁fewer	-10.8834
mar	-10.8837
▁shame	-10.8841
▁Committee	-10.8854
▁Council	-10.8854
▁closing	-10.8854
▁lawsuit	-10.8854
▁primary	-10.8854
▁religion	-10.8854
▁burst	-10.8854
▁elected	-10.8854
▁realistic	-10.8856
▁jam	-10.8857
▁somewhat	-10.8857
▁pace	-10.8858
▁Paulo	-10.8861
▁evaluation	-10.8865
tz	-10.8866
▁collapsed	-10.8869
▁proved	-10.8877
▁script	-10.8888
▁dispute	-10.8889
▁admit	-10.8891
▁sacrifice	-10.8892
▁circumstances	-10.8894
▁nurse	-10.8904
▁Ten	-10.8905
val	-10.8908
▁struggle	-10.892
▁practical	-10.8927
▁poster	-10.8934
▁Association	-10.8936
▁Brexit	-10.8936
▁Museum	-10.8936
▁awesome	-10.8936
▁fraud	-10.8936
▁signature	-10.8936
▁funeral	-10.8936
▁participating	-10.8936
▁distribution	-10.8936
▁BMW	-10.8937
▁peaceful	-10.8939
▁protection	-10.8942
▁repeatedly	-10.8945
▁Hana	-10.8947
▁Bi	-10.8949
CNN	-10.8951
▁faced	-10.8957
▁cheered	-10.8963
▁pan	-10.8968
ella	-10.8979
▁Miss	-10.8983
▁muscles	-10.8987
▁kiss	-10.8991
rt	-10.8993
▁boom	-10.9004
▁metal	-10.9011
▁technical	-10.9011
▁decades	-10.9012
▁Arabia	-10.9015
▁testing	-10.9016
▁apology	-10.9019
▁cried	-10.9019
▁flash	-10.9019
▁stake	-10.902
▁pad	-10.9021
▁workshop	-10.9021
ada	-10.9028
▁waves	-10.9029
▁blessing	-10.9031
quality	-10.9033
▁combined	-10.9036
▁burning	-10.9047
gar	-10.9051
▁historical	-10.9061
▁valid	-10.9075
▁returning	-10.9083
▁format	-10.9084
sco	-10.9086
arious	-10.9094
▁fierce	-10.9096
À	-10.9102
▁Premier	-10.9102
▁concrete	-10.9102
▁giant	-10.9102
▁pledge	-10.9102
▁comfortably	-10.9102
▁stuck	-10.9102
▁ages	-10.9103
▁stew	-10.9103
▁Fire	-10.9104
▁breath	-10.9105
▁classroom	-10.9105
▁headed	-10.9113
shirt	-10.9117
▁defender	-10.9121
▁la	-10.913
▁rainy	-10.913
ON	-10.9136
▁spare	-10.9143
▁menus	-10.9151
for	-10.9153
▁panel	-10.916
▁packing	-10.9161
▁scientists	-10.9161
PA	-10.9162
ob	-10.9167
rang	-10.9169
▁stamp	-10.917
▁collapse	-10.9171
▁winds	-10.9183
▁personnel	-10.9186
▁seminar	-10.9186
▁chest	-10.9186
▁Byung	-10.919
air	-10.9191
▁swing	-10.9199
▁speaker	-10.9204
▁rescued	-10.9209
▁clock	-10.9213
▁Yeong	-10.9213
row	-10.9227
▁ships	-10.9241
▁organize	-10.9251
ano	-10.9252
▁destroy	-10.9255
▁Fed	-10.9255
▁constant	-10.9263
▁desert	-10.9271
▁Airlines	-10.9271
▁Chuseok	-10.9271
▁assignment	-10.9271
▁clip	-10.9271
▁Sever	-10.9285
▁hill	-10.9285
▁hike	-10.9288
▁equipped	-10.9288
friendly	-10.9294
▁cultures	-10.9294
▁imports	-10.9294
▁flag	-10.9302
person	-10.9302
▁par	-10.9307
MA	-10.9314
▁presents	-10.9331
▁Motor	-10.9343
▁strict	-10.9349
▁guitar	-10.9354
▁Afghan	-10.9356
▁surpass	-10.9356
▁visible	-10.9356
▁Club	-10.9356
▁Square	-10.9356
▁harsh	-10.9356
▁Port	-10.9358
rk	-10.936
▁CJ	-10.9364
▁papers	-10.9367
▁kindness	-10.9372
▁independence	-10.9374
▁appointed	-10.9374
▁judges	-10.9383
dol	-10.9386
▁Free	-10.9395
▁Force	-10.9397
▁centers	-10.9401
▁weekly	-10.9412
▁ta	-10.9419
▁executive	-10.942
▁bond	-10.942
▁Yo	-10.9428
▁household	-10.9435
▁broadcasting	-10.944
▁Argentina	-10.9442
▁anxiety	-10.9442
▁celebrity	-10.9442
▁conservative	-10.9442
▁exercising	-10.9442
▁Hawaii	-10.9442
▁improving	-10.9443
▁vice	-10.9443
▁laughter	-10.9444
▁DJ	-10.9448
▁workplace	-10.945
our	-10.9452
▁emerged	-10.9454
▁aims	-10.9454
▁tip	-10.9466
about	-10.9467
▁subjects	-10.9467
▁Bae	-10.9476
ups	-10.9481
▁supports	-10.9483
""	-10.9483
ose	-10.9487
TA	-10.9508
▁chances	-10.9511
myeon	-10.9514
▁k	-10.9521
▁rapid	-10.9522
⁄	-10.9529
▁depressed	-10.9529
▁finance	-10.9529
▁helicopter	-10.9529
▁powder	-10.9529
▁purchasing	-10.9529
▁religious	-10.9529
▁urban	-10.9529
▁innocent	-10.9529
▁opposite	-10.9529
▁flew	-10.953
▁automatically	-10.953
▁elementary	-10.953
▁uncle	-10.953
▁electricity	-10.9531
▁Amid	-10.9538
bs	-10.9557
az	-10.9559
▁efficient	-10.9564
meter	-10.9565
bb	-10.9567
▁Boy	-10.9568
▁pushing	-10.9578
▁militants	-10.9595
ft	-10.96
▁crack	-10.9601
▁dozens	-10.9603
▁bills	-10.961
▁Ver	-10.9611
▁origin	-10.9612
▁Aren	-10.9614
▁Moscow	-10.9617
▁Nowadays	-10.9617
▁supplies	-10.9617
▁SBS	-10.9617
▁native	-10.9617
▁division	-10.9617
▁dying	-10.9618
▁wondered	-10.9618
▁jet	-10.962
▁briefly	-10.9623
▁confirmation	-10.9623
▁portion	-10.9624
▁refugees	-10.9625
hr	-10.9633
▁comedy	-10.9633
▁greatest	-10.9633
ani	-10.9639
▁Te	-10.964
▁jumped	-10.964
▁sp	-10.964
▁Wal	-10.9642
▁producing	-10.9642
▁diseases	-10.9642
But	-10.9647
par	-10.9654
▁screening	-10.9656
▁Ed	-10.9662
▁bound	-10.9668
▁procedure	-10.9688
▁weapon	-10.9689
▁shoe	-10.9691
▁interests	-10.9693
lit	-10.9703
▁compare	-10.9704
▁differ	-10.9705
▁Academy	-10.9706
▁anxious	-10.9706
▁pencil	-10.9706
▁romance	-10.9706
▁absent	-10.9706
▁Store	-10.9706
▁pension	-10.9706
▁skirt	-10.9706
▁Coach	-10.9707
ttp	-10.9709
▁Fe	-10.9709
▁cutting	-10.9714
▁Home	-10.9715
▁#	-10.9716
▁intended	-10.9716
▁Soon	-10.9729
joins	-10.9729
▁foreigner	-10.9734
▁closest	-10.9735
can	-10.9742
▁complaint	-10.9742
▁raining	-10.9746
▁audit	-10.9748
▁greet	-10.9751
▁displayed	-10.9754
▁satisfy	-10.9767
tang	-10.9775
lan	-10.9777
▁Jan	-10.9779
▁pose	-10.9783
▁apple	-10.9786
▁defect	-10.9794
▁weren	-10.9794
▁Defense	-10.9795
▁evil	-10.9795
▁fought	-10.9795
▁showcase	-10.9796
▁euros	-10.9799
▁Wait	-10.9803
pan	-10.982
level	-10.9825
▁linked	-10.9833
▁positively	-10.9835
▁contained	-10.9837
▁solutions	-10.9844
▁particularly	-10.9845
type	-10.9854
▁owned	-10.9857
▁Sc	-10.9857
▁delete	-10.9869
▁electronic	-10.987
▁couples	-10.9872
▁Article	-10.9885
▁Dubai	-10.9885
▁recession	-10.9885
▁lobby	-10.9885
cnn	-10.9885
▁Chief	-10.9885
▁retirement	-10.9886
▁rebound	-10.9886
▁mature	-10.9886
rin	-10.9886
▁wooden	-10.9887
▁continuing	-10.989
▁Arab	-10.989
▁outcome	-10.989
▁bitter	-10.9893
▁pastor	-10.9897
pper	-10.9899
▁moral	-10.99
pm	-10.99
▁regional	-10.9901
nes	-10.9902
▁arranged	-10.9903
▁Gang	-10.9905
▁exceeded	-10.9907
▁defeated	-10.991
▁refers	-10.9915
▁musicians	-10.9919
ker	-10.9925
She	-10.9932
TO	-10.9947
▁camping	-10.9951
▁practiced	-10.9953
▁Tr	-10.9955
hun	-10.9956
▁finger	-10.9964
▁strengthen	-10.9964
▁remote	-10.9968
zo	-10.9973
fin	-10.9973
://	-10.9976
▁council	-10.9976
▁explosive	-10.9976
▁miracle	-10.9976
▁Starbucks	-10.9976
▁emerging	-10.9976
▁intelligence	-10.9976
▁laundry	-10.9976
▁reviews	-10.9976
▁midnight	-10.9976
inch	-10.9977
▁beside	-10.9977
▁producer	-10.9977
▁Sky	-10.9977
▁carbon	-10.9978
▁Rose	-10.9978
▁thoroughly	-10.9979
▁yes	-10.998
▁stated	-10.9985
list	-10.9985
▁punished	-10.9987
bit	-10.9987
▁bid	-10.9994
▁Really	-10.9994
▁scar	-11.0006
ui	-11.0007
▁cuts	-11.0008
American	-11.0009
ack	-11.001
pon	-11.001
▁Rome	-11.0011
▁Hav	-11.0014
▁Being	-11.0028
▁printing	-11.0028
dae	-11.0029
▁sincere	-11.003
▁symbol	-11.0039
ox	-11.004
▁processed	-11.004
work	-11.0042
▁Democrats	-11.0048
▁acted	-11.0051
▁investigate	-11.0052
bang	-11.006
▁Palestinian	-11.0061
▁none	-11.0061
▁magic	-11.0062
▁shake	-11.0064
▁Disney	-11.0067
▁absence	-11.0068
▁compensation	-11.0068
▁pregnant	-11.0068
▁motorcycle	-11.0068
▁scandal	-11.0068
▁stance	-11.0068
▁kilometers	-11.0068
▁manner	-11.007
▁nobody	-11.0072
▁scores	-11.0073
▁shine	-11.0077
▁brush	-11.0078
▁sharply	-11.0081
▁effectively	-11.0091
▁Mary	-11.0092
▁cleaned	-11.0093
▁reflected	-11.0096
▁marks	-11.0096
China	-11.0102
▁ruled	-11.0102
▁reward	-11.0109
▁Fans	-11.0109
▁depart	-11.0115
▁voted	-11.0119
not	-11.0126
▁tradition	-11.0135
▁witness	-11.0141
ku	-11.0143
▁saving	-11.0152
▁withdraw	-11.0152
▁soldier	-11.0155
▁trick	-11.0156
▁opens	-11.0157
▁Jakarta	-11.016
▁external	-11.016
▁Gwang	-11.0161
▁illness	-11.0162
rac	-11.0168
▁designated	-11.017
▁threatened	-11.0171
ern	-11.0176
▁annually	-11.0178
▁crashed	-11.0187
▁Dream	-11.019
▁protests	-11.019
tech	-11.0193
ome	-11.0198
▁AM	-11.0202
ified	-11.0215
▁Sports	-11.022
uch	-11.0228
▁load	-11.0229
set	-11.0233
▁surprising	-11.0246
▁Canadian	-11.0246
▁Ali	-11.0252
denuclearization	-11.0254
▁graduation	-11.0254
▁patience	-11.0254
▁sentiment	-11.0254
+	-11.0254
▁stairs	-11.0254
▁envy	-11.0254
▁frozen	-11.0254
jong	-11.0256
▁habits	-11.0261
▁suspended	-11.0264
▁justice	-11.0265
ini	-11.0273
ick	-11.0274
▁Billboard	-11.0275
▁relaxed	-11.0278
▁handed	-11.0293
▁searched	-11.0314
▁fl	-11.0318
▁lend	-11.0322
▁Cla	-11.0324
▁engineer	-11.0324
▁hunt	-11.0325
▁melt	-11.0338
▁Muslim	-11.0343
▁fantastic	-11.0348
▁featuring	-11.0348
▁happier	-11.0348
▁steady	-11.0348
▁unfamiliar	-11.0348
▁basketball	-11.0348
▁banned	-11.0348
▁motor	-11.0348
▁headache	-11.0349
▁Team	-11.0357
▁distributed	-11.0358
teen	-11.0362
oon	-11.0365
▁pity	-11.0365
▁challenges	-11.0367
▁Champions	-11.037
▁decreased	-11.0371
▁painted	-11.0373
Ha	-11.0375
▁Christians	-11.0391
▁tone	-11.0392
rae	-11.0395
▁damages	-11.0399
▁seconds	-11.0407
ef	-11.0414
round	-11.0425
▁divorce	-11.0428
▁performing	-11.0428
har	-11.0431
▁refuse	-11.0432
▁belong	-11.0436
▁objective	-11.0437
▁passionate	-11.0437
▁complain	-11.0438
▁dealing	-11.0442
▁Queen	-11.0443
▁Attention	-11.0443
▁Chelsea	-11.0443
▁ecosystem	-11.0443
▁hamburger	-11.0443
▁neither	-11.0443
▁parcel	-11.0443
▁cave	-11.0444
▁twin	-11.0445
eon	-11.0445
▁Long	-11.0447
▁wages	-11.0449
pping	-11.0457
▁alley	-11.0465
▁declined	-11.0471
▁mayor	-11.0473
▁Mars	-11.0474
▁Sch	-11.0476
▁theory	-11.0479
▁climate	-11.0492
▁Woods	-11.0493
ori	-11.0496
illa	-11.0499
▁aim	-11.0518
▁knee	-11.0521
▁adopt	-11.0522
ates	-11.0527
cha	-11.0527
▁inner	-11.0527
▁risks	-11.053
▁forgive	-11.0535
▁excuse	-11.0537
▁Microsoft	-11.0539
▁Pompeo	-11.0539
▁buried	-11.0539
▁knife	-11.0539
▁leather	-11.0539
▁pollution	-11.0539
▁privacy	-11.0539
▁stupid	-11.0539
▁translator	-11.0539
▁KakaoTalk	-11.0539
▁weakness	-11.0539
▁Francisco	-11.054
▁Peace	-11.054
▁deny	-11.0541
▁awareness	-11.0542
▁stolen	-11.0543
▁strap	-11.0545
▁directors	-11.0546
▁nearest	-11.0548
▁lifestyle	-11.0548
▁Book	-11.0554
▁besides	-11.0554
▁quoted	-11.0556
down	-11.0559
▁hoped	-11.0559
▁Gold	-11.056
▁wishes	-11.0581
▁leak	-11.0592
▁climb	-11.0593
▁Jack	-11.0595
▁machines	-11.0602
▁hanging	-11.0602
Ma	-11.0607
▁jail	-11.062
fu	-11.0621
▁bin	-11.0626
▁tracking	-11.0627
▁nail	-11.0636
▁Control	-11.0636
▁contrast	-11.0636
▁depression	-11.0636
▁statistics	-11.0636
▁heavily	-11.0637
▁cartoon	-11.0637
▁Health	-11.0637
▁filter	-11.0637
▁bug	-11.0637
▁Compar	-11.0637
▁unclear	-11.0638
▁Fair	-11.0641
▁Hope	-11.0642
▁gray	-11.0642
CE	-11.0645
ttached	-11.065
▁grab	-11.0651
▁noon	-11.0651
▁solving	-11.0661
q	-11.0665
▁sum	-11.0666
▁decisions	-11.0668
▁lips	-11.067
▁pages	-11.0672
▁expanded	-11.0672
▁shocking	-11.0677
▁farming	-11.0682
▁mat	-11.0696
▁prop	-11.0699
▁Chan	-11.0703
▁surround	-11.0707
top	-11.071
▁fate	-11.071
▁opera	-11.0731
▁j	-11.0732
▁Taekwondo	-11.0735
▁enemy	-11.0735
▁explosion	-11.0735
▁participation	-11.0735
▁reliable	-11.0735
▁universities	-11.0735
▁nickname	-11.0735
▁Usually	-11.0735
▁Kevin	-11.0735
ify	-11.0735
▁Winter	-11.0735
▁species	-11.0735
▁sushi	-11.0735
▁apartments	-11.0736
▁existence	-11.0737
▁tent	-11.0737
▁outstanding	-11.0738
ened	-11.0738
▁acid	-11.074
▁posts	-11.0744
▁badly	-11.0751
▁pounds	-11.0755
▁Tim	-11.0759
water	-11.0783
▁bite	-11.0788
▁washing	-11.079
pel	-11.0802
▁Mac	-11.0806
▁disc	-11.0808
▁arts	-11.081
uc	-11.0819
▁attacked	-11.082
▁Fa	-11.0822
elect	-11.0825
rum	-11.0826
▁excessive	-11.0826
ye	-11.0827
▁asks	-11.0831
▁Tomorrow	-11.0834
▁promoting	-11.0834
▁shelter	-11.0834
▁Oscar	-11.0834
▁landscape	-11.0834
▁teaser	-11.0835
▁rocket	-11.0835
▁Rice	-11.0837
▁argument	-11.0837
▁principle	-11.0838
▁consideration	-11.084
▁classical	-11.084
ney	-11.0842
▁Land	-11.0842
▁FA	-11.0846
▁adopted	-11.085
▁urgently	-11.0852
▁operations	-11.0853
▁examine	-11.0854
▁hired	-11.0857
▁resolved	-11.0857
▁lens	-11.0859
cer	-11.0872
▁wheel	-11.0884
▁Pay	-11.0886
▁booking	-11.0893
dis	-11.0896
▁Hwa	-11.0902
▁runner	-11.0905
pil	-11.0911
OS	-11.0921
▁prompt	-11.0926
▁Mongolia	-11.0927
▁walls	-11.0932
°	-11.0934
▁arriving	-11.0934
▁duties	-11.0934
▁federal	-11.0934
▁ministry	-11.0934
▁salmon	-11.0934
▁shrimp	-11.0934
▁BBC	-11.0934
▁sentences	-11.0935
▁shed	-11.0935
▁secretary	-11.0936
▁barely	-11.0937
▁tower	-11.0937
▁lawmaker	-11.0941
▁Get	-11.0942
ium	-11.0942
▁oldest	-11.0946
▁assist	-11.0949
▁Motors	-11.095
▁kindly	-11.0952
ff	-11.0953
▁beating	-11.0956
ology	-11.096
chang	-11.0961
▁lovers	-11.0964
▁sentenced	-11.0974
▁Girls	-11.0975
ib	-11.0978
▁aspects	-11.0988
ily	-11.0995
▁objects	-11.0996
▁founder	-11.1003
tar	-11.1005
don	-11.1007
▁Pu	-11.1019
▁east	-11.1019
▁exclusive	-11.1027
ES	-11.1033
▁affects	-11.1033
▁Regard	-11.1033
▁micro	-11.1034
▁DHL	-11.1035
▁controversial	-11.1035
▁literally	-11.1035
▁routine	-11.1035
▁steel	-11.1035
▁motto	-11.1035
▁sincerity	-11.1035
▁Security	-11.1035
▁Light	-11.1036
▁footage	-11.1037
▁everybody	-11.1037
▁somebody	-11.1039
▁emotion	-11.1039
cle	-11.104
▁organizations	-11.104
▁Six	-11.104
▁recognition	-11.1042
kyung	-11.1043
▁decade	-11.1043
wook	-11.1044
▁abandoned	-11.1044
▁sorrow	-11.1045
▁Secondly	-11.1049
▁arrange	-11.105
▁ancient	-11.1055
▁Bay	-11.1056
▁Tak	-11.1057
▁quietly	-11.1059
▁concerts	-11.1082
▁individuals	-11.1091
▁recruit	-11.1091
▁Roman	-11.1092
pic	-11.1098
▁App	-11.1101
▁cloth	-11.1106
▁writers	-11.1113
stone	-11.1115
▁designers	-11.1115
▁coins	-11.1123
▁define	-11.1123
▁hotels	-11.1124
▁alleged	-11.1129
▁immediate	-11.1129
▁continuous	-11.1129
▁west	-11.1134
▁diamond	-11.1137
▁expansion	-11.1137
▁perfume	-11.1137
▁Power	-11.1137
dding	-11.1138
▁stream	-11.1138
▁nomination	-11.1141
▁branches	-11.1141
▁William	-11.1147
▁missile	-11.1148
▁forms	-11.1149
▁chemical	-11.1155
▁trained	-11.1158
▁soil	-11.1159
LE	-11.116
▁greeting	-11.1168
▁correctly	-11.1169
▁Mc	-11.1169
▁lectures	-11.117
▁Tu	-11.1177
▁Martin	-11.1191
vic	-11.1199
log	-11.1202
▁theaters	-11.1202
sen	-11.1206
▁ear	-11.1207
▁reflects	-11.1209
▁rely	-11.1213
▁En	-11.1218
▁arise	-11.1219
▁characteristics	-11.1219
▁obtain	-11.1223
▁blocks	-11.123
▁gentle	-11.1238
▁Associate	-11.124
▁Belgium	-11.124
▁Bloomberg	-11.124
▁Junior	-11.124
▁artificial	-11.124
▁garbage	-11.124
▁inevitable	-11.124
▁manufacturing	-11.124
▁rural	-11.124
▁beloved	-11.124
▁Style	-11.124
▁subscribers	-11.124
▁petition	-11.124
▁LED	-11.124
▁Plus	-11.124
▁punishment	-11.124
▁Labor	-11.1241
▁stored	-11.1244
ita	-11.1246
▁civilians	-11.1247
▁sadness	-11.1247
▁comeback	-11.1248
▁relatives	-11.1248
▁comic	-11.1249
▁citizen	-11.1253
▁passenger	-11.1253
▁endless	-11.1257
▁implemented	-11.1261
▁blamed	-11.1266
mir	-11.1266
seo	-11.1266
▁rating	-11.1271
▁welcomed	-11.1274
▁Rio	-11.1276
▁demanding	-11.1277
suk	-11.1279
▁judged	-11.1284
wing	-11.129
▁immigrants	-11.1299
▁GM	-11.1299
br	-11.13
▁OK	-11.1321
▁applicants	-11.133
▁batter	-11.1337
▁tire	-11.1343
▁Nexen	-11.1344
▁SUV	-11.1344
▁category	-11.1344
▁essay	-11.1344
▁imagination	-11.1344
▁modify	-11.1344
▁Indeed	-11.1344
▁Actress	-11.1344
▁Alright	-11.1344
▁lake	-11.1345
▁affection	-11.1347
▁overnight	-11.1349
▁ordering	-11.135
▁tariff	-11.1359
▁recovered	-11.1367
▁Pan	-11.1367
▁Jones	-11.1368
▁Kia	-11.1371
▁heads	-11.1371
fer	-11.1375
▁solar	-11.1376
DA	-11.1376
▁cycle	-11.1382
▁Anna	-11.1383
▁succeeded	-11.1385
cul	-11.1385
▁resemble	-11.1389
▁separated	-11.1389
▁Milan	-11.139
▁flood	-11.1405
▁coin	-11.1409
▁seeking	-11.1415
ez	-11.1417
▁stations	-11.142
▁Shim	-11.1421
tte	-11.1422
▁exhibit	-11.143
▁plug	-11.144
▁lo	-11.1442
▁disturb	-11.1449
▁NASA	-11.1449
▁Netflix	-11.1449
▁attorney	-11.1449
▁luxurious	-11.1449
▁practicing	-11.1449
▁Daniel	-11.1449
▁Hamas	-11.145
▁DNA	-11.145
▁Ke	-11.1451
▁replacement	-11.1452
▁coke	-11.1453
▁blast	-11.1454
▁detected	-11.146
▁politicians	-11.1464
af	-11.1465
▁poem	-11.1466
▁Golden	-11.1466
▁complained	-11.1467
▁combine	-11.147
▁rankings	-11.1477
wn	-11.1495
▁overtime	-11.1502
▁promoted	-11.1502
▁Ear	-11.1515
▁filmed	-11.1528
▁festivals	-11.1535
▁Pal	-11.1536
▁screened	-11.154
▁restore	-11.1541
▁dye	-11.1542
▁obvious	-11.1548
▁instant	-11.1548
▁bi	-11.1549
▁joyful	-11.155
▁awkward	-11.1555
▁Illinois	-11.1556
▁Manila	-11.1556
▁Pennsylvania	-11.1556
▁cuisine	-11.1556
▁scenario	-11.1556
▁Besides	-11.1556
▁auction	-11.1556
▁moisture	-11.1556
▁hello	-11.1556
▁Ohio	-11.1557
▁Army	-11.1559
▁belly	-11.1559
▁golden	-11.1562
▁selection	-11.1562
▁fe	-11.1571
ude	-11.1571
▁‘	-11.1573
▁deleted	-11.1574
▁payments	-11.1579
▁allegations	-11.158
zz	-11.1586
▁Ti	-11.1586
▁assaulted	-11.1588
▁Week	-11.1592
▁idols	-11.1601
ero	-11.1605
▁directed	-11.1605
▁invested	-11.1608
▁joining	-11.1608
▁SM	-11.1611
right	-11.1612
creasingly	-11.163
▁rises	-11.163
▁talents	-11.1631
▁Corp	-11.1632
▁facts	-11.1635
Ba	-11.1646
▁fu	-11.1646
▁fluent	-11.1661
▁Analyst	-11.1663
▁satisfaction	-11.1663
▁horror	-11.1663
▁Boston	-11.1663
▁superior	-11.1663
▁hiking	-11.1663
▁Major	-11.1663
▁terminal	-11.1663
▁motion	-11.1664
▁wrapped	-11.1664
▁invitation	-11.1664
▁forgotten	-11.1664
▁exhausted	-11.1671
▁arrives	-11.1672
▁shouted	-11.1673
▁hiding	-11.1674
▁choices	-11.1676
▁firms	-11.1679
▁introduction	-11.1679
ball	-11.1681
▁thousand	-11.1685
▁hug	-11.1686
▁smells	-11.1688
▁applications	-11.1688
▁Myung	-11.1693
▁sticker	-11.1696
sil	-11.1696
▁apps	-11.17
raft	-11.1713
hearted	-11.1716
▁travelers	-11.172
▁Us	-11.1733
▁Ford	-11.1739
Re	-11.174
▁sixth	-11.1758
▁organic	-11.1761
guk	-11.1763
▁frequent	-11.1764
▁transport	-11.177
▁context	-11.1772
▁cooperate	-11.1772
▁industries	-11.1772
▁margin	-11.1772
▁mysterious	-11.1772
▁paragraph	-11.1772
▁reduction	-11.1772
▁shaking	-11.1772
▁silver	-11.1772
▁waist	-11.1772
▁Carolina	-11.1772
▁stability	-11.1772
ew	-11.1772
▁pump	-11.1773
▁Royal	-11.1774
▁Card	-11.1774
▁stem	-11.1774
▁Never	-11.1775
▁oppose	-11.1776
▁Inter	-11.1781
▁beans	-11.1782
▁gotten	-11.1783
▁Whether	-11.1784
lam	-11.179
ane	-11.1792
▁Joe	-11.1793
▁inflation	-11.1793
▁classic	-11.1795
▁escaped	-11.1801
Ho	-11.1813
▁loose	-11.1817
▁Dis	-11.1819
▁vessel	-11.182
OC	-11.1825
yn	-11.1827
▁fur	-11.1828
iya	-11.1834
▁influenced	-11.1836
zu	-11.1839
▁Pra	-11.1841
Co	-11.1846
▁competitors	-11.1847
▁signing	-11.1856
▁tail	-11.1856
▁silent	-11.1874
▁neat	-11.1874
▁Manager	-11.1882
▁Village	-11.1882
▁Yesterday	-11.1882
▁casualties	-11.1882
▁innovative	-11.1882
▁modified	-11.1882
▁slogan	-11.1882
▁yield	-11.1882
▁warehouse	-11.1882
▁reducing	-11.1882
▁Senator	-11.1882
▁partnership	-11.1883
▁indeed	-11.1883
▁regime	-11.1883
▁Word	-11.1888
joo	-11.1888
▁Five	-11.1891
▁wound	-11.1892
bra	-11.1894
▁react	-11.1895
ria	-11.1896
▁slump	-11.1897
▁advised	-11.1899
▁shadow	-11.1908
▁brings	-11.1912
▁hardest	-11.1912
ram	-11.1918
▁Sand	-11.1918
buk	-11.1922
pen	-11.1931
▁Gun	-11.1935
▁Camp	-11.1943
RE	-11.1959
▁charming	-11.1961
▁Joon	-11.1961
▁consult	-11.1963
▁tap	-11.1964
▁CO	-11.1967
ctor	-11.1974
▁poet	-11.1975
OR	-11.198
ric	-11.1984
▁estimates	-11.1984
▁vocal	-11.1988
▁academic	-11.1993
▁Latin	-11.1993
▁Night	-11.1994
▁Town	-11.1995
▁hospitalized	-11.1998
▁inspired	-11.2
▁errors	-11.2004
▁rumors	-11.2007
▁fingers	-11.2007
▁producers	-11.2011
▁wherever	-11.2016
▁opposed	-11.2016
hand	-11.2019
▁encouraged	-11.2021
▁bow	-11.2022
bot	-11.2025
▁photographs	-11.2027
▁eco	-11.2032
▁expectation	-11.2033
uri	-11.2037
▁secured	-11.204
▁contacting	-11.2041
▁driven	-11.2053
▁clouds	-11.2056
▁Series	-11.2058
▁cleaner	-11.2061
▁stretch	-11.2061
▁angle	-11.2066
imp	-11.2068
▁asset	-11.2069
▁represents	-11.2075
▁Think	-11.2077
▁hi	-11.2085
▁enhance	-11.2089
chu	-11.209
rus	-11.2091
▁thanked	-11.2098
▁spots	-11.2104
▁Enjoy	-11.2105
▁Hospital	-11.2105
▁Pohang	-11.2105
▁Representative	-11.2105
▁barrel	-11.2105
▁captain	-11.2105
▁cruise	-11.2105
▁embassy	-11.2105
▁hobbies	-11.2105
▁registration	-11.2105
▁hesitate	-11.2105
▁noisy	-11.2105
▁telephone	-11.2105
▁restroom	-11.2108
▁van	-11.2108
▁exchanged	-11.2108
▁Water	-11.2108
▁overwhelming	-11.2109
▁Brazilian	-11.2109
sang	-11.2111
▁Muslims	-11.2111
▁concluded	-11.2115
▁Las	-11.2116
▁ongoing	-11.2131
▁locked	-11.2132
▁ha	-11.2133
▁brothers	-11.2134
▁Jim	-11.2134
▁notify	-11.2139
▁Whatever	-11.2139
▁Add	-11.2146
▁yard	-11.2146
▁fulfill	-11.2152
▁hopes	-11.2156
EC	-11.2158
road	-11.2163
site	-11.2164
shin	-11.2169
▁Hey	-11.218
▁heal	-11.2181
▁laughing	-11.2185
▁startups	-11.2185
GB	-11.2187
▁partners	-11.2195
▁dates	-11.2196
Mo	-11.2199
▁emphasize	-11.2203
read	-11.2205
die	-11.2207
▁Turn	-11.2209
▁fundamental	-11.2211
▁quote	-11.2214
▁Koo	-11.2214
▁stole	-11.2215
▁cons	-11.2216
▁icon	-11.2218
▁extension	-11.2219
▁perception	-11.2219
▁reputation	-11.2219
▁pepper	-11.2219
▁scoring	-11.2219
▁sensor	-11.2219
▁goalkeeper	-11.2219
▁supermarket	-11.2219
▁Business	-11.2219
▁string	-11.2219
▁plot	-11.2219
▁copies	-11.2219
▁sunlight	-11.222
▁Sejong	-11.222
▁Old	-11.222
▁prior	-11.222
▁transferred	-11.222
▁virtual	-11.2221
▁County	-11.2221
▁stepped	-11.2221
▁Sohn	-11.2222
▁scan	-11.2227
ware	-11.2228
▁salty	-11.223
▁Uber	-11.2235
▁root	-11.2238
roo	-11.2238
▁afterward	-11.2239
chul	-11.2246
▁relieved	-11.2247
▁deserve	-11.2252
”.	-11.226
▁warming	-11.2271
▁printer	-11.2275
Be	-11.2276
ire	-11.2288
▁landing	-11.2288
bru	-11.2292
▁proof	-11.2295
hor	-11.2299
▁winners	-11.2299
▁targeting	-11.2305
▁Gar	-11.2309
▁contribute	-11.2318
▁casual	-11.2326
▁District	-11.2334
▁Special	-11.2334
▁accompanied	-11.2334
▁chapter	-11.2334
▁crucial	-11.2334
▁maintenance	-11.2334
▁rabbit	-11.2334
▁shook	-11.2334
▁bloom	-11.2334
▁extent	-11.2334
▁CBS	-11.2334
▁lazy	-11.2334
▁Messi	-11.2334
▁spoon	-11.2334
▁Virginia	-11.2334
▁burger	-11.2334
▁Theater	-11.2334
▁Sarah	-11.2334
▁Pastor	-11.2335
▁fellow	-11.2336
▁Tower	-11.2336
▁components	-11.2336
▁Seven	-11.2337
▁Tony	-11.2338
▁Mun	-11.234
▁cur	-11.2346
▁wears	-11.2349
▁purposes	-11.2354
▁Mother	-11.2354
▁attempts	-11.2358
▁reveals	-11.2359
▁Ah	-11.236
▁extended	-11.2362
▁Plan	-11.2366
▁approached	-11.2375
▁remembered	-11.2379
▁delegates	-11.2381
lf	-11.2385
▁eastern	-11.2395
▁Award	-11.2396
▁startup	-11.2399
ification	-11.2403
▁Par	-11.2403
▁maintained	-11.2403
▁patterns	-11.2405
IS	-11.2408
▁spiritual	-11.2411
EA	-11.2413
▁pitchers	-11.2413
▁breaks	-11.2416
▁degree	-11.242
▁Rock	-11.2423
Star	-11.2424
under	-11.2426
wer	-11.2428
▁reject	-11.2432
▁trail	-11.2435
▁Moo	-11.2442
▁bottles	-11.2446
▁Musharraf	-11.245
▁tiger	-11.245
▁embarrassed	-11.245
▁cups	-11.245
▁VIP	-11.245
▁pipe	-11.2451
▁Jeonju	-11.2451
▁protesters	-11.2454
▁refreshing	-11.2459
▁analysts	-11.2462
▁Vegas	-11.2467
▁rank	-11.2472
▁examination	-11.2474
▁IP	-11.2475
▁upgraded	-11.2477
▁Ph	-11.2481
▁Ex	-11.2485
▁printed	-11.249
▁western	-11.2493
▁Cor	-11.2497
now	-11.2499
▁limits	-11.2507
▁returns	-11.251
IN	-11.2512
▁Pat	-11.2514
▁demands	-11.2522
gh	-11.2526
▁Kids	-11.2527
▁Top	-11.2535
▁parliament	-11.2535
▁bra	-11.2536
born	-11.2537
▁institutions	-11.2545
▁ruin	-11.2552
making	-11.2555
▁desperate	-11.256
▁Ac	-11.2561
lia	-11.2561
▁Syria	-11.2563
▁bold	-11.2565
▁strip	-11.2565
▁Ukraine	-11.2568
▁generous	-11.2568
▁souvenir	-11.2568
▁statue	-11.2568
▁tuition	-11.2568
▁Furthermore	-11.2568
▁Henry	-11.2568
▁Championship	-11.2568
▁venture	-11.2568
▁departure	-11.2568
▁Ryan	-11.2568
▁bakery	-11.2568
▁Cheonan	-11.2568
▁Joseon	-11.2569
▁aggressive	-11.257
▁preference	-11.257
▁alert	-11.257
war	-11.2571
▁mold	-11.2572
▁cure	-11.2572
▁chip	-11.2573
▁Stop	-11.2574
▁campus	-11.2575
ame	-11.2576
▁insisted	-11.2577
▁retired	-11.2579
hyuk	-11.2579
▁Following	-11.2582
▁unlikely	-11.2583
▁followers	-11.2585
ook	-11.2587
▁risen	-11.259
▁uniforms	-11.2599
▁exams	-11.2601
▁Vice	-11.2601
▁wipe	-11.2601
▁lacking	-11.2607
lim	-11.2607
▁awarded	-11.2609
▁circle	-11.261
cher	-11.261
▁hundred	-11.2611
▁colleague	-11.2611
gil	-11.2617
▁targeted	-11.262
bel	-11.2623
▁funding	-11.2626
mul	-11.2636
jang	-11.2639
▁headquarters	-11.2644
▁titled	-11.2646
▁examples	-11.2648
▁reporting	-11.265
▁brief	-11.2651
▁styles	-11.2655
▁albums	-11.2664
▁spray	-11.2671
xi	-11.2671
For	-11.2673
▁Williams	-11.2674
▁emerge	-11.2682
▁FIFA	-11.2687
▁Studio	-11.2687
▁Thomas	-11.2687
▁abilities	-11.2687
▁allergic	-11.2687
▁dynamic	-11.2687
▁essence	-11.2687
▁vegetarian	-11.2687
▁inquiries	-11.2687
▁confusion	-11.2687
▁tissue	-11.2687
▁hiring	-11.2687
pyeong	-11.2688
▁mild	-11.2688
▁Moreover	-11.2688
▁diary	-11.2688
▁starring	-11.2689
▁deals	-11.269
▁capable	-11.2691
aged	-11.2693
AS	-11.2693
joon	-11.2695
lip	-11.2698
▁merit	-11.2699
chon	-11.27
▁imposed	-11.27
▁speaks	-11.2707
▁flies	-11.2707
fire	-11.2707
▁honestly	-11.2708
▁volunteers	-11.271
▁Work	-11.2712
▁behave	-11.2714
▁calmly	-11.2717
▁traces	-11.272
▁Wang	-11.2722
▁farms	-11.2725
cation	-11.2728
▁muscle	-11.2733
▁newspapers	-11.2736
▁developers	-11.2739
▁kit	-11.2743
▁bones	-11.2744
▁guards	-11.2746
▁topics	-11.2747
▁donated	-11.2755
▁breathe	-11.2763
▁courses	-11.2774
▁wounds	-11.2778
▁tear	-11.2783
colored	-11.2783
▁demanded	-11.2783
▁propose	-11.2792
bed	-11.2794
▁Gal	-11.2795
▁evaluate	-11.2797
▁retail	-11.28
ama	-11.2803
face	-11.2804
▁Richard	-11.2807
▁Greek	-11.2807
▁PayPal	-11.2807
▁convicted	-11.2807
▁demonstration	-11.2807
▁elegant	-11.2807
▁gratitude	-11.2807
▁jealous	-11.2807
▁messenger	-11.2807
▁prejudice	-11.2807
▁sluggish	-11.2807
▁valley	-11.2807
▁breed	-11.2807
▁fortune	-11.2807
▁zero	-11.2807
▁admission	-11.2807
▁KBO	-11.2808
▁specifically	-11.2809
▁Jeff	-11.2809
▁playground	-11.2809
▁Alex	-11.2809
gy	-11.281
▁fatal	-11.2816
▁granted	-11.2819
▁beds	-11.2822
▁Road	-11.2825
cover	-11.2829
▁fairy	-11.2832
▁noted	-11.2832
▁ties	-11.2833
pin	-11.2835
TC	-11.2838
▁recalled	-11.2839
▁covers	-11.2843
▁suspicion	-11.2856
▁advertisement	-11.2856
▁Max	-11.2863
▁requirements	-11.2864
▁trains	-11.2867
▁movements	-11.2873
▁Abu	-11.2874
ency	-11.2883
▁Jobs	-11.2885
▁adds	-11.2885
press	-11.2887
yun	-11.2889
▁educational	-11.2892
▁genres	-11.29
▁historic	-11.2901
foot	-11.2902
▁broad	-11.2903
Let	-11.2907
▁spaces	-11.2907
▁encounter	-11.2913
▁Colombia	-11.2923
late	-11.2925
load	-11.2927
▁fool	-11.2929
▁Agency	-11.2929
▁Family	-11.2929
▁Filipino	-11.2929
▁consensus	-11.2929
▁declaration	-11.2929
▁furniture	-11.2929
▁motivation	-11.2929
▁stimulate	-11.2929
▁wisdom	-11.2929
▁alliance	-11.2929
▁yoga	-11.2929
▁communities	-11.2929
▁sunset	-11.293
▁march	-11.293
▁utilize	-11.2931
▁chatting	-11.2932
▁Lake	-11.2932
▁input	-11.2934
▁fears	-11.2935
▁mountains	-11.2937
▁[	-11.2938
▁dismissed	-11.2941
ata	-11.2943
▁tips	-11.2959
▁notes	-11.296
▁Marine	-11.2964
▁forum	-11.2973
▁visits	-11.2982
▁caring	-11.2983
put	-11.2984
▁suggestion	-11.2984
rink	-11.2986
CT	-11.2996
NE	-11.2999
mile	-11.3003
ied	-11.3004
cast	-11.3007
ato	-11.3014
▁draws	-11.3019
▁Seok	-11.302
▁indoor	-11.3026
count	-11.3027
▁Bur	-11.3033
▁generate	-11.3037
▁ratings	-11.3037
▁endure	-11.3042
▁refunded	-11.3047
check	-11.305
▁Too	-11.3051
▁occasion	-11.3052
▁flour	-11.3052
]	-11.3053
▁Catholic	-11.3053
▁nephew	-11.3053
▁offensive	-11.3053
▁semiconductor	-11.3053
▁picnic	-11.3053
▁Father	-11.3053
▁cotton	-11.3053
▁Valley	-11.3053
▁excitement	-11.3053
▁ghost	-11.3053
▁disorder	-11.3053
▁quotation	-11.3053
bak	-11.3053
▁vary	-11.3054
band	-11.3055
▁Nobody	-11.3055
▁listened	-11.3056
▁slim	-11.3056
▁installation	-11.3056
▁skip	-11.3059
▁inches	-11.306
▁catching	-11.306
▁assigned	-11.3061
▁behalf	-11.3062
▁harmful	-11.3064
▁confessed	-11.3065
bar	-11.3065
▁acquired	-11.3065
▁interpreted	-11.3066
▁brave	-11.3076
▁ignored	-11.3077
▁Eric	-11.3078
▁boarding	-11.3081
▁sour	-11.3087
▁mart	-11.3089
place	-11.3091
▁advantages	-11.3099
▁attractions	-11.3102
nce	-11.3108
▁honored	-11.3114
▁nap	-11.3115
▁lit	-11.3117
▁craft	-11.3122
▁cakes	-11.3124
▁seal	-11.3125
▁approaching	-11.3128
▁lightly	-11.3136
sik	-11.3144
▁hospitals	-11.3162
oh	-11.317
▁warrant	-11.3172
▁scratch	-11.3174
▁Republic	-11.3176
oriented	-11.3178
▁Android	-11.3178
▁DVD	-11.3178
▁NATO	-11.3178
▁Project	-11.3178
▁collaboration	-11.3178
▁competing	-11.3178
▁deputy	-11.3178
▁karaoke	-11.3178
▁scientific	-11.3178
▁twenty	-11.3178
▁Itaewon	-11.3178
▁tasty	-11.3178
▁priest	-11.3178
▁alright	-11.3178
▁patch	-11.3179
▁Poland	-11.318
▁fancy	-11.318
▁Johnson	-11.3181
▁grave	-11.3184
▁shortage	-11.3187
▁cookies	-11.3191
▁managers	-11.32
▁greeted	-11.32
gro	-11.3201
sam	-11.3203
▁Arena	-11.3203
▁Doesn	-11.3205
EN	-11.3206
▁extract	-11.3209
▁secretly	-11.321
▁healing	-11.321
▁rap	-11.3212
▁Asiana	-11.3215
▁Shi	-11.3217
fish	-11.3218
▁breathing	-11.3219
tel	-11.3219
▁corn	-11.322
▁Officials	-11.3224
▁highlight	-11.3226
▁Tri	-11.3233
hae	-11.3233
▁Research	-11.3234
▁technique	-11.3235
▁merchants	-11.3244
▁lied	-11.3244
▁lawyers	-11.3247
▁seasons	-11.3253
▁critics	-11.3258
▁mothers	-11.3261
▁Ken	-11.3262
▁aspect	-11.3263
▁proceeded	-11.3269
▁lighter	-11.328
That	-11.3281
▁discover	-11.3282
dal	-11.3291
▁bat	-11.3292
▁discussing	-11.3293
bro	-11.3296
▁honey	-11.3304
▁Cultura	-11.3304
▁Education	-11.3304
▁Federal	-11.3304
▁cautious	-11.3304
▁enterprise	-11.3304
▁flexible	-11.3304
▁satellite	-11.3304
▁monster	-11.3304
▁plain	-11.3304
▁Yahoo	-11.3304
▁Mountain	-11.3304
ME	-11.3304
▁spokeswoman	-11.3304
▁bench	-11.3305
▁Taiwanese	-11.3305
gram	-11.3305
▁laid	-11.3305
▁Bridge	-11.3307
▁potatoes	-11.3307
▁hairstyle	-11.3307
▁anybody	-11.3309
▁excluded	-11.3314
▁millions	-11.3318
EX	-11.332
▁relationships	-11.3325
▁physically	-11.3329
AC	-11.3334
▁Sal	-11.3334
hye	-11.3335
▁Mer	-11.3339
▁deeper	-11.334
▁skiing	-11.3359
gin	-11.3368
So	-11.3368
rie	-11.3368
▁slide	-11.3371
▁Yet	-11.3379
▁serves	-11.3394
yeol	-11.3395
▁Hang	-11.3403
Korea	-11.3406
▁smiled	-11.3408
▁advise	-11.3416
▁Bong	-11.3419
▁routes	-11.3432
▁Jordan	-11.3432
▁Study	-11.3432
▁jeans	-11.3432
▁philosophy	-11.3432
▁stroke	-11.3432
▁supplied	-11.3432
▁technologies	-11.3432
▁cited	-11.3432
▁phase	-11.3432
▁Kazakhstan	-11.3432
▁Spring	-11.3433
▁inventory	-11.3434
▁GDP	-11.3434
▁bump	-11.3436
▁sizes	-11.3437
▁Egyptian	-11.3437
▁withdrawal	-11.3438
▁Daily	-11.3438
▁Fund	-11.3438
▁fry	-11.3439
iness	-11.3444
▁thrown	-11.3444
▁poured	-11.3446
▁Culture	-11.3449
▁suspects	-11.3451
▁tomb	-11.3454
▁Everybody	-11.3456
▁fairly	-11.3463
ld	-11.3464
▁illegally	-11.3464
▁fork	-11.3472
▁hated	-11.3474
▁rhythm	-11.3477
active	-11.3481
▁journalist	-11.3497
▁gra	-11.3498
▁protected	-11.3521
gang	-11.3523
▁parked	-11.3541
Mart	-11.3546
▁admire	-11.3547
▁revise	-11.3547
bong	-11.3549
▁hung	-11.3556
▁Fu	-11.3557
▁Vo	-11.3558
ö	-11.3562
▁assembly	-11.3562
▁compliment	-11.3562
▁enthusiasm	-11.3562
▁folk	-11.3562
▁frustrated	-11.3562
▁harmony	-11.3562
▁infrastructure	-11.3562
▁negotiate	-11.3562
▁silence	-11.3562
▁Summer	-11.3562
▁lounge	-11.3562
▁Parents	-11.3562
▁timing	-11.3562
▁bulk	-11.3562
▁copyright	-11.3563
▁banana	-11.3563
▁fence	-11.3563
▁dislike	-11.3564
▁posture	-11.3564
▁referee	-11.3564
▁basically	-11.3565
▁membership	-11.3565
▁villagers	-11.3566
▁princess	-11.3566
▁vendor	-11.3566
▁Kwang	-11.3567
▁slip	-11.3567
▁($	-11.3567
▁attendant	-11.3568
De	-11.3568
▁stain	-11.3568
citing	-11.3568
▁angel	-11.3571
▁Mongolian	-11.3571
▁sufficient	-11.3573
▁percentage	-11.3575
▁appearing	-11.3583
▁Kane	-11.3589
▁graduated	-11.359
▁entirely	-11.3593
▁boiled	-11.3595
▁firefighters	-11.3603
pl	-11.3604
life	-11.3607
▁towels	-11.3617
▁Il	-11.3618
wood	-11.3622
▁costume	-11.363
▁weekdays	-11.3633
▁fires	-11.3633
▁achievement	-11.3635
▁depth	-11.3638
▁layer	-11.364
▁pitch	-11.364
itis	-11.3647
▁Rain	-11.3651
RO	-11.3676
▁approve	-11.3678
▁Rep	-11.368
IT	-11.3682
▁Austria	-11.3689
▁breast	-11.3694
é	-11.3694
▁Sarkozy	-11.3694
▁Switzerland	-11.3694
▁accommodation	-11.3694
▁enormous	-11.3694
▁facial	-11.3694
▁happiest	-11.3694
▁invisible	-11.3694
▁adventure	-11.3694
▁Commission	-11.3694
▁Kakaotalk	-11.3694
▁Almost	-11.3694
▁Hillary	-11.3695
▁midterm	-11.3696
▁holes	-11.3696
▁Near	-11.3697
▁partially	-11.3697
▁sometime	-11.3697
▁documentary	-11.3699
▁passage	-11.3699
▁Back	-11.3702
▁Portugal	-11.3703
▁mock	-11.3703
▁bone	-11.3704
lock	-11.3706
▁decorated	-11.3711
▁Little	-11.3713
▁Dance	-11.3715
▁Cloud	-11.3715
ced	-11.3718
▁maximize	-11.3725
▁executives	-11.3728
▁survived	-11.3728
makers	-11.373
▁Nor	-11.373
▁pie	-11.3731
▁Pop	-11.3738
▁resident	-11.3739
▁Best	-11.3742
▁borrowed	-11.3745
away	-11.3751
aid	-11.3754
▁heated	-11.3758
▁junior	-11.3765
▁recipe	-11.3765
▁blanket	-11.3765
▁connecting	-11.3772
▁governments	-11.3772
▁negotiation	-11.3779
▁minds	-11.3798
)"	-11.3801
AM	-11.3802
burg	-11.3804
▁commit	-11.3804
▁punish	-11.381
▁absorb	-11.3811
▁assume	-11.3812
shirts	-11.3812
dang	-11.3813
order	-11.3815
▁cr	-11.3816
story	-11.3827
▁stir	-11.3827
▁OLED	-11.3827
▁Public	-11.3827
▁exposure	-11.3827
▁gallery	-11.3827
▁genuine	-11.3827
▁variable	-11.3827
▁Cross	-11.3827
▁cruel	-11.3827
▁wrist	-11.3827
▁queen	-11.3827
▁mystery	-11.3827
▁Charles	-11.3827
▁vast	-11.3827
▁packaging	-11.3827
▁Va	-11.3828
▁commitment	-11.3828
▁Golf	-11.3828
▁medals	-11.3829
▁bookstore	-11.3829
pu	-11.383
▁criticize	-11.3831
▁attendance	-11.3831
▁wings	-11.3834
▁leftover	-11.3835
▁triple	-11.3839
▁Van	-11.3839
▁observed	-11.3841
▁teaches	-11.3846
▁obtained	-11.3848
▁significantly	-11.3848
▁rear	-11.385
▁boats	-11.3856
▁legally	-11.3863
▁contracts	-11.3866
tae	-11.3867
berg	-11.3872
▁Buy	-11.3874
▁Holy	-11.388
▁laughed	-11.3883
pot	-11.3886
▁gains	-11.3887
▁Fan	-11.3888
▁proves	-11.3891
▁dear	-11.391
▁Bio	-11.3914
▁interviews	-11.3916
▁ads	-11.3918
cl	-11.3929
▁villages	-11.3943
League	-11.3947
▁heating	-11.395
vin	-11.3961
▁slight	-11.3961
>	-11.3962
▁Halloween	-11.3962
▁KOSPI	-11.3962
▁associate	-11.3962
▁concentration	-11.3962
▁necklace	-11.3962
▁perhaps	-11.3962
▁territory	-11.3962
▁UAE	-11.3962
▁duck	-11.3962
▁Always	-11.3962
▁altogether	-11.3962
▁foster	-11.3962
▁Joseph	-11.3963
▁rapper	-11.3963
▁catalog	-11.3963
▁assistant	-11.3963
▁batteries	-11.3963
▁posing	-11.3963
▁Euro	-11.3964
▁attachment	-11.3965
▁blend	-11.3966
▁apparently	-11.3967
One	-11.3969
▁handling	-11.397
▁environmental	-11.3974
▁maker	-11.3977
▁grilled	-11.3978
Me	-11.3982
▁expired	-11.3983
▁poses	-11.3986
▁fled	-11.3986
▁Wan	-11.3988
▁perm	-11.3997
▁Media	-11.3998
MO	-11.4
new	-11.4001
▁Job	-11.4004
▁imagined	-11.4004
▁Expo	-11.4006
▁trips	-11.4011
AD	-11.402
▁Reg	-11.4035
▁towel	-11.4042
lay	-11.4045
▁nights	-11.4046
▁Ask	-11.4051
dam	-11.4053
managing	-11.4057
▁Op	-11.4061
▁broadcaster	-11.4068
▁weigh	-11.4069
▁enthusiastic	-11.4073
▁Hot	-11.4073
poli	-11.4076
avi	-11.4076
▁divide	-11.4078
▁soju	-11.4079
▁impose	-11.4084
▁claiming	-11.4086
▁moments	-11.4087
▁useless	-11.4095
▁royal	-11.4098
▁Government	-11.4099
▁Institute	-11.4099
▁grammar	-11.4099
▁necessarily	-11.4099
▁proportion	-11.4099
▁supplement	-11.4099
▁treasure	-11.4099
▁Kelly	-11.4099
▁lottery	-11.4099
▁monkey	-11.4099
▁quiz	-11.4099
▁ankle	-11.4099
▁dreamed	-11.4099
▁mouse	-11.41
▁suspicious	-11.41
▁Auto	-11.41
▁Things	-11.41
▁Smart	-11.4101
▁instructor	-11.4101
▁Fox	-11.4102
▁fitness	-11.4105
▁blessed	-11.4112
▁recommendation	-11.4113
MP	-11.4115
▁Asked	-11.4116
▁efficiency	-11.4117
▁Social	-11.4117
▁evaluated	-11.4122
▁pouring	-11.4124
▁reviewing	-11.4137
leg	-11.415
▁positions	-11.415
hill	-11.416
▁NC	-11.4164
▁discussions	-11.4166
▁Ter	-11.4171
live	-11.4171
maker	-11.4172
▁cart	-11.4173
▁Dec	-11.4186
zing	-11.4197
yard	-11.4203
▁logic	-11.4204
▁Ray	-11.4206
▁respected	-11.4208
▁Bob	-11.4211
PO	-11.4213
▁grill	-11.4222
▁postpone	-11.4222
▁principles	-11.4232
▁chew	-11.4233
position	-11.4233
▁shoulders	-11.4235
▁disagree	-11.4237
▁Science	-11.4238
▁eBay	-11.4238
▁fatigue	-11.4238
▁possibly	-11.4238
▁Dutch	-11.4238
▁obey	-11.4238
▁Small	-11.4238
▁suburb	-11.4238
▁yuan	-11.4238
▁cinema	-11.4238
▁shining	-11.4239
▁assessment	-11.4239
▁sunny	-11.4239
▁Money	-11.4239
▁digest	-11.4241
▁bombing	-11.4244
▁marine	-11.4251
▁Justin	-11.4251
▁absolutely	-11.4251
state	-11.4256
▁grounds	-11.4258
▁sexually	-11.4265
▁Ste	-11.4268
Something	-11.427
▁Chae	-11.4276
▁enjoyable	-11.4276
▁climbing	-11.4278
tial	-11.4278
▁Ball	-11.4279
rick	-11.4285
▁Pri	-11.4289
▁commander	-11.429
▁Bra	-11.429
range	-11.4291
▁cleared	-11.43
▁Customers	-11.4301
▁apologized	-11.4301
▁meaningless	-11.4306
SO	-11.4315
▁Mor	-11.4317
▁fined	-11.4318
▁mess	-11.432
▁handled	-11.4325
▁cosmetic	-11.4326
evertheless	-11.4327
oma	-11.4328
stru	-11.4331
▁blocking	-11.4336
▁attraction	-11.4337
▁threaten	-11.4339
▁stranger	-11.434
tem	-11.4343
▁windows	-11.4351
▁largely	-11.4359
▁earnings	-11.436
▁referr	-11.4363
▁unfold	-11.4364
North	-11.437
At	-11.4371
▁eager	-11.4371
▁filling	-11.4373
▁greed	-11.4373
guard	-11.4374
aging	-11.4376
▁blank	-11.4378
▁Embassy	-11.4379
▁Spirit	-11.4379
▁discrimination	-11.4379
▁poverty	-11.4379
▁spaghetti	-11.4379
▁spectators	-11.4379
▁goodbye	-11.4379
▁spill	-11.4379
▁squad	-11.4379
▁Trade	-11.438
▁consultation	-11.4381
▁hint	-11.4381
▁intend	-11.4381
▁deem	-11.4382
▁Pen	-11.4383
▁Hun	-11.4385
▁bull	-11.4386
▁explore	-11.4386
▁Leader	-11.4387
▁outfit	-11.4388
▁spoken	-11.4389
▁tale	-11.4395
▁manners	-11.4396
▁pills	-11.4397
▁accurately	-11.4397
▁Shouldn	-11.4399
▁bri	-11.44
▁Phil	-11.4402
wang	-11.4404
▁Mill	-11.4416
night	-11.442
fully	-11.4424
bat	-11.4427
▁armed	-11.4429
▁plus	-11.4441
nc	-11.4443
▁desired	-11.4454
▁cheerful	-11.4457
fo	-11.4459
▁ICO	-11.4461
▁lab	-11.4462
▁staring	-11.4464
▁throwing	-11.4472
▁Mina	-11.4473
▁Gates	-11.4473
▁hostages	-11.4474
▁memo	-11.4482
▁musician	-11.4486
▁releas	-11.4487
▁Hak	-11.4488
TR	-11.4489
▁Travel	-11.4494
▁donate	-11.4498
▁allies	-11.4499
▁Southeast	-11.4501
sim	-11.4504
▁resign	-11.4504
▁accomplish	-11.4504
▁Louis	-11.4512
▁Venezuela	-11.4516
▁minimize	-11.4517
▁potato	-11.4519
▁absurd	-11.4522
Ç	-11.4522
▁freight	-11.4522
▁ridiculous	-11.4522
▁audio	-11.4522
▁infection	-11.4522
▁senator	-11.4522
▁Authorities	-11.4522
▁salon	-11.4522
▁lipstick	-11.4522
▁thumb	-11.4522
▁Prize	-11.4522
▁verify	-11.4522
▁Listen	-11.4522
▁lung	-11.4523
▁tiny	-11.4525
▁fame	-11.4525
▁guardian	-11.4526
▁dramatic	-11.4529
!"	-11.4529
jeon	-11.4532
▁crown	-11.4533
▁Bin	-11.4534
preliminary	-11.4536
▁somehow	-11.4539
ense	-11.4543
lee	-11.4547
▁palm	-11.455
▁translated	-11.455
▁lifted	-11.4551
MB	-11.4552
▁purchases	-11.4553
▁regarded	-11.4555
▁persons	-11.4555
▁Main	-11.4556
▁consulting	-11.4557
▁roles	-11.4559
▁Jose	-11.4562
▁controlled	-11.4566
▁sons	-11.4572
ache	-11.4576
▁repaired	-11.4583
▁doubled	-11.4585
▁Bell	-11.4589
▁Pacific	-11.4594
looking	-11.4599
▁crossed	-11.4599
▁cafes	-11.4601
▁Stra	-11.4603
▁sisters	-11.4607
gal	-11.4608
▁pigs	-11.4609
FC	-11.461
▁transaction	-11.4617
▁pin	-11.4619
▁Matt	-11.4628
lessly	-11.4635
▁launching	-11.4636
▁cigarette	-11.4647
▁Nov	-11.4647
▁seed	-11.4648
ava	-11.4649
▁processing	-11.465
▁neglect	-11.465
▁observe	-11.465
▁cow	-11.4656
duct	-11.4656
▁distinct	-11.4666
commerce	-11.4667
▁brilliant	-11.4667
▁charging	-11.4667
▁corruption	-11.4667
▁delicate	-11.4667
▁glory	-11.4667
▁infected	-11.4667
▁kidnapped	-11.4667
▁loneliness	-11.4667
▁naked	-11.4667
▁purple	-11.4667
▁unemployment	-11.4667
▁amateur	-11.4667
▁boycott	-11.4667
▁shark	-11.4667
▁Economic	-11.4667
▁dialogue	-11.4667
▁crude	-11.4667
▁parade	-11.4667
▁screw	-11.4667
▁jewelry	-11.4667
▁flee	-11.4668
▁fax	-11.4668
▁dense	-11.467
▁Myeong	-11.4671
▁dedicated	-11.4671
▁Audi	-11.4671
▁outlook	-11.4671
▁grain	-11.4671
▁Space	-11.4672
▁Cook	-11.4673
▁momentum	-11.4674
working	-11.4675
▁otherwise	-11.4675
▁renewed	-11.4677
▁proven	-11.4678
pla	-11.4678
▁strengths	-11.4681
▁Pakistani	-11.4683
▁colored	-11.4684
eller	-11.4684
▁wireless	-11.4693
▁compar	-11.4696
▁churches	-11.4696
▁rushed	-11.4699
bok	-11.4703
▁photographer	-11.4707
ien	-11.471
▁robots	-11.4712
▁Kyo	-11.4717
▁balanced	-11.4721
ky	-11.4722
▁conflicts	-11.4725
sol	-11.4731
▁cl	-11.4732
▁commonly	-11.4734
▁threatening	-11.4739
ED	-11.4739
▁journalists	-11.4741
▁accepting	-11.4752
▁suspicions	-11.4755
▁episodes	-11.4757
▁sleepy	-11.4758
▁cm	-11.4764
▁promises	-11.4768
see	-11.4769
▁Cat	-11.4769
CO	-11.477
▁reviewed	-11.4777
gon	-11.4779
▁rec	-11.4787
▁lasted	-11.4792
▁suspend	-11.4798
power	-11.4808
▁possess	-11.4809
▁prince	-11.481
▁developer	-11.4811
more	-11.4812
▁terror	-11.4812
ville	-11.4813
▁Eat	-11.4814
▁Bangkok	-11.4814
▁abnormal	-11.4814
▁ambassador	-11.4814
▁deficit	-11.4814
▁module	-11.4814
▁straw	-11.4814
▁accessories	-11.4814
▁challenging	-11.4814
▁creativity	-11.4814
▁liquor	-11.4814
▁melody	-11.4814
▁prominent	-11.4814
▁tragedy	-11.4814
▁Qatar	-11.4814
▁Design	-11.4814
▁stiff	-11.4814
▁Again	-11.4814
▁lease	-11.4814
▁immigration	-11.4814
▁SMEs	-11.4814
▁donation	-11.4814
▁semi	-11.4814
▁defendant	-11.4815
▁spotlight	-11.4815
▁Justice	-11.4815
▁Wanna	-11.4816
▁allowance	-11.4818
▁seized	-11.4818
▁annoying	-11.4819
▁motivated	-11.482
▁Data	-11.4821
▁passive	-11.4821
▁mentor	-11.4822
oli	-11.4826
▁strongest	-11.4827
▁Adam	-11.4832
▁doors	-11.4832
▁lip	-11.4832
▁Gong	-11.4833
▁wider	-11.4834
stra	-11.4837
▁mistaken	-11.4838
▁climbed	-11.4839
▁gang	-11.4841
▁firmly	-11.4844
▁disciples	-11.4853
▁lineup	-11.4854
▁questioned	-11.4857
And	-11.4858
▁repay	-11.4858
▁Wind	-11.486
▁torn	-11.4862
NT	-11.4875
▁directions	-11.4878
▁specialize	-11.4888
▁peel	-11.4896
▁photograph	-11.4918
▁vegetable	-11.4918
▁artwork	-11.4919
aka	-11.492
▁Chris	-11.4921
bay	-11.4927
▁interpret	-11.4928
▁Hold	-11.4938
▁networks	-11.4939
▁transform	-11.4945
MC	-11.4946
▁affairs	-11.4955
▁polite	-11.4956
▁curve	-11.4956
▁Cut	-11.4958
ø	-11.4963
▁Cambodia	-11.4963
▁Dodgers	-11.4963
▁Financial	-11.4963
▁Tehran	-11.4963
▁celebration	-11.4963
▁column	-11.4963
▁ethnic	-11.4963
▁hybrid	-11.4963
▁literature	-11.4963
▁promising	-11.4963
▁steep	-11.4963
▁survival	-11.4963
▁slope	-11.4963
▁palace	-11.4963
▁Medical	-11.4963
▁scrap	-11.4963
▁ugly	-11.4963
▁revolution	-11.4963
▁Remember	-11.4964
▁legend	-11.4964
▁permit	-11.4964
▁exception	-11.4964
▁factories	-11.4965
▁Changwon	-11.4965
▁belongs	-11.4968
▁makers	-11.4971
▁cents	-11.4972
▁castle	-11.4972
▁bleeding	-11.4972
▁portal	-11.4973
▁publicly	-11.4975
▁incorrect	-11.4976
▁engineers	-11.4979
▁Pink	-11.4988
▁investigated	-11.4988
▁loaded	-11.499
▁terrorism	-11.499
▁wi	-11.4996
▁bonds	-11.5002
▁gum	-11.5002
▁longest	-11.5007
▁clam	-11.5008
▁washed	-11.5013
eum	-11.5017
atory	-11.502
unk	-11.5028
▁differently	-11.5028
▁expressions	-11.504
▁shorter	-11.5048
▁generations	-11.5054
▁AC	-11.5057
AP	-11.5058
▁Set	-11.5063
matic	-11.5067
▁Dad	-11.5069
▁carrier	-11.5071
▁operator	-11.5072
▁trace	-11.5073
▁Bal	-11.5077
▁exchanges	-11.5087
▁incidents	-11.5091
▁consume	-11.5095
week	-11.5106
tical	-11.5107
▁wheels	-11.5108
▁sandwich	-11.5111
member	-11.5114
▁architect	-11.5114
▁Honestly	-11.5115
▁Stock	-11.5115
▁dormitory	-11.5115
▁economist	-11.5115
▁excluding	-11.5115
▁gloomy	-11.5115
▁memorial	-11.5115
▁oxygen	-11.5115
▁Georgia	-11.5115
▁accompany	-11.5115
▁sauna	-11.5115
▁humble	-11.5115
▁punch	-11.5115
▁KIA	-11.5115
▁therapy	-11.5115
▁hydrogen	-11.5115
▁Palace	-11.5115
▁Jenny	-11.5115
▁shade	-11.5116
▁Honey	-11.5116
▁consent	-11.5116
▁preferred	-11.5117
▁Nike	-11.5117
▁detained	-11.512
shore	-11.5121
▁pub	-11.5122
▁accumulated	-11.5122
▁favorable	-11.5123
▁viewer	-11.5126
HE	-11.5126
▁lunchtime	-11.5127
deok	-11.5127
▁aside	-11.5128
vid	-11.5129
▁Chun	-11.513
▁prosecutors	-11.5131
▁defined	-11.5138
▁Help	-11.5139
ala	-11.515
▁prospect	-11.5159
▁masks	-11.5166
▁transactions	-11.5167
▁traveler	-11.5169
▁Philip	-11.5174
▁Easter	-11.5176
▁toast	-11.518
▁professors	-11.5183
cut	-11.5185
▁Fin	-11.5191
▁rat	-11.5201
▁platforms	-11.5208
▁Hol	-11.5208
How	-11.5209
char	-11.5209
TE	-11.5211
▁ranks	-11.5217
grade	-11.5222
▁behaviors	-11.5223
▁odd	-11.5227
▁drone	-11.5227
▁Bus	-11.5228
▁globally	-11.5228
▁pour	-11.5231
NA	-11.5233
▁detect	-11.524
▁Nan	-11.5247
▁reverse	-11.5255
▁landed	-11.526
HA	-11.5261
▁OS	-11.5262
volving	-11.5267
▁Greece	-11.5268
▁Society	-11.5268
▁TVXQ	-11.5268
▁Telecom	-11.5268
▁Valentine	-11.5268
▁craze	-11.5268
▁disposable	-11.5268
▁obstacle	-11.5268
▁permanent	-11.5268
▁scattered	-11.5268
▁shampoo	-11.5268
▁skating	-11.5268
▁tunnel	-11.5268
▁NBC	-11.5268
▁cheek	-11.5268
▁scholarship	-11.5269
▁rational	-11.5269
▁trapped	-11.5269
▁Skype	-11.5269
▁ET	-11.527
▁curry	-11.527
▁genetic	-11.5271
▁organ	-11.5272
▁transition	-11.5272
▁Nick	-11.5272
▁VR	-11.5278
▁Steven	-11.528
▁interact	-11.528
▁underway	-11.5281
▁savings	-11.5284
▁counseling	-11.5286
▁ruined	-11.529
▁flooded	-11.5292
test	-11.5293
▁cre	-11.5294
▁lane	-11.5297
lor	-11.5298
SF	-11.5312
▁dancer	-11.5312
▁operators	-11.5313
▁chips	-11.5315
▁cha	-11.5317
▁stages	-11.5323
ular	-11.5324
▁magnitude	-11.5325
ius	-11.5326
▁pros	-11.5328
▁restrictions	-11.5329
▁chairs	-11.533
lie	-11.5332
well	-11.5336
▁Mrs	-11.5346
▁employed	-11.5348
▁trainer	-11.5351
Un	-11.5352
▁x	-11.5358
▁artistic	-11.5366
▁hy	-11.5366
▁u	-11.5376
▁elder	-11.538
▁CS	-11.5384
▁veteran	-11.5386
▁explaining	-11.539
soon	-11.5398
rich	-11.5399
▁regulation	-11.5403
▁Mal	-11.5403
▁tires	-11.5403
▁surge	-11.5408
▁crush	-11.5414
▁daughters	-11.5415
▁Frank	-11.5417
▁broth	-11.5417
▁Plaza	-11.5425
▁brochure	-11.5425
▁contribution	-11.5425
▁fantasy	-11.5425
▁nutrition	-11.5425
▁throat	-11.5425
▁Video	-11.5425
▁regain	-11.5425
▁¡°	-11.5425
▁dried	-11.5425
▁retain	-11.5425
▁harvest	-11.5425
▁Boeing	-11.5425
▁residence	-11.5425
▁trophy	-11.5425
▁bedroom	-11.5427
▁FTA	-11.5427
▁socks	-11.5428
▁selfish	-11.5428
▁lid	-11.5429
▁employ	-11.5429
▁Oct	-11.543
▁shipper	-11.543
school	-11.5431
▁Ansan	-11.5433
▁lion	-11.5439
▁youngest	-11.5442
▁referred	-11.5444
▁Reporter	-11.5447
▁adviser	-11.5447
Don	-11.5448
▁stones	-11.5449
All	-11.546
▁Ze	-11.5461
▁celebrated	-11.5465
▁attempted	-11.5467
▁Care	-11.5468
▁inspiration	-11.547
ump	-11.5471
ridge	-11.5471
▁Age	-11.5483
tric	-11.5486
mark	-11.5487
▁lifetime	-11.5491
▁conducting	-11.5495
▁survivors	-11.5496
ika	-11.5497
turn	-11.5499
gae	-11.5503
▁seeds	-11.5509
▁Bon	-11.5519
▁Sub	-11.5524
▁Lab	-11.5526
▁*	-11.5528
RS	-11.5533
▁bend	-11.5534
▁terrorist	-11.5548
▁noodle	-11.5548
▁pretend	-11.5556
▁Sta	-11.5562
rop	-11.5563
▁raid	-11.5567
▁trusted	-11.5571
▁Swiss	-11.5583
▁abundant	-11.5583
▁badminton	-11.5583
▁ceramic	-11.5583
▁companion	-11.5583
▁compensate	-11.5583
▁decisive	-11.5583
▁despair	-11.5583
▁energetic	-11.5583
▁gorgeous	-11.5583
▁rookie	-11.5583
▁strategies	-11.5583
▁swept	-11.5583
▁wrinkles	-11.5583
▁nominee	-11.5583
▁ultra	-11.5583
▁fiber	-11.5583
▁memorize	-11.5583
▁ashamed	-11.5584
▁mound	-11.5584
▁Cheongju	-11.5585
▁Room	-11.5585
▁viewed	-11.5587
▁portable	-11.5588
def	-11.559
▁midfielder	-11.559
▁prohibited	-11.5593
▁schedules	-11.5595
▁Pass	-11.5597
▁efficiently	-11.5597
▁equally	-11.56
▁spy	-11.5601
Some	-11.5606
ash	-11.5606
▁catches	-11.5608
▁links	-11.5608
▁noble	-11.5609
▁reflection	-11.5611
▁safer	-11.5616
ase	-11.5617
▁Mart	-11.562
▁elders	-11.5623
▁Wouldn	-11.5625
▁flows	-11.5625
CB	-11.5631
▁threats	-11.5636
▁pound	-11.5638
▁Inside	-11.5641
▁Mag	-11.5647
▁hopeful	-11.5652
▁reservations	-11.5657
▁produces	-11.5659
len	-11.5659
▁defend	-11.5663
▁rein	-11.5664
ml	-11.5665
non	-11.5668
aries	-11.5673
▁opponents	-11.5673
ched	-11.5675
▁rented	-11.568
▁crops	-11.5681
La	-11.5689
▁guns	-11.5691
▁edit	-11.5695
zar	-11.5698
▁clinic	-11.5698
▁Cu	-11.5716
▁lean	-11.5717
▁retire	-11.5728
▁Sony	-11.5733
▁Say	-11.5734
▁consistent	-11.574
▁Product	-11.5741
▁rides	-11.5742
▁Diego	-11.5745
▁Eagles	-11.5745
▁Except	-11.5745
▁abortion	-11.5745
▁addictive	-11.5745
▁association	-11.5745
▁elephant	-11.5745
▁empathy	-11.5745
▁mutual	-11.5745
▁sympathy	-11.5745
▁vulnerable	-11.5745
Maliki	-11.5745
▁cancellation	-11.5745
▁Nigeria	-11.5745
▁Concert	-11.5745
▁lemon	-11.5745
▁Seattle	-11.5745
▁architecture	-11.5745
▁Otherwise	-11.5745
▁Train	-11.5745
▁crab	-11.5745
▁lamp	-11.5746
▁laser	-11.5746
▁mud	-11.5746
▁settlement	-11.5747
▁Goyang	-11.5747
▁Islam	-11.5747
▁edition	-11.5748
stein	-11.5751
▁Jackal	-11.5751
▁manufacturers	-11.5753
view	-11.5754
▁exploded	-11.5754
▁Doctor	-11.5755
Gangnam	-11.5757
high	-11.5757
ux	-11.5757
▁domain	-11.5758
phone	-11.5759
▁acknowledged	-11.576
▁rewards	-11.5762
▁Pope	-11.5762
▁mentally	-11.5764
▁smiles	-11.5764
ford	-11.5783
▁proceeding	-11.5783
final	-11.5787
▁USB	-11.5788
▁engineering	-11.5792
sided	-11.5795
▁Ber	-11.5799
▁Inc	-11.5803
▁nurses	-11.5806
boy	-11.5808
▁commented	-11.5813
▁discounts	-11.5815
▁delivering	-11.5823
▁Eve	-11.5833
▁techniques	-11.5833
PM	-11.5836
▁rebels	-11.5842
ese	-11.5847
▁appreciated	-11.5856
pac	-11.5856
▁Shar	-11.5862
▁depicts	-11.5872
▁vessels	-11.5873
▁bars	-11.5875
▁additionally	-11.588
▁homeless	-11.5885
▁tri	-11.5886
▁novels	-11.5886
▁commute	-11.5889
ave	-11.5892
▁convert	-11.5892
▁grant	-11.5893
▁persuade	-11.5895
▁sink	-11.5895
▁skate	-11.5898
▁airlines	-11.5899
▁tube	-11.59
▁Angel	-11.5904
▁tomato	-11.5906
▁tablet	-11.5906
▁journal	-11.5907
▁strategic	-11.5908
▁NBA	-11.5909
▁certification	-11.5909
▁dinosaur	-11.5909
esteem	-11.5909
▁categories	-11.5909
▁dignity	-11.5909
▁eligible	-11.5909
▁microwave	-11.5909
▁salvation	-11.5909
▁tremendous	-11.5909
▁Kiwoom	-11.5909
▁width	-11.5909
▁AIDS	-11.5909
▁Dokdo	-11.5909
▁influential	-11.5909
▁contrary	-11.5909
▁console	-11.5909
▁diving	-11.5909
▁Foundation	-11.5909
▁trademark	-11.591
▁rope	-11.591
▁brake	-11.591
▁Friends	-11.591
▁banner	-11.5911
▁thus	-11.5911
▁decent	-11.5912
▁cab	-11.5912
▁accidentally	-11.5912
▁willingness	-11.5912
▁considerate	-11.5913
▁hunger	-11.5916
▁Youtube	-11.5916
▁moderate	-11.5916
▁consistently	-11.5916
▁dorm	-11.5916
▁hardware	-11.5917
city	-11.5917
▁oneself	-11.5917
▁parks	-11.592
▁approximately	-11.592
People	-11.5924
third	-11.5924
▁initially	-11.5924
▁output	-11.5928
▁sins	-11.5928
▁lag	-11.5929
▁API	-11.5932
▁dressing	-11.5932
▁thirty	-11.5933
▁Fall	-11.5936
▁Woori	-11.5937
▁paste	-11.5947
cker	-11.5948
▁candy	-11.5949
clo	-11.595
▁sofa	-11.5959
▁targets	-11.596
▁Idol	-11.5968
yoon	-11.597
▁Amy	-11.5971
will	-11.5974
▁strangers	-11.5975
▁Nu	-11.5977
▁Non	-11.598
▁tighten	-11.598
▁jumping	-11.5982
▁achievements	-11.5989
▁Share	-11.5992
▁Sho	-11.5993
bon	-11.5993
▁Gr	-11.6003
RP	-11.6007
inal	-11.601
▁Firstly	-11.6018
pect	-11.6019
▁Chu	-11.6019
▁tables	-11.6024
▁camps	-11.6027
▁Jay	-11.6036
yl	-11.6039
▁steal	-11.6048
▁stickers	-11.6049
▁Head	-11.6049
▁confess	-11.6052
▁cheers	-11.6054
ending	-11.6056
▁abandon	-11.6059
▁slice	-11.606
▁Find	-11.6064
▁leisure	-11.6068
▁unfortunate	-11.6068
▁pond	-11.6069
tis	-11.607
▁poison	-11.6075
▁disadvantage	-11.6075
▁Arizona	-11.6075
▁analyzing	-11.6075
▁defensive	-11.6075
▁dementia	-11.6075
▁embrace	-11.6075
▁experiencing	-11.6075
▁glance	-11.6075
▁puppies	-11.6075
▁swallow	-11.6075
▁tattoo	-11.6075
▁temporarily	-11.6075
▁turtle	-11.6075
▁unforgettable	-11.6075
▁diversity	-11.6075
▁Exchange	-11.6075
▁Coast	-11.6075
▁gear	-11.6075
▁carpet	-11.6075
▁instance	-11.6075
▁comedian	-11.6076
▁gospel	-11.6076
▁foolish	-11.6076
▁bride	-11.6077
▁Musk	-11.6077
▁resignation	-11.6077
▁silk	-11.6077
▁Nazi	-11.6077
hyeon	-11.6077
▁Wonder	-11.6077
▁awful	-11.608
▁Stone	-11.608
▁candle	-11.6083
▁broker	-11.6084
▁beaten	-11.6084
▁investments	-11.6086
▁roughly	-11.6092
ica	-11.6093
▁barriers	-11.6093
▁rape	-11.6094
▁cloudy	-11.6095
sky	-11.61
▁sheep	-11.6101
▁UV	-11.6113
▁Maria	-11.6122
▁shapes	-11.6127
EST	-11.6131
▁cigarettes	-11.6133
▁tours	-11.6138
▁Youth	-11.6138
▁gloves	-11.6144
nic	-11.6148
▁awake	-11.616
ami	-11.6163
dan	-11.6165
▁trucks	-11.6174
▁Col	-11.6178
▁Croatia	-11.618
▁centered	-11.6183
▁worrying	-11.62
▁pile	-11.6202
pur	-11.6204
onic	-11.6205
▁bears	-11.6208
▁await	-11.6209
▁bands	-11.6209
cap	-11.6217
▁activists	-11.6219
▁politician	-11.622
ico	-11.6221
▁Report	-11.6223
▁dismiss	-11.6225
▁investor	-11.6227
▁beverage	-11.6234
▁unconscious	-11.6238
▁bonus	-11.6241
▁violin	-11.6243
▁cyber	-11.6245
▁Airbnb	-11.6245
▁Buddhist	-11.6245
▁Jewish	-11.6245
▁cocktail	-11.6245
▁eternal	-11.6245
▁incredible	-11.6245
▁noteworthy	-11.6245
▁mandatory	-11.6245
▁unstable	-11.6245
▁kingdom	-11.6245
▁quake	-11.6245
▁Nepal	-11.6245
▁cliff	-11.6245
▁clue	-11.6245
▁criteria	-11.6246
▁grape	-11.6246
▁assistance	-11.6246
▁revision	-11.6246
▁livestock	-11.6246
▁moist	-11.6247
▁Order	-11.6248
▁backpack	-11.625
▁coverage	-11.6251
▁Users	-11.6253
▁prisoners	-11.6254
▁desperately	-11.6256
watch	-11.6264
food	-11.6265
▁Key	-11.6267
▁Forest	-11.6268
▁Residents	-11.627
hoe	-11.6271
▁protecting	-11.6273
▁attacker	-11.6273
Our	-11.6279
atch	-11.6281
▁Lin	-11.6285
▁kg	-11.6285
hon	-11.6286
▁Jinju	-11.6301
ians	-11.6307
pass	-11.6314
▁hosting	-11.6317
▁vitamins	-11.632
▁booths	-11.6327
▁Pl	-11.6328
piled	-11.6331
▁failing	-11.6331
▁prayed	-11.6332
▁sung	-11.6333
▁Choo	-11.6342
town	-11.6348
▁websites	-11.6353
▁specialist	-11.6359
▁Ly	-11.6361
▁updates	-11.6364
▁diplomat	-11.6364
▁Change	-11.6364
▁Sim	-11.6365
▁distinguish	-11.637
▁viewing	-11.6372
uro	-11.6378
▁rumor	-11.6379
▁pill	-11.6395
▁ingredient	-11.6396
▁faithful	-11.6397
▁textbook	-11.6397
▁Write	-11.64
▁eliminate	-11.6402
▁calculate	-11.6402
▁traded	-11.6403
bli	-11.6409
▁decorate	-11.6409
▁agricultur	-11.6409
»	-11.6417
▁Jamsil	-11.6417
▁Journal	-11.6417
▁Peninsula	-11.6417
▁Suddenly	-11.6417
▁System	-11.6417
▁TOEIC	-11.6417
▁ambulance	-11.6417
▁barbecue	-11.6417
▁liberal	-11.6417
▁qualification	-11.6417
▁revenge	-11.6417
▁ritual	-11.6417
▁syrup	-11.6417
▁tropical	-11.6417
▁vacuum	-11.6417
▁jelly	-11.6417
▁refrigerator	-11.6417
▁spell	-11.6417
▁Davis	-11.6417
▁Basically	-11.6417
▁Morning	-11.6418
▁mainstream	-11.6418
▁expertise	-11.6418
▁calories	-11.6418
▁IoT	-11.6418
▁speculation	-11.6419
▁sympathize	-11.6419
▁Yongsan	-11.642
▁fog	-11.642
▁Zone	-11.642
▁Lady	-11.642
▁amazed	-11.6421
▁Snow	-11.6421
▁diagnosed	-11.6422
direct	-11.6422
▁Nobel	-11.6423
▁invented	-11.6423
▁seekers	-11.6424
▁Lisa	-11.643
▁hotter	-11.6431
▁focuse	-11.6434
▁anticipated	-11.6437
NC	-11.6439
▁formation	-11.644
▁hitter	-11.644
▁smallest	-11.644
▁freeze	-11.644
ST	-11.644
▁dare	-11.6442
▁taller	-11.6445
▁leaked	-11.6446
▁Yeosu	-11.6447
Le	-11.6452
▁violate	-11.646
▁streaming	-11.6464
▁remov	-11.6465
▁scope	-11.6467
wise	-11.6469
▁aiming	-11.647
▁lifting	-11.6477
▁vi	-11.6477
▁subtitles	-11.6482
very	-11.6486
▁lighting	-11.6489
▁united	-11.6498
▁seventh	-11.6499
▁coating	-11.6505
▁blowing	-11.6506
rn	-11.6509
▁investing	-11.6511
nny	-11.6513
RI	-11.6529
▁urge	-11.653
▁instructions	-11.6534
▁responding	-11.6539
▁roots	-11.6541
RM	-11.6543
▁da	-11.6545
▁shout	-11.6549
▁gene	-11.6554
Po	-11.6563
nie	-11.6564
▁evenly	-11.6565
arch	-11.6567
▁infants	-11.6569
▁discounted	-11.657
▁soda	-11.6572
▁barrier	-11.6574
▁prosecutor	-11.6574
▁analyst	-11.6574
▁steam	-11.6578
misunderstanding	-11.6581
▁outlets	-11.6583
▁vivid	-11.6585
ister	-11.6587
▁teenage	-11.6588
▁packs	-11.6588
body	-11.659
▁Mari	-11.6591
▁humor	-11.6592
▁rail	-11.6592
▁expresse	-11.6592
▁Belgian	-11.6593
▁Bhutto	-11.6593
▁Chicken	-11.6593
▁JTBC	-11.6593
▁Netherlands	-11.6593
▁Vancouver	-11.6593
▁applause	-11.6593
▁bulgogi	-11.6593
▁calendar	-11.6593
▁caution	-11.6593
▁enemies	-11.6593
▁gambling	-11.6593
▁iTunes	-11.6593
▁nursing	-11.6593
▁orchestra	-11.6593
▁Domestic	-11.6593
▁jazz	-11.6593
▁reception	-11.6593
▁FBI	-11.6593
▁medication	-11.6593
▁drill	-11.6593
▁Heroes	-11.6593
▁honeymoon	-11.6593
▁guidance	-11.6593
▁squid	-11.6593
▁Giants	-11.6593
▁underwear	-11.6595
▁layout	-11.6595
▁cheapest	-11.6596
▁distributor	-11.6597
wo	-11.6598
▁healthier	-11.6599
▁Chile	-11.6599
ao	-11.6599
▁executed	-11.6599
▁noticeable	-11.66
▁outbreak	-11.66
east	-11.66
▁darkness	-11.6601
▁vowed	-11.6602
▁beforehand	-11.6602
▁Judge	-11.6603
▁engaged	-11.6606
▁Canadians	-11.6607
▁surprisingly	-11.6607
▁sooner	-11.6607
▁baked	-11.6608
▁operates	-11.6608
▁banking	-11.661
▁reset	-11.661
▁acceptable	-11.661
erman	-11.6616
▁tasted	-11.6617
▁notable	-11.6618
▁bacteria	-11.6619
Love	-11.6619
print	-11.6624
Ju	-11.6625
▁struggled	-11.6626
▁procedures	-11.6628
gye	-11.6628
nan	-11.6629
▁tender	-11.663
God	-11.6633
▁drops	-11.6634
▁trim	-11.6642
match	-11.6652
ira	-11.6664
▁Tech	-11.6672
dded	-11.6672
yi	-11.6676
▁formula	-11.6677
▁monitoring	-11.6682
▁accordingly	-11.6688
▁Gil	-11.6688
▁tens	-11.6689
▁jokes	-11.6691
PGA	-11.6692
▁outline	-11.6698
▁butter	-11.6706
▁balls	-11.6719
itch	-11.6728
▁warmth	-11.6729
▁provider	-11.6735
▁bless	-11.6735
▁relative	-11.6749
▁interrupt	-11.6755
▁conclude	-11.6756
▁crossing	-11.6756
▁remark	-11.6757
ole	-11.6757
▁refugee	-11.6758
▁lowered	-11.6758
LL	-11.6762
▁lively	-11.6766
▁hadn	-11.6767
▁starter	-11.6768
▁bullet	-11.6768
ivity	-11.6769
▁Istanbul	-11.6771
▁Ocean	-11.6771
▁casino	-11.6771
▁feminine	-11.6771
▁inevitably	-11.6771
▁optimistic	-11.6771
▁snake	-11.6771
▁suppress	-11.6771
▁testimony	-11.6771
▁tsunami	-11.6771
▁universal	-11.6771
▁voucher	-11.6771
▁hanbok	-11.6771
▁burdensome	-11.6771
▁mosque	-11.6771
▁tongue	-11.6771
▁sculpture	-11.6771
▁Jeollanam	-11.6771
▁bucket	-11.6772
▁coexist	-11.6772
▁nutrients	-11.6772
▁foul	-11.6772
▁bailout	-11.6772
▁clay	-11.6772
▁wrapping	-11.6772
▁Bad	-11.6773
▁mill	-11.6773
▁holy	-11.6773
▁Season	-11.6773
▁invention	-11.6773
▁oven	-11.6774
cheol	-11.6774
withstand	-11.6775
▁Law	-11.6777
▁interviewed	-11.6782
▁runway	-11.6782
▁neatly	-11.6784
▁Note	-11.6787
care	-11.6792
▁statements	-11.6793
$	-11.6794
▁trailer	-11.6795
▁shouting	-11.6799
▁witnessed	-11.6803
▁rewarded	-11.6803
▁fighter	-11.6804
▁avoiding	-11.6807
▁CA	-11.6814
days	-11.6821
▁Qaeda	-11.6823
▁hunting	-11.6824
▁adjusted	-11.6825
harm	-11.683
▁Kenya	-11.6832
ora	-11.6839
▁indicated	-11.6845
even	-11.6858
▁exercises	-11.6862
▁Sales	-11.6865
▁Er	-11.687
vol	-11.6875
posed	-11.6877
plan	-11.6878
▁Sul	-11.6899
▁plates	-11.6901
▁pressed	-11.6907
NG	-11.6908
▁insult	-11.691
ena	-11.6914
▁GS	-11.6922
▁PA	-11.6926
era	-11.693
▁involve	-11.6937
▁roast	-11.6937
▁instrument	-11.694
horn	-11.6944
ette	-11.6945
▁absolute	-11.6945
▁cookie	-11.6946
▁networking	-11.6948
▁civilian	-11.6949
▁sustain	-11.6951
▁immun	-11.6952
▁Express	-11.6953
▁Elizabeth	-11.6953
▁Pentagon	-11.6953
▁Summit	-11.6953
▁UEFA	-11.6953
▁accommodate	-11.6953
▁definition	-11.6953
▁envoy	-11.6953
▁institute	-11.6953
▁misunderstood	-11.6953
▁neutral	-11.6953
▁patrol	-11.6953
▁prescription	-11.6953
▁spouse	-11.6953
▁charisma	-11.6953
▁welcoming	-11.6953
▁Tesla	-11.6953
▁FedEx	-11.6953
▁nails	-11.6953
▁rubber	-11.6953
▁Nations	-11.6953
▁acne	-11.6953
hak	-11.6954
▁dough	-11.6954
▁notebook	-11.6954
▁involvement	-11.6954
ehind	-11.6955
▁batting	-11.6955
▁drum	-11.6955
▁injection	-11.6957
▁Nice	-11.6959
▁editor	-11.6959
▁teens	-11.6959
▁shaken	-11.6961
▁Stay	-11.6962
▁findings	-11.6967
▁businessmen	-11.6969
▁locations	-11.697
▁presenting	-11.6971
▁Online	-11.6971
▁trials	-11.6972
▁poly	-11.6975
dia	-11.6979
catching	-11.6986
ONE	-11.6991
▁genes	-11.6995
▁titles	-11.6996
▁sew	-11.6997
▁nuts	-11.6999
▁Bel	-11.7
stan	-11.7005
▁mate	-11.7006
▁bake	-11.7007
▁compromise	-11.7008
seon	-11.7009
▁Personal	-11.7013
▁donations	-11.7017
sports	-11.7021
ologist	-11.7034
▁publish	-11.7039
▁rode	-11.704
▁troubles	-11.704
▁strive	-11.7048
▁temperatures	-11.7054
zer	-11.7055
cru	-11.7059
▁feared	-11.7062
rated	-11.7065
▁Boo	-11.7066
AL	-11.7073
▁Bro	-11.7073
iko	-11.7075
▁Brad	-11.7078
var	-11.708
▁yards	-11.7086
▁resulted	-11.709
▁horses	-11.7093
▁BL	-11.7095
▁Dai	-11.7098
DP	-11.7099
▁surveyed	-11.7101
AT	-11.7104
ike	-11.7111
▁HD	-11.7112
▁lotion	-11.7116
▁knock	-11.7122
▁flock	-11.7122
ttle	-11.7125
▁strikes	-11.7125
▁explor	-11.7127
▁danced	-11.7128
▁iced	-11.7128
▁acquaintance	-11.7129
▁euro	-11.7132
▁manufacturer	-11.7133
▁automatic	-11.7138
▁Companies	-11.7138
▁McDonald	-11.7138
▁Michigan	-11.7138
▁ceiling	-11.7138
▁description	-11.7138
▁escalator	-11.7138
▁pharmacy	-11.7138
▁pioneer	-11.7138
▁sophisticated	-11.7138
▁substitute	-11.7138
▁unnecessary	-11.7138
▁voluntarily	-11.7138
▁cherish	-11.7138
▁enroll	-11.7138
▁charity	-11.7138
▁Dal	-11.7138
▁Brian	-11.7138
▁ancestors	-11.7138
▁compact	-11.7138
▁provision	-11.7139
▁wifi	-11.7139
▁chase	-11.7139
▁resistance	-11.7139
▁elsewhere	-11.7139
▁flagship	-11.7139
dium	-11.7139
▁Story	-11.7139
▁customized	-11.714
▁remarkable	-11.714
▁fries	-11.714
▁sustainable	-11.714
▁gay	-11.7141
▁composer	-11.7142
▁decoration	-11.7142
▁Brand	-11.7142
▁teamwork	-11.7146
▁Yuna	-11.7153
▁Opera	-11.7155
▁floating	-11.7157
▁autonomous	-11.7158
▁Artist	-11.7159
▁specialty	-11.7159
▁Palestinians	-11.7161
▁Pet	-11.7161
lev	-11.7165
▁editing	-11.717
fried	-11.7175
▁pitching	-11.7177
▁dial	-11.718
▁intern	-11.718
▁warn	-11.7181
▁Wood	-11.7182
▁competed	-11.719
▁designing	-11.719
▁Rich	-11.719
▁battles	-11.7195
▁Net	-11.72
▁Part	-11.7201
▁Ui	-11.7202
Con	-11.7204
▁Geun	-11.7216
rab	-11.7218
▁oily	-11.7219
▁Americano	-11.7228
▁challenged	-11.7231
▁Sh	-11.7232
▁speakers	-11.7236
▁Yeo	-11.7241
iff	-11.7259
LA	-11.7262
▁owe	-11.7267
bum	-11.727
▁Á	-11.7285
▁creators	-11.7287
Lee	-11.7293
▁resist	-11.7298
▁cough	-11.7299
OO	-11.7302
▁exclude	-11.7311
▁declare	-11.7311
▁Win	-11.7315
▁resulting	-11.732
▁component	-11.7322
▁symptom	-11.7323
▁loyal	-11.7326
▁Francis	-11.7326
▁leaf	-11.7327
▁Buddha	-11.7327
▁Hilton	-11.7327
▁TWICE	-11.7327
▁garlic	-11.7327
▁obesity	-11.7327
▁spoil	-11.7327
▁suspension	-11.7327
¦	-11.7327
▁Juventus	-11.7327
▁Support	-11.7327
▁custody	-11.7327
▁execution	-11.7327
▁ignoring	-11.7327
▁leap	-11.7327
▁stylish	-11.7327
▁subsidies	-11.7327
▁Congratulations	-11.7327
▁unprecedented	-11.7327
▁denies	-11.7327
▁pillow	-11.7327
▁ferry	-11.7327
▁Shiite	-11.7327
▁Saint	-11.7327
▁Program	-11.7327
▁Bucheon	-11.7328
▁Navy	-11.7328
▁Seongnam	-11.7328
▁legendary	-11.7328
▁guesthouse	-11.7328
▁skincare	-11.7328
▁invit	-11.7329
▁nest	-11.733
▁missionary	-11.7331
▁stepping	-11.7331
▁Color	-11.7334
▁sake	-11.7334
▁evacuated	-11.7336
▁innings	-11.7338
▁pursuing	-11.7344
▁consumed	-11.7346
▁farmer	-11.7351
ading	-11.7352
▁severely	-11.7359
▁county	-11.736
▁Gran	-11.7365
Why	-11.7368
second	-11.7368
Park	-11.7368
pli	-11.7371
▁speeding	-11.7373
▁guaranteed	-11.7377
▁flooding	-11.7377
▁cram	-11.7382
▁kicked	-11.739
▁processes	-11.7394
rench	-11.7395
▁Roll	-11.7399
▁Burma	-11.7399
▁diplomatic	-11.7399
▁debuted	-11.7401
▁bothering	-11.7401
▁retailers	-11.7405
ban	-11.7408
park	-11.7432
▁collecting	-11.7434
▁pine	-11.7435
igat	-11.7436
▁resting	-11.7441
aking	-11.7441
▁graduates	-11.7458
▁sellers	-11.7458
ranging	-11.7459
▁correction	-11.746
▁avoided	-11.7462
▁praying	-11.7493
▁fa	-11.7494
FA	-11.7494
ela	-11.7502
▁tweet	-11.7503
uz	-11.7508
▁Jon	-11.7508
▁reactions	-11.7511
▁responses	-11.7513
election	-11.7514
▁uncertain	-11.7519
▁athlete	-11.7519
▁Mount	-11.7519
▁Capital	-11.7519
▁Houston	-11.7519
▁Jerusalem	-11.7519
▁Record	-11.7519
▁Scientists	-11.7519
▁Swedish	-11.7519
▁Taylor	-11.7519
▁Temple	-11.7519
▁calculation	-11.7519
▁confusing	-11.7519
▁default	-11.7519
▁encouraging	-11.7519
▁marathon	-11.7519
▁miserable	-11.7519
▁mushroom	-11.7519
▁occupied	-11.7519
▁prettier	-11.7519
▁recycling	-11.7519
▁shrine	-11.7519
▁vague	-11.7519
▁Alaska	-11.7519
▁Ethereum	-11.7519
▁intact	-11.7519
▁polish	-11.7519
▁Iceland	-11.7519
▁jury	-11.7519
▁riot	-11.7519
▁glue	-11.7519
▁blew	-11.7519
▁brew	-11.7519
▁Overall	-11.752
▁keyword	-11.752
▁cabinet	-11.752
▁hook	-11.752
▁Living	-11.752
▁Ireland	-11.752
▁detective	-11.752
▁Ilbo	-11.7521
▁Election	-11.7521
▁Fuji	-11.7521
▁Network	-11.7521
▁recruitment	-11.7521
▁Potter	-11.7521
▁grip	-11.7522
▁insist	-11.7522
▁cabin	-11.7523
▁teenager	-11.7523
▁SS	-11.7524
▁insight	-11.7526
▁chewy	-11.7528
▁pronounce	-11.7528
GA	-11.7531
▁heroes	-11.7532
▁Nine	-11.7533
▁thrilling	-11.7538
▁defended	-11.7539
▁bombs	-11.7539
▁believers	-11.7539
card	-11.7542
▁generated	-11.7544
▁Choos	-11.755
▁divorced	-11.7551
▁covering	-11.7554
▁dual	-11.7554
▁Test	-11.7555
hn	-11.756
Á	-11.7562
famous	-11.7564
winning	-11.7565
▁Master	-11.7566
sharing	-11.7566
▁worsen	-11.7579
▁matching	-11.7582
▁fold	-11.7585
▁desserts	-11.7588
Oh	-11.7588
▁requesting	-11.7589
▁expir	-11.7592
▁Few	-11.7594
▁watches	-11.76
stop	-11.7602
▁relaxing	-11.7604
▁combat	-11.7608
▁fist	-11.7608
bell	-11.7608
▁trainees	-11.7611
aving	-11.7621
▁lap	-11.7625
▁painter	-11.7631
▁listing	-11.7633
ional	-11.764
▁performers	-11.7651
▁conversations	-11.7652
ically	-11.7654
tone	-11.7658
▁widen	-11.7666
▁Republicans	-11.7667
gate	-11.7673
▁End	-11.7685
OD	-11.7688
▁Citizens	-11.7689
Now	-11.769
▁boasts	-11.7691
▁advertise	-11.7698
▁texts	-11.7701
Ê	-11.7715
▁Argentine	-11.7715
▁College	-11.7715
▁Liberty	-11.7715
▁Okinawa	-11.7715
▁Pororo	-11.7715
▁Probably	-11.7715
▁Vitamin	-11.7715
▁chemistry	-11.7715
▁envelope	-11.7715
▁pregnancy	-11.7715
▁subsidiary	-11.7715
▁summarize	-11.7715
▁swollen	-11.7715
▁synergy	-11.7715
▁trauma	-11.7715
▁unhappy	-11.7715
▁yacht	-11.7715
▁genius	-11.7715
▁infinite	-11.7715
▁mechanism	-11.7715
▁motive	-11.7715
▁nominated	-11.7715
▁mileage	-11.7715
▁Andrew	-11.7715
▁frequency	-11.7715
▁Gyeongsang	-11.7715
▁Command	-11.7715
▁limitations	-11.7715
▁roommate	-11.7715
▁coalition	-11.7715
▁spotted	-11.7716
▁Jerry	-11.7716
▁carved	-11.7716
▁amendment	-11.7716
▁Powell	-11.7716
▁preview	-11.7716
▁Nancy	-11.7716
▁sneakers	-11.7717
▁grasp	-11.7717
▁bubble	-11.7717
▁hottest	-11.7717
▁strain	-11.7718
▁Model	-11.7718
▁OST	-11.7718
▁measurement	-11.7719
▁deliberately	-11.772
▁prevented	-11.772
▁ultimately	-11.7722
▁convinced	-11.7723
▁Palin	-11.7724
game	-11.7724
▁greedy	-11.7724
▁profitable	-11.7724
▁Sign	-11.7724
▁acquaintances	-11.7725
▁constructed	-11.7725
▁weakened	-11.7726
▁outgoing	-11.7727
▁obviously	-11.7729
▁grabbe	-11.773
▁restricted	-11.7731
▁affiliate	-11.7734
▁wandering	-11.7738
▁curl	-11.7738
▁Indians	-11.7738
▁loudly	-11.7742
▁contributed	-11.7742
proving	-11.7744
▁prediction	-11.7744
▁dragon	-11.7746
▁symbolize	-11.7746
▁intentions	-11.7746
▁Peru	-11.7747
ogue	-11.7749
▁rep	-11.775
▁Uni	-11.7752
▁waiter	-11.7752
FT	-11.7753
▁qualified	-11.7763
wide	-11.7766
)."	-11.7766
Bo	-11.7766
Even	-11.7767
▁abused	-11.7771
▁carriers	-11.7772
rely	-11.7773
▁measured	-11.7774
▁emissions	-11.7777
iest	-11.7782
cost	-11.7789
▁Mass	-11.779
rc	-11.7793
ask	-11.7794
▁classmates	-11.7797
▁Spa	-11.7797
erson	-11.7799
pack	-11.7799
▁pulling	-11.7802
erial	-11.7805
Mi	-11.7809
▁Andy	-11.7811
▁Ren	-11.7819
▁Serbia	-11.7827
▁Fine	-11.7838
core	-11.7843
▁aboard	-11.7844
▁bean	-11.7846
▁Wol	-11.7848
▁guided	-11.7849
real	-11.785
▁functional	-11.7859
▁containers	-11.7863
▁Arts	-11.7871
▁fr	-11.7875
Go	-11.7875
org	-11.7876
▁inspect	-11.7884
▁Case	-11.7886
pul	-11.7888
▁forming	-11.7889
▁info	-11.7893
▁restrict	-11.7897
▁arguments	-11.7908
nation	-11.791
▁acknowledge	-11.7911
▁latte	-11.7912
▁basket	-11.7915
▁Arsenal	-11.7915
▁DMZ	-11.7915
▁Graham	-11.7915
▁Haeundae	-11.7915
▁Toyota	-11.7915
▁astronaut	-11.7915
▁certified	-11.7915
▁chopsticks	-11.7915
▁puzzle	-11.7915
▁rainbow	-11.7915
▁sausage	-11.7915
▁sketch	-11.7915
▁taekwondo	-11.7915
▁twelve	-11.7915
▁clerk	-11.7915
▁drain	-11.7915
▁gasoline	-11.7915
▁blade	-11.7915
▁Place	-11.7916
▁Carlos	-11.7916
▁font	-11.7916
▁varies	-11.7916
▁Moses	-11.7916
▁confrontation	-11.7916
▁tendency	-11.7916
▁Cafe	-11.7917
▁defective	-11.7917
▁haircut	-11.7917
▁existed	-11.7917
▁tele	-11.7918
▁Tree	-11.7918
▁Chosun	-11.7918
▁Guard	-11.7918
▁serial	-11.7918
▁Namsan	-11.7919
▁Liga	-11.7919
▁KTX	-11.792
▁Enter	-11.7921
▁YG	-11.7922
▁nowhere	-11.7922
▁precisely	-11.7922
▁Price	-11.7922
▁Rod	-11.7923
▁applauded	-11.7925
gyu	-11.7925
▁Gyeong	-11.7926
▁stopping	-11.7926
digit	-11.7929
▁allegedly	-11.793
▁wealthy	-11.7932
▁warnings	-11.7935
▁accus	-11.7938
▁Mobile	-11.7939
▁rust	-11.794
▁textbooks	-11.7941
ifying	-11.7947
▁Mini	-11.7948
▁Dear	-11.795
,“	-11.7951
▁graphic	-11.7952
▁Excel	-11.7953
SE	-11.7954
party	-11.7954
▁apples	-11.7956
▁receipts	-11.7958
▁Eye	-11.796
▁sleeve	-11.7964
▁Fred	-11.7965
With	-11.7968
New	-11.797
income	-11.7971
▁protested	-11.7972
eur	-11.7975
FI	-11.7975
▁spec	-11.7983
▁rings	-11.7985
oid	-11.7989
▁answering	-11.799
▁matched	-11.799
▁unite	-11.799
▁rolls	-11.8003
▁Players	-11.8012
▁rocks	-11.8024
Jo	-11.8028
▁broadcasted	-11.8032
▁flowing	-11.8038
graphic	-11.8043
▁charger	-11.8044
▁monks	-11.8047
▁corrected	-11.8052
▁fed	-11.8053
▁workout	-11.8062
via	-11.8066
store	-11.8074
▁Doo	-11.8078
Tra	-11.8088
vy	-11.8097
▁congratulate	-11.8098
▁logical	-11.8098
▁crowds	-11.81
▁betray	-11.8104
▁criminals	-11.8106
bur	-11.811
only	-11.8112
▁Cre	-11.8117
▁insert	-11.8117
▁interfere	-11.8119
▁Abraham	-11.8119
▁Cristiano	-11.8119
▁Football	-11.8119
▁Manhattan	-11.8119
▁Studies	-11.8119
▁Taipei	-11.8119
▁Thousand	-11.8119
▁addiction	-11.8119
▁appetite	-11.8119
▁capabilities	-11.8119
▁comprehensive	-11.8119
▁occupation	-11.8119
▁pottery	-11.8119
▁sunglasses	-11.8119
▁virtue	-11.8119
▁gently	-11.8119
▁imitate	-11.8119
▁Jews	-11.8119
▁bracelet	-11.8119
▁comparison	-11.8119
▁entrust	-11.8119
▁COEX	-11.812
▁diesel	-11.812
▁Legend	-11.812
▁suitcase	-11.812
▁squat	-11.812
▁Jeonbuk	-11.812
▁tuna	-11.812
▁discard	-11.812
▁cozy	-11.812
▁obligation	-11.8121
▁Kyoto	-11.8121
▁Paju	-11.8122
▁rash	-11.8122
▁Laos	-11.8123
▁jar	-11.8123
▁Sept	-11.8123
▁chronic	-11.8124
▁echo	-11.8125
▁ballad	-11.8126
▁EMS	-11.8127
nate	-11.8127
▁dispatched	-11.8128
▁Edward	-11.813
▁affair	-11.8131
▁wig	-11.8131
▁eighth	-11.8132
▁Geum	-11.8136
▁probe	-11.8137
▁strictly	-11.8138
▁trap	-11.8146
MS	-11.815
▁McC	-11.8151
▁faulty	-11.8152
▁SE	-11.8152
▁violated	-11.8153
▁melted	-11.8155
▁Lion	-11.8156
▁fighters	-11.8158
▁upward	-11.8159
kyu	-11.8159
▁orbit	-11.816
▁snowing	-11.8163
▁Cy	-11.8165
osis	-11.8165
▁terrorists	-11.8167
▁briefing	-11.8167
▁Simon	-11.8169
▁Thinking	-11.817
▁veterans	-11.817
two	-11.8173
▁coal	-11.8176
world	-11.8176
▁packages	-11.8177
▁snowy	-11.8178
▁dam	-11.8178
▁outlet	-11.8181
urge	-11.8184
ola	-11.8189
▁dim	-11.8195
▁killer	-11.8196
▁disputes	-11.8199
▁Sae	-11.8201
▁ministers	-11.8203
▁Australians	-11.8211
blo	-11.8213
▁backed	-11.8221
oi	-11.8221
ought	-11.8221
▁Ever	-11.8224
▁vain	-11.8225
▁adjusting	-11.8225
▁SD	-11.8231
▁fails	-11.8233
▁renowned	-11.8233
▁installing	-11.8233
rror	-11.8234
zone	-11.8235
▁secrets	-11.8239
▁achiev	-11.8241
▁circles	-11.8253
umble	-11.8254
▁Heart	-11.8258
▁Dar	-11.8264
▁erase	-11.8264
▁ribs	-11.8274
▁Mur	-11.8278
▁hardships	-11.8279
▁flames	-11.8287
▁Mil	-11.8301
▁wing	-11.8303
eup	-11.8304
▁Ron	-11.8307
▁twist	-11.8311
▁demo	-11.8313
▁agents	-11.8317
▁provinc	-11.8317
▁disrupt	-11.8324
bling	-11.8325
▁Already	-11.8328
▁Animal	-11.8328
▁Coffee	-11.8328
▁Colorado	-11.8328
▁Fashion	-11.8328
▁Industrial	-11.8328
▁Nexon	-11.8328
▁courier	-11.8328
▁decreasing	-11.8328
▁desirable	-11.8328
▁flesh	-11.8328
▁invasion	-11.8328
▁pedestrian	-11.8328
▁protocol	-11.8328
▁purifier	-11.8328
▁regulator	-11.8328
▁vaccine	-11.8328
▁retrieve	-11.8328
▁reunion	-11.8328
▁firing	-11.8328
▁Brother	-11.8328
▁ethical	-11.8328
▁harassment	-11.8328
▁induce	-11.8329
▁bitcoin	-11.8329
▁fond	-11.8329
cia	-11.833
▁Marvel	-11.8331
▁sought	-11.8331
▁lent	-11.8332
▁composition	-11.8332
▁offense	-11.8333
▁knees	-11.8333
▁faint	-11.8335
▁Hit	-11.8335
▁realizing	-11.8335
▁condemned	-11.8338
▁mechanical	-11.8339
▁malls	-11.834
▁ATM	-11.834
▁supplier	-11.8342
▁fluently	-11.8343
▁whale	-11.8343
ode	-11.8344
▁Cur	-11.8344
▁considerable	-11.8345
have	-11.8346
▁resigned	-11.8351
▁organizer	-11.8352
▁formally	-11.8353
▁selfie	-11.8355
▁jointly	-11.8367
▁toxic	-11.837
▁graph	-11.8371
talk	-11.8375
friend	-11.8379
weight	-11.8383
zy	-11.8384
▁Classic	-11.8388
After	-11.8389
piece	-11.8389
▁publisher	-11.8391
▁Coin	-11.8392
▁satisfying	-11.8393
part	-11.8402
uma	-11.8403
handed	-11.8419
▁burns	-11.842
▁volunteering	-11.8424
ique	-11.8425
Pro	-11.8425
▁expire	-11.8427
▁aroma	-11.8429
▁dealer	-11.843
▁inhal	-11.8434
▁nerves	-11.844
▁distribute	-11.8455
Northern	-11.8465
▁gel	-11.8467
ography	-11.8472
▁advertisements	-11.8474
▁Dogs	-11.8476
▁provinces	-11.8477
wear	-11.8477
what	-11.8477
▁deserves	-11.8477
▁Tan	-11.848
SB	-11.8481
▁Mall	-11.8503
▁Exp	-11.8504
▁rained	-11.851
size	-11.8511
▁complet	-11.8511
nia	-11.8512
▁mount	-11.8512
▁Class	-11.8519
▁predicts	-11.8523
▁Dun	-11.8526
▁ultimate	-11.8533
xpectations	-11.8539
▁Jeolla	-11.854
▁Abbas	-11.854
▁Detroit	-11.854
▁Generation	-11.854
▁Kennedy	-11.854
▁Resort	-11.854
▁SHINee	-11.854
▁Stephen	-11.854
▁Sweet	-11.854
▁Vienna	-11.854
▁bargain	-11.854
▁diabetes	-11.854
▁extraordinary	-11.854
▁incredibly	-11.854
▁initiative	-11.854
▁observation	-11.854
▁psychological	-11.854
▁reminiscen	-11.854
▁satisfactory	-11.854
▁subsidize	-11.854
▁universe	-11.854
▁unlimited	-11.854
▁unpredictable	-11.854
▁arguing	-11.854
▁problematic	-11.854
▁dominant	-11.854
▁GPS	-11.854
▁distant	-11.854
▁lamb	-11.854
▁choir	-11.8541
▁tasting	-11.8541
▁tiring	-11.8541
▁Concern	-11.8541
▁derive	-11.8541
▁reckless	-11.8541
▁hub	-11.8541
▁mixture	-11.8541
▁database	-11.8542
▁baking	-11.8542
▁Diana	-11.8542
▁balloon	-11.8542
▁Speak	-11.8543
▁Baby	-11.8543
▁choreography	-11.8543
▁timetable	-11.8543
▁thirsty	-11.8544
▁relay	-11.8544
▁adjustment	-11.8545
▁intentionally	-11.8545
▁Eight	-11.8545
▁Chen	-11.8548
▁agriculture	-11.855
▁ballet	-11.8551
▁specification	-11.8551
▁disk	-11.8552
moon	-11.8554
▁manufactured	-11.8554
▁Box	-11.8554
seop	-11.8555
▁backward	-11.8559
▁calculated	-11.856
▁Tiger	-11.8561
▁element	-11.8561
▁Making	-11.8561
▁surfing	-11.8563
▁humanity	-11.8564
▁interpreter	-11.8565
▁highlighted	-11.8568
▁beverages	-11.8572
▁Kha	-11.8573
zel	-11.8575
Su	-11.8578
▁PD	-11.8594
▁tense	-11.86
umb	-11.8601
itation	-11.8606
▁downloaded	-11.8609
▁PR	-11.8609
▁trendy	-11.861
▁Visit	-11.8614
▁conditioner	-11.8614
▁aides	-11.8615
▁Oil	-11.8625
▁notified	-11.8626
just	-11.8628
residential	-11.8633
▁Tsu	-11.8637
▁Mel	-11.864
▁seasonal	-11.8641
▁fo	-11.8646
▁curse	-11.8646
▁doubts	-11.8649
▁spark	-11.865
▁sued	-11.865
▁Feb	-11.8654
▁Bears	-11.8658
▁scholars	-11.8659
▁Bak	-11.8661
▁violat	-11.8667
▁tech	-11.8676
▁Cam	-11.8679
▁suggesting	-11.868
ashi	-11.8683
gak	-11.8688
▁boil	-11.8688
▁tensions	-11.8701
moo	-11.8702
you	-11.8705
▁lacked	-11.8712
▁nicely	-11.8724
▁premiere	-11.8727
▁swear	-11.8733
▁Photo	-11.8736
▁impress	-11.8738
▁pairs	-11.874
▁bomber	-11.874
▁hurting	-11.8741
page	-11.8742
▁revive	-11.8742
▁bent	-11.8742
▁portray	-11.8742
▁diligent	-11.875
▁random	-11.875
▁preserve	-11.8756
ncluding	-11.8758
▁Ambassador	-11.8758
▁Attorney	-11.8758
▁Chrysler	-11.8758
▁Corporation	-11.8758
▁POSCO	-11.8758
▁believing	-11.8758
▁buffet	-11.8758
▁consignee	-11.8758
▁easiest	-11.8758
▁landlord	-11.8758
▁metropolitan	-11.8758
▁possibilities	-11.8758
▁quarrel	-11.8758
▁sightseeing	-11.8758
▁transparent	-11.8758
▁unpleasant	-11.8758
▁Atlanta	-11.8758
▁Bolton	-11.8758
▁Dynasty	-11.8758
▁Kuwait	-11.8758
▁Olmert	-11.8758
▁Windows	-11.8758
▁heritage	-11.8758
▁hinder	-11.8758
▁verification	-11.8758
▁crystal	-11.8758
▁remake	-11.8758
▁AFP	-11.8758
▁righteous	-11.8758
▁UPS	-11.8758
▁whiskey	-11.8758
▁strawberry	-11.8758
▁embarrassing	-11.8758
▁integrated	-11.8758
▁Venice	-11.8758
▁fingerprint	-11.8758
▁frog	-11.8758
▁hacking	-11.8758
▁farewell	-11.8758
▁purse	-11.8758
▁Wilson	-11.8758
▁Battle	-11.8758
▁kitten	-11.8758
▁soared	-11.8759
▁kilograms	-11.8759
▁Nadal	-11.8759
Knowing	-11.8759
▁accessible	-11.876
▁underground	-11.876
▁scarf	-11.8761
▁Wow	-11.8761
▁tenant	-11.8765
▁acquire	-11.8766
▁democratic	-11.8766
▁drunken	-11.8767
▁messy	-11.8769
▁boast	-11.8769
▁Luna	-11.8769
▁therefore	-11.8771
▁preach	-11.8771
▁silently	-11.8773
▁dig	-11.8773
▁Yongin	-11.8777
President	-11.8778
▁Sanders	-11.8779
▁violation	-11.8783
▁Ram	-11.8785
▁touches	-11.8789
▁Kingdom	-11.879
▁publishing	-11.8791
▁conveniently	-11.8791
UN	-11.8792
aki	-11.8796
▁advisor	-11.8798
▁compatible	-11.88
▁grandma	-11.8807
▁rub	-11.8808
▁successor	-11.8814
▁Read	-11.882
ground	-11.8822
KO	-11.8825
season	-11.8827
▁Roy	-11.8827
▁unity	-11.8828
good	-11.8828
▁exported	-11.8829
hood	-11.8836
▁lawn	-11.8837
pse	-11.884
▁educated	-11.8848
▁researcher	-11.8853
▁holder	-11.886
▁dated	-11.8861
▁juniors	-11.8861
▁recipes	-11.8861
pie	-11.8864
▁costumes	-11.8865
▁broadcasters	-11.8869
▁Hal	-11.8873
▁prayers	-11.8875
CR	-11.8877
▁Consumers	-11.8888
▁Sri	-11.8888
▁Arm	-11.8894
▁cop	-11.8897
bio	-11.891
Ang	-11.891
▁theft	-11.8919
▁socially	-11.892
▁preventing	-11.8923
▁regards	-11.8929
▁tv	-11.8932
▁Chart	-11.894
▁DC	-11.8943
AV	-11.8943
▁chefs	-11.8944
▁meter	-11.8944
▁corporations	-11.8951
▁renew	-11.8961
▁exhaust	-11.8964
▁demonstrate	-11.8964
On	-11.8973
▁Yemen	-11.8974
▁govern	-11.8977
▁Castle	-11.898
▁Grammy	-11.898
▁Griffin	-11.898
▁Happiness	-11.898
▁KOSDAQ	-11.898
▁Melbourne	-11.898
▁Participants	-11.898
▁Simpson	-11.898
▁cabbage	-11.898
▁curtain	-11.898
▁diagnosis	-11.898
▁endeavor	-11.898
▁exotic	-11.898
▁hormone	-11.898
▁monetary	-11.898
▁portfolio	-11.898
▁tragic	-11.898
▁yogurt	-11.898
▁Clean	-11.898
▁RBI	-11.898
▁earrings	-11.898
▁applies	-11.898
▁brutal	-11.898
▁racism	-11.898
▁vertical	-11.898
▁automobile	-11.898
▁Munich	-11.898
▁fandom	-11.898
▁Hangeul	-11.898
▁Paypal	-11.898
▁radical	-11.898
▁MOU	-11.898
▁Safety	-11.898
▁internship	-11.898
▁organizing	-11.898
▁Cinema	-11.8981
▁True	-11.8981
▁carrot	-11.8981
▁breakthrough	-11.8981
▁railway	-11.8981
▁wholesale	-11.8981
▁landmark	-11.8981
▁completion	-11.8981
▁simultaneously	-11.8982
▁pirate	-11.8982
▁dining	-11.8982
▁Pitt	-11.8983
▁keyboard	-11.8984
▁unification	-11.8984
▁tomatoes	-11.8985
▁stabbed	-11.8986
▁Marc	-11.8986
▁productivity	-11.8987
▁witnesses	-11.8988
▁tune	-11.8989
▁sole	-11.8994
▁Bring	-11.8997
ison	-11.8999
▁newborn	-11.8999
▁rever	-11.9002
SH	-11.9003
▁wisely	-11.9003
▁objection	-11.9006
▁coup	-11.9007
▁criticiz	-11.9008
utter	-11.9009
▁corporation	-11.901
▁infant	-11.9011
minded	-11.9011
▁Howard	-11.9012
▁mist	-11.9012
▁checkup	-11.9014
▁symbolic	-11.9014
▁healed	-11.9014
▁stealing	-11.9017
▁mango	-11.9017
▁defending	-11.9019
▁Radio	-11.902
▁Mira	-11.9021
▁characterize	-11.9022
▁dropping	-11.9023
▁Luc	-11.9024
▁pastors	-11.9025
scribe	-11.9044
▁brightly	-11.9045
▁complaining	-11.9045
GO	-11.9046
▁sw	-11.9046
bul	-11.9047
host	-11.9049
▁None	-11.905
▁prey	-11.9052
length	-11.9055
people	-11.9056
▁deck	-11.9064
▁LO	-11.9067
phi	-11.907
▁blogs	-11.9071
mination	-11.9071
▁entrepreneurs	-11.908
▁guidelines	-11.9082
rant	-11.9083
▁Gene	-11.9087
hab	-11.9093
▁poorly	-11.9094
▁posters	-11.9097
▁slaves	-11.9104
▁Hand	-11.9113
▁suggestions	-11.9114
▁Shop	-11.9116
lib	-11.912
▁sigh	-11.9121
media	-11.913
held	-11.9145
▁Cuba	-11.9145
▁DB	-11.9146
▁utiliz	-11.9156
kind	-11.9165
Man	-11.9168
▁slowing	-11.9169
▁signals	-11.9171
▁poems	-11.9172
▁wasted	-11.9174
nge	-11.9176
zza	-11.9177
▁Follow	-11.918
▁Zi	-11.9184
▁Feel	-11.9186
▁earning	-11.9187
▁Way	-11.9189
▁outer	-11.9193
▁coupons	-11.9193
▁apparent	-11.92
▁graphics	-11.9203
workers	-11.9205
▁Critics	-11.9207
▁Cruise	-11.9207
▁Hongkong	-11.9207
▁Luckily	-11.9207
▁Mourinho	-11.9207
▁conviction	-11.9207
▁curriculum	-11.9207
▁cushion	-11.9207
▁extinguish	-11.9207
▁flexibility	-11.9207
▁octopus	-11.9207
▁portrait	-11.9207
▁qualify	-11.9207
▁reluctant	-11.9207
▁spectacular	-11.9207
▁splendid	-11.9207
▁striking	-11.9207
▁Heavy	-11.9207
▁seaweed	-11.9207
▁sweep	-11.9207
▁unchanged	-11.9207
▁ambition	-11.9207
▁intelligent	-11.9207
▁Jacob	-11.9207
▁regrettable	-11.9207
▁Emma	-11.9207
▁implie	-11.9207
▁stereotype	-11.9207
▁shiny	-11.9208
▁junk	-11.9208
▁masterpiece	-11.9208
▁fridge	-11.9208
▁Forbes	-11.9208
▁shutdown	-11.9208
▁chasing	-11.9208
▁originated	-11.9209
▁groom	-11.9209
▁arrangement	-11.921
▁dentist	-11.921
▁Jason	-11.9211
ounce	-11.9211
▁annoyed	-11.9212
▁obsessed	-11.9213
▁Bum	-11.9213
▁Deok	-11.9213
▁spite	-11.9214
▁possession	-11.9215
▁facebook	-11.9215
▁randomly	-11.9215
▁Jongno	-11.9216
▁discovery	-11.9219
▁basement	-11.9219
▁insists	-11.9219
▁eagerly	-11.922
▁tokens	-11.922
▁virtually	-11.9223
▁mono	-11.9223
▁cage	-11.9223
▁circuit	-11.9223
▁cord	-11.9224
▁equ	-11.9224
▁valued	-11.9225
▁Apply	-11.9225
▁dealers	-11.9225
▁wished	-11.9226
rave	-11.9229
▁shaped	-11.9232
▁Yellow	-11.9234
▁assumed	-11.9234
▁boiling	-11.9236
▁activate	-11.924
▁restored	-11.9241
▁activist	-11.9243
▁exhibited	-11.9243
▁Philippine	-11.9244
▁Teacher	-11.9245
▁accelerate	-11.9246
▁sc	-11.9246
GE	-11.9251
▁skilled	-11.9257
▁sectors	-11.9257
etic	-11.9259
hold	-11.9264
▁drones	-11.9269
▁windy	-11.927
▁fil	-11.9276
▁rewarding	-11.9276
▁Soul	-11.928
▁Wild	-11.9283
proof	-11.9286
▁tofu	-11.9287
after	-11.9287
*	-11.9287
flight	-11.9292
eul	-11.9294
EE	-11.9299
▁Joong	-11.9301
▁feeding	-11.9304
tail	-11.9311
ough	-11.9314
▁Kar	-11.9315
ichi	-11.9317
▁inland	-11.9318
▁chin	-11.9329
liness	-11.9332
▁Researcher	-11.9334
▁creatures	-11.9339
▁Gam	-11.9347
▁stabilize	-11.9347
▁marking	-11.9349
fit	-11.935
hole	-11.9355
▁diver	-11.9359
yan	-11.9359
Che	-11.9377
▁oppos	-11.938
▁arrow	-11.9387
▁concerning	-11.9395
An	-11.9395
bap	-11.9396
▁vest	-11.9397
sook	-11.9402
ele	-11.9403
▁replac	-11.9406
▁fixing	-11.9407
▁Wear	-11.9412
aga	-11.9414
EV	-11.9416
▁MP	-11.9417
▁Del	-11.9418
▁Meet	-11.9421
Mr	-11.9423
▁assess	-11.9423
▁trigger	-11.9424
▁assign	-11.9425
lov	-11.9428
hyung	-11.9429
▁Minh	-11.9429
▁chill	-11.9436
▁bail	-11.9439
▁slaughter	-11.944
▁Antonio	-11.944
▁Bundesliga	-11.944
▁Civil	-11.944
▁Cleveland	-11.944
▁Contact	-11.944
▁Empire	-11.944
▁Energy	-11.944
▁Nevada	-11.944
▁Vladi	-11.944
▁bikini	-11.944
▁bronze	-11.944
▁brunch	-11.944
▁destiny	-11.944
▁distress	-11.944
▁dubbed	-11.944
▁earliest	-11.944
▁elaborate	-11.944
▁guild	-11.944
▁heatwave	-11.944
▁illustration	-11.944
▁mortgage	-11.944
▁nutritious	-11.944
▁shield	-11.944
▁syndrome	-11.944
▁LCD	-11.944
▁inappropriate	-11.944
▁fiction	-11.944
▁grey	-11.944
▁ribbon	-11.944
▁discomfort	-11.944
▁benchmark	-11.944
▁securities	-11.944
▁torture	-11.944
▁Future	-11.944
▁Chavez	-11.944
▁anchor	-11.944
▁chaos	-11.9441
▁Interest	-11.9441
▁Cheney	-11.9441
ternity	-11.9441
▁foam	-11.9441
▁scout	-11.9441
▁equity	-11.9441
▁slowdown	-11.9441
▁Cheol	-11.9442
▁pillar	-11.9442
▁Lawmaker	-11.9442
▁waterproof	-11.9443
▁Regardless	-11.9443
▁freezing	-11.9444
▁excuses	-11.9446
▁confession	-11.945
▁relate	-11.9452
▁undergo	-11.9455
▁carries	-11.9457
▁conductor	-11.9457
▁folder	-11.9459
come	-11.946
▁sensitivity	-11.9464
▁coaches	-11.9467
▁MD	-11.9471
▁stack	-11.9471
NK	-11.9473
▁ripe	-11.9478
▁tightly	-11.9479
▁departed	-11.9481
▁beard	-11.9486
▁Drama	-11.9487
▁questioning	-11.9489
▁resumed	-11.9489
▁plea	-11.9492
rip	-11.9503
going	-11.9504
▁cope	-11.9508
▁Boss	-11.9515
▁rag	-11.9517
▁lecturer	-11.9519
PL	-11.9522
largest	-11.9526
owner	-11.9526
runner	-11.9528
wife	-11.9529
▁sweating	-11.9541
▁refill	-11.9541
▁insects	-11.9542
breaking	-11.9544
▁beliefs	-11.9549
▁overlook	-11.9551
▁spices	-11.9556
owed	-11.9559
▁Bond	-11.9562
▁layers	-11.9563
▁visitor	-11.9572
▁Kate	-11.9581
mbi	-11.9583
▁Male	-11.9594
hong	-11.9603
▁mids	-11.9604
▁panic	-11.9607
▁Kara	-11.9609
ET	-11.9612
▁sensation	-11.9626
graph	-11.9628
most	-11.9639
▁CP	-11.9639
HR	-11.9641
shot	-11.9642
lder	-11.9648
kov	-11.965
▁wander	-11.965
▁missiles	-11.9655
▁Tigers	-11.9656
fold	-11.9657
▁inspire	-11.9662
▁Edwards	-11.9666
▁coaching	-11.9667
ito	-11.967
▁precise	-11.967
▁thorough	-11.967
▁Bun	-11.9673
open	-11.9673
▁devi	-11.9674
▁jewel	-11.9677
▁subscribe	-11.9678
▁introvert	-11.9678
LOVE	-11.9678
▁Cabinet	-11.9678
▁Gangneung	-11.9678
▁Lebanon	-11.9678
▁Portuguese	-11.9678
▁Previously	-11.9678
▁Ukrainian	-11.9678
▁Velvet	-11.9678
▁bamboo	-11.9678
▁breeze	-11.9678
▁charcoal	-11.9678
▁dolphin	-11.9678
▁emphasis	-11.9678
▁migrant	-11.9678
▁scissors	-11.9678
▁segment	-11.9678
▁Information	-11.9678
▁Kwak	-11.9678
▁ladies	-11.9678
▁tactics	-11.9678
▁Movie	-11.9678
▁buzz	-11.9678
▁verified	-11.9678
▁injuring	-11.9678
▁stove	-11.9678
▁sunscreen	-11.9678
▁hacked	-11.9678
▁crane	-11.9678
▁crackdown	-11.9678
▁intervene	-11.9679
▁Large	-11.9679
▁cooperative	-11.9679
▁Garden	-11.9679
▁Masters	-11.9679
▁Miami	-11.9679
▁tribe	-11.9679
▁Burning	-11.9679
▁elite	-11.9679
▁Maryland	-11.9679
▁gaze	-11.9679
▁poetry	-11.968
▁Roger	-11.968
▁careless	-11.9681
▁dug	-11.9681
▁browser	-11.9683
▁Jinping	-11.9683
▁swap	-11.9683
▁Sunni	-11.9683
▁pointing	-11.9684
▁lenses	-11.9686
▁devoted	-11.9686
▁brick	-11.9687
rrow	-11.9687
▁vividly	-11.9688
▁instruments	-11.9695
▁approaches	-11.9696
Cha	-11.97
▁edited	-11.9702
▁scars	-11.9703
▁preserved	-11.9704
▁Meeting	-11.9706
▁internally	-11.9709
▁Low	-11.9709
▁disclosed	-11.9717
cca	-11.9717
▁worm	-11.9717
▁Gro	-11.9718
▁individually	-11.9721
▁flame	-11.9725
▁relation	-11.9726
▁analog	-11.9726
▁reaches	-11.9726
▁bl	-11.9727
▁characteristic	-11.9728
wheat	-11.9731
▁persist	-11.9732
rid	-11.9737
▁conscious	-11.9742
▁pressing	-11.9744
RT	-11.9746
hara	-11.9747
▁panels	-11.9756
▁rushing	-11.9769
priced	-11.9769
effective	-11.977
Please	-11.977
▁Ari	-11.9773
▁Vol	-11.9773
design	-11.9773
▁staged	-11.9776
zens	-11.9779
▁picky	-11.9783
▁Mid	-11.9789
▁deadly	-11.979
ndi	-11.9795
▁Victoria	-11.9795
▁institution	-11.9797
suming	-11.98
▁entertainers	-11.9808
Na	-11.982
PP	-11.9823
bble	-11.9824
raz	-11.9839
Walk	-11.9847
▁rot	-11.9848
hui	-11.985
▁snowed	-11.9852
▁Az	-11.9856
rak	-11.9871
selling	-11.9873
▁Gov	-11.9878
▁counsel	-11.988
▁flavors	-11.9887
boo	-11.9889
▁accord	-11.9894
aff	-11.9901
▁manufacture	-11.9902
▁whales	-11.9905
▁Skin	-11.9906
▁recycle	-11.9907
pay	-11.9918
▁inject	-11.9919
▁glitter	-11.9922
▁Denmark	-11.9922
▁Particularly	-11.9922
▁Reserve	-11.9922
▁Twice	-11.9922
▁Valencia	-11.9922
▁Yeouido	-11.9922
▁blouse	-11.9922
▁clarify	-11.9922
▁debris	-11.9922
▁drought	-11.9922
▁meticulous	-11.9922
▁pianist	-11.9922
▁prescribed	-11.9922
▁presidency	-11.9922
▁prestigious	-11.9922
▁surviving	-11.9922
▁vaccination	-11.9922
▁Hussein	-11.9922
▁gallon	-11.9922
▁Technology	-11.9922
▁Trust	-11.9922
▁fireworks	-11.9922
undreds	-11.9922
▁Chungcheong	-11.9922
▁ERA	-11.9922
▁Child	-11.9922
▁colonial	-11.9922
▁Kabul	-11.9922
▁Delhi	-11.9922
▁remit	-11.9922
▁pores	-11.9923
▁Walker	-11.9923
▁humorous	-11.9923
▁legislation	-11.9923
▁Norway	-11.9923
▁teammate	-11.9923
▁LTE	-11.9923
▁belongings	-11.9923
▁hallyu	-11.9923
▁Hangul	-11.9924
▁crispy	-11.9924
▁LPGA	-11.9924
▁Hongdae	-11.9925
▁bark	-11.9926
▁Tonight	-11.9926
▁clone	-11.9927
▁ballot	-11.9927
▁pale	-11.9928
▁Bul	-11.9928
▁classified	-11.9929
▁gunman	-11.9929
▁Goryeo	-11.9929
▁electro	-11.9929
▁mindset	-11.993
▁delighted	-11.9931
▁combin	-11.9932
▁photography	-11.9932
▁rays	-11.9933
▁plunged	-11.9935
▁downward	-11.9935
▁Wasn	-11.9936
▁spin	-11.9936
▁interaction	-11.9937
▁plead	-11.9939
▁cheating	-11.9942
enc	-11.9944
▁Hyung	-11.9946
ida	-11.9949
▁specified	-11.9951
▁eel	-11.9956
Benz	-11.9957
Southern	-11.9958
▁depict	-11.9961
▁recruited	-11.9961
▁halt	-11.9962
▁Suk	-11.9962
YO	-11.9966
▁Jet	-11.9969
IP	-11.9971
▁concentrated	-11.9973
▁confidently	-11.9973
▁fusion	-11.9974
▁Democrat	-11.9974
▁brighter	-11.9974
▁creator	-11.9975
▁negatively	-11.9977
▁represented	-11.9978
▁Working	-11.998
▁stretching	-11.9983
ati	-11.9984
▁Bali	-11.9989
zed	-11.9992
▁Save	-11.9992
▁bare	-11.9993
▁lending	-11.9995
rest	-11.9998
▁locker	-12.0007
▁siblings	-12.0009
▁rated	-12.0013
▁Wolf	-12.0014
verse	-12.0019
generation	-12.002
claim	-12.002
profit	-12.002
Japan	-12.002
boyfriend	-12.002
dollar	-12.002
worth	-12.0021
▁disappearing	-12.0021
▁PE	-12.0024
▁Pur	-12.0026
▁Beauty	-12.0027
▁uploading	-12.0029
block	-12.0034
▁slid	-12.0042
FF	-12.0042
sey	-12.0045
▁indicators	-12.0049
TP	-12.0052
▁CL	-12.0054
▁dock	-12.0055
bee	-12.006
▁nav	-12.0063
▁indoors	-12.0068
▁Dragon	-12.007
▁thoughtful	-12.0072
Hi	-12.0077
five	-12.0077
burn	-12.0081
▁BB	-12.0087
worker	-12.0094
▁boots	-12.0098
▁offend	-12.01
▁Dome	-12.0102
▁Bit	-12.0103
▁Mad	-12.0125
▁attribute	-12.0127
▁KC	-12.0132
TM	-12.0135
▁circula	-12.0143
▁tutor	-12.0144
oun	-12.0151
kill	-12.0156
▁Seon	-12.0164
▁convention	-12.0168
▁peach	-12.0169
▁clash	-12.0169
▁vital	-12.0171
etween	-12.0171
▁Sean	-12.0172
▁Candidate	-12.0172
▁Ethiopia	-12.0172
▁Hungary	-12.0172
▁Investors	-12.0172
▁Memorial	-12.0172
▁Neither	-12.0172
▁Orchestra	-12.0172
▁acquisition	-12.0172
▁adequate	-12.0172
▁athletic	-12.0172
▁collaborate	-12.0172
▁crunch	-12.0172
▁determination	-12.0172
▁dioxide	-12.0172
▁discipline	-12.0172
▁endangered	-12.0172
▁erupted	-12.0172
▁monument	-12.0172
▁peanut	-12.0172
▁recipient	-12.0172
▁revoke	-12.0172
▁stubborn	-12.0172
▁upstairs	-12.0172
▁vacancy	-12.0172
▁vacant	-12.0172
▁voluntary	-12.0172
▁Mercedes	-12.0172
▁Rodriguez	-12.0172
▁bibimbap	-12.0172
▁compound	-12.0172
▁dizzy	-12.0172
▁kiln	-12.0172
▁occupy	-12.0172
▁psychology	-12.0172
▁gossip	-12.0172
▁complement	-12.0172
▁isolated	-12.0172
▁easing	-12.0172
▁dragged	-12.0172
▁multicultural	-12.0172
▁accent	-12.0172
¡±	-12.0172
▁headlines	-12.0172
▁Display	-12.0172
▁enrich	-12.0172
▁Sewol	-12.0172
▁wildfire	-12.0172
▁hugging	-12.0173
▁drawer	-12.0173
▁liar	-12.0173
▁humidity	-12.0173
▁regretted	-12.0173
▁Jeonnam	-12.0173
▁soaring	-12.0173
▁accusation	-12.0174
▁savory	-12.0174
▁Contest	-12.0174
▁mineral	-12.0174
▁interpretation	-12.0174
▁unlock	-12.0176
urging	-12.0177
▁dependent	-12.0177
▁fortunately	-12.0178
▁hail	-12.0178
▁manpower	-12.0178
▁Members	-12.0178
▁economically	-12.0179
▁heels	-12.0181
▁mining	-12.0183
▁refined	-12.0184
▁Geo	-12.0184
▁shelf	-12.0185
▁daycare	-12.0185
wha	-12.0186
acute	-12.0188
▁knocked	-12.0194
ema	-12.0195
▁fiercely	-12.0195
▁surged	-12.0197
▁counterpart	-12.0199
▁Much	-12.02
▁Prosecutors	-12.02
▁slot	-12.0204
▁Fourth	-12.0205
▁Tibet	-12.0211
▁pole	-12.0213
▁electronics	-12.0214
▁SW	-12.0215
aro	-12.0216
▁rolled	-12.0223
geun	-12.0225
▁substance	-12.023
▁richer	-12.0231
martial	-12.0235
▁prospects	-12.0235
bla	-12.0237
▁organs	-12.0241
▁Zu	-12.0244
▁Ski	-12.0252
▁upside	-12.0252
▁hardship	-12.026
▁announcer	-12.0264
LP	-12.0268
lac	-12.0271
▁pal	-12.0272
seat	-12.0274
Dragon	-12.0275
bound	-12.0276
Life	-12.0276
smoking	-12.0276
South	-12.0277
speed	-12.028
▁saints	-12.0287
▁earphones	-12.0292
eb	-12.0293
▁attacking	-12.0294
RC	-12.0296
▁slowed	-12.0297
agged	-12.0299
nova	-12.0308
▁backup	-12.0316
love	-12.0317
SM	-12.0326
▁Hor	-12.0336
▁Bull	-12.0339
▁plum	-12.0339
ova	-12.0341
▁Going	-12.0355
▁burnt	-12.0356
▁Mega	-12.0362
▁PS	-12.0363
train	-12.0364
▁Medi	-12.0374
▁Ara	-12.0377
too	-12.0382
hard	-12.039
▁unveil	-12.0412
▁organizers	-12.0412
▁disclose	-12.0413
▁explode	-12.0413
▁inquire	-12.0413
▁reader	-12.0415
▁dirt	-12.0423
▁educate	-12.0425
▁enforce	-12.0427
▁Similar	-12.0428
▁abolish	-12.0428
▁Alexander	-12.0428
▁Autumn	-12.0428
▁Benjamin	-12.0428
▁Digital	-12.0428
▁Jersey	-12.0428
▁Merkel	-12.0428
▁Philadelphia	-12.0428
▁Pittsburgh	-12.0428
▁Polish	-12.0428
▁Ramadan	-12.0428
▁Soviet	-12.0428
▁Typhoon	-12.0428
▁Xinhua	-12.0428
▁adolescent	-12.0428
▁applicable	-12.0428
▁beneficial	-12.0428
▁celebrating	-12.0428
▁exploit	-12.0428
▁fascinating	-12.0428
▁mathematics	-12.0428
▁pavilion	-12.0428
▁principal	-12.0428
▁sacred	-12.0428
▁sashimi	-12.0428
▁stimulus	-12.0428
▁supervisor	-12.0428
▁translating	-12.0428
▁uneasy	-12.0428
▁Eventually	-12.0428
▁ideology	-12.0428
▁Spears	-12.0428
▁civic	-12.0428
▁Modern	-12.0428
▁reinforce	-12.0428
▁stitch	-12.0428
▁mobility	-12.0428
▁restart	-12.0429
▁appreciation	-12.0429
▁Thanksgiving	-12.0429
▁Sharif	-12.0429
▁rooftop	-12.0429
▁interface	-12.0429
▁dramatically	-12.0429
▁Macau	-12.0429
▁minimal	-12.0429
▁Movement	-12.0429
▁Micro	-12.0429
▁hacker	-12.0429
▁sponsorship	-12.0429
▁communist	-12.043
▁olive	-12.043
▁sword	-12.043
▁gunmen	-12.0431
▁foldable	-12.0431
▁Suncheon	-12.0431
▁deaf	-12.0431
▁occurring	-12.0431
▁clashes	-12.0432
▁Drink	-12.0433
▁Tax	-12.0433
▁Carter	-12.0433
▁betting	-12.0434
▁Flight	-12.0435
▁Eui	-12.0436
▁handmade	-12.0437
▁Primera	-12.0437
▁endorse	-12.0438
▁magical	-12.044
▁unfortunately	-12.044
▁thriller	-12.0441
▁Princess	-12.0441
fun	-12.0444
▁misunderstand	-12.0445
▁depicted	-12.0445
bae	-12.0447
▁Face	-12.0447
▁chased	-12.0451
▁withdrawn	-12.0452
▁consequences	-12.0452
▁Hai	-12.0452
▁Jimin	-12.0453
▁converted	-12.0454
amous	-12.0457
▁neglected	-12.0457
▁continent	-12.0459
▁sticky	-12.046
▁modest	-12.0462
▁Ana	-12.0464
lastic	-12.0468
▁dyed	-12.0468
▁Mail	-12.0474
ological	-12.0476
take	-12.0481
▁MI	-12.0485
shima	-12.0489
▁Milk	-12.049
▁gesture	-12.0493
▁militant	-12.0495
▁resource	-12.0497
moto	-12.05
▁departing	-12.0506
▁artworks	-12.0509
▁dozen	-12.0509
▁cows	-12.0517
▁comforted	-12.052
▁politically	-12.0521
rock	-12.0522
AI	-12.0526
▁Noh	-12.0529
▁Fab	-12.053
▁pee	-12.0534
▁Bla	-12.0537
depth	-12.0539
▁weighs	-12.0539
CEO	-12.0543
▁zombies	-12.0546
▁dispose	-12.0549
▁rib	-12.056
omed	-12.056
Ra	-12.0561
▁dumplings	-12.0562
lift	-12.0573
▁highlights	-12.0573
▁casting	-12.0574
▁aliens	-12.0578
▁spam	-12.0581
Al	-12.0585
▁appealing	-12.0587
▁troubled	-12.0591
Han	-12.0593
being	-12.0593
Yes	-12.0593
affe	-12.0602
▁secur	-12.0611
EF	-12.062
MD	-12.0621
chen	-12.0623
▁Gett	-12.064
▁northeast	-12.064
▁geo	-12.0664
▁KB	-12.0668
ula	-12.0669
▁onions	-12.0669
▁suppliers	-12.0673
▁appoint	-12.0674
▁discharge	-12.0676
▁definite	-12.0684
▁guilt	-12.0685
▁EM	-12.0689
▁bubbles	-12.0689
▁Barbara	-12.0691
▁Deputy	-12.0691
▁KEPCO	-12.0691
▁OECD	-12.0691
▁Ordinance	-12.0691
▁Pyeongtaek	-12.0691
▁Scotland	-12.0691
▁Ticket	-12.0691
▁Uzbek	-12.0691
▁adorable	-12.0691
▁allergies	-12.0691
▁blossom	-12.0691
▁clause	-12.0691
▁commuting	-12.0691
▁fountain	-12.0691
▁fragile	-12.0691
▁greasy	-12.0691
▁helmet	-12.0691
▁intervention	-12.0691
▁ninth	-12.0691
▁pancake	-12.0691
▁pyramid	-12.0691
▁reconsider	-12.0691
▁reschedule	-12.0691
▁sprout	-12.0691
▁Cebu	-12.0691
▁enact	-12.0691
▁Death	-12.0692
▁Building	-12.0692
▁Depend	-12.0692
▁Sadly	-12.0692
▁harmonize	-12.0692
▁incurred	-12.0692
▁intellectual	-12.0692
▁cluster	-12.0692
▁Complex	-12.0692
▁horizontal	-12.0692
▁Gyeongju	-12.0692
▁IBM	-12.0692
▁Nikk	-12.0692
▁Michelle	-12.0693
▁pipeline	-12.0693
▁Guardian	-12.0693
▁Round	-12.0693
▁mice	-12.0693
▁dull	-12.0693
▁consultant	-12.0693
▁reopen	-12.0694
▁Born	-12.0694
▁excel	-12.0694
▁Board	-12.0694
▁Nature	-12.0694
▁Prior	-12.0695
▁Shinhan	-12.0697
▁collided	-12.0697
▁EOS	-12.0698
▁navy	-12.0698
▁Christianity	-12.0698
▁solely	-12.0701
▁Dick	-12.0704
▁Speaker	-12.0706
magine	-12.0706
▁offended	-12.0709
raw	-12.0711
▁sparked	-12.0711
▁temper	-12.0713
▁finalized	-12.0714
▁needle	-12.0714
▁Robin	-12.0714
▁Billy	-12.0716
▁steamed	-12.0716
▁Cent	-12.0717
▁surf	-12.0717
▁Join	-12.0717
NY	-12.0719
▁independently	-12.0719
▁Rub	-12.072
▁Kyi	-12.0722
link	-12.0734
iscal	-12.0734
▁Syrian	-12.0737
▁Yan	-12.0746
▁Ann	-12.0758
▁adapted	-12.0759
▁odds	-12.0764
▁businessman	-12.0765
▁netizen	-12.0765
▁investigators	-12.078
arian	-12.0781
far	-12.0785
▁recovering	-12.0792
▁bombings	-12.0802
▁automakers	-12.0802
▁Cit	-12.0804
mission	-12.0809
▁blankets	-12.0818
▁burdened	-12.0818
▁Rev	-12.0821
stick	-12.0829
▁Anti	-12.0832
▁Ace	-12.0834
PC	-12.0835
cked	-12.0836
▁hugge	-12.0836
▁Kyu	-12.0841
DR	-12.0843
▁commemorate	-12.0844
hoo	-12.0846
▁Val	-12.0847
▁hood	-12.0854
▁flaws	-12.0856
fall	-12.0858
bby	-12.0868
▁Huh	-12.0879
▁substances	-12.0899
▁beautifully	-12.091
logy	-12.0923
▁heater	-12.0941
▁dump	-12.0947
▁scold	-12.0947
▁Lions	-12.0952
▁engage	-12.0954
▁affiliates	-12.0959
▁patriot	-12.0961
▁disgust	-12.0962
▁Lanka	-12.0962
▁Lumpur	-12.0962
▁Parliament	-12.0962
▁Phoenix	-12.0962
▁Picture	-12.0962
▁congress	-12.0962
▁cucumber	-12.0962
▁durable	-12.0962
▁fragrance	-12.0962
▁humanitarian	-12.0962
▁inconvenient	-12.0962
▁judging	-12.0962
▁negotiating	-12.0962
▁penalties	-12.0962
▁qualities	-12.0962
▁scheme	-12.0962
▁terribly	-12.0962
▁trivial	-12.0962
▁CGV	-12.0962
▁amusement	-12.0962
▁spider	-12.0962
▁Kumho	-12.0962
▁indicating	-12.0962
▁gaming	-12.0962
▁bullying	-12.0962
▁subtle	-12.0962
▁Securities	-12.0962
▁racist	-12.0962
▁scalp	-12.0962
▁jaw	-12.0962
▁copied	-12.0962
Produce	-12.0962
▁forehead	-12.0962
▁governance	-12.0962
▁Christophe	-12.0963
▁aisle	-12.0963
▁uncertainty	-12.0963
▁racing	-12.0963
▁thigh	-12.0963
▁VAT	-12.0963
▁jungle	-12.0963
▁Exist	-12.0964
▁antique	-12.0965
▁surgeon	-12.0965
▁Half	-12.0965
▁starred	-12.0966
▁mankind	-12.0966
▁competitiveness	-12.0967
▁Costa	-12.0968
▁Block	-12.0969
▁deployed	-12.0971
▁Iowa	-12.0972
▁disappointing	-12.0978
▁devil	-12.0979
▁bunch	-12.098
▁insufficient	-12.0981
consuming	-12.0982
▁Relat	-12.0983
▁curved	-12.099
▁transformed	-12.0992
▁openly	-12.0992
vision	-12.0995
▁beaches	-12.0997
lasting	-12.1001
▁xx	-12.1008
▁slower	-12.1008
▁weaker	-12.101
amp	-12.1015
myung	-12.1016
▁bothered	-12.1025
▁Leo	-12.1027
▁parliamentar	-12.1037
issuing	-12.1037
▁scientist	-12.1043
▁confirming	-12.1052
▁worthy	-12.1052
▁checkout	-12.1057
▁Wor	-12.1063
itz	-12.1069
Can	-12.107
fine	-12.1073
anger	-12.108
▁catcher	-12.1082
▁sparkl	-12.1083
renowned	-12.1086
Good	-12.1088
government	-12.1088
founder	-12.1088
▁southeast	-12.1089
uala	-12.1096
▁SI	-12.1103
track	-12.1107
dental	-12.1111
geum	-12.1111
▁warmly	-12.1117
gue	-12.1124
▁revitalize	-12.113
▁Joy	-12.1131
▁boot	-12.1137
▁verse	-12.1137
kyo	-12.1139
▁Sai	-12.1143
▁lotus	-12.1144
▁dryer	-12.1148
App	-12.1153
▁Person	-12.1157
▁Nak	-12.1157
▁BA	-12.1159
brow	-12.1169
▁gestures	-12.117
ggy	-12.1176
▁hid	-12.1178
▁buck	-12.118
▁Mao	-12.1196
▁scream	-12.1198
hol	-12.1202
ancy	-12.1206
▁violations	-12.1209
▁float	-12.1212
▁distract	-12.1223
▁prohibit	-12.1223
▁bias	-12.1226
verbal	-12.1233
▁Scott	-12.1239
–	-12.124
▁Brisbane	-12.124
▁Hurricane	-12.124
▁Lincoln	-12.124
▁Management	-12.124
▁Mugabe	-12.124
▁Nicola	-12.124
▁Television	-12.124
▁Terminal	-12.124
▁acquitted	-12.124
▁cafeteria	-12.124
▁caffeine	-12.124
▁collision	-12.124
▁communicating	-12.124
▁convincing	-12.124
▁deciding	-12.124
▁detention	-12.124
▁disposal	-12.124
▁fascinated	-12.124
▁identification	-12.124
▁kidnapping	-12.124
▁ladder	-12.124
▁magnificent	-12.124
▁reiterated	-12.124
▁retreat	-12.124
▁seizure	-12.124
▁spacious	-12.124
▁substantial	-12.124
▁uncommon	-12.124
▁webtoon	-12.124
▁Sokcho	-12.124
▁knit	-12.124
▁Athens	-12.124
▁moisturize	-12.124
▁indirectly	-12.124
▁roam	-12.124
ND	-12.124
▁thread	-12.124
▁Beyon	-12.124
▁sunrise	-12.124
▁iOS	-12.124
▁slipped	-12.124
▁vitality	-12.1241
▁kidney	-12.1241
▁loyalty	-12.1241
▁Ltd	-12.1241
▁ransom	-12.1241
▁competent	-12.1241
▁Gunsan	-12.1241
▁rotation	-12.1241
▁distinctive	-12.1241
▁fox	-12.1241
▁Ilsan	-12.1242
▁Orange	-12.1242
Sleep	-12.1242
▁programming	-12.1242
▁couch	-12.1243
▁Walter	-12.1243
▁Warren	-12.1243
▁childcare	-12.1243
▁Zero	-12.1244
▁Arabic	-12.1244
▁adoption	-12.1244
▁Thankfully	-12.1245
beom	-12.1245
▁tide	-12.1245
▁bonuses	-12.1245
▁cutlet	-12.1246
▁torch	-12.1246
▁bulletin	-12.1246
▁thickness	-12.1246
▁Wu	-12.1247
▁exile	-12.1247
▁Zoo	-12.1248
▁acceptance	-12.1248
▁Jean	-12.1248
▁alter	-12.1248
▁Drop	-12.125
▁Afterward	-12.1251
▁reactor	-12.1252
▁fitting	-12.1253
▁frown	-12.1253
▁corresponding	-12.1255
▁thrilled	-12.1255
▁Rob	-12.1256
▁dumped	-12.1256
▁instantly	-12.126
▁countryside	-12.126
▁inspector	-12.1261
▁inserted	-12.1262
▁Kind	-12.1262
▁Gumi	-12.1262
▁tweeted	-12.1263
▁Tear	-12.1264
▁penetrate	-12.1267
▁screaming	-12.1267
▁Indiana	-12.1272
▁CV	-12.1274
▁undergoing	-12.1276
bone	-12.1278
▁cracked	-12.1292
chun	-12.1292
▁Luis	-12.1294
▁Officer	-12.1298
actic	-12.1299
▁Comp	-12.1308
▁Fra	-12.1308
▁Eli	-12.1312
▁rebuild	-12.1318
▁softly	-12.1319
heung	-12.1321
▁Select	-12.1327
▁competitor	-12.1328
▁applicant	-12.1328
▁Additional	-12.1332
▁birdie	-12.1334
▁rolling	-12.1337
rise	-12.1342
olic	-12.1345
▁Math	-12.1345
imo	-12.1347
▁condo	-12.1356
▁deepen	-12.1357
OB	-12.1372
pound	-12.1372
Because	-12.1374
▁Band	-12.1377
▁intake	-12.1378
▁Wil	-12.1378
▁MS	-12.1379
▁Eva	-12.1383
UL	-12.1387
▁Cer	-12.1397
▁Unit	-12.1407
tier	-12.1415
▁Pil	-12.1416
hei	-12.1419
▁daytime	-12.1425
▁progressed	-12.1434
▁Lau	-12.1437
▁affecting	-12.1441
Burn	-12.1443
timer	-12.1452
duk	-12.1455
▁Far	-12.1459
▁directing	-12.1466
▁stor	-12.1467
▁thrill	-12.1467
▁colon	-12.1468
▁warmer	-12.1473
cular	-12.1474
▁Gri	-12.1474
▁Gaya	-12.1477
pal	-12.1482
▁Teachers	-12.1484
▁trans	-12.149
▁Hoe	-12.1491
▁shrink	-12.1497
▁mourn	-12.1497
▁Hard	-12.15
▁squeeze	-12.15
▁Plat	-12.15
▁constitution	-12.1503
▁plunge	-12.151
▁confuse	-12.151
▁kilo	-12.1516
pokesman	-12.1522
▁Count	-12.1523
▁sneak	-12.1523
▁Dog	-12.1524
flu	-12.1525
▁systematic	-12.1525
▁descend	-12.1525
phobia	-12.1525
▁ASEAN	-12.1525
▁Atlantic	-12.1525
▁Beckham	-12.1525
▁Bulgogi	-12.1525
▁Competition	-12.1525
▁Conference	-12.1525
▁Flitto	-12.1525
▁Fortune	-12.1525
▁Hynix	-12.1525
▁Jessica	-12.1525
▁Liberal	-12.1525
▁MERS	-12.1525
▁Netizens	-12.1525
▁Silicon	-12.1525
▁Uruguay	-12.1525
▁Vatican	-12.1525
▁WHO	-12.1525
▁algorithm	-12.1525
▁aquarium	-12.1525
▁enthusiasts	-12.1525
▁extensive	-12.1525
▁frustrating	-12.1525
▁ginseng	-12.1525
▁gravity	-12.1525
▁hockey	-12.1525
▁horrible	-12.1525
▁lodging	-12.1525
▁manipulate	-12.1525
▁penguin	-12.1525
▁peninsula	-12.1525
▁protagonist	-12.1525
▁rehabilitation	-12.1525
▁scuba	-12.1525
▁surplus	-12.1525
▁transplant	-12.1525
▁tumbler	-12.1525
▁turkey	-12.1525
▁unreasonable	-12.1525
Secret	-12.1525
▁Gimpo	-12.1525
▁HIV	-12.1525
▁bundle	-12.1525
▁chores	-12.1525
▁comply	-12.1525
▁hazard	-12.1525
▁irregular	-12.1525
▁vomit	-12.1525
▁Hudson	-12.1525
▁Type	-12.1525
▁logistics	-12.1525
▁tempo	-12.1525
▁bolt	-12.1525
▁Dallas	-12.1525
▁Lawyer	-12.1525
Interior	-12.1525
▁TOP	-12.1525
▁liking	-12.1525
▁reversal	-12.1525
▁Genesis	-12.1525
▁deceased	-12.1525
▁Morgan	-12.1526
▁polar	-12.1526
▁Libya	-12.1526
▁popcorn	-12.1526
▁Chuncheon	-12.1526
▁Everland	-12.1526
▁Panama	-12.1526
▁hyper	-12.1526
▁Guess	-12.1526
▁glim	-12.1526
▁dwell	-12.1527
▁accomplishment	-12.1527
Sadr	-12.1527
▁renewable	-12.1527
▁Gogh	-12.1528
▁Grace	-12.1528
▁transformation	-12.1528
▁glow	-12.1528
▁establishment	-12.1529
▁heroine	-12.1529
▁Alice	-12.153
▁QR	-12.153
dministrative	-12.1531
▁Dark	-12.1532
▁suck	-12.1532
▁testified	-12.1532
▁verb	-12.1534
▁Silla	-12.1534
▁agony	-12.1535
▁lightning	-12.1535
▁wool	-12.1535
▁housework	-12.1537
▁tick	-12.1538
▁Juan	-12.1539
▁scolded	-12.1543
▁recycled	-12.1544
▁activated	-12.1545
▁excessively	-12.1548
▁twisted	-12.1548
▁stroller	-12.1549
▁folded	-12.155
▁receiver	-12.1552
▁sliced	-12.1552
▁complexes	-12.1552
▁dive	-12.1556
▁regulated	-12.1559
▁Full	-12.1561
▁locally	-12.1561
▁Sala	-12.1562
▁charter	-12.1565
▁enhanced	-12.1565
▁belonged	-12.1575
tributed	-12.1576
▁Ven	-12.1578
▁publication	-12.1583
▁stressful	-12.1583
▁strangely	-12.1588
▁Roma	-12.1598
▁Seol	-12.1599
flavored	-12.1605
▁leaking	-12.1608
▁proudly	-12.1611
▁loading	-12.1613
taking	-12.1619
▁servant	-12.1623
▁instruction	-12.1626
▁Mae	-12.1635
▁liver	-12.1638
▁hostage	-12.1642
▁exceeding	-12.1649
▁counted	-12.1655
name	-12.1663
mart	-12.1664
▁northwest	-12.1666
▁productive	-12.1667
front	-12.1667
Smith	-12.1667
eastern	-12.1669
trial	-12.167
album	-12.1674
▁mixing	-12.1675
Boy	-12.1677
elli	-12.1678
human	-12.1682
LS	-12.1688
agi	-12.1696
▁colder	-12.1701
▁scam	-12.1711
▁PI	-12.1714
▁neuro	-12.172
DC	-12.1721
TX	-12.1733
heon	-12.1734
▁wary	-12.1738
ona	-12.1743
▁pit	-12.1745
enter	-12.1752
▁shorten	-12.1752
▁bud	-12.1765
MR	-12.1766
Min	-12.1776
main	-12.178
▁Coco	-12.1781
named	-12.179
▁Challenge	-12.1801
▁Move	-12.1803
bn	-12.1804
▁Elect	-12.1819
▁overlap	-12.1819
▁Jen	-12.1819
▁inferior	-12.1819
▁oyster	-12.1819
▁Alibaba	-12.1819
▁Broadway	-12.1819
▁Investment	-12.1819
▁Kookmin	-12.1819
▁Mumbai	-12.1819
▁Number	-12.1819
▁Sanchez	-12.1819
▁Strong	-12.1819
▁Together	-12.1819
▁Twenty	-12.1819
▁Zimbabwe	-12.1819
▁addicted	-12.1819
▁disabilities	-12.1819
▁fifteen	-12.1819
▁hygiene	-12.1819
▁implant	-12.1819
▁integration	-12.1819
▁landslide	-12.1819
▁navigation	-12.1819
▁pronunciation	-12.1819
▁prototype	-12.1819
▁radar	-12.1819
▁wheelchair	-12.1819
▁whistle	-12.1819
▁Mickey	-12.1819
▁blunt	-12.1819
▁widespread	-12.1819
▁URL	-12.1819
▁nonsense	-12.1819
▁thermal	-12.1819
▁garage	-12.1819
▁nightmare	-12.1819
▁CIA	-12.1819
▁FSS	-12.1819
▁mercy	-12.1819
▁updating	-12.182
▁permitted	-12.182
▁jogging	-12.182
▁Popular	-12.182
exchanging	-12.182
▁Revolution	-12.182
▁Point	-12.182
▁inequality	-12.182
▁duo	-12.182
▁Protest	-12.182
▁Chungbuk	-12.182
▁Finance	-12.182
▁Describe	-12.182
▁summon	-12.182
▁staple	-12.1821
▁Sudan	-12.1821
▁observers	-12.1821
▁hatred	-12.1821
▁courageous	-12.1822
▁accessory	-12.1822
▁Malay	-12.1822
▁volcano	-12.1822
▁commentator	-12.1822
▁Normally	-12.1822
▁waving	-12.1823
▁Laden	-12.1823
▁FDA	-12.1824
▁Chef	-12.1824
▁transferring	-12.1824
▁chic	-12.1824
▁tram	-12.1824
▁Workers	-12.1825
▁Melon	-12.1825
▁Warner	-12.1827
▁affordable	-12.1827
▁reign	-12.1827
▁Senna	-12.1828
▁cleansing	-12.1832
▁retro	-12.1832
▁clearance	-12.1833
▁warranty	-12.1835
lick	-12.1835
▁prevention	-12.1845
▁Ent	-12.1845
▁Forum	-12.1848
▁louder	-12.1849
▁Flo	-12.185
▁reversed	-12.185
▁prank	-12.1852
▁postponed	-12.1853
▁Generally	-12.1855
▁Reading	-12.1858
▁exporter	-12.1858
▁coworker	-12.1864
▁worsening	-12.1865
nick	-12.187
▁stuffy	-12.187
write	-12.1873
▁Kay	-12.1875
▁comb	-12.1876
▁risky	-12.1898
▁volunteered	-12.19
▁cured	-12.1901
▁watchers	-12.1902
▁clinical	-12.1905
▁Past	-12.1906
▁Cold	-12.191
▁scorer	-12.1913
▁Table	-12.1915
▁booming	-12.192
▁monk	-12.1925
▁Epi	-12.1925
▁headquarter	-12.1927
cell	-12.1936
▁shareholders	-12.1937
▁Sport	-12.1942
woon	-12.1943
where	-12.196
ING	-12.1967
cream	-12.1968
Pacific	-12.197
KRW	-12.1971
▁ruler	-12.1975
▁Gore	-12.1975
▁peers	-12.198
▁Gae	-12.1983
▁Kid	-12.1986
▁Remo	-12.199
Ex	-12.199
▁YouTuber	-12.1991
etti	-12.1995
▁comforting	-12.1999
▁pursu	-12.2001
▁incentives	-12.2004
▁Mine	-12.2006
date	-12.201
post	-12.2016
▁ants	-12.2022
▁Tar	-12.2025
▁processor	-12.204
berry	-12.2042
▁Multi	-12.2049
bag	-12.2052
▁Log	-12.2055
▁mari	-12.2062
▁critic	-12.2068
▁authentic	-12.2068
▁drying	-12.2075
▁nut	-12.2086
written	-12.2093
▁tin	-12.2097
▁tab	-12.2101
▁Down	-12.2101
▁exempt	-12.2102
oz	-12.2103
gok	-12.2104
▁accumulate	-12.2107
▁Runn	-12.2108
▁vow	-12.2108
▁reside	-12.211
▁Whit	-12.2111
▁intensive	-12.2115
lyn	-12.212
▁hydro	-12.2122
▁Channel	-12.2122
▁Dhabi	-12.2122
▁Dongdaemun	-12.2122
▁Gwanghwamun	-12.2122
▁JYP	-12.2122
▁Mercury	-12.2122
▁Metropolitan	-12.2122
▁Oklahoma	-12.2122
▁Premium	-12.2122
▁Scorsese	-12.2122
▁Surprisingly	-12.2122
▁Treasury	-12.2122
▁americano	-12.2122
▁antibiotic	-12.2122
▁bracket	-12.2122
▁delegation	-12.2122
▁entitled	-12.2122
▁equivalent	-12.2122
▁feminism	-12.2122
▁globe	-12.2122
▁hurricane	-12.2122
▁mattress	-12.2122
▁paradigm	-12.2122
▁quantities	-12.2122
▁remittance	-12.2122
▁restructuring	-12.2122
▁silicon	-12.2122
▁spacecraft	-12.2122
▁surveillance	-12.2122
▁swimsuit	-12.2122
▁thief	-12.2122
▁trunk	-12.2122
▁unacceptable	-12.2122
▁utility	-12.2122
▁prolonged	-12.2122
▁ripple	-12.2122
▁Hindu	-12.2122
▁junction	-12.2122
▁grind	-12.2122
▁eleven	-12.2122
▁malicious	-12.2122
▁Maduro	-12.2122
▁damaging	-12.2123
▁Standard	-12.2123
▁semifinal	-12.2123
▁Content	-12.2123
▁Patrick	-12.2123
▁BBQ	-12.2123
▁silly	-12.2123
▁Index	-12.2123
▁blink	-12.2123
▁minus	-12.2123
▁newcomer	-12.2123
▁pouch	-12.2123
▁Finland	-12.2123
▁specially	-12.2123
▁prosperity	-12.2123
▁retaliation	-12.2124
▁sidewalk	-12.2124
▁interval	-12.2124
▁repent	-12.2124
▁Search	-12.2124
▁postseason	-12.2124
▁capability	-12.2124
▁hangover	-12.2124
▁Tibetan	-12.2125
▁Larry	-12.2125
▁unbelievable	-12.2125
▁offenders	-12.2125
▁resend	-12.2126
fore	-12.2126
▁Match	-12.2126
step	-12.2126
▁ownership	-12.2126
▁debit	-12.2126
▁Goldman	-12.2127
▁Mission	-12.2127
▁reborn	-12.2128
▁Shortly	-12.2128
▁minority	-12.2128
▁popping	-12.2128
▁robbery	-12.2128
▁Mnet	-12.2128
▁Expla	-12.2128
▁Visa	-12.2128
▁forcing	-12.2129
▁deeds	-12.2129
▁downturn	-12.213
▁unified	-12.213
▁chilly	-12.2131
▁spur	-12.2132
▁miners	-12.2132
▁Mul	-12.2132
▁bangs	-12.2133
▁smashed	-12.2133
yeo	-12.2133
▁Cooper	-12.2134
▁sailor	-12.2135
▁perceived	-12.2136
hud	-12.2136
▁nano	-12.2137
▁Colombian	-12.2137
▁dent	-12.2139
▁actresses	-12.2139
▁Marie	-12.214
▁Sar	-12.2142
▁Seungri	-12.2142
▁perfection	-12.2142
UR	-12.2145
▁Ol	-12.2147
▁inspected	-12.2147
▁nationality	-12.2149
▁weighed	-12.2159
▁Rule	-12.2161
▁insurgents	-12.2163
▁Ob	-12.2163
▁Avengers	-12.2163
▁dresses	-12.2166
▁roller	-12.2169
▁examined	-12.2171
▁publicity	-12.2172
▁stresses	-12.2173
▁sinking	-12.2176
▁Aug	-12.2183
▁Ross	-12.2188
vez	-12.2199
▁appliances	-12.22
▁Leave	-12.2219
stage	-12.2221
case	-12.2229
▁Julie	-12.2232
▁appealed	-12.2233
▁flowed	-12.2233
▁Farm	-12.2238
▁participant	-12.2239
▁mus	-12.2241
▁southwest	-12.2244
▁Sounds	-12.225
▁Tang	-12.2251
▁emoticons	-12.2256
▁testify	-12.2263
eh	-12.2272
▁exceptional	-12.228
efficient	-12.2283
Since	-12.2283
market	-12.2284
▁Gate	-12.2285
fight	-12.2288
▁Kei	-12.2289
▁Cell	-12.2297
gel	-12.2302
▁Wish	-12.2303
▁Tran	-12.2304
self	-12.2311
May	-12.2311
▁defi	-12.2313
Cap	-12.2326
grad	-12.2327
iel	-12.233
touch	-12.2339
OK	-12.2345
with	-12.2347
These	-12.2352
gyo	-12.2353
▁accuse	-12.2356
▁tee	-12.236
▁Had	-12.2365
▁cam	-12.2387
▁habitat	-12.2387
cock	-12.2395
hack	-12.2416
▁construct	-12.2416
▁captivate	-12.2418
▁evacuate	-12.2419
▁Cheon	-12.2422
quo	-12.2427
▁drag	-12.2432
▁cumulat	-12.2435
▁anonymous	-12.2435
Matthew	-12.2435
Traffic	-12.2435
μ	-12.2435
▁Assistant	-12.2435
▁Avenue	-12.2435
▁Blagojevich	-12.2435
▁Bluetooth	-12.2435
▁Chapter	-12.2435
▁DVR	-12.2435
▁Gallery	-12.2435
▁Harvard	-12.2435
▁Hokkaido	-12.2435
▁Survey	-12.2435
▁UNESCO	-12.2435
▁ambitious	-12.2435
▁calcium	-12.2435
▁centuries	-12.2435
▁cheesecake	-12.2435
▁conglomerate	-12.2435
▁cylinder	-12.2435
▁destruction	-12.2435
▁dictionary	-12.2435
▁enclosed	-12.2435
▁exterior	-12.2435
▁extremist	-12.2435
▁fracture	-12.2435
▁iPad	-12.2435
▁indispensable	-12.2435
▁innocence	-12.2435
▁libraries	-12.2435
▁literary	-12.2435
▁motif	-12.2435
▁orientation	-12.2435
▁pajama	-12.2435
▁presumed	-12.2435
▁refrain	-12.2435
▁sequence	-12.2435
▁subscription	-12.2435
▁sunshine	-12.2435
▁therapist	-12.2435
▁tobacco	-12.2435
▁verdict	-12.2435
▁vocabulary	-12.2435
▁measuring	-12.2435
▁scrambl	-12.2435
▁Field	-12.2435
▁wolf	-12.2435
▁GNP	-12.2435
▁GOT	-12.2435
▁NEW	-12.2435
▁OEM	-12.2435
▁compress	-12.2435
▁freak	-12.2435
▁cherry	-12.2435
▁Lewis	-12.2435
ennial	-12.2435
▁overdue	-12.2435
▁tidy	-12.2435
▁trait	-12.2435
▁examining	-12.2435
▁Flower	-12.2435
▁AAA	-12.2435
▁Macao	-12.2435
▁Account	-12.2435
▁Gyeongnam	-12.2435
▁arouse	-12.2436
▁quarterfinal	-12.2436
▁Matsu	-12.2436
▁Burger	-12.2436
▁Baseball	-12.2436
▁Creative	-12.2436
▁soothe	-12.2436
▁Macron	-12.2436
▁enforcement	-12.2436
that	-12.2436
▁vibe	-12.2436
▁consciousness	-12.2436
▁specify	-12.2436
▁postcard	-12.2436
▁Buck	-12.2438
ikh	-12.2438
▁paperwork	-12.2438
▁villain	-12.2438
▁Final	-12.2439
▁employers	-12.2439
▁authorized	-12.244
▁coward	-12.244
▁frankly	-12.2441
▁Songpa	-12.2441
▁outrage	-12.2441
▁Alone	-12.2441
▁flutter	-12.2441
▁combo	-12.2441
▁trustee	-12.2442
▁skinny	-12.2442
▁sandwiches	-12.2442
▁Coca	-12.2442
▁deceived	-12.2443
▁equality	-12.2445
▁fuss	-12.2446
▁Venezuelan	-12.2447
▁Liu	-12.2447
▁faithfully	-12.245
▁Pung	-12.2451
▁sounded	-12.2452
▁programmer	-12.2454
▁damp	-12.2454
▁revived	-12.2458
▁swelling	-12.2458
▁Someday	-12.2459
▁Hoon	-12.2463
▁reuse	-12.2466
▁Buk	-12.2467
▁bind	-12.2469
▁accomplished	-12.2471
▁admired	-12.2473
yuk	-12.2475
▁hostel	-12.2475
▁encountered	-12.2477
▁unexpectedly	-12.2479
▁reacted	-12.2482
etting	-12.2487
PF	-12.2488
▁jailed	-12.2488
▁Cool	-12.2489
▁Soju	-12.2494
miss	-12.2494
▁weighing	-12.2499
▁raped	-12.2506
▁pursued	-12.2516
▁recruiting	-12.2522
▁Claus	-12.2524
▁Experienc	-12.2525
▁sweater	-12.2527
▁lace	-12.2536
▁notification	-12.2536
▁View	-12.2537
ault	-12.2538
▁typo	-12.2541
▁flaw	-12.2541
Cola	-12.2543
▁financially	-12.2551
▁incentive	-12.2559
▁Carol	-12.2563
break	-12.2564
▁crop	-12.2565
▁Less	-12.2565
▁Seosan	-12.2575
produced	-12.2577
▁licensed	-12.2585
color	-12.2592
▁Cheer	-12.2594
wheel	-12.2605
ranked	-12.2606
wrap	-12.2614
▁performer	-12.2616
space	-12.2624
▁cad	-12.2624
▁mug	-12.2632
▁amend	-12.2633
corn	-12.2634
▁resid	-12.2635
LT	-12.2642
▁bounce	-12.2648
chai	-12.2649
▁Leg	-12.265
raised	-12.265
▁figured	-12.2666
▁chopp	-12.2682
ride	-12.2692
▁Site	-12.2692
plex	-12.2706
ima	-12.2708
▁sue	-12.2716
TT	-12.272
eemingly	-12.2725
▁blam	-12.2725
▁Torre	-12.2736
▁interviewer	-12.2742
▁fortunate	-12.275
▁deliberate	-12.275
▁spit	-12.2754
▁compass	-12.2756
scape	-12.2756
clusive	-12.2757
▁deer	-12.2757
▁boo	-12.2757
▁cigar	-12.2757
▁technician	-12.2757
á	-12.2757
▁Blockchain	-12.2757
▁Czech	-12.2757
▁Kansas	-12.2757
▁Library	-12.2757
▁abstract	-12.2757
▁advocate	-12.2757
▁butterfly	-12.2757
▁constitute	-12.2757
▁culprit	-12.2757
▁detergent	-12.2757
▁ethics	-12.2757
▁evident	-12.2757
▁expedition	-12.2757
▁financing	-12.2757
▁frustration	-12.2757
▁intimate	-12.2757
▁primarily	-12.2757
▁reconstruct	-12.2757
▁stamina	-12.2757
▁withdrew	-12.2757
▁worthwhile	-12.2757
esthetic	-12.2757
▁Alliance	-12.2757
▁Silver	-12.2757
▁barista	-12.2757
▁fishermen	-12.2757
▁summary	-12.2757
▁terrace	-12.2757
▁Soccer	-12.2757
▁allergy	-12.2757
▁Heaven	-12.2757
▁Witness	-12.2757
estimat	-12.2758
▁Prepare	-12.2758
▁diplomacy	-12.2758
▁Prague	-12.2758
▁odor	-12.2758
▁inauguration	-12.2758
▁continually	-12.2758
▁Originally	-12.2758
▁urine	-12.2758
▁blaze	-12.2758
▁beige	-12.2758
▁valve	-12.2758
▁vanilla	-12.2758
▁Eulji	-12.2758
▁Reagan	-12.2758
▁feast	-12.2758
▁roar	-12.2758
▁coding	-12.2758
▁persistent	-12.2758
▁screenshot	-12.2759
▁Lucas	-12.2759
▁History	-12.2759
▁firmware	-12.2759
▁superstar	-12.2759
▁Cream	-12.2759
▁MVP	-12.2759
▁Export	-12.2759
▁vibration	-12.276
▁Click	-12.276
▁Yeongam	-12.276
▁delightful	-12.2761
▁rejection	-12.2761
▁itching	-12.2762
▁pending	-12.2762
▁collective	-12.2763
uditorium	-12.2763
▁Angela	-12.2765
▁canvas	-12.2765
▁removal	-12.2765
▁idle	-12.2765
SK	-12.2769
▁weaknesses	-12.2769
▁Taxi	-12.2769
▁faded	-12.2772
▁tile	-12.2772
▁hotelier	-12.2773
ffer	-12.2774
▁politely	-12.2774
▁Eco	-12.278
▁forgetting	-12.278
▁triggered	-12.278
▁demonstrated	-12.278
▁turnout	-12.2782
▁exclusively	-12.2782
▁partial	-12.2783
▁KCC	-12.2783
▁Page	-12.2784
▁eliminated	-12.2787
▁shrinking	-12.2789
▁rebel	-12.279
▁committ	-12.2794
▁purely	-12.2798
▁attendees	-12.2798
▁endured	-12.2799
▁Yorkers	-12.2809
▁Finding	-12.2812
fact	-12.2813
▁incomplete	-12.2828
▁armor	-12.2831
▁darker	-12.2834
kyun	-12.2835
▁bloody	-12.2839
▁Cuban	-12.2848
trip	-12.2864
erie	-12.2867
coastal	-12.2868
▁Arch	-12.2868
▁Haven	-12.2884
nex	-12.2889
▁Consumer	-12.2893
▁troop	-12.2895
GN	-12.2898
▁Rap	-12.2898
▁gladly	-12.2899
rye	-12.2911
▁Dave	-12.2911
▁bowling	-12.2921
▁smoked	-12.2923
▁Victor	-12.2929
uthorization	-12.2935
ggle	-12.2936
Happy	-12.2939
beauty	-12.2939
three	-12.2941
LAN	-12.295
▁cooler	-12.296
▁emba	-12.2967
isitors	-12.2976
▁Gian	-12.2979
idi	-12.2983
uda	-12.2997
KB	-12.3002
OW	-12.3003
there	-12.3005
aba	-12.3007
mae	-12.3014
umi	-12.3018
alytic	-12.3041
▁CF	-12.3042
▁refresh	-12.3047
▁cheat	-12.3047
▁Run	-12.3056
hai	-12.3063
▁weaken	-12.3063
bank	-12.3069
▁condemn	-12.3075
cip	-12.3079
▁refine	-12.3081
▁transit	-12.3084
fix	-12.3085
▁humid	-12.3086
Friend	-12.3088
▁excess	-12.309
▁ARMY	-12.3091
▁Amsterdam	-12.3091
▁Bibimbap	-12.3091
▁Exactly	-12.3091
▁Gordon	-12.3091
▁Gymnasium	-12.3091
▁Hungarian	-12.3091
▁NHK	-12.3091
▁Pochettino	-12.3091
▁Saddam	-12.3091
▁arrogant	-12.3091
▁balcony	-12.3091
▁beneath	-12.3091
▁concession	-12.3091
▁conspiracy	-12.3091
▁dairy	-12.3091
▁eldest	-12.3091
▁euthanasia	-12.3091
▁fossil	-12.3091
▁glacier	-12.3091
▁harbor	-12.3091
▁hurried	-12.3091
▁identical	-12.3091
▁intensity	-12.3091
▁juvenile	-12.3091
▁kiosk	-12.3091
▁militia	-12.3091
▁moisturizing	-12.3091
▁negotiator	-12.3091
▁pamphlet	-12.3091
▁parallel	-12.3091
▁structural	-12.3091
▁tteokbokki	-12.3091
▁Clear	-12.3091
▁Cohen	-12.3091
▁Engineer	-12.3091
▁animated	-12.3091
▁humiliat	-12.3091
▁vicious	-12.3091
▁mural	-12.3091
▁taxpayer	-12.3091
▁tackle	-12.3091
▁homestay	-12.3091
▁properties	-12.3091
▁racial	-12.3091
▁courtesy	-12.3091
▁Fayed	-12.3091
▁Bowl	-12.3091
▁Charlie	-12.3091
▁acres	-12.3091
▁Connect	-12.3091
▁Anything	-12.3091
▁CSAT	-12.3091
▁Electric	-12.3091
▁prosper	-12.3091
▁Pilates	-12.3091
▁sedan	-12.3091
▁Arirang	-12.3091
▁Beatles	-12.3091
▁tribute	-12.3091
▁Treat	-12.3091
▁bullpen	-12.3091
▁Condole	-12.3091
▁impeachment	-12.3091
▁Provide	-12.3091
▁insurer	-12.3091
▁thunder	-12.3091
▁Hamburg	-12.3091
▁Sachs	-12.3091
▁lump	-12.3091
▁Hwaseong	-12.3091
▁disappointment	-12.3092
▁knot	-12.3092
▁lime	-12.3092
▁citizenship	-12.3092
▁wives	-12.3092
▁arose	-12.3092
▁disturbance	-12.3092
▁Blair	-12.3092
▁Portland	-12.3092
▁immunity	-12.3093
▁disability	-12.3093
▁Greg	-12.3093
▁flip	-12.3093
▁veto	-12.3094
▁advantageous	-12.3095
▁FTC	-12.3095
▁immersed	-12.3097
▁stranded	-12.3098
▁radish	-12.3098
▁plac	-12.3098
▁Fight	-12.3098
▁latter	-12.3098
▁finalists	-12.3099
▁corps	-12.3099
▁Deep	-12.3099
door	-12.3101
▁fermented	-12.3102
▁merged	-12.3102
hyo	-12.3103
▁Austrian	-12.3103
▁diligently	-12.3103
▁Foreigners	-12.3104
▁Mix	-12.3105
▁Learning	-12.3107
▁clap	-12.311
▁playful	-12.311
▁batch	-12.3111
▁assessed	-12.3114
▁objectively	-12.3118
▁roasted	-12.3121
▁emotionally	-12.3126
▁tolerate	-12.313
sale	-12.3136
▁Bok	-12.3136
▁Khan	-12.314
▁folding	-12.314
▁tougher	-12.3142
▁List	-12.3147
warming	-12.3147
▁strengthened	-12.3153
▁Magic	-12.3159
▁conveyed	-12.3172
▁mob	-12.3179
▁Need	-12.3185
▁enabl	-12.3193
yen	-12.3196
▁setup	-12.3201
who	-12.3213
▁Fast	-12.322
▁privately	-12.323
▁creature	-12.3238
▁immigrant	-12.3239
nae	-12.3239
▁Serie	-12.3244
▁alien	-12.3244
fest	-12.325
▁Mok	-12.3251
▁waved	-12.3258
exist	-12.3259
▁favored	-12.3263
solution	-12.3282
mouth	-12.3284
Japanese	-12.3284
visit	-12.3285
drama	-12.3292
▁loosen	-12.3294
base	-12.33
team	-12.3301
wash	-12.331
▁Shu	-12.3321
enne	-12.335
▁Late	-12.3371
▁educat	-12.3402
LB	-12.341
▁Tai	-12.3411
▁Fish	-12.3417
▁Ship	-12.3418
▁deduct	-12.3419
▁applaud	-12.3419
wol	-12.3419
▁distort	-12.342
▁assemble	-12.342
▁fade	-12.3424
▁Provinc	-12.3428
▁robber	-12.3429
▁excavat	-12.3433
▁mor	-12.3433
▁Found	-12.3434
▁judicia	-12.3435
▁Benedict	-12.3436
▁Buddhism	-12.3436
▁Computer	-12.3436
▁Families	-12.3436
▁Hezbollah	-12.3436
▁Industry	-12.3436
▁Nasdaq	-12.3436
▁Organization	-12.3436
▁Santiago	-12.3436
▁Wyverns	-12.3436
▁bilateral	-12.3436
▁blockbuster	-12.3436
▁breach	-12.3436
▁centimeters	-12.3436
▁declining	-12.3436
▁demonstrators	-12.3436
▁devotion	-12.3436
▁elbow	-12.3436
▁fifty	-12.3436
▁graduating	-12.3436
▁grandparents	-12.3436
▁incumbent	-12.3436
▁legacy	-12.3436
▁mammal	-12.3436
▁necessities	-12.3436
▁surrender	-12.3436
▁throne	-12.3436
▁turmoil	-12.3436
▁twenties	-12.3436
▁vibrant	-12.3436
▁MOQ	-12.3436
▁Oxford	-12.3436
▁evoke	-12.3436
▁snail	-12.3436
▁witty	-12.3436
▁Details	-12.3436
▁archive	-12.3436
▁sensual	-12.3436
▁bleach	-12.3436
▁joking	-12.3436
songwriter	-12.3436
▁bacon	-12.3436
▁chili	-12.3436
▁span	-12.3436
▁Constitution	-12.3436
▁railroad	-12.3436
▁distrust	-12.3436
▁naive	-12.3436
▁Text	-12.3436
▁motel	-12.3436
▁Simple	-12.3436
▁Front	-12.3436
▁Jimmy	-12.3436
▁deployment	-12.3436
▁Ramos	-12.3437
▁elasticity	-12.3437
▁judiciary	-12.3437
▁Winner	-12.3437
▁Hyuk	-12.3437
▁laboratory	-12.3437
▁Clark	-12.3437
▁MLB	-12.3437
▁Delta	-12.3437
▁LNG	-12.3437
▁clever	-12.3437
▁Draw	-12.3438
▁exert	-12.3439
▁fastball	-12.3439
▁forgiveness	-12.344
▁witch	-12.344
▁personalities	-12.344
▁conventional	-12.3441
▁unilaterally	-12.3442
▁Glen	-12.3442
▁popped	-12.3442
▁Naturally	-12.3443
▁cancelled	-12.3444
▁undermine	-12.3444
▁CES	-12.3445
▁Hanok	-12.3446
taek	-12.3446
▁GMO	-12.3447
▁progressive	-12.3448
▁sack	-12.345
▁assembled	-12.3451
▁distorted	-12.3452
▁Frankly	-12.3453
▁Guest	-12.3453
eau	-12.3455
▁screamed	-12.3456
▁inquired	-12.3457
▁Yangon	-12.3457
▁skater	-12.3459
▁ego	-12.3459
▁bush	-12.346
▁Poor	-12.3461
▁portrayed	-12.3462
▁betrayed	-12.3463
▁Minho	-12.3466
▁flocked	-12.3466
▁spine	-12.3468
▁endlessly	-12.3469
▁Side	-12.3469
aria	-12.347
▁deepening	-12.347
▁raided	-12.3472
▁sca	-12.3472
▁pave	-12.3474
▁limb	-12.3474
▁SIM	-12.3474
▁commuter	-12.3478
▁absorbed	-12.3479
▁Name	-12.3479
gung	-12.3484
▁gut	-12.3488
rvi	-12.3491
▁Astro	-12.3493
▁kneel	-12.3493
lite	-12.3496
▁Traveling	-12.3504
Ji	-12.3505
yung	-12.3506
▁eased	-12.3507
▁Tire	-12.3509
▁Gary	-12.3514
▁carton	-12.3518
una	-12.3519
▁peaked	-12.3524
▁demon	-12.3526
▁Chance	-12.3538
payment	-12.354
▁kissing	-12.3554
▁Mori	-12.3563
ule	-12.3573
▁Yuri	-12.3573
▁shooter	-12.358
sorted	-12.3586
▁planted	-12.359
▁takers	-12.3591
▁Cover	-12.3593
▁slave	-12.3594
▁scholar	-12.3595
▁Pad	-12.3598
▁Tea	-12.3607
▁clearer	-12.3614
▁brighten	-12.3616
dale	-12.3618
▁Must	-12.3631
▁speculat	-12.3635
Beauty	-12.3639
▁conc	-12.364
degree	-12.364
screen	-12.364
centered	-12.364
Time	-12.3641
Music	-12.3641
economic	-12.3641
girl	-12.3641
script	-12.3641
source	-12.3643
wai	-12.3646
keeping	-12.365
▁privilege	-12.3657
ppe	-12.3675
▁FM	-12.3678
▁Heat	-12.368
ngle	-12.369
holder	-12.3695
▁Para	-12.3696
kar	-12.3701
▁Musa	-12.3714
▁Sara	-12.3718
gol	-12.3734
▁sail	-12.375
▁suite	-12.3753
▁entertain	-12.3756
▁dimension	-12.3761
▁PT	-12.3765
▁Create	-12.3772
▁relie	-12.3773
▁evolve	-12.3777
▁perceive	-12.3777
urn	-12.3778
PR	-12.3783
▁Natural	-12.3785
▁profession	-12.3788
coin	-12.3791
▁retaliat	-12.3791
▁Bern	-12.3791
▁homosexual	-12.3792
▁confront	-12.3792
▁hal	-12.3792
▁Basic	-12.3793
▁Abdul	-12.3793
fledged	-12.3793
responsibilities	-12.3793
▁CNBC	-12.3793
▁Captain	-12.3793
▁Columbia	-12.3793
▁Missouri	-12.3793
▁Professional	-12.3793
▁Seogwipo	-12.3793
▁THAAD	-12.3793
▁Thirty	-12.3793
▁Vincent	-12.3793
▁Volkswagen	-12.3793
▁aluminum	-12.3793
▁apologies	-12.3793
▁collapsing	-12.3793
▁countermeasure	-12.3793
▁downstairs	-12.3793
▁duration	-12.3793
▁economies	-12.3793
▁emperor	-12.3793
▁illusion	-12.3793
▁malfunction	-12.3793
▁paparazzi	-12.3793
▁prettiest	-12.3793
▁probation	-12.3793
▁referendum	-12.3793
▁resurrection	-12.3793
▁separation	-12.3793
▁subordinate	-12.3793
▁technological	-12.3793
▁timid	-12.3793
▁unidentified	-12.3793
▁varied	-12.3793
▁varieties	-12.3793
▁watermelon	-12.3793
▁Screen	-12.3793
▁Transport	-12.3793
▁tumor	-12.3793
▁ivory	-12.3793
▁intensify	-12.3793
▁orphan	-12.3793
▁sermon	-12.3793
▁disperse	-12.3793
▁jackpot	-12.3793
▁Emily	-12.3793
▁Rescue	-12.3793
▁Weibo	-12.3793
▁detach	-12.3793
▁bulb	-12.3793
▁biological	-12.3793
▁Smartphone	-12.3793
▁heyday	-12.3793
▁Pizza	-12.3793
▁sank	-12.3793
▁Monica	-12.3793
▁Mokpo	-12.3793
▁evolution	-12.3794
▁Albert	-12.3794
▁jog	-12.3794
▁Expressway	-12.3794
▁framework	-12.3794
▁flick	-12.3794
▁pursuit	-12.3794
▁cubic	-12.3794
▁radiation	-12.3794
▁YOU	-12.3794
▁Jecheon	-12.3794
▁Disneyland	-12.3794
▁Paik	-12.3794
▁Chungnam	-12.3795
▁DApp	-12.3795
▁exploration	-12.3795
▁Wright	-12.3796
▁PDF	-12.3796
▁Exit	-12.3796
▁pollute	-12.3796
▁skeptical	-12.3797
▁merger	-12.3798
▁digits	-12.3798
▁Fear	-12.3798
▁institutional	-12.3799
▁hostile	-12.38
▁Kobe	-12.3801
▁PPT	-12.3801
▁workforce	-12.3801
▁smokers	-12.3801
▁counties	-12.3802
▁Ramen	-12.3802
▁Lots	-12.3802
▁drip	-12.3803
▁roadside	-12.3803
▁Anyang	-12.3803
▁UFC	-12.3804
▁Mapo	-12.3805
▁Yemeni	-12.3805
▁drowned	-12.3808
▁mainland	-12.3809
▁Nuri	-12.381
▁snap	-12.381
▁viruses	-12.3811
▁freshness	-12.3813
▁counselor	-12.3814
▁Choice	-12.3816
▁robe	-12.3817
▁Apart	-12.3818
▁riders	-12.3818
▁Moore	-12.3818
▁boasted	-12.382
▁promptly	-12.3821
▁passionately	-12.3822
▁oust	-12.3822
▁Hui	-12.3825
▁practically	-12.3827
▁Bear	-12.3827
▁PU	-12.3829
▁congratulat	-12.3831
▁restraint	-12.3836
▁Hence	-12.384
▁Fold	-12.384
▁fulfilled	-12.3845
▁Helen	-12.3853
aught	-12.3856
▁misses	-12.3867
AND	-12.3872
awaited	-12.3874
▁justify	-12.3876
▁Pig	-12.3878
PE	-12.388
▁reap	-12.3881
▁Tourist	-12.3881
mania	-12.3886
▁finishes	-12.389
▁scare	-12.3901
ello	-12.3906
ually	-12.391
chae	-12.3942
▁Mir	-12.395
▁pear	-12.3958
▁merchant	-12.3966
▁nerve	-12.3967
▁auditor	-12.3969
▁entertainer	-12.3971
binding	-12.3972
▁marketers	-12.3983
▁pearl	-12.3995
▁peer	-12.3996
MM	-12.3997
Car	-12.4003
CM	-12.4005
Work	-12.4011
patient	-12.4011
child	-12.4013
employed	-12.4014
woman	-12.4015
four	-12.4019
▁Marco	-12.4022
▁radi	-12.4027
▁Juliet	-12.4032
kuk	-12.4047
▁Lama	-12.407
kook	-12.4115
BB	-12.4116
▁Viol	-12.4118
▁decorat	-12.4124
▁emergenc	-12.4124
race	-12.4124
▁stroll	-12.4133
▁Guide	-12.4138
▁Trip	-12.414
▁swell	-12.4143
▁motivate	-12.4148
▁villa	-12.4148
▁suppose	-12.4148
▁expose	-12.4149
▁Recent	-12.4162
▁fertil	-12.4162
▁dictator	-12.4163
▁stereo	-12.4163
▁Yama	-12.4163
Palembang	-12.4163
▁Administration	-12.4163
▁Affairs	-12.4163
▁Alzheimer	-12.4163
▁BLACKPINK	-12.4163
▁Baltimore	-12.4163
▁Budapest	-12.4163
▁Capitol	-12.4163
▁Eugene	-12.4163
▁Figure	-12.4163
▁Guangzhou	-12.4163
▁KLPGA	-12.4163
▁Kosovo	-12.4163
▁Mohamed	-12.4163
▁Oracle	-12.4163
▁Overseas	-12.4163
▁Pelosi	-12.4163
▁Sunshine	-12.4163
▁abduction	-12.4163
▁alphabet	-12.4163
▁anticipation	-12.4163
▁artifacts	-12.4163
▁chamber	-12.4163
▁deteriorate	-12.4163
▁diminish	-12.4163
▁disclosure	-12.4163
▁endurance	-12.4163
▁exploding	-12.4163
▁galleries	-12.4163
▁gourmet	-12.4163
▁grief	-12.4163
▁immature	-12.4163
▁inflammation	-12.4163
▁macaron	-12.4163
▁mackerel	-12.4163
▁maturity	-12.4163
▁mosquito	-12.4163
▁mukbang	-12.4163
▁parameter	-12.4163
▁pineapple	-12.4163
▁predecessor	-12.4163
▁tornado	-12.4163
▁triumph	-12.4163
▁unavailable	-12.4163
▁walnut	-12.4163
▁Environment	-12.4163
▁Kurdish	-12.4163
▁chorus	-12.4163
▁differentiated	-12.4163
▁disregard	-12.4163
▁indicted	-12.4163
▁instinct	-12.4163
Frozen	-12.4163
▁Denver	-12.4163
▁Senior	-12.4163
▁Silva	-12.4163
▁idiot	-12.4163
▁Federer	-12.4163
▁physics	-12.4163
▁cereal	-12.4163
▁garner	-12.4163
▁Sergi	-12.4163
▁Bezos	-12.4163
▁germs	-12.4163
▁junta	-12.4163
▁complications	-12.4163
▁cleric	-12.4163
▁cattle	-12.4163
▁welding	-12.4163
▁aftermath	-12.4163
▁ripped	-12.4163
▁viral	-12.4164
▁Cheese	-12.4164
▁particles	-12.4164
▁hesitation	-12.4164
▁pumpkin	-12.4164
▁IMF	-12.4164
▁editorial	-12.4164
▁Development	-12.4164
▁lodge	-12.4164
▁homosexuality	-12.4164
▁contemporar	-12.4165
▁blueprint	-12.4165
▁hypo	-12.4165
▁Danish	-12.4165
▁theories	-12.4166
▁panda	-12.4166
▁ETF	-12.4166
▁luna	-12.4166
▁healthcare	-12.4166
bbed	-12.4166
▁refusal	-12.4166
▁bible	-12.4167
▁lining	-12.4167
▁Salah	-12.4167
▁dividend	-12.4167
▁peaches	-12.4168
▁McK	-12.4168
▁Grande	-12.4168
▁Chanel	-12.4169
▁sprint	-12.4169
▁MTV	-12.417
▁implementation	-12.417
▁Josh	-12.417
▁disruption	-12.4171
▁optimized	-12.4171
baek	-12.4171
▁HQ	-12.4171
▁controller	-12.4172
▁freshmen	-12.4172
▁Stage	-12.4173
▁Coke	-12.4173
▁Masan	-12.4175
▁Driver	-12.4177
▁fairness	-12.4177
▁Romeo	-12.4178
▁assured	-12.4178
▁evolved	-12.4179
▁traders	-12.4179
▁Duk	-12.418
▁vent	-12.418
▁intent	-12.418
▁Orion	-12.4181
▁cheated	-12.4182
▁exempted	-12.4183
▁Linda	-12.4184
▁discharged	-12.4185
▁aggressively	-12.4188
▁Hyeon	-12.4188
▁login	-12.419
▁ROA	-12.4192
operative	-12.4194
▁erased	-12.4194
▁flute	-12.4197
▁novelist	-12.42
▁coordinate	-12.42
hyang	-12.42
filled	-12.42
▁peacefully	-12.42
▁circulate	-12.4205
▁rotate	-12.4205
▁boiler	-12.4208
▁Gaming	-12.4209
▁swearing	-12.4211
▁mounting	-12.4212
▁zip	-12.4213
Citizen	-12.4213
▁designate	-12.4216
▁coughing	-12.4219
▁Mai	-12.4219
▁breakup	-12.4221
▁sealed	-12.4226
enthusiastically	-12.4236
▁SEC	-12.4242
▁cease	-12.4246
▁treaty	-12.4246
▁Alan	-12.4252
▁Kun	-12.4253
▁Intel	-12.4253
▁faction	-12.4258
▁Bru	-12.4261
DF	-12.4264
▁gotta	-12.427
▁overwork	-12.4271
▁funded	-12.4275
▁ranch	-12.4287
home	-12.4289
nap	-12.429
▁murdered	-12.4294
▁Carl	-12.4302
▁Mak	-12.431
▁indicator	-12.435
▁dumpling	-12.435
ark	-12.4361
▁Karl	-12.4371
Or	-12.4381
word	-12.4393
quarter	-12.4393
million	-12.4396
confidence	-12.4396
father	-12.4396
white	-12.4396
BTS	-12.4396
billion	-12.4396
fashion	-12.4398
Super	-12.44
Miss	-12.4404
itable	-12.4406
Free	-12.4406
Only	-12.4409
▁weekday	-12.443
ibility	-12.4452
▁arrang	-12.4474
▁forwarder	-12.4476
▁JP	-12.4479
backed	-12.448
▁Cole	-12.4494
▁rod	-12.4511
haul	-12.4519
Gu	-12.4523
▁drown	-12.4531
▁terminate	-12.4532
▁convince	-12.4532
▁assure	-12.4537
Beautiful	-12.4548
Communication	-12.4548
▁Antarctic	-12.4548
▁Chairperson	-12.4548
▁DPRK	-12.4548
▁Djokovic	-12.4548
▁Emperor	-12.4548
▁Erdogan	-12.4548
▁Exhibition	-12.4548
▁FTSE	-12.4548
▁Heritage	-12.4548
▁Individual	-12.4548
▁Infinite	-12.4548
▁Jonathan	-12.4548
▁Massachusetts	-12.4548
▁McCann	-12.4548
▁Newcastle	-12.4548
▁Oprah	-12.4548
▁Orleans	-12.4548
▁Polaroid	-12.4548
▁Radcliffe	-12.4548
▁Smoking	-12.4548
▁assumption	-12.4548
▁billiard	-12.4548
▁closure	-12.4548
▁coffin	-12.4548
▁dismantle	-12.4548
▁engraved	-12.4548
▁epidemic	-12.4548
▁etiquette	-12.4548
▁harmonious	-12.4548
[...]
