<pad>	0
<unk>	0
<s>	0
</s>	0
<mask>	0
<0x00>	0
<0x01>	0
<0x02>	0
<0x03>	0
<0x04>	0
<0x05>	0
<0x06>	0
<0x07>	0
<0x08>	0
<0x09>	0
<0x0A>	0
<0x0B>	0
<0x0C>	0
<0x0D>	0
<0x0E>	0
<0x0F>	0
<0x10>	0
<0x11>	0
<0x12>	0
<0x13>	0
<0x14>	0
<0x15>	0
<0x16>	0
<0x17>	0
<0x18>	0
<0x19>	0
<0x1A>	0
<0x1B>	0
<0x1C>	0
<0x1D>	0
<0x1E>	0
<0x1F>	0
<0x20>	0
<0x21>	0
<0x22>	0
<0x23>	0
<0x24>	0
<0x25>	0
<0x26>	0
<0x27>	0
<0x28>	0
<0x29>	0
<0x2A>	0
<0x2B>	0
<0x2C>	0
<0x2D>	0
<0x2E>	0
<0x2F>	0
<0x30>	0
<0x31>	0
<0x32>	0
<0x33>	0
<0x34>	0
<0x35>	0
<0x36>	0
<0x37>	0
<0x38>	0
<0x39>	0
<0x3A>	0
<0x3B>	0
<0x3C>	0
<0x3D>	0
<0x3E>	0
<0x3F>	0
<0x40>	0
<0x41>	0
<0x42>	0
<0x43>	0
<0x44>	0
<0x45>	0
<0x46>	0
<0x47>	0
<0x48>	0
<0x49>	0
<0x4A>	0
<0x4B>	0
<0x4C>	0
<0x4D>	0
<0x4E>	0
<0x4F>	0
<0x50>	0
<0x51>	0
<0x52>	0
<0x53>	0
<0x54>	0
<0x55>	0
<0x56>	0
<0x57>	0
<0x58>	0
<0x59>	0
<0x5A>	0
<0x5B>	0
<0x5C>	0
<0x5D>	0
<0x5E>	0
<0x5F>	0
<0x60>	0
<0x61>	0
<0x62>	0
<0x63>	0
<0x64>	0
<0x65>	0
<0x66>	0
<0x67>	0
<0x68>	0
<0x69>	0
<0x6A>	0
<0x6B>	0
<0x6C>	0
<0x6D>	0
<0x6E>	0
<0x6F>	0
<0x70>	0
<0x71>	0
<0x72>	0
<0x73>	0
<0x74>	0
<0x75>	0
<0x76>	0
<0x77>	0
<0x78>	0
<0x79>	0
<0x7A>	0
<0x7B>	0
<0x7C>	0
<0x7D>	0
<0x7E>	0
<0x7F>	0
<0x80>	0
<0x81>	0
<0x82>	0
<0x83>	0
<0x84>	0
<0x85>	0
<0x86>	0
<0x87>	0
<0x88>	0
<0x89>	0
<0x8A>	0
<0x8B>	0
<0x8C>	0
<0x8D>	0
<0x8E>	0
<0x8F>	0
<0x90>	0
<0x91>	0
<0x92>	0
<0x93>	0
<0x94>	0
<0x95>	0
<0x96>	0
<0x97>	0
<0x98>	0
<0x99>	0
<0x9A>	0
<0x9B>	0
<0x9C>	0
<0x9D>	0
<0x9E>	0
<0x9F>	0
<0xA0>	0
<0xA1>	0
<0xA2>	0
<0xA3>	0
<0xA4>	0
<0xA5>	0
<0xA6>	0
<0xA7>	0
<0xA8>	0
<0xA9>	0
<0xAA>	0
<0xAB>	0
<0xAC>	0
<0xAD>	0
<0xAE>	0
<0xAF>	0
<0xB0>	0
<0xB1>	0
<0xB2>	0
<0xB3>	0
<0xB4>	0
<0xB5>	0
<0xB6>	0
<0xB7>	0
<0xB8>	0
<0xB9>	0
<0xBA>	0
<0xBB>	0
<0xBC>	0
<0xBD>	0
<0xBE>	0
<0xBF>	0
<0xC0>	0
<0xC1>	0
<0xC2>	0
<0xC3>	0
<0xC4>	0
<0xC5>	0
<0xC6>	0
<0xC7>	0
<0xC8>	0
<0xC9>	0
<0xCA>	0
<0xCB>	0
<0xCC>	0
<0xCD>	0
<0xCE>	0
<0xCF>	0
<0xD0>	0
<0xD1>	0
<0xD2>	0
<0xD3>	0
<0xD4>	0
<0xD5>	0
<0xD6>	0
<0xD7>	0
<0xD8>	0
<0xD9>	0
<0xDA>	0
<0xDB>	0
<0xDC>	0
<0xDD>	0
<0xDE>	0
<0xDF>	0
<0xE0>	0
<0xE1>	0
<0xE2>	0
<0xE3>	0
<0xE4>	0
<0xE5>	0
<0xE6>	0
<0xE7>	0
<0xE8>	0
<0xE9>	0
<0xEA>	0
<0xEB>	0
<0xEC>	0
<0xED>	0
<0xEE>	0
<0xEF>	0
<0xF0>	0
<0xF1>	0
<0xF2>	0
<0xF3>	0
<0xF4>	0
<0xF5>	0
<0xF6>	0
<0xF7>	0
<0xF8>	0
<0xF9>	0
<0xFA>	0
<0xFB>	0
<0xFC>	0
<0xFD>	0
<0xFE>	0
<0xFF>	0
.	-2.92081
▁	-3.21019
을	-3.88017
를	-4.30303
의	-4.32394
가	-4.35193
,	-4.4806
는	-4.49496
이	-4.50567
에	-4.65443
은	-4.81605
0	-4.8497
▁수	-4.98797
1	-4.99828
?	-5.02184
2	-5.2485
도	-5.30746
고	-5.33488
▁이	-5.4841
▁그	-5.48536
로	-5.49355
한	-5.5617
에서	-5.6218
▁나는	-5.73579
▁있는	-5.75093
으로	-5.76877
▁있다	-5.78885
다	-5.82254
지	-5.85513
과	-5.85726
3	-5.88814
▁저는	-5.93964
5	-5.95634
와	-5.99292
인	-6.00914
▁있습니다	-6.06462
▁한	-6.07875
할	-6.08206
하고	-6.12284
하는	-6.14855
4	-6.15883
일	-6.22427
만	-6.23786
▁것	-6.24083
▁더	-6.26189
(	-6.29644
6	-6.30025
▁“	-6.35233
9	-6.38807
▁‘	-6.3897
)	-6.39162
”	-6.39761
해	-6.40574
8	-6.41464
▁우리	-6.46557
7	-6.47826
▁제가	-6.48638
▁내	-6.48707
게	-6.49306
입니다	-6.49313
년	-6.50652
▁내가	-6.52512
▁할	-6.54584
기	-6.55145
’	-6.6022
▁당신은	-6.62985
▁우리는	-6.65427
서	-6.69507
▁잘	-6.70042
▁안	-6.7078
▁그는	-6.71504
요	-6.7395
▁당신이	-6.74225
▁위해	-6.75312
하게	-6.75348
▁제	-6.75539
▁때	-6.77024
▁전	-6.77283
들이	-6.77729
▁많은	-6.77939
어	-6.78249
▁것이	-6.78268
▁것을	-6.79338
나	-6.79687
했다	-6.80206
월	-6.8198
▁대한	-6.84922
▁것으로	-6.86213
시	-6.87105
▁가장	-6.87365
▁다른	-6.87528
▁중	-6.9008
▁하는	-6.90389
▁지금	-6.94215
자	-6.94716
면	-6.95869
▁두	-6.96548
▁이번	-6.9663
야	-6.9753
▁있어요	-6.97585
된	-6.97635
습니다	-6.98437
▁많이	-7.00559
▁당신의	-7.0284
▁오늘	-7.02911
▁함께	-7.04145
하지	-7.04977
▁것은	-7.05968
히	-7.08098
▁대해	-7.08236
며	-7.08839
합니다	-7.09496
▁어떻게	-7.11711
▁게	-7.12292
에는	-7.12682
라	-7.12787
▁합니다	-7.13164
까지	-7.14448
리	-7.1633
▁주	-7.17424
▁어떤	-7.17704
▁좋은	-7.17719
에게	-7.17882
▁너무	-7.17918
적인	-7.18243
▁한국	-7.18482
하기	-7.19578
▁다시	-7.20141
▁것입니다	-7.20711
▁때문에	-7.22853
스	-7.24835
▁모든	-7.25191
▁다	-7.26143
들은	-7.26824
%	-7.2721
▁난	-7.27318
▁것이다	-7.28385
▁정말	-7.28489
대	-7.28712
주	-7.28998
▁하고	-7.30867
▁지난	-7.3139
▁같은	-7.32336
▁있어	-7.3238
▁네	-7.33009
▁해	-7.33012
했습니다	-7.33381
▁좀	-7.35567
▁말했다	-7.3618
라고	-7.36591
▁있나요	-7.36777
-	-7.3686
수	-7.36914
던	-7.37967
니	-7.3802
▁될	-7.38421
▁나	-7.38614
▁우리가	-7.38786
▁저희	-7.38879
개	-7.39321
▁등	-7.40271
▁거	-7.40657
사	-7.4153
▁그리고	-7.41627
▁저	-7.42805
아	-7.42929
▁일	-7.43078
▁큰	-7.43149
이다	-7.44874
▁시간	-7.44878
이라고	-7.46605
▁있을	-7.46987
▁다음	-7.47479
▁통해	-7.48647
▁영화	-7.48758
진	-7.5116
▁경우	-7.51908
▁또	-7.53437
▁모두	-7.53732
▁건	-7.54671
들을	-7.55179
적	-7.55987
▁한다	-7.56011
▁줄	-7.59008
드	-7.61178
▁사람이	-7.62362
▁후	-7.63059
▁말	-7.63107
▁하나	-7.63392
분	-7.63886
▁현재	-7.64465
▁미국	-7.64528
▁밝혔다	-7.64836
부	-7.64897
해야	-7.65893
▁번	-7.66449
명	-7.66472
▁몇	-7.66516
▁정도	-7.66785
해서	-7.66921
▁동안	-7.67182
▁네가	-7.67291
트	-7.67646
▁해요	-7.6788
▁가지고	-7.6805
▁보고	-7.68082
▁이런	-7.6877
▁너	-7.68814
▁하지만	-7.69689
▁없는	-7.69809
라는	-7.69877
▁오	-7.70323
▁새로운	-7.71166
▁가지	-7.7156
▁그녀는	-7.71734
보다	-7.71781
▁김	-7.71796
비	-7.72078
▁같이	-7.72088
▁위한	-7.72133
▁거예요	-7.72256
▁볼	-7.72714
이에요	-7.7289
▁친구	-7.73177
▁매우	-7.74024
했어요	-7.7408
미	-7.74159
▁바로	-7.74598
▁바랍니다	-7.75263
▁못	-7.75635
화	-7.76153
▁음식	-7.76466
▁있다고	-7.76609
▁A	-7.77007
선	-7.77257
세	-7.77764
▁알	-7.77876
에서는	-7.78056
해요	-7.78296
▁왜	-7.78975
▁데	-7.79011
적으로	-7.79105
▁시간이	-7.79257
어요	-7.79515
▁했다	-7.79811
▁사	-7.80086
소	-7.8078
성	-7.81265
▁당신	-7.81621
▁이상	-7.82006
▁그녀	-7.82165
▁미	-7.82178
신	-7.82657
보	-7.82725
▁비	-7.82767
▁알고	-7.82892
여	-7.8307
이나	-7.834
▁사람들이	-7.83753
▁바	-7.83927
▁일이	-7.84107
상	-7.84276
전	-7.84547
"	-7.8474
될	-7.84894
▁있다는	-7.85256
▁그런	-7.8585
▁나의	-7.85973
▁걸	-7.86207
▁혹시	-7.86574
▁그것	-7.87001
부터	-7.87021
▁시	-7.8715
▁지	-7.87174
구	-7.87532
▁사용	-7.87765
치	-7.87825
▁거야	-7.88004
하여	-7.88299
▁아	-7.88347
장	-7.88505
▁약	-7.89123
들	-7.89974
정	-7.90028
▁또한	-7.90114
▁날	-7.90462
▁같아요	-7.91006
▁그럼	-7.91026
러	-7.91182
▁없습니다	-7.91814
▁차	-7.92722
▁않은	-7.93419
▁당신에게	-7.93439
▁아직	-7.93473
▁그래서	-7.93533
▁사람	-7.93573
한다	-7.93626
▁그것은	-7.93712
▁개	-7.93734
지만	-7.94003
▁세	-7.94073
▁보내	-7.9435
▁어느	-7.94381
제	-7.9445
마	-7.94937
▁있었다	-7.95004
원	-7.95095
하면	-7.95209
▁일을	-7.954
▁이제	-7.95464
명이	-7.95486
하며	-7.96117
차	-7.96399
▁됩니다	-7.96961
▁세계	-7.96962
당	-7.97283
▁갈	-7.97284
들의	-7.97562
▁중국	-7.98658
▁확인	-7.989
르	-7.9958
▁자신의	-7.99742
하	-7.99817
▁있도록	-7.99957
산	-8.00437
▁같아	-8.01916
처럼	-8.0194
질	-8.01982
동	-8.02368
회	-8.02783
조	-8.02909
▁원	-8.03282
▁여러	-8.03936
s	-8.04168
▁모습	-8.04262
▁아니라	-8.04567
▁해야	-8.04703
▁뒤	-8.05067
▁나에게	-8.05113
▁너는	-8.05302
▁그들은	-8.05421
▁이것은	-8.05678
▁되는	-8.05753
▁수도	-8.05986
'	-8.06117
▁그렇게	-8.06973
▁얼마나	-8.07023
▁가운데	-8.07109
▁않고	-8.07323
이라는	-8.07351
▁싶습니다	-8.07578
▁이렇게	-8.07927
면서	-8.08088
▁전화	-8.08414
▁달	-8.08779
▁당신을	-8.08829
▁없다	-8.09036
▁정	-8.0955
▁않습니다	-8.09644
▁여기	-8.09777
▁항상	-8.09866
우	-8.0991
▁직접	-8.09913
▁총	-8.09972
되는	-8.10327
▁그러나	-8.10544
호	-8.10577
▁주세요	-8.1087
길	-8.11036
▁유	-8.11712
용	-8.11989
▁대	-8.12045
▁하지	-8.1212
오	-8.12428
위	-8.12483
실	-8.12797
▁경기	-8.12861
▁신	-8.13188
▁전에	-8.13643
▁계속	-8.13933
▁있고	-8.14177
▁부	-8.1419
▁않을	-8.1428
는데	-8.1435
▁따라	-8.1438
▁좋아하는	-8.15026
▁본	-8.15307
▁마	-8.15453
▁K	-8.15691
엔	-8.15909
▁살	-8.16074
▁조금	-8.16092
▁된	-8.16322
▁먼저	-8.16395
▁다양한	-8.16865
▁이러한	-8.17394
▁진행	-8.17502
▁집	-8.17569
▁이미	-8.17967
데	-8.18126
▁각	-8.18192
▁가는	-8.18294
▁주문	-8.18327
▁공	-8.18364
▁것이에요	-8.18947
▁여성	-8.19187
▁첫	-8.19474
타	-8.1961
!	-8.19674
▁필요	-8.19943
▁이유	-8.20057
e	-8.20116
▁같습니다	-8.20394
▁자	-8.20411
▁사진	-8.20815
억	-8.20888
▁일본	-8.20961
▁않는	-8.21136
▁전했다	-8.22275
▁것이라고	-8.22415
으면	-8.2304
▁회사	-8.2322
▁올	-8.23534
▁서비스	-8.23565
▁이후	-8.23607
되어	-8.23643
▁이름	-8.23686
식	-8.2423
▁모	-8.24302
▁B	-8.24406
▁적이	-8.24432
▁준비	-8.24887
▁남자	-8.24959
▁최근	-8.25096
▁있을까요	-8.25256
▁나를	-8.25595
크	-8.25843
다고	-8.25918
▁만들어	-8.25945
▁생각	-8.26009
▁및	-8.2614
▁사랑	-8.26638
▁만약	-8.26708
▁건가요	-8.27301
됐다	-8.27407
했던	-8.27515
▁보	-8.27537
▁하	-8.27765
▁아주	-8.27841
▁들어	-8.28005
단	-8.28084
모	-8.28142
나요	-8.28472
▁싶어요	-8.28916
▁집에	-8.28948
▁불	-8.29181
시간	-8.29874
번	-8.29989
▁여행	-8.30295
그	-8.31129
명의	-8.31339
었습니다	-8.31576
·	-8.31648
방	-8.31949
문	-8.32388
▁마음	-8.32593
▁공부	-8.33105
▁구	-8.33272
▁꼭	-8.33281
▁"	-8.33641
▁여자	-8.33816
▁판매	-8.33849
연	-8.33946
▁올해	-8.3466
m	-8.35739
재	-8.35798
프	-8.36005
▁없이	-8.36458
▁있는지	-8.36517
하면서	-8.36599
▁오후	-8.36634
▁피	-8.36634
점	-8.36851
운	-8.37148
▁있는데	-8.37275
▁반	-8.37423
▁있어서	-8.37453
거나	-8.37558
▁이야기	-8.37589
물	-8.37681
▁하루	-8.37716
▁싶어	-8.3777
▁내일	-8.37859
▁버스	-8.37992
디	-8.38009
▁있게	-8.38273
▁된다	-8.38885
▁장	-8.39012
▁추가	-8.3912
▁한번	-8.39354
▁서	-8.39664
형	-8.39675
▁대해서	-8.39804
되고	-8.39842
내	-8.3995
▁있습니까	-8.39969
네	-8.40073
▁없어요	-8.4015
▁온	-8.40346
▁상	-8.4044
▁말을	-8.4064
▁시작	-8.40972
되지	-8.40985
▁위해서	-8.41047
네요	-8.41677
린	-8.41705
▁자리	-8.41928
란	-8.41969
▁새	-8.4199
)’	-8.42276
▁언제	-8.4245
직	-8.4252
즈	-8.42563
▁되어	-8.42593
▁가격	-8.42812
▁이어	-8.42817
런	-8.42905
▁열심히	-8.42961
금	-8.42996
▁간	-8.43039
▁자신이	-8.43087
▁무슨	-8.43164
▁이날	-8.4319
▁높은	-8.43545
▁때문이다	-8.43707
▁결과	-8.43806
▁배	-8.44107
▁음악	-8.44132
▁문제가	-8.44236
▁문	-8.44239
바	-8.4436
▁제품	-8.44459
▁받을	-8.44498
▁노력	-8.4455
▁저에게	-8.44725
▁방	-8.44943
▁사람은	-8.45078
▁정부	-8.45231
▁부분	-8.45286
▁강	-8.45347
중	-8.45498
▁이것	-8.45663
기를	-8.45715
▁계획	-8.45795
무	-8.45868
▁번째	-8.46147
▁선	-8.46212
▁있기	-8.46221
▁운동	-8.46385
▁했어요	-8.46677
▁점	-8.46885
▁대통령	-8.47049
약	-8.47083
안	-8.47416
티	-8.47634
▁기대	-8.47679
▁특히	-8.47703
▁어제	-8.47713
▁않았다	-8.47746
▁서울	-8.47804
▁나도	-8.4782
▁정보	-8.47974
▁지원	-8.48101
랑	-8.48158
▁책	-8.4833
▁필요한	-8.48475
에도	-8.48794
▁조	-8.48924
▁단	-8.49083
간	-8.49109
▁오는	-8.49165
▁선택	-8.49187
계	-8.49204
두	-8.49296
▁사람들은	-8.49394
▁상품	-8.49526
▁적	-8.49644
▁타	-8.49751
D	-8.49997
▁양	-8.50044
▁기	-8.5026
관	-8.50276
▁영어	-8.50521
▁일부	-8.50635
▁않아요	-8.50658
▁지난해	-8.5068
▁손	-8.50741
카	-8.5093
▁있으며	-8.50985
▁발	-8.51022
▁입	-8.51035
▁하면	-8.51294
토	-8.51518
▁관심	-8.51639
피	-8.51731
▁사람들	-8.51908
▁만큼	-8.51934
▁생각합니다	-8.52001
거	-8.52102
▁아무	-8.52111
하도록	-8.5218
▁관련	-8.52252
▁하겠습니다	-8.5241
도록	-8.52426
▁없어	-8.52502
레	-8.52502
더	-8.526
▁연락	-8.52826
▁더욱	-8.52892
▁것도	-8.53061
▁드라마	-8.53238
▁앞으로	-8.53439
▁무	-8.53543
▁얘기	-8.53599
▁빨리	-8.53992
건	-8.54039
▁길	-8.54065
국	-8.54084
지는	-8.54353
까	-8.54587
▁겁니다	-8.55065
려	-8.55229
▁어	-8.55287
▁타고	-8.55376
▁수업	-8.55627
▁내용	-8.5583
▁S	-8.55898
▁조사	-8.56024
▁받고	-8.56049
▁해당	-8.56202
▁있지만	-8.56268
▁이용	-8.5629
▁방법	-8.5647
▁기회	-8.56587
▁제품을	-8.56603
▁한국에서	-8.5669
▁것에	-8.56701
▁재	-8.56848
천	-8.5705
▁처음	-8.57109
▁한국에	-8.5718
▁시장	-8.57216
코	-8.57281
▁학교	-8.57381
▁박	-8.57403
▁지역	-8.57418
▁위	-8.57565
포	-8.57884
▁명	-8.58018
다는	-8.58041
▁했습니다	-8.58244
▁모습이	-8.58423
파	-8.58491
▁서로	-8.58638
▁물	-8.58679
▁그들	-8.58958
▁사실	-8.58986
었다	-8.59109
하세요	-8.59136
▁역시	-8.59287
▁그냥	-8.59361
▁분	-8.59481
▁있었습니다	-8.59496
루	-8.59569
석	-8.59789
유	-8.59809
▁속	-8.59986
▁거의	-8.60032
이었다	-8.60498
기도	-8.60927
돼	-8.61053
노	-8.61093
▁설명	-8.61102
▁자신	-8.61201
▁C	-8.61215
▁저녁	-8.61222
▁인기	-8.61674
▁오늘은	-8.61767
였다	-8.61785
▁매	-8.61791
하겠습니다	-8.61834
▁안에	-8.61846
▁연	-8.62018
▁보면	-8.62027
▁트럼프	-8.62134
▁당시	-8.62155
▁사진을	-8.62162
▁행복	-8.62202
▁중요한	-8.62263
▁행사	-8.62312
▁팀	-8.6253
▁작은	-8.62605
▁싶은	-8.62689
▁성	-8.62693
▁좋아	-8.62717
▁꿈	-8.62957
▁방문	-8.62975
경	-8.6312
져	-8.63443
하다	-8.63635
▁중에	-8.6404
▁제일	-8.64123
▁도움이	-8.64251
▁돈을	-8.6428
▁작품	-8.64528
▁아닌	-8.64556
▁갖고	-8.65031
했다고	-8.65338
▁여기서	-8.65374
▁아래	-8.65548
▁열	-8.65553
개의	-8.65639
영	-8.65679
▁당신과	-8.66188
터	-8.66309
A	-8.66324
▁자주	-8.66548
▁감독	-8.66617
발	-8.6672
▁되고	-8.66974
▁기록	-8.67055
체	-8.67134
인데	-8.67201
▁입고	-8.67558
▁의미	-8.67627
▁변화	-8.67662
▁눈	-8.67777
▁배우	-8.67786
▁만들	-8.67814
▁디자인	-8.67877
심	-8.67909
▁채	-8.68198
▁인해	-8.68461
인가요	-8.68559
▁있으면	-8.68643
▁문제	-8.68696
주세요	-8.68731
키	-8.68808
▁않아	-8.6913
▁때문입니다	-8.69175
▁참	-8.69301
▁스	-8.69434
▁상태	-8.69534
▁구매	-8.69717
▁동	-8.69719
▁원하는	-8.69895
▁그들이	-8.69931
세요	-8.70074
종	-8.7008
S	-8.70175
▁파	-8.70282
▁될까요	-8.70395
▁자기	-8.70427
▁비행기	-8.70839
▁생각이	-8.70855
▁그러면	-8.70932
▁가족	-8.70959
▁오래	-8.70982
행	-8.71038
▁전체	-8.71292
▁물건	-8.71492
▁연구	-8.71501
▁결정	-8.71533
▁우리에게	-8.71789
▁도움	-8.71969
▁하나요	-8.72176
온	-8.72176
▁마지막	-8.7227
▁산	-8.72364
▁사고	-8.72486
권	-8.72508
▁식사	-8.72575
함	-8.72607
▁선물	-8.7277
▁후에	-8.72878
▁리	-8.72954
▁가진	-8.72997
▁등을	-8.73104
C	-8.73179
▁공연	-8.73192
▁있지	-8.73266
살	-8.73763
▁소	-8.73823
▁저의	-8.73986
▁'	-8.74034
버	-8.74098
M	-8.74101
▁자동차	-8.74167
▁이를	-8.74224
▁몸	-8.74288
▁비용	-8.74376
죠	-8.74527
▁무엇을	-8.74556
▁되나요	-8.74656
▁보인다	-8.74807
▁한국의	-8.74975
▁이들	-8.75015
군	-8.75282
▁해서	-8.75546
▁규모	-8.75701
했고	-8.75738
/	-8.75768
▁영국	-8.75921
▁생활	-8.761
▁만나	-8.76445
▁밤	-8.76452
▁노	-8.76458
감	-8.76594
교	-8.76722
▁경험	-8.76833
▁국내	-8.76882
으며	-8.76945
▁포	-8.77
▁문화	-8.77013
▁요리	-8.77062
▁삶	-8.77806
▁또는	-8.77815
▁등이	-8.77891
▁소리	-8.77935
▁초	-8.78156
▁감사합니다	-8.78187
P	-8.78214
▁대통령은	-8.78323
▁게임	-8.78783
▁대통령이	-8.78791
습니까	-8.78817
▁수가	-8.78835
워	-8.78903
▁오전	-8.79305
▁호	-8.79388
▁곳	-8.79457
G	-8.79813
▁나라	-8.79857
▁국가	-8.7999
▁머리	-8.80174
▁잠	-8.80217
배	-8.80354
▁예약	-8.80514
▁보는	-8.80765
L	-8.80781
민	-8.80957
▁사업	-8.81025
▁이유는	-8.81107
o	-8.81252
된다	-8.81327
씨	-8.81373
▁이야기를	-8.81513
▁받은	-8.81639
▁정도로	-8.81772
자가	-8.81936
▁결제	-8.82012
~	-8.82365
공	-8.82503
▁시험	-8.82553
급	-8.82575
래	-8.82623
▁교육	-8.82763
▁잘못	-8.82856
▁그룹	-8.83155
역	-8.83219
▁경제	-8.83455
▁영향을	-8.83546
▁나와	-8.83553
인지	-8.83723
▁기술	-8.83744
▁실	-8.83828
▁편	-8.83853
▁이는	-8.83877
▁덧붙였다	-8.84109
▁있던	-8.84135
▁개인	-8.8415
▁가서	-8.84277
▁벌써	-8.84304
▁가능한	-8.84431
반	-8.84484
▁하는데	-8.84558
▁살고	-8.84885
▁여기에	-8.84922
▁메시지	-8.84965
▁되었습니다	-8.84988
▁여전히	-8.84991
▁호텔	-8.85122
y	-8.85172
▁없을	-8.85345
생	-8.85363
통	-8.85476
▁목표	-8.85625
▁그것이	-8.85635
▁애	-8.85662
▁말하는	-8.85875
들과	-8.85931
▁아이	-8.86155
▁되지	-8.86158
▁발표	-8.86245
▁왜냐하면	-8.86281
▁혼자	-8.86586
▁알려	-8.86681
현지시간	-8.86794
▁먹고	-8.86843
든	-8.869
준	-8.86926
색	-8.87147
▁이건	-8.87189
브	-8.87216
▁있다면	-8.87523
▁관심이	-8.87581
F	-8.87668
▁노래	-8.8769
▁여	-8.87706
▁매일	-8.87752
류	-8.87814
▁도시	-8.87917
▁들	-8.87997
▁당	-8.88014
긴	-8.88186
▁관리	-8.88211
T	-8.88223
승	-8.88326
▁카	-8.88351
니다	-8.88365
▁마음이	-8.88465
▁예정이다	-8.88467
▁제대로	-8.88496
▁얼마	-8.88557
시에	-8.88657
▁결혼	-8.88709
▁쉽게	-8.8881
▁뭐	-8.88882
▁제작	-8.88936
증	-8.88955
▁크게	-8.88958
▁요즘	-8.89131
▁하기	-8.89184
▁사는	-8.89317
▁아니	-8.89421
▁성공	-8.89614
▁T	-8.89621
▁부탁드립니다	-8.89635
▁이해	-8.89831
▁먹을	-8.89854
강	-8.90091
t	-8.90261
▁가고	-8.90625
▁사이	-8.9072
판	-8.90736
▁남	-8.90762
▁요청	-8.90778
줄	-8.90948
▁보여	-8.90985
▁글	-8.9103
▁생각해요	-8.91166
박	-8.91292
됩니다	-8.91354
로부터	-8.91444
▁브랜드	-8.91452
▁생산	-8.91541
▁TV	-8.91673
▁소녀	-8.91828
▁만든	-8.91877
▁명의	-8.91934
▁공격	-8.91973
▁사람을	-8.92009
▁아니다	-8.9207
겠습니다	-8.92136
▁절대	-8.92238
되었습니다	-8.9232
▁엄마	-8.92431
▁나서	-8.92432
▁미국에서	-8.92673
▁방송	-8.92703
▁선수	-8.92903
▁됐다	-8.92976
▁사회	-8.93077
▁외	-8.93093
▁가치	-8.93138
저	-8.93181
d	-8.93216
▁심	-8.93285
학	-8.93368
▁오바마	-8.93369
▁곧	-8.93399
▁그건	-8.9349
▁프로그램	-8.93537
▁피해	-8.9357
▁그래도	-8.93603
▁최대	-8.93773
▁독일	-8.93822
▁주는	-8.94074
▁건강	-8.94082
▁먹는	-8.94176
▁P	-8.94242
▁기억	-8.94299
▁여행을	-8.943
▁같다	-8.94447
▁가야	-8.94538
▁러시아	-8.94594
▁일정	-8.94687
었어요	-8.94791
▁프랑스	-8.9484
▁전혀	-8.94895
릴	-8.94982
집	-8.95112
▁스스로	-8.95151
▁평가	-8.95305
▁그런데	-8.95382
▁고객	-8.95519
▁피해자	-8.95536
▁프로젝트	-8.95592
들에게	-8.95611
▁술	-8.95635
▁사용할	-8.95737
▁대화	-8.9607
▁이곳	-8.96234
B	-8.96391
▁커피	-8.96469
▁여러분	-8.96592
▁배송	-8.96761
다면	-8.96763
▁연기	-8.96786
▁화	-8.96854
▁아침	-8.96963
려고	-8.97159
론	-8.97194
▁열린	-8.97348
▁인터넷	-8.97358
▁걱정	-8.97371
▁경찰은	-8.97484
마다	-8.97515
하려고	-8.97523
현	-8.97526
▁집에서	-8.97627
지도	-8.97689
양	-8.97701
예요	-8.97811
▁데뷔	-8.97918
▁대신	-8.97977
▁나이	-8.9806
▁제공	-8.98073
▁우	-8.98104
▁메일	-8.98149
▁이라크	-8.98244
▁인간	-8.98374
▁받아	-8.98547
군요	-8.98574
개월	-8.98578
▁표현	-8.98709
▁관계	-8.98733
▁않았습니다	-8.98767
▁낙	-8.98871
설	-8.98882
록	-8.98924
하였습니다	-8.98935
▁개발	-8.99326
에서도	-8.99341
▁투자	-8.99421
▁F	-8.99508
▁컴퓨터	-8.99659
▁것처럼	-8.99789
▁아닙니다	-9.00415
▁최고	-9.00432
▁생각을	-9.00467
본	-9.00645
▁해도	-9.00758
라도	-9.00824
청	-9.00862
속	-9.00922
▁곳이	-9.01162
▁너에게	-9.01291
k	-9.0131
▁사실을	-9.0148
▁안전	-9.01522
하거나	-9.01537
▁없었다	-9.01587
▁발생	-9.0171
▁문제를	-9.01849
▁저도	-9.01915
▁하나님	-9.02068
▁않다	-9.0216
임	-9.02179
▁집중	-9.02293
▁만드는	-9.02421
▁보일	-9.02952
▁분석	-9.02988
▁거에요	-9.03082
투	-9.03171
병	-9.03178
▁키	-9.03188
▁북한	-9.03248
▁사건	-9.03279
니까	-9.03631
▁각각	-9.03713
초	-9.03761
▁성장	-9.03929
▁M	-9.03998
▁좋을	-9.04098
▁변경	-9.04118
▁되면	-9.04173
작	-9.04231
n	-9.04278
p	-9.0461
했으며	-9.04626
하는데	-9.04637
▁우선	-9.04694
복	-9.0472
태	-9.04779
일까지	-9.04885
▁때는	-9.04926
▁지금은	-9.04932
스트	-9.05032
▁너를	-9.0505
▁생각해	-9.05053
▁유명한	-9.05162
▁분위기	-9.05245
▁이번에	-9.05296
▁파일	-9.05333
▁코	-9.05408
▁가방	-9.05472
▁차량	-9.05472
하신	-9.05527
▁위에	-9.056
난	-9.05684
▁한다고	-9.05687
▁전달	-9.05722
▁않는다	-9.05729
▁관한	-9.05733
▁누가	-9.05823
했지만	-9.05924
울	-9.05949
▁찾아	-9.06047
▁촬영	-9.06061
l	-9.06083
림	-9.06086
▁입장	-9.06203
량	-9.06212
▁와	-9.06394
▁한편	-9.06451
▁막	-9.06531
▁가수	-9.06581
▁의해	-9.06592
▁작업	-9.06662
▁업무	-9.06859
▁운영	-9.07085
▁위해서는	-9.07093
▁나중에	-9.07204
▁충분	-9.07327
▁이것이	-9.07362
▁굉장히	-9.0745
▁가능성이	-9.07503
▁피부	-9.07647
▁처리	-9.07659
▁이미지	-9.07778
▁현지	-9.07794
▁외국인	-9.07964
▁보도	-9.08112
▁예	-9.08168
▁못한	-9.0854
년에	-9.08636
▁기업	-9.08789
절	-9.08806
▁두고	-9.08875
▁나타났다	-9.08973
기가	-9.09053
▁최선	-9.09218
편	-9.09238
▁말고	-9.09375
K	-9.09386
▁순간	-9.09508
▁승리를	-9.09647
▁아마	-9.09741
▁H	-9.0981
▁주요	-9.0993
▁되	-9.09983
력	-9.10072
▁어디에	-9.10124
되었다	-9.10167
플	-9.10174
▁새로	-9.10223
▁이에	-9.10272
▁해결	-9.10294
법	-9.10305
▁따로	-9.10352
▁치	-9.10451
▁학생	-9.10567
▁예정입니다	-9.10807
▁팬들	-9.11039
▁대표	-9.1105
달러	-9.11124
▁노출	-9.11177
대로	-9.11266
▁지금까지	-9.11638
▁한류	-9.11782
▁팔	-9.11796
▁만에	-9.11931
▁발견	-9.11945
▁신청	-9.12099
▁주장	-9.12136
했을	-9.1223
▁앞서	-9.12366
▁변	-9.12537
▁우승	-9.12685
▁유럽	-9.12866
▁치료	-9.12877
▁아니면	-9.12913
업	-9.12925
▁설명했다	-9.12968
▁명이	-9.12976
▁어디	-9.13013
씨가	-9.13054
불	-9.1311
i	-9.1316
▁도착	-9.13184
u	-9.13316
날	-9.13457
▁돼	-9.13498
:	-9.13546
▁인사	-9.1364
r	-9.13699
▁한다는	-9.1373
▁인도	-9.14099
▁그대로	-9.14115
▁있었던	-9.1423
▁좋겠어요	-9.14292
▁확인해	-9.1431
▁경찰	-9.14342
▁활동	-9.145
▁온라인	-9.14508
▁장소	-9.14529
하기도	-9.14557
▁그때	-9.1466
▁기분이	-9.14818
▁진짜	-9.1487
▁아버지	-9.1496
▁별	-9.15035
W	-9.15141
가지	-9.15226
▁메뉴	-9.15313
▁마세요	-9.15313
▁선생님	-9.15424
▁알아	-9.15576
▁일은	-9.15901
▁만날	-9.15943
▁회의	-9.15975
▁말이	-9.1614
∼	-9.16204
▁달러	-9.16205
위를	-9.16205
▁대부분	-9.16235
▁D	-9.16275
▁보이는	-9.16292
▁맞	-9.16348
▁결국	-9.1635
이고	-9.16375
등	-9.16643
▁샘플	-9.16744
이며	-9.16815
▁돈	-9.16958
▁계약	-9.17051
▁보통	-9.17053
▁취소	-9.17084
▁역할을	-9.1715
▁시스템	-9.17154
▁기간	-9.1716
▁최고의	-9.1723
각	-9.17261
▁따르면	-9.17309
▁그게	-9.1732
▁존재	-9.17363
▁카메라	-9.17438
er	-9.17492
▁거래	-9.17508
▁건물	-9.17514
▁그에게	-9.17548
▁제안	-9.17606
▁소개	-9.17613
▁경	-9.17622
▁의견	-9.17625
▁사용하는	-9.17769
일부터	-9.17815
▁고양이	-9.17901
▁속에	-9.17929
g	-9.17958
으	-9.18125
▁이들이	-9.18133
열	-9.18167
▁얼굴	-9.18174
▁필요합니다	-9.18191
▁답변	-9.1825
▁가득	-9.18259
▁알려졌다	-9.18271
▁마음에	-9.18363
▁업체	-9.18622
▁이메일	-9.18705
는지	-9.18708
▁죽	-9.18731
▁E	-9.18758
▁G	-9.18774
▁많다	-9.18865
팀	-9.19019
▁사이즈	-9.19095
▁뜻	-9.19125
▁진	-9.19143
▁밥	-9.19156
▁반드시	-9.19212
너	-9.19261
▁때문이에요	-9.19359
어서	-9.19378
▁보니	-9.19416
▁행동	-9.19416
▁홈런	-9.19582
a	-9.19632
립	-9.19804
목	-9.19832
▁시즌	-9.19866
링	-9.1988
하던	-9.19923
▁주장했다	-9.1994
언	-9.20084
▁서류	-9.20086
▁그동안	-9.20164
씨는	-9.20217
▁택시	-9.20226
한테	-9.20264
▁날씨	-9.20271
▁앞	-9.20326
월에	-9.20349
▁나온	-9.20393
▁자연	-9.204
ing	-9.20447
▁알게	-9.20488
▁대해서는	-9.20509
▁음반	-9.20899
▁없	-9.20944
▁것과	-9.20951
▁상황이	-9.21026
예	-9.21087
해주세요	-9.21134
성이	-9.21311
▁누군가	-9.21475
달	-9.21704
이라	-9.21756
▁보아	-9.21831
▁기능	-9.21866
품	-9.21978
▁발전	-9.22028
창	-9.22029
▁목소리	-9.22046
한다는	-9.22094
h	-9.22151
매	-9.22321
표	-9.22419
▁나오는	-9.2244
▁일찍	-9.22462
▁우리나라	-9.22514
▁대부분의	-9.22578
▁개의	-9.22669
▁생각하는	-9.2268
▁적용	-9.22762
▁언론	-9.22954
▁필요하다	-9.23135
▁씨	-9.23267
N	-9.23423
Pop	-9.23471
▁예상	-9.23511
▁추	-9.23567
▁실제로	-9.2358
▁돼요	-9.23658
▁봐	-9.23677
▁W	-9.23709
츠	-9.23719
▁수정	-9.23759
▁그렇다면	-9.23769
▁기사	-9.23811
했는데	-9.2383
료	-9.23883
명을	-9.23923
일에	-9.24033
볼	-9.24132
▁생각한다	-9.24171
층	-9.24179
하실	-9.2422
▁인상	-9.24323
▁넘	-9.24326
▁참여	-9.244
▁한국어	-9.24515
▁감사	-9.24539
지를	-9.24669
▁번호	-9.24682
▁부탁	-9.24718
▁이란	-9.24855
▁주로	-9.24868
▁군	-9.24875
▁받는	-9.24994
▁아시아	-9.25067
▁특별한	-9.2512
▁가게	-9.25357
▁테스트	-9.25371
▁경매	-9.25377
▁맛	-9.25427
▁쓰	-9.25455
▁설치	-9.25588
▁누구	-9.25609
▁실제	-9.25756
E	-9.25835
▁한국인	-9.25855
▁발생한	-9.25882
▁라	-9.25894
▁가격이	-9.25942
▁일단	-9.26094
▁미래	-9.26111
밖에	-9.26214
▁영어를	-9.26322
▁공간	-9.26465
출	-9.26485
른	-9.26545
▁콘서트	-9.26594
말	-9.2668
▁베네수엘라	-9.26703
▁영상	-9.26734
▁좋습니다	-9.26891
▁금액	-9.26897
▁공급	-9.26919
▁주에	-9.26941
▁때까지	-9.26952
▁운전	-9.26952
▁잭슨	-9.27004
▁후보	-9.27011
▁광고	-9.27159
▁버	-9.27201
▁것이라는	-9.27225
▁일자리	-9.27329
▁귀	-9.27389
▁가면	-9.27396
▁좋아합니다	-9.27461
▁모델	-9.2771
▁영	-9.27833
▁은행	-9.27892
▁세상	-9.27934
라면	-9.27967
쳐	-9.28028
▁가까운	-9.28058
▁작성	-9.28214
퍼	-9.28271
▁제품은	-9.28278
담	-9.28289
슨	-9.28304
▁이벤트	-9.28362
▁것인지	-9.28393
▁주고	-9.28433
▁가능합니다	-9.28439
▁부시	-9.28479
▁레	-9.2861
▁전부	-9.2863
▁아들	-9.28735
▁너희	-9.28802
▁출신	-9.28843
으로부터	-9.28876
▁할인	-9.29004
▁빠른	-9.29129
▁메	-9.2915
가요	-9.29156
▁말씀	-9.29294
▁마치	-9.29354
▁토	-9.29387
음	-9.2942
▁구조	-9.29489
▁직업	-9.29741
▁어려운	-9.29897
▁물론	-9.29907
al	-9.30038
▁판단	-9.30041
▁잔	-9.30114
▁골	-9.30148
▁아이들	-9.30202
▁카드	-9.30306
▁유지	-9.3043
▁바라	-9.30502
▁스포츠	-9.30679
이란	-9.30739
▁승리	-9.30819
▁돌	-9.30875
스러운	-9.30915
▁점이	-9.30924
▁기존	-9.30962
락	-9.30969
▁기원합니다	-9.31
]	-9.31138
▁단지	-9.3121
▁없다고	-9.31241
▁부산	-9.31252
▁대변인은	-9.31341
▁잡	-9.31387
▁지급	-9.31414
▁글로벌	-9.31429
▁팬	-9.31448
▁신경	-9.31512
▁좋아요	-9.31626
▁벌	-9.31643
있는	-9.32048
▁훨씬	-9.3208
▁들고	-9.32114
H	-9.32298
▁나한테	-9.32313
▁학교에	-9.32323
갈	-9.32402
하였다	-9.32414
▁대로	-9.32599
▁방법이	-9.32769
리는	-9.32907
▁의사	-9.32965
▁특	-9.32989
▁금	-9.33059
▁맞는	-9.33076
망	-9.33096
이기	-9.33181
▁같은데	-9.33285
결	-9.33398
후	-9.3343
▁과거	-9.33484
시는	-9.33489
▁받지	-9.33622
▁장갑	-9.33679
▁요구	-9.33766
▁좋아해요	-9.33808
한다고	-9.33824
▁뉴욕	-9.3393
▁아름다운	-9.33993
▁증가	-9.34018
▁아기	-9.34047
▁좋지	-9.34128
▁사람들에게	-9.34198
▁나무	-9.34202
▁최	-9.34267
주의	-9.34319
▁(	-9.34341
▁받았다	-9.34355
▁아직도	-9.3441
지고	-9.34467
▁앨범	-9.34503
▁스타일	-9.34504
하지만	-9.34525
▁질문	-9.3462
▁시간에	-9.34674
▁둘	-9.34698
▁부분이	-9.34726
▁자세	-9.34806
▁가능	-9.34827
▁그림	-9.34852
▁법	-9.34933
▁주변	-9.34935
보다는	-9.34978
였습니다	-9.35049
▁점심	-9.35112
▁계산	-9.35161
▁스트레스	-9.352
백	-9.35333
km	-9.3536
▁해당하는	-9.35368
▁포장	-9.35395
▁정상	-9.35421
▁대학	-9.35433
▁보기	-9.35436
▁지불	-9.35479
▁기준	-9.35492
▁이동	-9.35495
▁첨부	-9.3561
커	-9.35862
▁들어가	-9.35897
액	-9.35971
▁출발	-9.36143
로서	-9.36145
씩	-9.36146
▁미리	-9.36154
▁넘는	-9.36155
▁강아지	-9.36272
원이	-9.36282
▁속에서	-9.36361
▁베트남	-9.36449
▁않으면	-9.36657
▁동영상	-9.36657
주는	-9.36668
▁순	-9.3667
▁미국의	-9.36754
▁오히려	-9.36766
▁여름	-9.36784
▁기다리고	-9.3685
▁신고	-9.36854
▁희망	-9.36856
장을	-9.36872
메	-9.3689
▁상당	-9.36915
▁갑자기	-9.36932
▁유명	-9.3697
▁옷을	-9.36973
억원	-9.37106
ed	-9.3722
▁늘	-9.37306
c	-9.37361
까요	-9.37399
▁제품이	-9.3743
▁비키니	-9.3743
▁허	-9.3744
▁I	-9.37529
▁부족	-9.37548
▁생	-9.37584
▁검사	-9.37659
▁죄송합니다	-9.37756
시까지	-9.37794
▁최고가	-9.37806
▁보다	-9.37844
▁환자	-9.3788
▁마무리	-9.37931
▁지지	-9.37958
▁있었어요	-9.38031
추신수	-9.38099
▁정책	-9.38123
▁시도	-9.38209
▁콘텐츠	-9.38271
▁곳에	-9.38303
▁축구	-9.38329
▁개최	-9.38342
▁대회	-9.38352
곡	-9.38366
입	-9.38422
▁준	-9.38563
▁불구하고	-9.38603
▁곡	-9.38703
▁어머니	-9.38862
▁호주	-9.38903
하길	-9.38926
▁백	-9.38943
▁발송	-9.38957
▁있어야	-9.38975
▁감	-9.39065
▁있	-9.39101
성을	-9.39131
희	-9.3914
▁달리	-9.39195
▁인기가	-9.39211
기는	-9.39261
▁교	-9.39323
▁아는	-9.39387
▁존	-9.39467
▁상승	-9.39567
▁이들은	-9.39624
▁듯	-9.39697
▁역사	-9.39724
▁수잔	-9.39919
▁죄송하지만	-9.39962
▁와서	-9.39966
름	-9.40031
▁스타	-9.40052
동영상	-9.40073
▁지하철	-9.40073
▁중인	-9.40213
▁기후변화	-9.40302
▁공개	-9.40381
▁관해	-9.40411
▁하는지	-9.40459
▁친	-9.40492
▁문의	-9.40504
▁축제	-9.40504
▁이탈리아	-9.40818
▁빠르게	-9.40849
스타	-9.4089
▁사랑하는	-9.40924
▁경기도	-9.41004
f	-9.41146
테	-9.41166
▁않았	-9.41196
▁답	-9.41202
▁되었다	-9.41242
in	-9.41248
▁어디서	-9.41261
▁사용자	-9.41264
R	-9.41376
▁길이	-9.41411
▁비해	-9.41542
▁경쟁	-9.41552
▁식	-9.41644
▁청	-9.41677
▁도전	-9.41884
▁표	-9.42058
▁역	-9.42138
곤	-9.42158
▁예술	-9.42193
▁이거	-9.42223
▁사람들을	-9.42312
▁딸	-9.42327
만큼	-9.42344
▁스리	-9.42395
한다면	-9.42395
장은	-9.42411
▁병	-9.42444
▁[	-9.42493
▁싶은데	-9.42499
▁드리겠습니다	-9.42565
하다고	-9.42607
혀	-9.4274
▁핸드폰	-9.42906
▁소장품	-9.42909
▁직원	-9.43035
▁눈에	-9.43053
순	-9.43207
▁보낸	-9.43219
님	-9.43353
▁담	-9.43392
렌	-9.43396
▁찾을	-9.43435
범	-9.43469
▁앞에	-9.43552
▁그걸	-9.43592
▁자신들	-9.43661
▁남성	-9.43662
▁가정	-9.4369
▁이스라엘	-9.43756
▁기본	-9.43787
▁찾는	-9.4379
만원	-9.4383
▁편지	-9.43878
▁the	-9.43931
▁밖에	-9.43968
▁추천	-9.43973
▁개선	-9.4405
▁능력	-9.4408
사가	-9.44086
▁언제나	-9.44098
▁호의	-9.44155
숙	-9.44278
▁보호	-9.44289
▁삼	-9.44292
▁사항	-9.44336
입니까	-9.44347
거리	-9.4437
점점	-9.44486
▁작렬	-9.44503
▁포함	-9.44545
▁느낄	-9.44681
▁WBC	-9.44683
▁스페인	-9.44745
▁임	-9.44922
▁생각에	-9.44997
▁예약주문	-9.4504
戰	-9.4504
▁뉴스	-9.45098
▁제출	-9.45183
▁개도국	-9.4522
▁보낼	-9.45237
자는	-9.4529
▁크리스마스	-9.45306
▁탈	-9.45371
▁산업	-9.45413
▁노래를	-9.45474
▁데이터	-9.45475
▁작가	-9.45478
▁성적	-9.45487
▁차례	-9.45592
▁젊은	-9.45699
▁이걸	-9.45779
▁자체	-9.45795
▁문제는	-9.45853
▁기도	-9.45882
▁상대	-9.45907
▁목	-9.45912
▁좋겠습니다	-9.45964
▁진정	-9.45991
▁원래	-9.46043
추	-9.46123
▁옆에	-9.46129
들에	-9.46353
해도	-9.46431
▁대상으로	-9.46529
▁평화	-9.46543
▁병원	-9.46552
▁지속	-9.46568
re	-9.46703
▁없다는	-9.46725
▁못하고	-9.46779
▁않았어요	-9.46783
▁것보다	-9.46786
▁이전	-9.46878
▁아내	-9.46884
▁별로	-9.4702
▁알려주세요	-9.47081
▁먹	-9.47135
▁환경	-9.47142
▁나머지	-9.4722
▁말해	-9.47223
▁힘든	-9.47242
▁사이에	-9.47256
▁따	-9.47306
수가	-9.47387
항	-9.47425
▁왕	-9.47429
처	-9.47434
▁제게	-9.47506
▁매장	-9.47548
남	-9.47565
▁생일	-9.47616
▁어떠한	-9.47644
장이	-9.47713
블	-9.4789
▁안에서	-9.4794
▁예정	-9.48014
I	-9.48095
▁혹은	-9.48102
▁그리	-9.48166
▁내게	-9.48198
▁선거	-9.48209
▁옷	-9.48248
▁대하여	-9.48488
▁차이	-9.48536
▁반대	-9.48554
탄	-9.4871
▁수출	-9.48815
▁투표	-9.48839
▁고민	-9.48946
▁수밖에	-9.49002
▁최종	-9.49051
▁수입	-9.49087
▁날짜	-9.49089
▁모두가	-9.49177
돌	-9.49204
▁눈이	-9.49286
▁받았습니다	-9.49326
▁학생들이	-9.49352
▁연결	-9.49371
에요	-9.49382
▁듣고	-9.49416
근	-9.4947
▁울	-9.49482
▁공유	-9.49531
▁통	-9.49541
▁인정	-9.49607
▁L	-9.49619
▁감정	-9.49715
▁맛있	-9.49853
▁못하는	-9.49903
▁그곳에	-9.49967
▁사람에게	-9.49981
▁말한다	-9.50016
션	-9.5027
▁과정	-9.50286
▁무엇이	-9.50306
▁장면	-9.50317
▁곳에서	-9.50339
▁사과	-9.50348
▁중에서	-9.50357
▁고통	-9.50364
▁아무것	-9.5041
▁상처	-9.50461
or	-9.5053
▁에너지	-9.50537
힌	-9.50569
▁멋진	-9.50581
▁완전히	-9.50606
합	-9.50873
ar	-9.50906
▁기반	-9.51011
▁마지막으로	-9.51077
▁논의	-9.51089
an	-9.51195
U	-9.51313
채	-9.51315
▁불러	-9.5147
▁동물	-9.51629
▁상황에서	-9.51638
▁of	-9.51729
견	-9.51756
하자	-9.51833
▁넘어	-9.51894
▁느낌	-9.51968
▁다만	-9.51987
▁왔습니다	-9.51995
▁앱	-9.52069
▁단체	-9.5208
▁주실	-9.52095
▁최대한	-9.52221
▁출연	-9.52405
▁남아	-9.52538
▁근무	-9.52552
▁그렇지	-9.52691
▁때마다	-9.52701
▁하다	-9.52703
▁끝난	-9.52705
le	-9.5271
▁좋겠어	-9.52788
▁베	-9.52853
자들이	-9.5288
▁송	-9.5291
▁전문	-9.52925
▁안내	-9.52926
시부터	-9.52927
별	-9.5297
▁보냈	-9.5309
▁해외	-9.53169
▁부상	-9.53207
▁내용이	-9.53244
▁티켓	-9.53279
▁이제는	-9.53287
▁접	-9.53296
▁가능하다	-9.53338
▁못했다	-9.53383
패	-9.53477
▁아빠	-9.53481
년간	-9.53504
했다는	-9.53686
▁평균	-9.53713
▁쓸	-9.53744
▁마련	-9.53789
하기로	-9.53812
▁나왔다	-9.53822
▁온몸	-9.53866
쯤	-9.53904
▁어린	-9.53916
▁관련된	-9.53925
겨	-9.53946
▁보였다	-9.54107
▁보이	-9.54109
▁to	-9.54116
▁팬들이	-9.54166
▁안녕하세요	-9.54176
▁우려	-9.54191
▁청소	-9.54239
▁생각하고	-9.54249
b	-9.54321
▁대비	-9.54328
▁페이스북	-9.54479
▁빈	-9.54646
▁국제	-9.54719
▁효과	-9.54738
▁하늘	-9.54858
격	-9.54944
▁일반	-9.54948
▁이곳에	-9.54982
밀	-9.54983
▁반응	-9.54991
▁행복한	-9.5502
▁스마트폰	-9.5505
경기	-9.55187
▁이유로	-9.55188
▁정리	-9.55191
▁고객님	-9.55203
▁현실	-9.55211
▁행위	-9.55215
▁디	-9.55249
에선	-9.5535
▁유일	-9.55378
▁사망	-9.55398
책을	-9.55458
▁주소	-9.55485
광	-9.55556
▁했는데	-9.5558
▁진출	-9.55662
▁도로	-9.55674
▁감독이	-9.55701
▁나올	-9.55703
▁통해서	-9.55733
▁날이	-9.55781
▁부담	-9.55811
▁방식	-9.55829
▁찾고	-9.55846
v	-9.55882
▁살아	-9.55909
시킬	-9.55927
이야	-9.55941
▁싶다	-9.56099
▁멕시코	-9.56136
▁자료	-9.56147
▁친구들과	-9.562
기에	-9.56229
▁너무나	-9.56251
▁이게	-9.56354
▁사이트	-9.56355
▁홍보	-9.5648
▁만난	-9.5649
▁삼성	-9.56502
▁풀	-9.56541
O	-9.56556
▁처음으로	-9.56689
▁가능성	-9.56697
▁이곳에서	-9.56745
어야	-9.5688
▁도와	-9.57039
▁단계	-9.57089
하시면	-9.57183
▁있으니	-9.57223
’(	-9.57309
▁응원	-9.57347
▁공식	-9.57355
▁민	-9.57378
하러	-9.57396
▁만한	-9.57398
▁만들고	-9.57422
위래	-9.57465
▁주말	-9.57502
▁구성	-9.57512
▁써	-9.57528
▁즐거운	-9.57665
▁선적	-9.57849
▁긴	-9.57956
▁상황을	-9.57971
▁기분	-9.57987
▁지구	-9.57992
▁형태	-9.58017
>	-9.58073
▁무엇인지	-9.58079
되면	-9.58225
▁게임을	-9.58239
이지만	-9.58244
▁즐길	-9.58278
▁그럴	-9.5837
송	-9.584
▁현장	-9.58464
▁지난달	-9.58579
▁일주일	-9.58593
▁질	-9.58607
▁싶지	-9.58627
▁대한민국	-9.58641
▁나가	-9.58643
▁등록	-9.58655
시면	-9.58792
되	-9.58798
애	-9.58832
▁소식을	-9.58847
▁강한	-9.58871
▁종	-9.58903
것	-9.59024
▁휴가	-9.5904
▁남편	-9.5906
독	-9.59063
▁활동을	-9.59069
▁비가	-9.59131
▁루	-9.59167
▁파티	-9.59335
▁떠나	-9.59356
▁뒤에	-9.59429
▁시대	-9.59447
▁사실이	-9.59454
▁중입니다	-9.59485
드리	-9.59625
▁마을	-9.59629
베	-9.59644
▁힘을	-9.5974
▁공동	-9.59828
en	-9.59843
▁참가	-9.59876
▁업데이트	-9.59914
집니다	-9.59987
▁맛있는	-9.60014
대가	-9.6013
▁크기	-9.60165
▁집으로	-9.602
▁투어	-9.60243
▁누구나	-9.60305
▁교회	-9.60403
▁신발	-9.60429
▁부인	-9.6043
▁시작했다	-9.60512
습	-9.60553
▁수많은	-9.6056
▁쉽지	-9.60569
▁관	-9.60572
X	-9.60655
▁보도했	-9.6068
&	-9.60779
▁어린이	-9.60869
▁하나에	-9.60901
령	-9.6094
▁아파트	-9.60997
▁<	-9.61046
▁제시	-9.6106
▁응	-9.61071
▁했던	-9.61094
▁당국	-9.61185
▁마리	-9.61194
▁보이지	-9.61203
▁번째로	-9.61255
▁홍콩	-9.613
▁연락을	-9.61371
V	-9.61393
▁향해	-9.61451
▁지방	-9.61559
▁기자	-9.61581
▁않도록	-9.6163
▁아니요	-9.61649
▁사례	-9.61655
▁다음에	-9.61742
▁위험	-9.6182
▁좋겠다	-9.61918
▁알려주	-9.61935
▁모양	-9.61983
▁보고서	-9.61999
줍니다	-9.62011
▁평	-9.62043
족	-9.62068
▁정확한	-9.62117
▁R	-9.6234
▁확인할	-9.62356
평	-9.62432
▁정치	-9.62475
▁환불	-9.62495
▁열리는	-9.625
▁넌	-9.62515
▁아이디어	-9.62537
▁전쟁	-9.62548
글	-9.62553
▁못할	-9.62569
▁이용할	-9.62635
번째	-9.62714
▁캐나다	-9.62724
게요	-9.62754
업체	-9.62841
▁따라서	-9.62866
▁실패	-9.62912
▁주시기	-9.63007
하시는	-9.63055
▁경우에는	-9.63185
구나	-9.63212
▁통화	-9.6325
▁속도	-9.63251
▁일에	-9.63316
▁아이돌	-9.63429
▁약속	-9.63559
▁잠시	-9.63586
▁거기에	-9.6361
들도	-9.63669
▁교수	-9.63764
▁참석	-9.63775
▁위치	-9.63793
▁출전	-9.63811
▁이와	-9.63844
▁맞아	-9.63873
▁전망	-9.63909
▁N	-9.63923
년부터	-9.63938
▁아니야	-9.63955
표를	-9.63974
쿠	-9.63974
▁비슷한	-9.63975
▁확보	-9.63981
▁나온다	-9.64041
▁국	-9.64041
▁공개된	-9.64091
▁드립니다	-9.64104
▁추가로	-9.6411
▁친구들	-9.64187
졌다	-9.6419
▁언어	-9.64203
▁않기	-9.64263
▁거기	-9.64321
▁아이들이	-9.64351
리가	-9.64357
▁범죄	-9.64426
▁아니에요	-9.64429
▁떨어진	-9.64439
▁어디로	-9.64442
환	-9.64455
▁국민	-9.64488
▁상황	-9.64497
▁미군	-9.64576
▁지도	-9.64619
▁할지	-9.64628
▁기상캐스터	-9.64629
년대	-9.64669
▁색	-9.64687
▁행	-9.64708
▁학생들	-9.64773
▁인형	-9.64882
▁훈련	-9.64907
▁출시	-9.64915
▁현대	-9.64997
철	-9.65063
▁생명	-9.6507
▁감소	-9.65124
으로서	-9.65192
▁근처에	-9.65192
▁전국	-9.65266
탈	-9.65266
▁숨	-9.6528
▁정확히	-9.65304
▁태국	-9.65314
▁현	-9.65319
▁고기	-9.65383
충	-9.65386
▁번역	-9.65395
스는	-9.65432
시장	-9.65455
▁중단	-9.65525
걸	-9.65528
▁계정	-9.65537
▁실수	-9.65622
상을	-9.65664
▁투	-9.65677
▁합의	-9.65706
▁아마도	-9.65714
▁바란다	-9.65729
▁J	-9.65854
▁뿐	-9.65888
▁신뢰	-9.65954
▁좋다	-9.65973
▁말할	-9.66153
▁완료	-9.66153
개가	-9.66181
▁과정에서	-9.66239
▁말레이시아	-9.66417
▁in	-9.66418
클	-9.6642
▁설정	-9.66423
▁검토	-9.66425
인이	-9.66479
▁향	-9.6657
▁가까이	-9.66617
▁종종	-9.66635
었던	-9.66685
▁전통	-9.66749
년이	-9.66775
▁시간은	-9.66826
▁작업을	-9.66885
▁따뜻한	-9.66892
▁쓰고	-9.66905
▁직장	-9.66908
▁강조했다	-9.66928
▁회사에서	-9.67008
▁힘이	-9.67019
나는	-9.67041
▁영업	-9.67116
▁맞춰	-9.67164
▁카페	-9.67237
냈다	-9.67345
▁책임	-9.67469
▁분야	-9.67575
▁방탄소년단	-9.67622
하나요	-9.67673
▁이용해	-9.677
▁그래	-9.67733
▁캐릭터	-9.67737
▁인터뷰	-9.67773
▁쓰는	-9.67808
▁없고	-9.67833
착	-9.67943
봉	-9.67952
▁터키	-9.67979
▁종류	-9.68008
▁남은	-9.68128
▁보관	-9.68183
st	-9.68225
사를	-9.6823
▁여부	-9.68306
▁않게	-9.68372
▁아이템	-9.68417
▁절	-9.68453
하려면	-9.68508
▁단순	-9.68513
합니까	-9.6853
▁악	-9.68558
▁위치한	-9.68616
▁회사에	-9.68793
▁위로	-9.68798
▁종류의	-9.68842
갔습니다	-9.68872
▁있을지	-9.68934
▁그곳	-9.68936
되기	-9.68958
▁돈이	-9.6896
▁시기	-9.68981
▁약간	-9.68997
▁중요하다	-9.69115
▁표시	-9.69121
졌습니다	-9.69127
았다	-9.69145
▁프로그램을	-9.69181
▁기계	-9.69183
▁놀	-9.69244
▁거로	-9.69265
례	-9.69294
▁테러	-9.69312
올	-9.69354
▁지내	-9.69491
it	-9.69516
으니	-9.69545
▁북	-9.69564
▁식당	-9.69564
▁없어서	-9.69586
▁밀	-9.696
▁외국	-9.69639
능	-9.6967
▁넣어	-9.69676
▁시절	-9.69683
▁맥주	-9.69686
▁보입니다	-9.69767
▁s	-9.69823
▁자유	-9.69855
▁불법	-9.69861
▁복	-9.69899
▁말한	-9.69899
▁테니	-9.69949
▁직	-9.69971
▁고려	-9.69972
▁자전거	-9.70013
▁귀사	-9.70019
▁착용	-9.70036
염	-9.7007
했	-9.70116
▁멤버	-9.70124
▁다리	-9.70141
▁학교에서	-9.70235
▁누	-9.70273
막	-9.70293
▁내려	-9.70598
▁전시	-9.70663
▁의심	-9.70702
▁무대	-9.70759
▁참고	-9.70779
▁용	-9.7078
▁만족	-9.709
▁거짓말	-9.70946
▁나쁜	-9.70954
▁바꿔	-9.71018
책	-9.71056
▁문제에	-9.71066
▁황	-9.71095
▁필요해요	-9.71165
▁쇼	-9.71204
기로	-9.71237
▁급	-9.71274
▁하락	-9.71289
관계자는	-9.71297
▁원인	-9.71357
킹	-9.71407
▁늦게	-9.71566
▁금요일	-9.71604
▁세트	-9.71646
▁대답	-9.71657
▁주기	-9.71682
▁형	-9.71702
▁쉬	-9.71777
극	-9.71778
▁왔다	-9.71827
▁낮은	-9.71886
▁협상	-9.71927
▁오랜	-9.7193
▁거리	-9.71964
이라도	-9.71964
▁추진	-9.71978
▁순위	-9.72029
감을	-9.72096
▁거라고	-9.72101
▁케이팝	-9.72116
▁위협	-9.72132
▁그녀에게	-9.72256
▁주택	-9.72257
할게요	-9.72278
ch	-9.72333
었	-9.72468
▁쪽	-9.72472
▁회담	-9.72551
▁제한	-9.72635
▁사건이	-9.72727
▁힘들	-9.72784
▁수행	-9.72823
▁빛	-9.72879
▁알겠습니다	-9.72918
▁대형	-9.72947
▁방금	-9.73144
▁통과	-9.73215
▁달에	-9.73283
▁방법은	-9.73285
친	-9.73326
on	-9.73404
▁조직	-9.73417
▁판	-9.73433
▁꽃	-9.73493
▁분들이	-9.73541
▁소속	-9.73571
▁되기	-9.73576
스가	-9.73581
▁SNS	-9.73596
▁놓고	-9.73604
Y	-9.73678
▁하며	-9.73694
▁음식이	-9.7377
▁있을까	-9.73847
▁보세요	-9.73924
▁오픈	-9.7397
▁확실히	-9.74046
▁것들이	-9.74049
혜	-9.74175
▁단어	-9.74175
▁담당	-9.74175
냐	-9.7426
▁비디오	-9.74265
▁망	-9.74327
했어	-9.74327
▁확대	-9.74347
▁기차	-9.74408
▁공장	-9.74429
▁보이고	-9.74435
케	-9.74448
변	-9.74498
▁쇼핑	-9.74585
▁만들기	-9.74643
▁기다려	-9.74701
▁그저	-9.74709
▁깊은	-9.74741
치는	-9.74796
▁시에	-9.74828
▁덕분에	-9.74936
▁적은	-9.74967
리아	-9.75022
▁잡아	-9.75062
▁최소	-9.75103
▁일하는	-9.75226
▁요금	-9.75249
▁너와	-9.75511
▁훌륭한	-9.75598
▁헤	-9.7569
했기	-9.75747
▁광	-9.75775
▁생각하지	-9.75778
대를	-9.7583
▁지나	-9.7589
▁주의	-9.7595
▁중심	-9.7596
▁교환	-9.75966
누	-9.76012
▁자리에	-9.76104
움	-9.76156
취	-9.76194
▁아침에	-9.76267
▁승인	-9.76294
있	-9.76359
▁그녀를	-9.76359
▁이름이	-9.76392
▁방식으로	-9.76402
▁모른다	-9.76449
▁브라질	-9.76449
▁체험	-9.76517
▁완성	-9.76574
▁바라요	-9.76639
▁겨울	-9.76701
▁널	-9.76758
▁주말에	-9.76773
손	-9.76863
▁결과가	-9.76873
▁들었다	-9.76947
하려	-9.7697
▁방안	-9.77042
스터	-9.77075
▁파악	-9.7709
▁마케팅	-9.77101
▁드	-9.77117
▁비난	-9.77127
빈	-9.77146
▁원합니다	-9.7718
_	-9.7719
▁그만큼	-9.77277
▁이사	-9.77333
▁공항	-9.77429
▁심지어	-9.77438
께서	-9.77475
▁부모	-9.775
▁혐의	-9.7753
▁저한테	-9.77543
▁암	-9.77544
▁우주	-9.77595
권을	-9.7777
▁터	-9.77784
▁없었습니다	-9.77816
▁왔어요	-9.77895
▁따른	-9.77948
▁시작한	-9.78015
▁돌아가	-9.78049
▁화가	-9.78161
▁회복	-9.782
▁발언	-9.78222
▁초대	-9.78233
시켜	-9.78272
▁대중	-9.7828
▁O	-9.78333
▁가끔	-9.78384
▁바람	-9.78444
▁자체가	-9.78479
시키는	-9.78491
▁시각	-9.78513
▁너한테	-9.78519
▁정신	-9.78542
▁들었습니다	-9.78566
때	-9.78569
▁폭	-9.78575
▁민주당	-9.78597
만이	-9.78641
▁뜨거운	-9.78687
▁동의	-9.78738
▁떨어져	-9.7875
▁관광	-9.78786
▁당장	-9.78805
▁붙	-9.78814
▁걸어	-9.78922
▁담배	-9.78961
▁회	-9.78985
했으나	-9.7904
▁U	-9.79184
▁보내고	-9.79217
▁손님	-9.7927
이자	-9.793
▁아이가	-9.79304
▁힘	-9.79407
▁남자친구	-9.79449
▁감동	-9.79491
▁미소	-9.79495
슬	-9.79518
w	-9.79665
▁구글	-9.79729
▁딱	-9.79734
▁휴식	-9.79776
▁연주	-9.79861
▁선정	-9.79897
▁이전에	-9.79906
▁가슴	-9.79959
▁결	-9.7999
▁패	-9.80041
▁커	-9.80056
kg	-9.80077
▁셈이	-9.80106
▁거죠	-9.80129
▁얻을	-9.80208
▁음료	-9.80258
▁고용	-9.80312
▁하루에	-9.80339
▁모여	-9.80425
필	-9.80471
▁동시에	-9.80483
▁폭발	-9.80488
이기도	-9.80499
▁빌	-9.80527
이면	-9.80555
▁알려져	-9.80575
▁언급	-9.80578
▁모르는	-9.80647
▁줍니다	-9.80659
▁재판	-9.80678
▁성과	-9.80714
▁가능한가요	-9.80748
이라며	-9.80768
려면	-9.80795
명은	-9.80861
▁골프	-9.80929
▁수술	-9.80935
▁매년	-9.80963
▁냄새	-9.80977
▁지역에	-9.81001
측	-9.81074
▁상상	-9.81075
▁발생했다	-9.81095
cm	-9.81125
찬	-9.81233
▁패션	-9.81239
세를	-9.81293
골	-9.81301
▁인식	-9.81344
력이	-9.81428
▁하세요	-9.81486
힐	-9.81493
▁경험이	-9.81561
▁중심으로	-9.81565
▁의지	-9.81703
▁꽤	-9.8178
▁친구들이	-9.8178
▁선수들이	-9.81787
▁인천	-9.81804
▁대만	-9.81838
수록	-9.81944
▁친구와	-9.81947
▁수준	-9.82006
▁담긴	-9.82033
▁하면서	-9.82066
▁땅	-9.82242
▁않아도	-9.82247
보세요	-9.82266
▁조치	-9.82309
▁인도네시아	-9.82323
▁주셔서	-9.82333
▁a	-9.82366
였어요	-9.82472
▁극	-9.82581
자를	-9.82675
▁밤에	-9.82716
▁보러	-9.82719
▁일하고	-9.82785
듯	-9.82827
하려는	-9.82852
▁천	-9.82906
▁효과가	-9.82945
▁경찰이	-9.83045
곳	-9.83045
▁검색	-9.83066
▁케이크	-9.83071
▁남자가	-9.83074
으나	-9.83113
▁포인트	-9.83223
▁옆	-9.83235
▁플랫폼	-9.83304
▁취미	-9.83387
▁많아	-9.83408
▁갔다	-9.83415
▁종이	-9.835
▁잊지	-9.83585
▁소재	-9.83661
▁있니	-9.83682
년까지	-9.837
▁쓴	-9.8371
▁김씨	-9.83757
▁물품	-9.8377
▁계속해서	-9.83839
▁맛이	-9.8388
▁선수들	-9.839
우린	-9.83913
▁사용하고	-9.8394
▁입은	-9.83941
▁달라고	-9.84004
▁등에	-9.84028
잡	-9.84032
▁없었	-9.84047
▁느낌이	-9.84049
▁시민들	-9.84049
▁비판	-9.841
▁활용	-9.84146
▁된다면	-9.84154
▁가입	-9.84199
▁각자	-9.84223
칠	-9.84274
하다는	-9.8431
▁맥	-9.84318
▁권	-9.84372
▁매력	-9.84372
▁아무도	-9.84379
▁클럽	-9.84465
이었어요	-9.84584
▁끼	-9.84584
께	-9.8462
▁앞에서	-9.84679
▁무료	-9.8481
왕	-9.84881
▁창	-9.84905
▁화재	-9.84919
향	-9.84949
▁과연	-9.84966
▁올려	-9.84974
차례	-9.8498
▁소식	-9.85036
하기를	-9.85058
▁곳은	-9.85137
▁많습니다	-9.85183
▁핵심	-9.85205
▁회사는	-9.85234
▁팀이	-9.8535
▁탄	-9.85394
▁굴	-9.85398
▁전공	-9.85505
▁낮	-9.85529
했는지	-9.85557
▁프로	-9.85599
▁월요일에	-9.85657
▁페	-9.85664
▁내년	-9.85675
▁V	-9.85929
▁접근	-9.86045
▁올림픽	-9.86076
인들이	-9.86117
▁위하여	-9.86133
▁토요일	-9.8623
딩	-9.86241
▁금융	-9.86283
자들은	-9.86287
▁색상	-9.86312
▁연습	-9.86368
▁비용이	-9.86404
▁추억	-9.86436
▁곳으로	-9.86496
▁침대	-9.86567
드립니다	-9.86576
▁할머니	-9.8659
▁지역에서	-9.86685
▁소비	-9.86699
하고자	-9.86712
▁인구	-9.86727
▁행동을	-9.86743
▁농	-9.86768
▁새벽	-9.86816
▁배달	-9.86849
▁일요일	-9.86857
▁모르겠어요	-9.86894
▁출	-9.87054
▁장비	-9.87115
▁것들을	-9.87205
▁의원	-9.87247
▁건지	-9.87251
▁전까지	-9.87261
ra	-9.87273
이랑	-9.87339
▁만나는	-9.87374
▁소비자	-9.87375
▁사회적	-9.87407
▁갑니다	-9.87432
▁예를	-9.87461
지요	-9.87464
▁경기에서	-9.87485
▁있음을	-9.87592
▁찍어	-9.87698
없이	-9.87707
▁그거	-9.87718
▁체	-9.87742
북	-9.8778
▁찍은	-9.87791
▁인근	-9.87872
▁몇몇	-9.87908
▁일상	-9.87909
▁싫어	-9.87933
낼	-9.88065
▁않	-9.88228
▁승	-9.88231
▁완벽	-9.88353
▁중국에서	-9.88423
립니다	-9.88444
▁싶	-9.88444
였던	-9.88457
▁높다	-9.88457
었어	-9.88479
▁화장품	-9.88485
▁미팅	-9.88495
▁전문가	-9.88549
▁전해	-9.88599
머	-9.88651
▁성격	-9.88668
▁예산	-9.88721
▁유튜브	-9.88735
▁여자친구	-9.88739
▁뭘	-9.88764
▁성인	-9.88779
▁의미가	-9.88911
▁조건	-9.88939
▁드릴	-9.88949
▁못했습니다	-9.89007
낸	-9.8903
▁오르	-9.89047
▁주문한	-9.89069
▁슬	-9.89104
▁비행	-9.89112
▁좋아하지	-9.89122
협	-9.89157
▁간단	-9.89204
사는	-9.8924
▁정말로	-9.89254
악	-9.89379
▁위기	-9.89552
▁앉아	-9.89646
▁이상이	-9.89707
톤	-9.89737
▁축하	-9.89745
▁배우고	-9.89795
적이	-9.89811
레이	-9.89822
▁리스트	-9.89912
▁방법으로	-9.89999
▁말은	-9.90046
덕	-9.90061
▁영어로	-9.90107
▁객실	-9.90138
▁높이	-9.90155
▁애플	-9.90168
▁저장	-9.90182
▁진실	-9.90226
▁뭔가	-9.90298
뿐만	-9.90328
▁했지만	-9.90333
알	-9.90374
▁보여주는	-9.90408
▁모바일	-9.90412
▁가르쳐	-9.90439
▁신규	-9.90447
▁구입	-9.90461
▁재미	-9.90464
외	-9.90588
▁죄	-9.90635
▁영상을	-9.90659
▁실시	-9.9067
▁좌석	-9.90703
▁취	-9.90734
▁독	-9.90749
▁저기	-9.90753
▁가질	-9.90758
▁제거	-9.90837
es	-9.90941
▁레스토랑	-9.90985
at	-9.91037
▁그와	-9.91042
▁그곳에서	-9.91072
래도	-9.91078
▁분명	-9.91189
▁씨가	-9.91212
▁그들에게	-9.91266
▁탑승	-9.91269
드는	-9.91276
▁충격	-9.91292
▁즐겁게	-9.91306
▁입력	-9.91387
▁금지	-9.91396
▁증명	-9.91411
▁비즈니스	-9.91556
▁받	-9.91615
▁윤	-9.9168
서는	-9.91716
빙	-9.9172
▁합	-9.91726
잖아	-9.91728
있다	-9.9173
▁와인	-9.91748
▁예측	-9.91863
▁본다	-9.91865
▁하나가	-9.91866
▁특별	-9.91946
▁걸릴	-9.91982
긍정적인	-9.91994
▁박물관	-9.9204
▁화면	-9.9212
▁생겼	-9.92149
▁말하고	-9.92268
▁제주	-9.92305
▁기념	-9.92309
▁월요일	-9.92331
분이	-9.9238
이라면	-9.92395
▁대응	-9.92434
인한	-9.92487
▁과제	-9.92529
위에	-9.92571
▁크다	-9.92576
▁자녀	-9.92626
년에는	-9.92653
▁졸업	-9.92704
▁작동	-9.92708
해주시기	-9.92717
▁있었어	-9.92738
▁부모님	-9.9282
▁수익	-9.92904
▁사용해	-9.92914
▁위원장	-9.92962
▁조금만	-9.92984
▁선수가	-9.93084
▁좋았	-9.93106
▁인생	-9.93106
▁이슈	-9.93113
별로	-9.93252
▁새롭	-9.93264
▁오랫동안	-9.93288
▁클린턴	-9.93288
▁며칠	-9.93291
▁감사드립니다	-9.93298
▁부부	-9.93306
▁예전에	-9.93419
지지	-9.93434
력을	-9.93498
▁최근에	-9.93545
▁시설	-9.93551
▁일본에서	-9.93558
▁도널드	-9.93579
▁음	-9.93587
▁절반	-9.93599
▁그날	-9.9363
쉬	-9.93635
하라고	-9.93695
▁여기는	-9.93717
주시겠어요	-9.93765
▁아니고	-9.93779
▁고등학교	-9.93841
▁전문가들은	-9.93883
먼	-9.93919
▁기록했다	-9.93923
▁지적했다	-9.93983
▁필	-9.94037
▁올라가	-9.94124
▁행사가	-9.94174
물을	-9.94196
▁걸쳐	-9.94239
▁풍	-9.94263
▁각종	-9.94263
▁선발	-9.94293
▁찬	-9.94366
명으로	-9.9441
▁빼	-9.94552
암	-9.94592
만명	-9.94673
▁신문	-9.94739
겠다	-9.9475
mm	-9.94779
은행	-9.94857
둘	-9.94989
훈	-9.95037
▁앞두고	-9.9505
새	-9.95098
임을	-9.95133
ur	-9.95153
▁살해	-9.95162
▁시선	-9.95195
▁차지	-9.95228
▁혼	-9.9524
▁도착할	-9.9532
▁해주세요	-9.95323
▁출근	-9.95356
▁안정	-9.95359
▁지내고	-9.95378
▁월드컵	-9.95379
and	-9.95383
▁홍	-9.95393
센터	-9.95432
▁그린	-9.95465
▁자금	-9.95471
▁진심으로	-9.95483
▁아까	-9.95508
김	-9.95514
▁휴대폰	-9.95645
페	-9.95664
▁교체	-9.95692
▁오른	-9.95727
▁부분에	-9.95792
▁분이	-9.95807
에따르면	-9.95943
일간	-9.96038
여명	-9.96047
▁눈길	-9.9605
▁레이	-9.9606
▁채널	-9.96132
▁담겨	-9.96148
▁알려진	-9.96181
킨	-9.96199
▁정부는	-9.96236
article	-9.96247
▁활약	-9.96253
▁목적	-9.96269
▁꾸준히	-9.96269
▁강조	-9.96273
찰	-9.96279
▁총리	-9.96314
▁돌아	-9.96338
▁지켜	-9.96375
▁오지	-9.96485
▁심각한	-9.96504
▁제품에	-9.96508
▁런던	-9.96545
▁들어서	-9.96564
▁허용	-9.96598
▁설	-9.96647
하라	-9.96695
▁칼	-9.96703
벌	-9.96733
▁없나요	-9.96898
▁긴장	-9.96977
▁시위	-9.96978
▁나오고	-9.96983
▁여유	-9.9707
▁버전	-9.97096
지역	-9.97111
▁때가	-9.97134
▁중이에요	-9.97194
▁것이라	-9.97209
▁않아서	-9.97292
택	-9.97328
▁몸이	-9.97387
▁적극적으로	-9.97469
점이다	-9.97514
▁아프리카	-9.97556
▁하나님께서	-9.97563
JO	-9.9757
▁푸	-9.97625
규	-9.97637
▁이하	-9.97649
▁그러	-9.9772
회사	-9.97754
me	-9.97755
▁영화가	-9.97775
▁언제쯤	-9.97787
▁언젠가	-9.97846
▁드릴게요	-9.97852
았	-9.97901
et	-9.97953
뿐	-9.97954
이었습니다	-9.98021
▁네트워크	-9.98058
com	-9.98085
▁멀리	-9.98106
▁분명히	-9.98148
▁낼	-9.98161
▁노동	-9.98172
잖아요	-9.98283
▁잘못된	-9.98353
▁요소	-9.98391
▁주지	-9.9852
▁상대로	-9.98535
▁그것에	-9.98542
스크	-9.98587
마리	-9.98653
▁상황에	-9.98671
▁내리	-9.98673
▁말씀해	-9.98858
▁문서	-9.98907
▁시민	-9.9892
▁소식이	-9.9894
▁여자가	-9.98941
J	-9.9902
되면서	-9.99065
▁대체	-9.99084
▁씨는	-9.9912
▁사진이	-9.99135
주셔서	-9.99169
▁태도	-9.99226
▁아마존	-9.99296
▁어디에서	-9.99334
▁바다	-9.99353
▁우유	-9.99387
▁격	-9.99417
기업	-9.99439
보고	-9.99446
▁않을까	-9.99448
▁태	-9.99449
▁무료로	-9.99452
▁점은	-9.9946
▁학습	-9.99478
▁접수	-9.99489
▁사용하지	-9.9949
▁친구는	-9.99537
▁섬	-9.99539
비가	-9.99545
팅	-9.99574
▁가기	-9.99579
▁여성이	-9.99582
▁원해요	-9.99619
▁과일	-9.99641
▁물을	-9.99648
▁법원	-9.99681
되며	-9.99683
▁강화	-9.9969
졌	-9.99733
금을	-9.99767
▁기다리	-9.99775
▁공기	-9.99813
음을	-9.99986
▁테이블	-10.0002
▁모자	-10.0005
▁미디어	-10.0009
▁대상	-10.0016
▁주시겠어요	-10.0017
el	-10.0018
▁거주	-10.0018
▁무리	-10.0019
▁부품	-10.002
▁기준으로	-10.0022
▁열차	-10.0032
시나요	-10.0032
했었다	-10.0047
▁하려고	-10.005
▁굳	-10.0058
▁무엇인가요	-10.0061
하여야	-10.0071
▁몰	-10.0074
▁근	-10.0078
적이고	-10.0078
짝	-10.0079
▁거대	-10.0083
▁짧은	-10.0084
▁얼	-10.0094
▁점에서	-10.0096
▁변호사	-10.0098
축	-10.0098
▁조정	-10.0103
시다	-10.0109
▁자료를	-10.0112
▁항공	-10.0114
▁그렇군요	-10.0116
▁다섯	-10.0119
▁전망이	-10.0126
▁제발	-10.013
▁받았	-10.013
▁규정	-10.0141
▁철	-10.0146
▁형성	-10.0146
▁관람	-10.0147
TV	-10.015
녀	-10.0152
▁수치	-10.0152
▁깨	-10.0162
앙	-10.0164
▁권리	-10.0166
▁재료	-10.0167
▁할게요	-10.0167
▁그림을	-10.0174
▁용기	-10.0177
궁	-10.0178
▁빵	-10.0182
▁조언	-10.0184
▁답장	-10.0184
▁않았어	-10.0199
▁지적	-10.0202
▁나갈	-10.0206
▁처	-10.0208
▁플레이	-10.0209
▁웃	-10.0226
▁받기	-10.0227
▁매출	-10.023
폭	-10.0238
▁협력	-10.0242
▁롯데	-10.0243
▁실험	-10.0244
▁비밀	-10.0249
INS	-10.0259
탕	-10.0263
▁평소	-10.0264
▁방향	-10.0265
▁올라	-10.0265
풍	-10.027
pop	-10.0276
거든요	-10.0278
▁보내는	-10.0283
▁번에	-10.0284
▁동료	-10.0292
CNN	-10.0292
▁강력한	-10.0295
에게는	-10.0299
▁인터뷰에서	-10.0302
=	-10.0305
▁판결	-10.0308
▁잡고	-10.031
▁마시고	-10.0312
만한	-10.0315
▁값	-10.0328
생활	-10.033
▁올린	-10.0335
▁부족한	-10.0348
▁사망자	-10.0353
장에	-10.0354
▁작년	-10.0354
un	-10.0358
▁왔	-10.0366
▁증거	-10.0373
▁결코	-10.0374
짜리	-10.0374
▁모아	-10.0386
▁무엇보다	-10.0389
▁쓰레기	-10.0393
자로	-10.0394
물이	-10.0396
다니	-10.0397
▁깊이	-10.0403
▁보안	-10.0404
▁아무리	-10.0406
▁박스	-10.0409
▁화려	-10.041
▁일어나	-10.0414
▁주신	-10.0417
엘	-10.0426
▁기업이	-10.0429
▁매체	-10.0433
▁영수증	-10.0436
▁중이다	-10.0448
▁해줄	-10.0456
▁미술	-10.0459
▁p	-10.046
사항	-10.0468
▁추천해	-10.0472
la	-10.0475
▁별지	-10.0475
▁시장에서	-10.0486
▁사이에서	-10.0487
▁회원	-10.0488
ic	-10.0488
▁주십시오	-10.0488
▁교수님	-10.0489
그룹	-10.0491
▁수영	-10.0492
▁바람이	-10.0494
하니	-10.0498
▁무언가	-10.0501
▁선호	-10.0502
▁독립	-10.0502
해줄	-10.0504
▁캐	-10.0511
▁때도	-10.0513
겠어요	-10.0513
감이	-10.052
▁지도자	-10.052
▁짓	-10.0521
▁주시면	-10.0529
▁수량	-10.0532
▁꾸	-10.0533
▁백악관	-10.0534
▁자유롭게	-10.0537
▁당연히	-10.0537
로운	-10.0541
▁오면	-10.0544
▁들었어요	-10.0549
턴	-10.0552
▁반면	-10.0553
▁합니까	-10.0554
▁떠	-10.0555
▁코스	-10.0559
▁가져다	-10.056
▁도대체	-10.0567
▁중국이	-10.0573
▁덜	-10.0573
▁어려움	-10.058
슈	-10.0584
▁계	-10.0594
▁넣	-10.0599
▁찾기	-10.06
▁소년	-10.0606
함이	-10.0611
▁있었는데	-10.0613
▁현금	-10.0613
▁사람들과	-10.0613
▁조심	-10.0615
▁티	-10.0625
았습니다	-10.0626
▁이해할	-10.0627
▁예전	-10.063
▁있으신가요	-10.0633
▁엄청난	-10.0634
▁유리	-10.0634
▁이용자	-10.0635
▁부르	-10.0636
▁저녁에	-10.064
▁나오	-10.0648
▁아니라고	-10.0652
▁환	-10.0661
칭	-10.0662
▁일요일에	-10.0663
▁휘	-10.0663
▁대기	-10.0664
▁이야기가	-10.0666
▁스케줄	-10.0666
▁연출	-10.067
왔다	-10.0672
▁않았다고	-10.0675
▁특징	-10.0678
▁생긴	-10.068
▁김치	-10.0684
▁일주일에	-10.0687
▁페이지	-10.069
▁반복	-10.0692
▁주민	-10.0699
▁어쩔	-10.07
▁검찰	-10.07
▁조지	-10.071
▁거부	-10.0723
월부터	-10.0729
좌	-10.073
▁보상	-10.0733
ri	-10.0736
%)	-10.0737
술	-10.0747
▁주식	-10.0748
▁열정	-10.0748
▁물어보	-10.0751
조차	-10.0754
▁마감	-10.0756
▁확인하고	-10.076
▁블록체인	-10.0767
▁폴	-10.0767
▁아이를	-10.0772
▁일이다	-10.0772
▁경찰에	-10.0775
▁웃음	-10.078
▁않는다면	-10.0781
▁테	-10.0794
▁다이어트	-10.08
▁대단	-10.08
▁종목	-10.0802
▁시내	-10.0807
하시고	-10.0811
▁남성이	-10.0811
▁가을	-10.0812
▁향상	-10.0815
▁주도	-10.0816
▁된다고	-10.082
▁한국은	-10.0825
셔야	-10.0825
▁싱가포르	-10.0826
▁기관	-10.0836
▁전해졌다	-10.084
버리	-10.0843
틀	-10.0852
더라도	-10.0854
▁공원	-10.0859
웨이	-10.0866
▁적어도	-10.087
▁했어	-10.0872
▁자극	-10.0872
▁가족이	-10.0875
▁불편	-10.0878
▁한국으로	-10.0878
▁유행	-10.088
▁포기	-10.0883
▁취업	-10.0895
▁하나님이	-10.09
▁카드를	-10.09
▁밖으로	-10.0902
▁현상	-10.0902
▁바탕으로	-10.0902
▁관계자	-10.0903
▁않지만	-10.0906
총	-10.0909
에겐	-10.0913
▁그만	-10.0913
▁못했어요	-10.0915
▁상황이다	-10.0915
▁무역	-10.0932
▁받게	-10.0932
▁퇴근	-10.0936
▁컬러	-10.0936
▁보지	-10.0938
▁회사가	-10.0947
▁짐	-10.0948
▁수리	-10.0949
▁듣는	-10.095
까지는	-10.0953
▁입을	-10.0954
시가	-10.0955
해주실	-10.0963
▁인보이스	-10.097
▁추세	-10.0979
값	-10.098
겠다고	-10.098
▁등장	-10.0983
▁미국이	-10.0985
ol	-10.0986
▁내부	-10.0986
▁라인	-10.099
as	-10.0994
켓	-10.0996
▁금요일에	-10.0996
▁전자	-10.0997
시켰다	-10.1005
▁즐겨	-10.1005
▁때부터	-10.1008
▁풀어	-10.1009
▁상담	-10.101
▁조각	-10.1011
▁열어	-10.1014
▁파키스탄	-10.1014
원을	-10.1015
맨	-10.102
지에	-10.1024
▁장르	-10.1025
▁확신	-10.1026
▁든다	-10.1033
▁도와주	-10.1033
▁주목	-10.1034
▁의회	-10.1038
▁천천히	-10.1039
▁치킨	-10.1041
▁품질	-10.1042
▁질문에	-10.1048
▁체크	-10.1049
▁발생할	-10.1049
▁피자	-10.1055
▁여러분이	-10.1061
▁수사	-10.1063
▁숫자	-10.1074
버스	-10.1076
▁느끼는	-10.108
▁타는	-10.1082
▁있었고	-10.1083
▁눈물	-10.1084
▁되는지	-10.1084
▁장난감	-10.1085
▁고객이	-10.1087
▁통제	-10.1089
▁세계에서	-10.109
▁발생하는	-10.1091
▁홀	-10.11
il	-10.1101
▁총리는	-10.1107
▁같네요	-10.1108
▁초콜릿	-10.1108
▁잠깐	-10.1109
▁경향	-10.111
익	-10.1112
z	-10.1115
▁어때요	-10.1118
▁세금	-10.112
▁받아야	-10.1121
포인트	-10.1121
▁주인공	-10.1123
▁문장	-10.1123
▁혼자서	-10.1125
했으면	-10.1128
▁SK	-10.1131
▁의도	-10.1132
퇴	-10.1133
▁브	-10.1139
▁앞으로도	-10.1141
셔	-10.115
▁LG	-10.1152
▁삶의	-10.1158
윤	-10.1169
▁소중한	-10.1171
ro	-10.1171
▁주제	-10.1173
▁문자	-10.1177
▁텔레비전	-10.1178
▁충분한	-10.1182
▁앉	-10.1183
▁연속	-10.1184
하셔야	-10.1185
▁없지만	-10.1193
▁장점	-10.12
진다	-10.1201
▁제목	-10.1208
▁수상	-10.1212
해질	-10.1212
▁말이야	-10.1213
▁완	-10.1213
▁모릅니다	-10.1215
▁프로그램이	-10.1217
▁소설	-10.1219
▁실행	-10.122
▁관세	-10.122
▁즉	-10.1225
▁사람이에요	-10.1228
▁데이터를	-10.1233
▁측은	-10.1239
핑	-10.1244
▁지금도	-10.1245
▁운영하는	-10.1247
리스	-10.1249
▁등으로	-10.1259
치고	-10.126
▁다소	-10.1261
▁시청자들	-10.1272
▁관객	-10.1272
▁비자	-10.1274
▁중요	-10.1274
▁이후에	-10.1275
▁의자	-10.1277
대의	-10.128
▁중앙	-10.1295
▁비롯한	-10.1299
드릴게요	-10.1303
▁엘	-10.1304
느	-10.1309
▁내용은	-10.132
▁b	-10.1329
학년	-10.1341
▁제기	-10.1348
분에	-10.1351
▁줘	-10.1353
▁향한	-10.1355
▁이익	-10.1367
▁강의	-10.1369
▁만나서	-10.1369
존	-10.137
▁수학	-10.1373
▁특징이	-10.1379
삼	-10.1384
▁동아리	-10.1394
▁f	-10.1397
먹	-10.1398
▁사기	-10.1412
▁기획	-10.1419
쇼	-10.1421
▁봅니다	-10.1426
리그	-10.143
▁쪽으로	-10.1432
▁한다면	-10.1436
▁끝나고	-10.1436
▁이번에는	-10.144
▁할까요	-10.1446
달러를	-10.1451
▁없는데	-10.1455
▁깨끗	-10.146
▁화요일	-10.1462
▁디지털	-10.1462
▁자연스럽게	-10.1463
▁계좌	-10.1463
▁언니	-10.1463
▁뛰어	-10.1464
돈	-10.1465
▁화제	-10.1467
▁예상된다	-10.1472
▁만들었	-10.1479
▁죽음	-10.1483
▁홈	-10.1485
었는데	-10.1489
카드	-10.1492
이었던	-10.1493
▁좋	-10.1497
▁인물	-10.1497
시키고	-10.1498
놓	-10.15
▁무척	-10.15
주실	-10.1501
▁다니는	-10.1513
▁퍼	-10.1525
▁체크인	-10.1529
▁최초	-10.1533
▁청소년	-10.1536
▁허락	-10.1537
▁고향	-10.1537
▁가요	-10.1538
▁책은	-10.154
▁연설	-10.1541
▁하여	-10.1541
▁회신	-10.1542
▁이틀	-10.1546
▁만들었다	-10.1556
▁쓰지	-10.1557
▁소유	-10.1558
▁송금	-10.1562
럼	-10.1563
세가	-10.1567
▁교통	-10.1574
▁종교	-10.1574
▁실망	-10.1575
▁핵	-10.1584
▁믿고	-10.1595
▁하게	-10.1596
되어야	-10.1605
▁항	-10.1606
▁미안하지만	-10.1608
▁이슬람	-10.1613
째	-10.1613
▁정치적	-10.1615
▁필리핀	-10.1619
▁댄스	-10.1619
▁불리는	-10.1624
▁언제든지	-10.1624
▁대출	-10.1626
무려	-10.1634
래요	-10.1639
▁것이고	-10.1639
▁센터	-10.164
▁클	-10.1644
▁모임	-10.165
▁만약에	-10.1652
▁조성	-10.1656
▁포함되어	-10.1659
식을	-10.166
련	-10.1664
점이	-10.1664
▁녹	-10.1668
▁c	-10.1673
▁대표는	-10.1674
▁선생님이	-10.1676
▁들어간	-10.1683
함으로써	-10.1683
▁올리	-10.1684
▁뇌	-10.1684
▁작	-10.1685
▁필요할	-10.169
▁대통령과	-10.169
▁만나고	-10.1693
▁돌아오	-10.1693
▁그중	-10.1695
▁고장	-10.1697
▁주차	-10.1697
▁불만	-10.1701
▁심장	-10.1704
▁많았다	-10.1705
전에	-10.1705
▁달려	-10.1708
▁들었	-10.1715
▁과학	-10.1715
▁행사에	-10.1716
율	-10.1717
▁반영	-10.1719
▁시행	-10.1724
▁갔어요	-10.1727
▁경고	-10.1727
▁사무실	-10.1728
▁세계적으로	-10.1732
▁가져가	-10.1734
▁다녀	-10.1735
▁이용하는	-10.1736
is	-10.1743
탁	-10.1743
▁출장	-10.175
▁미세먼지	-10.1755
▁운행	-10.1755
▁근데	-10.1758
랜드	-10.1759
▁불가능	-10.176
▁장식	-10.1761
▁너도	-10.1764
푸	-10.1764
▁발표했다	-10.1772
▁폭력	-10.1773
▁웹사이트	-10.1775
▁하나는	-10.1776
셨	-10.1777
▁원하지	-10.1778
▁병원에	-10.1788
몬	-10.1791
▁적응	-10.1794
우리는	-10.1803
▁신호	-10.1804
겠다는	-10.1808
량이	-10.1808
▁주인	-10.1811
▁정상회담	-10.1827
▁재미있는	-10.1828
▁솔직히	-10.1829
▁의료	-10.1831
▁나오지	-10.1837
▁좋아해	-10.1844
▁상자	-10.185
였	-10.1854
위원회	-10.1863
▁지역의	-10.1864
둔	-10.1866
▁$	-10.1868
▁파트너	-10.1868
▁끝내	-10.1872
▁계획이	-10.1887
▁저와	-10.1888
▁지사	-10.1889
▁후회	-10.1898
▁많았	-10.1901
▁올랐다	-10.1904
▁카카오톡	-10.1905
▁수수료	-10.1905
▁공연이	-10.1908
▁놀러	-10.1911
▁사람과	-10.1911
▁화장실	-10.1912
▁일반적으로	-10.1912
▁비롯해	-10.1915
▁띄	-10.1921
▁다음과	-10.1923
▁구매할	-10.1923
▁외부	-10.1924
▁맞지	-10.1925
▁만들어진	-10.1927
▁준다	-10.1932
▁오른쪽	-10.1934
▁알아요	-10.1938
▁시청	-10.1941
▁봄	-10.1941
▁부서	-10.1944
▁영광	-10.1944
▁소스	-10.1944
▁지식	-10.1948
▁치즈	-10.1952
▁발행	-10.1953
▁연장	-10.1959
장에서	-10.1961
▁끝나	-10.1968
▁걱정하지	-10.1972
▁통신	-10.1975
다른	-10.1976
▁같은데요	-10.1977
주고	-10.1979
▁목숨	-10.198
▁설계	-10.1983
▁쉬운	-10.1984
▁달성	-10.1984
▁배울	-10.1987
▁청년	-10.1987
▁전부터	-10.1989
▁전기	-10.199
▁식으로	-10.199
▁없기	-10.1991
▁아들이	-10.1994
▁CNN	-10.1997
▁제품들	-10.2005
▁텐데	-10.2006
허	-10.2007
▁춤을	-10.2016
롤	-10.2017
▁같아서	-10.202
▁특정	-10.2021
▁야구	-10.2023
▁부과	-10.2025
▁내에서	-10.2026
정부	-10.2026
▁먹어	-10.2027
편하게	-10.203
단체	-10.2035
▁여기에서	-10.2036
겠지만	-10.2036
▁있기를	-10.2037
▁영향력	-10.2038
▁제공하는	-10.2042
치를	-10.2045
▁전력	-10.2045
▁갔	-10.2048
▁사항이	-10.205
▁위에서	-10.2054
▁태풍	-10.2057
▁겁니까	-10.2057
▁시장이	-10.2058
▁끝	-10.2062
▁않나요	-10.2062
▁개봉	-10.2063
쳤	-10.2068
▁자랑	-10.2068
▁나은	-10.2072
▁배경	-10.2074
▁이끌어	-10.2075
▁밝혀	-10.2077
▁여권	-10.2079
스를	-10.2082
뜨	-10.2083
우리	-10.2088
▁챙겨	-10.2095
▁매케인	-10.2095
수를	-10.2095
▁라디오	-10.2095
▁절차	-10.2101
▁직원이	-10.2104
▁믿음	-10.2107
레스	-10.2109
▁달하는	-10.2116
▁알지	-10.2118
문화	-10.2125
▁느꼈	-10.2125
▁AP	-10.2128
▁아티스트	-10.2144
▁않는다는	-10.215
▁장관은	-10.2153
해주는	-10.2154
데요	-10.2159
▁디자이너	-10.2166
▁공화당	-10.2172
▁데이트	-10.2177
▁청구	-10.2183
▁수십	-10.2183
▁대선	-10.2192
▁말했어요	-10.2195
▁매주	-10.2196
▁읽어	-10.2203
으세요	-10.221
▁이집트	-10.2211
▁로봇	-10.2211
▁규제	-10.2211
▁짐을	-10.2219
▁서명	-10.2223
▁득점	-10.2226
▁말씀을	-10.2228
▁시계	-10.2234
▁나아가	-10.2237
▁품목	-10.225
▁접속	-10.2252
들로	-10.2257
▁않았지만	-10.2257
▁머	-10.2258
▁법안	-10.2258
잔	-10.2259
▁평소에	-10.2263
▁포함한	-10.2265
▁결정을	-10.227
▁약속을	-10.2272
▁사실은	-10.2276
▁함	-10.2277
▁운전자	-10.2278
▁달라	-10.2278
▁드는	-10.2281
▁현장에서	-10.2284
▁항공사	-10.2288
▁전용	-10.2289
▁그렇지만	-10.2289
▁무엇입니까	-10.2289
주시길	-10.229
▁것이며	-10.2299
▁자세히	-10.2309
▁고객들	-10.2312
▁건데	-10.2313
▁있었	-10.2322
▁식품	-10.2325
싱	-10.2325
▁괜찮은	-10.233
▁폭행	-10.2331
자의	-10.2331
▁서울에	-10.2333
냈	-10.2335
▁먹지	-10.2338
▁AI	-10.2343
▁배가	-10.2345
▁저렴한	-10.2345
▁기타	-10.2347
▁방해	-10.2355
▁걸리	-10.2356
▁분들	-10.2357
▁일어났	-10.2357
리를	-10.2365
▁차가	-10.2366
수는	-10.2366
▁충돌	-10.2367
더니	-10.2371
▁화물	-10.2372
▁토요일에	-10.2372
▁있었다고	-10.2372
케이	-10.2374
내는	-10.2375
▁작품이	-10.2375
▁예수님	-10.2377
▁그러한	-10.2378
▁전시회	-10.2378
▁하러	-10.2379
▁저번	-10.2397
객	-10.2398
▁코드	-10.2398
▁대구	-10.2401
▁예쁘	-10.2407
▁바쁘	-10.2407
퍼센트	-10.2408
▁입금	-10.2408
▁설명해	-10.2417
▁조치를	-10.2419
▁호텔에	-10.242
▁맨	-10.2423
▁불과	-10.2425
▁거절	-10.2428
트리	-10.2433
▁규칙	-10.2438
▁측	-10.2446
▁구청장	-10.2446
▁시장에	-10.2447
▁지갑	-10.245
▁사전	-10.2456
▁되었어요	-10.2462
▁좋게	-10.2463
왔	-10.2467
▁하죠	-10.2474
▁대부분이	-10.2475
침	-10.2476
▁마찬가지로	-10.2477
시설	-10.2477
▁드리	-10.2484
▁느끼고	-10.2487
▁파리	-10.2491
▁소통	-10.2493
▁지난주	-10.2493
▁상원의원	-10.2493
랜	-10.2497
▁도입	-10.2497
▁자고	-10.2505
▁블랙	-10.251
▁영역	-10.2514
▁계획이다	-10.2515
데이	-10.2518
▁그것들	-10.2519
▁먹으면	-10.2519
봐	-10.252
▁혁신	-10.2526
▁인생을	-10.2531
▁학생들은	-10.2536
▁새해	-10.2539
센	-10.2544
▁지배	-10.2547
▁되어있	-10.2549
▁혐의로	-10.2552
▁신선	-10.2565
▁표정	-10.2566
얼	-10.2567
▁들어가는	-10.2567
▁싶어서	-10.2569
▁맞나요	-10.2574
▁방문할	-10.2582
젠	-10.2585
▁빠	-10.2585
▁사태	-10.2587
만으로	-10.2587
am	-10.2588
관계	-10.2589
▁차트	-10.2591
었고	-10.26
징	-10.2602
▁이메일로	-10.2606
▁스마트	-10.2606
▁시작된	-10.2608
▁홈페이지	-10.2612
엄	-10.2615
▁문제점	-10.2619
▁가족과	-10.2621
▁크고	-10.2625
▁재밌	-10.2627
▁폭탄	-10.2627
▁뉴	-10.2629
▁오늘날	-10.2634
▁담당자	-10.264
사업	-10.2642
넷	-10.2647
▁벗어나	-10.2647
▁삭제	-10.2647
▁바꿀	-10.2648
▁LA	-10.2648
▁향후	-10.2649
▁조절	-10.2654
ad	-10.2654
▁건설	-10.2655
셨나요	-10.2655
▁도쿄	-10.2657
▁완벽한	-10.2663
린다	-10.2663
▁교사	-10.2666
보면	-10.2668
해주셔서	-10.2675
▁의무	-10.2679
▁장기	-10.268
▁기부	-10.2682
▁빠져	-10.2682
▁호텔에서	-10.2685
▁나랑	-10.2686
▁댓글	-10.2688
▁매니저	-10.2688
▁아이스크림	-10.2688
▁흘러	-10.2688
▁아이폰	-10.2689
하겠다고	-10.2698
▁해석	-10.27
▁보면서	-10.2702
▁정의	-10.2711
▁묵	-10.2712
▁사장님	-10.2718
▁목사	-10.2721
▁학생이	-10.2723
▁아직까지	-10.273
▁투입	-10.273
▁정확하게	-10.2733
▁아니지만	-10.2743
▁세워	-10.2745
▁생각할	-10.2746
▁고정	-10.2749
▁많지	-10.275
▁계기	-10.2754
한국	-10.2755
▁구경	-10.2756
▁상영	-10.2758
▁보유	-10.2763
관리	-10.2764
황	-10.2767
▁상징	-10.2772
▁이후로	-10.2775
제품	-10.2779
완	-10.278
▁밴드	-10.2782
▁돼지	-10.2783
▁학	-10.2784
률	-10.2791
▁일할	-10.2792
▁끝에	-10.2795
▁똑같은	-10.2795
▁모르겠어	-10.2802
▁이상한	-10.2808
ow	-10.2809
▁오기	-10.2811
▁구체적인	-10.2815
▁보여주고	-10.2818
▁연간	-10.2822
조사	-10.2825
컵	-10.2827
▁동일한	-10.2828
시고	-10.2829
▁밑	-10.2832
▁거라	-10.2833
▁돌려	-10.2833
▁차지했다	-10.2834
▁방문한	-10.2839
▁웹	-10.2842
제를	-10.2849
▁머물	-10.2851
▁자신감	-10.2853
▁말하지	-10.2857
러스	-10.2859
폐	-10.286
▁구단	-10.2861
빌	-10.2863
▁틀	-10.2863
산업	-10.2864
▁한데	-10.2866
▁공포	-10.2868
라며	-10.2869
ac	-10.287
▁넘치는	-10.2876
▁색깔	-10.288
▁나눠	-10.2881
▁하니	-10.2885
▁사람입니다	-10.2885
▁시리즈	-10.2886
▁지수	-10.2889
▁밝힌	-10.2893
▁휴대전화	-10.2893
▁비타민	-10.2893
▁아픈	-10.2895
혈	-10.2898
하시나요	-10.2898
▁움직임	-10.2902
몰	-10.2902
▁폐	-10.2912
▁후반	-10.2914
▁느껴	-10.2914
▁건강한	-10.2916
▁하이	-10.2916
▁불안	-10.2922
▁진행할	-10.2929
▁역할	-10.2934
▁업그레이드	-10.2935
▁못해	-10.2936
▁것입니까	-10.2939
됐다고	-10.294
▁다르게	-10.2945
ID	-10.2948
풀	-10.2956
▁이끄	-10.2957
라인	-10.2957
▁유엔	-10.2961
▁했다고	-10.2966
▁기쁨	-10.2969
▁도와줄	-10.2971
▁자리에서	-10.2971
촌	-10.2971
▁손에	-10.2971
▁보여주	-10.2974
▁현상이	-10.2974
여명이	-10.2974
▁진입	-10.298
▁기름	-10.2983
자리	-10.2984
▁없었어요	-10.2994
들어	-10.2996
▁군사	-10.2998
개국	-10.3
▁부정적	-10.3003
▁아이들은	-10.3019
▁대략	-10.3019
▁장면이	-10.3021
▁싸	-10.3022
으니까	-10.3024
▁존중	-10.3024
▁상태로	-10.3025
▁지시	-10.3026
▁부정	-10.3027
▁언제까지	-10.3029
▁의견이	-10.3033
ce	-10.3034
▁했	-10.3035
▁주변에	-10.3044
▁제주도	-10.3046
셀	-10.3047
▁노선	-10.3057
▁남겨	-10.3057
트는	-10.3057
▁공간이	-10.3058
▁찾아가	-10.3058
▁슈	-10.3062
졌어요	-10.3062
▁몸에	-10.3068
▁동네	-10.3073
▁된다는	-10.3079
혼	-10.3083
▁품	-10.3088
샤	-10.3088
▁지루	-10.3089
x	-10.3089
▁자산	-10.3092
▁그리스도	-10.3096
▁공정	-10.3097
▁환영	-10.3098
▁분야에서	-10.3102
▁근거	-10.3103
시기	-10.3105
▁전화번호	-10.3106
▁당신도	-10.3107
하였	-10.3108
▁사건에	-10.3108
▁측정	-10.311
▁장치	-10.3114
대에	-10.3117
▁끈	-10.3118
▁능력이	-10.3124
▁익	-10.3125
▁범위	-10.3129
▁서울에서	-10.3131
일이	-10.3139
균	-10.3141
보는	-10.3143
▁소프트웨어	-10.3146
▁점검	-10.3148
▁연극	-10.315
▁흐름	-10.315
▁통한	-10.3152
▁나가는	-10.3154
▁가자	-10.3156
▁예정이에요	-10.3157
사의	-10.316
했나요	-10.3165
▁미국인	-10.317
▁동생	-10.3173
▁옮겨	-10.3173
내가	-10.3174
미국	-10.3178
▁장난	-10.3183
▁들을	-10.3184
섭	-10.3184
▁전반	-10.3185
▁봐요	-10.3185
▁봤	-10.3185
▁의식	-10.3186
▁베이징	-10.3189
▁추락	-10.3192
라서	-10.3193
▁있었으면	-10.3195
나무	-10.3195
th	-10.3196
▁확장	-10.3197
▁현재까지	-10.3199
▁착	-10.3199
십니다	-10.3201
▁즐기는	-10.3212
▁닿	-10.3215
▁응답	-10.3228
▁안으로	-10.3231
▁됩니까	-10.3232
▁미얀마	-10.3232
▁있으세요	-10.3233
▁극복	-10.3234
▁주민들	-10.324
주길	-10.3241
us	-10.3243
▁관해서	-10.3252
▁예방	-10.3255
▁너랑	-10.3261
▁되길	-10.3262
▁이웃	-10.3264
▁말합니다	-10.3268
▁배치	-10.3271
▁계시	-10.3272
▁일어난	-10.3272
젤	-10.3273
▁밝은	-10.3275
▁읽고	-10.3275
▁시작할	-10.3276
▁떨	-10.3277
▁케이스	-10.3278
▁체포	-10.3278
▁있죠	-10.3279
▁시신	-10.3283
▁직원들	-10.3285
▁아예	-10.3287
▁배우는	-10.3289
느냐	-10.3293
해지고	-10.3293
만달러	-10.3297
▁담아	-10.3299
분기	-10.3301
▁거기서	-10.3301
껏	-10.3301
▁슈퍼	-10.3302
li	-10.3307
▁공감	-10.3313
튼	-10.3314
라운드	-10.332
▁의원은	-10.3322
됐으며	-10.3328
▁편이	-10.333
▁생선	-10.3332
선수	-10.3336
▁물건이	-10.3337
▁나왔	-10.3339
▁되어서	-10.334
▁차단	-10.3343
귀	-10.3343
▁대학교	-10.3346
▁기뻐	-10.335
방송	-10.335
▁어때	-10.3354
▁왼쪽	-10.3357
▁공개했다	-10.336
▁배터리	-10.3362
▁마스크	-10.3366
▁물이	-10.3376
▁찬성	-10.3376
▁오고	-10.339
맥	-10.3397
끈	-10.34
▁방향으로	-10.3405
렉	-10.3405
▁어렸을	-10.3405
▁커뮤니티	-10.3405
▁칭찬	-10.3405
▁창출	-10.3407
▁목록	-10.3408
▁소송	-10.3409
▁결혼식	-10.3409
▁어떨까요	-10.341
▁엄청나	-10.3414
▁배웠	-10.3415
▁특별히	-10.3418
었으면	-10.3419
소리	-10.3419
었을	-10.342
쪽	-10.3426
명에	-10.3428
뿐이에요	-10.3431
▁재미있	-10.3439
▁했고	-10.3445
▁제재	-10.3447
▁축	-10.3447
▁필요로	-10.3448
▁줄어들	-10.345
▁검은색	-10.345
▁놀라	-10.3453
▁종일	-10.3453
▁계약서	-10.3455
▁중국에	-10.3455
▁생길	-10.3457
▁얼음	-10.3459
▁심각	-10.3459
▁성경	-10.346
▁하시는	-10.3473
▁작업이	-10.3476
▁보았습니다	-10.3479
기간	-10.348
이라서	-10.348
컬	-10.3489
▁자동	-10.3489
▁책상	-10.349
▁친구들은	-10.349
롱	-10.3491
▁어쩌면	-10.3493
▁일어날	-10.3493
▁업계	-10.3495
시킨	-10.3499
sh	-10.3501
▁갖게	-10.3505
▁역대	-10.3512
▁회장	-10.3512
▁진행되고	-10.3513
▁부르는	-10.3516
려는	-10.3517
▁우수	-10.352
▁믿을	-10.3529
펠	-10.3537
▁올렸다	-10.3537
▁그러므로	-10.3538
▁예쁜	-10.3538
▁가이드	-10.3539
▁만남	-10.3539
▁외에	-10.354
▁풍경	-10.354
▁집단	-10.3542
▁저희에게	-10.3544
▁고급	-10.3546
▁해변	-10.3551
▁아닌가요	-10.3554
▁빌려	-10.3556
▁개인적으로	-10.3556
▁존경	-10.3562
호가	-10.3562
▁전환	-10.3564
▁중에는	-10.3565
▁행복해	-10.3568
▁찾으	-10.3572
▁하나로	-10.3582
▁열쇠	-10.3583
▁대규모	-10.3583
셨어요	-10.3583
▁주최	-10.3587
▁광주	-10.3588
▁아니냐	-10.3598
▁''	-10.3599
억달러	-10.3601
▁뭐라고	-10.361
▁끌고	-10.3613
▁악화	-10.3613
▁남아있	-10.3625
▁했을	-10.3626
▁만듭니	-10.3627
▁독특한	-10.3627
▁무릎	-10.3627
▁충전	-10.3627
▁압박	-10.3628
이어서	-10.363
명과	-10.3637
▁무시	-10.364
▁한국과	-10.3641
▁초기	-10.3644
▁신체	-10.3647
▁계신	-10.3649
하네요	-10.3653
▁공부하는	-10.3655
▁아프간	-10.3665
▁모르	-10.3667
▁경영	-10.367
▁낸	-10.3673
하시기	-10.3674
▁영원히	-10.3675
▁그녀와	-10.3676
▁기억이	-10.3678
▁대전	-10.3683
틴	-10.3684
▁봉사	-10.3687
▁먹기	-10.369
▁마약	-10.3691
▁진행되는	-10.3692
▁싸움	-10.3697
▁지금부터	-10.3699
트로	-10.3699
▁마시	-10.3701
▁보여줄	-10.3703
▁지정	-10.3704
오는	-10.3707
▁보장	-10.3711
▁가졌	-10.3716
▁케이블	-10.3717
빛	-10.3719
▁국경	-10.372
▁궁금증	-10.3722
▁것인가	-10.3724
▁마치고	-10.3727
▁목요일	-10.3731
▁바이러스	-10.3735
▁않는다고	-10.3739
▁말아	-10.3739
▁봐야	-10.3746
▁크	-10.3746
압	-10.3747
▁났	-10.3748
ut	-10.3754
▁상품이	-10.3754
▁흔들	-10.3755
▁추정	-10.3757
▁근육	-10.3762
▁점수	-10.3767
혹	-10.3773
▁빠진	-10.3774
▁전문가들	-10.3778
▁사랑이	-10.378
▁고르	-10.3783
▁끌어	-10.3784
▁아닐	-10.3787
▁사실상	-10.3787
▁돼서	-10.3795
짜	-10.3795
▁가져	-10.3795
▁혼란	-10.3796
농	-10.3797
▁법을	-10.3797
시키기	-10.3798
▁스키	-10.3803
▁땀	-10.3806
▁걸려	-10.3806
▁많고	-10.3807
▁제임스	-10.3807
▁싱글	-10.3807
▁사용한	-10.3811
척	-10.3811
▁산책	-10.3811
▁있었지만	-10.3812
▁먼	-10.3814
▁바르	-10.3817
▁듯한	-10.3822
▁임금	-10.3824
전에서	-10.3831
▁들어갈	-10.3834
납	-10.3845
▁보내주	-10.3849
▁데리고	-10.3853
▁발사	-10.3856
지기	-10.3861
▁북한이	-10.3867
▁측면	-10.3868
드려	-10.3872
▁못합니다	-10.3876
식이	-10.3878
대회	-10.388
▁화장	-10.3881
▁몰려	-10.3882
▁예수	-10.3884
▁나타나	-10.3887
▁아니라는	-10.3893
▁나면	-10.3898
▁귀여운	-10.3899
▁면접	-10.3899
▁처벌	-10.3899
▁자꾸	-10.39
▁아이디	-10.3904
▁활발	-10.3908
▁팝	-10.391
▁압	-10.3912
기술	-10.3913
세기	-10.3917
셨습니다	-10.3918
브라	-10.3918
해주시면	-10.3919
▁투수	-10.3923
▁무엇	-10.3929
▁내고	-10.3931
▁미래에	-10.3931
▁국내에서	-10.3935
주가	-10.3936
▁근처	-10.3946
▁모르겠습니다	-10.3948
▁모습으로	-10.3949
▁할아버지	-10.395
▁해주	-10.396
제가	-10.3973
▁본인이	-10.3976
▁한국에서는	-10.3977
▁조선	-10.3979
하면서도	-10.398
▁도구	-10.3981
▁보게	-10.3983
박스	-10.3984
줘	-10.3986
▁보유하	-10.3987
▁결론	-10.3989
님이	-10.3991
▁뿌리	-10.3992
▁어려워	-10.3992
▁스토리	-10.3992
치가	-10.3993
▁내에	-10.3997
▁증시	-10.3999
▁출구	-10.4002
▁보냈다	-10.4004
▁동기	-10.4009
▁들어오	-10.401
▁봤어요	-10.401
▁몰라	-10.4011
해진	-10.4011
▁남부	-10.4012
▁가량	-10.4013
폴	-10.4013
▁프리	-10.4016
▁닫	-10.4018
▁들려	-10.4018
▁힘들어	-10.402
▁좋아하고	-10.4026
▁상태에서	-10.4027
▁한국이	-10.4033
거야	-10.4037
▁메이크업	-10.4038
▁인쇄	-10.4038
▁그려	-10.4038
진이	-10.404
▁세대	-10.4044
▁궁금합니다	-10.4046
▁장관	-10.4047
▁선두	-10.4053
하는지	-10.406
닝	-10.4061
▁됐	-10.4066
▁없으면	-10.4067
▁캘리포니아	-10.4067
▁잠시만	-10.4068
▁권력	-10.4068
져서	-10.4072
▁고마워	-10.4072
▁인수	-10.4074
▁오신	-10.4077
받은	-10.4084
▁두려움	-10.4084
야말로	-10.4084
스코	-10.4085
▁숙소	-10.4085
▁제외한	-10.4086
▁비싼	-10.4087
▁종료	-10.4088
이었어	-10.4089
▁부위	-10.4093
▁뿐만	-10.4093
▁논란이	-10.4093
▁세상에	-10.4094
▁고마워요	-10.4096
우스	-10.41
▁쥐	-10.4101
▁꺼	-10.4108
▁마주	-10.4109
▁검	-10.4109
▁한식	-10.4109
▁리그	-10.411
솔	-10.4114
▁진행하고	-10.4116
▁그러니까	-10.4117
▁보수	-10.4117
▁담은	-10.4121
▁이때	-10.4124
▁관련해	-10.4126
이번	-10.4129
ation	-10.4129
▁궁금	-10.4131
▁균형	-10.4131
▁운송	-10.4131
▁뛰어난	-10.4133
▁허리	-10.4134
▁점수를	-10.4135
▁중국어	-10.414
▁받았어요	-10.4143
▁h	-10.4146
ir	-10.4147
벨	-10.4154
▁기다리는	-10.4161
옵니다	-10.4162
▁오더	-10.4167
▁PC	-10.417
닥	-10.4171
▁위원장이	-10.4171
▁생각했어요	-10.4172
▁노력하고	-10.4173
▁활성화	-10.4178
듯이	-10.4179
▁코리아	-10.4179
▁진행된	-10.4179
▁거니	-10.4183
▁그러니	-10.4186
▁입학	-10.4186
▁더욱더	-10.4191
용으로	-10.4195
분의	-10.4198
ay	-10.4199
▁하자	-10.4203
으면서	-10.4204
룸	-10.4205
▁엄마는	-10.4207
▁소화	-10.4213
▁내년에	-10.4214
▁발표한	-10.4216
▁노인	-10.422
릿	-10.4225
▁스테이크	-10.4226
▁납치	-10.4226
▁버락	-10.4229
해보세요	-10.4232
▁상대방	-10.4232
▁인증	-10.4232
▁않다고	-10.4237
▁나라에서	-10.4237
▁수요일	-10.4239
▁방학	-10.424
▁귀하	-10.4244
더라	-10.4245
▁오류	-10.4247
릭	-10.4259
▁불이	-10.426
▁궁금한	-10.4264
▁뮤지컬	-10.4266
닉	-10.4271
▁이루	-10.4272
▁소득	-10.4273
▁열렸다	-10.4273
▁for	-10.4276
▁느끼	-10.4281
▁/	-10.4281
▁조금씩	-10.4282
▁채워	-10.4282
▁몰라요	-10.4286
▁수업이	-10.4287
▁친한	-10.4288
람	-10.4293
▁블	-10.4296
▁봉	-10.4297
▁맞아요	-10.43
CC	-10.4304
쓰	-10.4304
▁적어	-10.4305
▁공공	-10.4305
갑니다	-10.4307
드리도록	-10.431
▁되었	-10.4311
▁문구	-10.4313
▁사상	-10.4317
멘	-10.432
▁그렇기	-10.4321
▁요청한	-10.4323
자인	-10.4324
아이	-10.4325
▁살인	-10.4325
▁타입	-10.4327
▁알아보	-10.4327
▁금방	-10.4329
있습니다	-10.4331
▁선박	-10.4332
▁바이어	-10.4333
▁지점	-10.4334
▁가려면	-10.4336
id	-10.4339
▁채용	-10.4344
▁경기에	-10.4344
▁석	-10.4344
십시오	-10.4346
▁가스	-10.4346
Q	-10.4357
콜	-10.4357
▁내린	-10.4362
▁예배	-10.4375
▁영향	-10.4381
▁최신	-10.4381
▁얼굴이	-10.4384
시키	-10.4388
▁거쳐	-10.4389
원은	-10.4389
▁설립	-10.4391
▁소중	-10.4392
▁미안해	-10.4395
▁내내	-10.4397
▁아프	-10.4409
자와	-10.4415
▁나섰다	-10.4418
▁마사지	-10.4418
▁어깨	-10.4418
▁비싸	-10.4419
▁노력할	-10.4421
▁콘	-10.443
POP	-10.4431
▁타이	-10.4432
▁말이다	-10.4433
▁물질	-10.4433
▁피해가	-10.4436
받을	-10.4437
시간이	-10.444
▁자국	-10.4446
▁대표팀	-10.4446
▁팔레스타인	-10.4449
혁	-10.4453
▁차지하고	-10.4454
▁말로	-10.4455
▁아니었다	-10.4457
자에게	-10.4458
▁제조	-10.4464
▁스타트업	-10.4466
▁노트북	-10.4466
▁재고	-10.4469
▁과목	-10.447
▁사고로	-10.4473
▁고소	-10.4474
봤	-10.4475
▁잡지	-10.4476
▁경우는	-10.4482
▁찾아보	-10.4482
받	-10.4483
▁찌	-10.4486
▁실력	-10.4487
▁방이	-10.4491
▁포함해	-10.4492
▁해결할	-10.4493
▁육	-10.4494
▁여러분들	-10.4499
▁사망한	-10.4501
▁후원	-10.4504
▁벽	-10.4505
▁확정	-10.4506
▁비교	-10.451
▁칸	-10.4511
왔습니다	-10.4511
셋	-10.4515
▁아름다움	-10.4515
▁드디어	-10.4515
▁원문기사보기	-10.4515
▁스미스	-10.4515
se	-10.4517
▁커플	-10.4517
▁한복	-10.4517
▁대사	-10.4519
▁생각했습니다	-10.4524
▁무사	-10.4526
▁거두	-10.4529
OS	-10.4529
▁하던	-10.453
▁유통	-10.453
▁때에는	-10.453
하겠다는	-10.4531
▁사용하여	-10.4531
▁보험	-10.4536
▁엄	-10.4546
드리겠습니다	-10.4549
▁놀이	-10.4557
니아	-10.4561
▁적지	-10.4562
ss	-10.4563
▁이용하여	-10.4564
▁얻고	-10.4564
▁아름답	-10.4565
▁흰색	-10.4565
▁꺾	-10.4565
▁최악	-10.4566
▁계절	-10.4566
▁달아	-10.4566
▁해안	-10.457
지수	-10.4572
단이	-10.4573
▁준비해	-10.4577
▁희생	-10.4581
하셔서	-10.4588
te	-10.4588
▁않겠	-10.4591
해야만	-10.4603
화가	-10.461
▁노력이	-10.4613
흥	-10.4615
ate	-10.4616
▁어른	-10.4616
▁탄생	-10.4616
교육	-10.4617
▁태양	-10.4621
원에	-10.4624
▁복용	-10.4625
▁다니	-10.4626
▁문제로	-10.4629
▁거지	-10.4634
▁둔	-10.4637
파크	-10.4639
버린	-10.464
▁펜	-10.4641
▁일정이	-10.4651
▁정당	-10.4663
▁넓은	-10.4663
▁손가락	-10.4663
▁시카고	-10.4663
▁감각	-10.4666
화된	-10.4667
▁타격	-10.4668
▁바꾸	-10.4675
▁이목	-10.4679
함에	-10.4682
▁분실	-10.4686
▁맘	-10.4687
▁무기	-10.4691
이니	-10.4693
▁가구	-10.4696
▁강제	-10.4699
▁부모님은	-10.4702
▁부여	-10.4706
▁관객들	-10.4707
▁토론	-10.4708
▁건강에	-10.4709
▁밖에서	-10.471
폰	-10.471
텐	-10.4712
▁섭취	-10.4713
득	-10.4713
▁가려고	-10.4714
▁물고기	-10.4715
▁긴급	-10.4716
▁구축	-10.4717
▁명령	-10.4717
▁동작	-10.472
▁구체적으로	-10.472
▁동반	-10.4722
▁방에	-10.4722
The	-10.4722
▁커다	-10.4724
스와	-10.4729
▁미안해요	-10.4729
▁말도	-10.4729
▁방문해	-10.4729
▁지났	-10.4729
셔서	-10.4732
▁로마	-10.4733
영화	-10.4735
▁궁금해	-10.4736
▁아닐까	-10.4737
▁실력이	-10.4738
▁다음으로	-10.4739
▁붙여	-10.474
▁작년에	-10.4742
▁감기	-10.4744
▁의한	-10.4745
장의	-10.4749
달라고	-10.4749
▁하였다	-10.475
▁링크	-10.4751
▁메인	-10.4752
▁즐기	-10.4752
▁앤	-10.4756
하셨	-10.4757
▁공부하고	-10.4762
▁신용카드	-10.4763
▁택배	-10.4764
▁마크	-10.4767
▁물어봐	-10.4768
▁발매	-10.477
▁총격	-10.477
▁분노	-10.4776
구가	-10.4778
▁이용한	-10.4782
▁선택한	-10.4785
주시기	-10.4789
▁최소한	-10.4792
▁휴	-10.4797
▁기간이	-10.4801
▁요청을	-10.4802
▁에어	-10.4809
상의	-10.4812
SA	-10.4813
▁담겼다	-10.4813
▁숙제	-10.4815
원입니다	-10.4816
▁사실이다	-10.4825
동안	-10.4825
더라고요	-10.483
▁유발	-10.4831
▁쪽에서	-10.4836
기관	-10.484
▁한계	-10.4841
▁작용	-10.4842
▁없다면	-10.4842
▁커지고	-10.4844
학교	-10.4846
안을	-10.4853
▁들여	-10.4857
▁선언	-10.4859
▁박사는	-10.486
▁싶다는	-10.4863
▁얻어	-10.4863
▁청와대	-10.4863
▁폐쇄	-10.4863
▁빨간색	-10.4865
▁감염	-10.4865
▁일입니다	-10.4867
활동	-10.4875
▁좋다고	-10.4876
▁진행하는	-10.4884
j	-10.4889
해드리겠습니다	-10.4903
▁기능이	-10.491
▁쉬는	-10.4912
▁무대에	-10.4912
큐	-10.4914
▁태어나	-10.4914
▁옛날	-10.4915
▁치열	-10.4919
▁법률	-10.4919
갔	-10.4928
▁진단	-10.4933
▁가사	-10.4935
▁순수	-10.4935
법을	-10.494
▁점차	-10.4941
▁차지하는	-10.4943
▁미국과	-10.4949
),	-10.4949
▁미국에	-10.495
었지만	-10.4952
▁끊임없	-10.4965
▁스웨덴	-10.4965
▁쿠폰	-10.4965
▁입장에서	-10.4967
▁세탁	-10.497
▁떠난	-10.4974
▁시켜	-10.4974
▁자신에게	-10.498
▁허가	-10.4981
▁지나치	-10.4985
▁관련하여	-10.4992
▁미안	-10.4996
ent	-10.5005
▁협의	-10.5005
▁잘하는	-10.5009
▁데이비드	-10.5016
호서식	-10.5016
▁숙박	-10.5016
▁네이버	-10.5017
▁이른	-10.5017
▁해소	-10.502
▁파는	-10.5022
▁단독	-10.5022
▁위반	-10.5027
▁지속적으로	-10.5028
▁침	-10.503
▁서버	-10.5032
선이	-10.5037
▁멀	-10.5043
▁그분	-10.5043
▁모르겠다	-10.5044
비는	-10.5045
▁남북	-10.5047
▁어렵다	-10.5052
▁가족들과	-10.5053
▁칠	-10.5054
▁트위터	-10.5059
번에	-10.5062
▁일본에	-10.5065
▁기쁩니다	-10.5068
▁프리미엄	-10.5068
▁깨닫	-10.5068
▁맞추	-10.5068
▁본인	-10.5073
으로써	-10.5074
갈수록	-10.5074
▁여론	-10.5075
▁상점	-10.5077
▁어울리는	-10.5078
▁끝까지	-10.5079
▁완화	-10.5082
▁제도	-10.5086
리에	-10.509
▁정원	-10.5091
▁솔	-10.5094
▁분리	-10.5096
회의	-10.5101
효	-10.5102
▁메일로	-10.5102
▁살았	-10.5104
▁판매하는	-10.5105
▁미니	-10.5108
리지	-10.5109
▁경제적	-10.5113
▁바지	-10.5117
▁이래	-10.5119
▁중간	-10.5119
▁태어난	-10.512
▁브라운	-10.512
▁더불어	-10.512
▁사망했다	-10.512
답니다	-10.5121
▁피곤	-10.5122
▁놀라운	-10.5122
▁첫째	-10.5124
▁이혼	-10.5124
짓	-10.5129
▁왔는데	-10.5129
▁지난주에	-10.5135
▁의하면	-10.5136
▁결심	-10.5136
▁짜	-10.5137
품을	-10.5138
▁사라지	-10.5141
▁범	-10.5142
▁갖추고	-10.5144
▁컵	-10.515
▁보며	-10.5151
▁식물	-10.5153
▁증상	-10.5154
▁아닌가	-10.5162
▁디저트	-10.5172
▁부드러운	-10.5172
▁할리우드	-10.5172
▁시드니	-10.5172
▁몽골	-10.5172
▁바닥	-10.5174
▁콜	-10.5177
▁관광객	-10.5177
▁감사하겠습니다	-10.5178
▁누르	-10.518
았어요	-10.5183
▁냉	-10.5186
▁군대	-10.519
▁케	-10.5191
▁맞게	-10.5192
▁결승	-10.5192
▁가격에	-10.5195
▁일어나는	-10.5202
▁책이	-10.5204
▁되는데	-10.5207
던데	-10.521
▁부디	-10.5211
잇	-10.5215
▁양식	-10.5218
▁고맙습니다	-10.5224
▁승무원	-10.5224
십	-10.5224
▁복귀	-10.5225
▁있으나	-10.5226
웠	-10.5227
▁가족들	-10.5228
▁기업들이	-10.523
▁파스타	-10.5233
▁창조	-10.5237
개로	-10.5238
밥	-10.5238
▁커버	-10.5241
▁안전한	-10.5241
▁하더라도	-10.5243
▁민족	-10.5246
▁적절한	-10.525
▁자살	-10.5253
▁입원	-10.5258
하였고	-10.526
육	-10.5271
랄	-10.5272
▁것만	-10.5273
▁역사를	-10.5274
▁와이파이	-10.5277
▁부동산	-10.5277
▁물에	-10.528
▁아이들에게	-10.528
▁만일	-10.5283
▁당신들	-10.5285
겠	-10.5293
▁빅	-10.5294
▁피우	-10.5306
▁선택할	-10.5308
검	-10.5314
▁마음으로	-10.5315
▁무게	-10.5315
▁신용	-10.5316
▁전원	-10.5316
났	-10.5319
▁항공기	-10.5327
▁기억에	-10.5329
든지	-10.5329
▁크리스	-10.5329
▁티셔츠	-10.533
▁봤을	-10.5331
▁믿어	-10.5332
▁춤	-10.5335
▁만화	-10.5338
▁주민들이	-10.5342
▁뜨	-10.5345
▁매운	-10.5345
쟁	-10.5352
▁못해요	-10.5359
ot	-10.5363
▁헤어	-10.5366
ry	-10.537
▁엄청	-10.5372
홀	-10.5378
▁크림	-10.5381
렛	-10.5383
▁영혼	-10.5384
▁시작했습니다	-10.5384
▁연방	-10.5386
▁질병	-10.5387
▁이어지고	-10.5391
▁대처	-10.5392
▁실현	-10.5393
살이	-10.5394
▁마찬가지	-10.5395
▁초점	-10.5396
▁타임	-10.5396
▁숨진	-10.5396
▁듣기	-10.5397
▁이름으로	-10.5397
all	-10.5403
▁가능할	-10.5403
▁일반적인	-10.5404
▁목표로	-10.5404
ig	-10.5405
▁많아요	-10.5407
웠다	-10.5407
▁차별	-10.5408
▁부문	-10.5414
▁들어요	-10.5415
▁위험한	-10.5426
▁쿠	-10.543
▁생각에는	-10.5432
▁알아야	-10.5432
▁여름에	-10.5433
▁옮기	-10.5436
▁여론조사	-10.5437
▁Korea	-10.544
▁석방	-10.544
▁평생	-10.544
▁지켜보	-10.5441
▁포즈	-10.5452
▁당신한테	-10.5452
▁집이	-10.5453
▁보였	-10.5456
▁피아노	-10.5461
▁심사	-10.5464
▁용의자	-10.5469
스러워	-10.5474
▁실적	-10.5477
▁운영하고	-10.5478
▁뒤로	-10.5482
▁마실	-10.5484
▁벨	-10.5486
▁상위	-10.5488
▁애플리케이션	-10.549
▁암호화폐	-10.549
▁플라스틱	-10.549
▁체크아웃	-10.549
▁마이클	-10.5491
▁찍	-10.5491
▁어렵습니다	-10.5496
▁한화	-10.5498
▁한글	-10.5498
▁갑	-10.5501
▁즉시	-10.5506
▁자라	-10.5507
▁힘들었	-10.5507
엑스	-10.5508
▁발급	-10.5509
군이	-10.5509
▁현장에	-10.5522
▁우편	-10.5535
▁지연	-10.5537
▁여지	-10.5538
▁X	-10.554
▁블루	-10.5541
▁정식	-10.5543
》	-10.5544
파운드	-10.5545
▁제품으로	-10.555
▁전세계	-10.555
▁통계	-10.5551
▁편집	-10.5554
▁쉴	-10.5559
▁남았	-10.5561
▁생겨	-10.5565
행사	-10.5567
원으로	-10.5572
▁이어질	-10.5573
민이	-10.5574
▁움직이	-10.5577
이든	-10.5582
▁심한	-10.5586
▁형식	-10.5587
거든	-10.5588
co	-10.559
▁친구에게	-10.5594
ne	-10.5595
▁살아가는	-10.5598
▁마드리드	-10.5598
▁공항에	-10.5599
▁파괴	-10.56
▁걷	-10.56
▁인간이	-10.5601
▁영양	-10.5604
스럽	-10.5606
▁대표적	-10.5607
▁먹었어요	-10.5611
▁리더	-10.5613
▁가족을	-10.5617
▁없게	-10.5617
▁데에	-10.5622
경제	-10.5626
밤	-10.5629
▁우려가	-10.5629
전이	-10.5634
▁모인	-10.5636
앤	-10.5636
▁포함된	-10.5642
ive	-10.5642
▁남는	-10.565
▁싸이	-10.565
▁건축	-10.5651
▁삶이	-10.5652
▁캠프	-10.5653
▁손흥민	-10.5653
▁옵션	-10.5653
먹으러	-10.5653
▁문재인	-10.5653
▁여성의	-10.5653
▁스크린	-10.5653
▁김정은	-10.5654
었으며	-10.5655
▁희	-10.5656
▁지닌	-10.5656
다들	-10.5662
▁간절	-10.5663
됐고	-10.5663
▁기초	-10.5665
▁먹었습니다	-10.5668
▁중국은	-10.5671
▁내놓	-10.5679
▁국민들	-10.568
▁손실	-10.5682
▁꼽	-10.5685
▁척	-10.569
▁걱정이	-10.5691
콘	-10.5693
▁케이	-10.5693
▁괜찮아	-10.5696
▁남편이	-10.5703
▁빚	-10.5704
▁권한	-10.5704
AR	-10.5706
▁딸이	-10.5707
▁괜찮습니다	-10.5708
▁어려울	-10.5709
▁미치는	-10.5709
▁보냅니	-10.571
▁다니고	-10.5711
▁《	-10.5714
▁의혹	-10.5715
▁얼굴에	-10.572
ve	-10.5725
▁판매하고	-10.5729
▁숲	-10.5731
NA	-10.5732
▁보내주신	-10.5732
▁꿈이	-10.5733
▁미국은	-10.5733
▁톰	-10.5739
져야	-10.574
▁보여준다	-10.5742
▁The	-10.5748
▁성공적	-10.5748
헌	-10.575
▁위원회	-10.5751
계획	-10.5751
▁탐	-10.5759
▁소개해	-10.5762
▁준비되어	-10.5762
▁간호사	-10.5763
▁여성들이	-10.5766
세의	-10.5768
되기도	-10.5769
▁인력	-10.577
▁코너	-10.5771
▁드러내	-10.5772
▁그릇	-10.5774
인들은	-10.5776
▁세부	-10.5777
▁갖	-10.5781
▁먹은	-10.5784
▁도서관	-10.5786
갑	-10.5791
▁만든다	-10.5796
▁마시는	-10.5801
마저	-10.5801
▁싶은데요	-10.5804
면서도	-10.5806
였어	-10.5807
▁늦어	-10.581
▁경력	-10.5811
▁됐어요	-10.5811
비아	-10.5811
▁워싱턴	-10.5812
사고	-10.5815
▁스튜디오	-10.5815
▁극장	-10.5818
▁샐러드	-10.5819
▁라면	-10.5819
▁화이트	-10.5819
▁영웅	-10.582
▁출입	-10.5821
▁봤다	-10.5825
▁임무	-10.5826
▁보여요	-10.5827
▁통신원	-10.5827
▁의문	-10.5829
에따라	-10.583
하십니까	-10.583
▁괜찮아요	-10.5831
▁들었어	-10.5833
님께서	-10.5834
자들	-10.5837
▁사원	-10.5837
▁주님	-10.5838
▁젖	-10.5839
▁사람도	-10.5842
시쯤	-10.5843
▁재산	-10.5845
주시면	-10.5846
▁말에	-10.5847
어진	-10.5848
▁오세요	-10.5849
▁한쪽	-10.585
천만	-10.5855
접	-10.5856
▁말하기	-10.586
하겠다	-10.586
준다	-10.5861
▁알리	-10.5867
▁공항에서	-10.5868
▁Y	-10.5868
▁켜	-10.587
▁빨간	-10.5875
▁강남	-10.5878
월까지	-10.588
▁손상	-10.5885
▁임신	-10.5888
▁입증	-10.5888
따	-10.589
▁가시	-10.5893
▁재능	-10.5899
▁금리	-10.5899
▁부스	-10.5899
▁팀은	-10.5901
▁실내	-10.5902
▁부탁합니다	-10.5907
▁판매량	-10.5911
▁찾았	-10.5912
▁일로	-10.5916
▁상세	-10.5917
▁IT	-10.5918
▁나선	-10.5918
▁견적	-10.5918
▁패키지	-10.5925
▁오랜만	-10.5926
▁않았을	-10.5929
▁멤버들	-10.593
▁텍사스	-10.5931
▁고객에게	-10.5936
▁초과	-10.5942
▁승객	-10.5942
플레이	-10.5942
▁드릴까요	-10.5942
▁친절	-10.5946
▁불량	-10.5948
▁형태로	-10.595
▁늘어	-10.5951
▁전체적으로	-10.5958
▁기술이	-10.5958
lo	-10.5958
▁세상에서	-10.5959
▁손으로	-10.596
▁기록한	-10.596
▁알려줄	-10.597
▁동물원	-10.5971
미가	-10.5971
▁기소	-10.5972
▁끝이	-10.5976
게임	-10.5977
번호	-10.5978
▁발견됐다	-10.5981
ly	-10.5987
▁감성	-10.5987
▁오빠	-10.5991
▁행동이	-10.5992
칸	-10.5993
▁체중	-10.5994
▁심리	-10.5996
▁실종	-10.5998
▁승부	-10.5998
험	-10.5999
셔도	-10.6
▁해수욕장	-10.6
▁이르는	-10.6001
▁모습은	-10.6008
▁취하고	-10.6011
▁십	-10.6017
하십시오	-10.6023
야만	-10.6024
▁당신께	-10.6024
▁들어있	-10.6024
▁보내준	-10.6025
▁샤	-10.6028
▁상관	-10.6031
▁수집	-10.6031
▁w	-10.6032
▁무엇인가	-10.6033
▁콜라	-10.6035
섬	-10.6043
▁학기	-10.6044
▁겪고	-10.6044
ight	-10.6044
▁하실	-10.6046
▁노동자	-10.6047
im	-10.605
▁선사	-10.6051
▁대단한	-10.6052
▁드러났다	-10.6053
▁주시겠습니까	-10.6055
유의	-10.6057
▁번씩	-10.6061
▁마이크	-10.6062
▁보자	-10.6063
▁들지	-10.6064
지면서	-10.6065
▁지진	-10.6067
▁내릴	-10.6067
▁반품	-10.6068
▁형제	-10.607
▁걸리는	-10.607
▁확	-10.6077
▁겸	-10.6081
▁맞습니다	-10.6084
▁사진에	-10.6091
▁있었기	-10.6093
▁해결하기	-10.6095
▁오렌지	-10.6101
▁사용하기	-10.6102
▁바라는	-10.6102
ES	-10.6102
▁끝날	-10.6103
▁사귀	-10.6107
▁알았	-10.611
▁금액이	-10.6116
▁제공할	-10.6119
▁공부할	-10.6127
▁방영	-10.6129
▁아버지는	-10.613
▁생각엔	-10.6131
해왔다	-10.6132
▁확실한	-10.6132
▁참여할	-10.6133
▁패스	-10.6137
▁나만	-10.6141
리스트	-10.6145
▁만났	-10.6145
▁부모님이	-10.6145
▁수비	-10.6152
▁세우	-10.6157
▁처음에는	-10.6158
웅	-10.6158
▁듭니다	-10.6159
▁맡아	-10.6159
▁흡연	-10.6159
▁클라우드	-10.6159
▁슬픔	-10.6159
▁즐거움	-10.6159
해준	-10.616
ho	-10.6161
응	-10.6161
▁밝혀졌다	-10.6162
▁우울	-10.6162
▁외출	-10.6164
마리가	-10.6165
권이	-10.6166
▁최초로	-10.6167
기지	-10.617
▁에이	-10.6177
텔	-10.6179
▁프로그램에	-10.618
▁가졌다	-10.6182
▁많아서	-10.6186
▁총리가	-10.6186
▁확산	-10.6189
▁주어	-10.6195
▁내야	-10.6197
▁시작했어요	-10.6198
▁게시	-10.6199
▁탈레반	-10.6201
▁일대	-10.6202
▁여동생	-10.6204
▁죽은	-10.6204
▁강하게	-10.6205
스카	-10.6207
죽	-10.6208
▁땐	-10.6208
▁재개	-10.621
▁아동	-10.6212
▁통합	-10.6216
듀	-10.6216
▁워낙	-10.6217
▁추측	-10.622
▁경기장	-10.6221
일에는	-10.6225
▁죄송합니다만	-10.6227
▁기본적으로	-10.623
▁창업	-10.6231
▁들어온	-10.6234
▁지출	-10.6236
AC	-10.6237
냐고	-10.6239
▁넣고	-10.6242
▁신중	-10.6245
▁싶을	-10.6245
▁필수	-10.6245
▁국회	-10.6249
▁활	-10.6252
골을	-10.6253
▁지어	-10.626
▁조리	-10.6261
▁진행될	-10.6262
▁신기	-10.6264
▁솔로	-10.6265
▁오브	-10.6268
▁다해	-10.6269
▁꼬	-10.627
▁한때	-10.6274
해져	-10.6274
픽	-10.6274
▁카카오	-10.6275
▁획득	-10.6275
▁임시	-10.6275
▁고속도로	-10.6275
▁둘러	-10.6279
해달라고	-10.6282
홍	-10.6284
분께	-10.6289
주셔야	-10.6289
용품	-10.6294
▁물리	-10.6295
▁병원에서	-10.6295
우는	-10.6298
▁음식점	-10.6299
▁될지	-10.6308
▁라이브	-10.6309
▁언제부터	-10.631
▁발주	-10.632
▁회장이	-10.6321
▁날아	-10.6321
트가	-10.6324
▁되게	-10.6324
▁담고	-10.6325
맞	-10.6332
▁깜짝	-10.6333
▁얻기	-10.6333
▁드레스	-10.6335
▁합류	-10.6336
▁요인	-10.6337
AN	-10.6339
▁걸린	-10.6342
▁배출	-10.6342
▁든	-10.6342
▁행운	-10.6346
분쯤	-10.6348
▁만나기	-10.6349
드릴	-10.635
▁배려	-10.6351
▁프	-10.6351
팀이	-10.6351
▁재미있게	-10.6352
▁아르헨티나	-10.6354
▁사랑에	-10.6356
▁저번에	-10.6357
▁의원이	-10.6366
▁건조	-10.6367
ct	-10.637
▁주면	-10.6373
▁삶에	-10.6375
▁높아	-10.6375
▁던지	-10.6375
▁입었다	-10.6378
킬	-10.6379
▁이중	-10.6381
십니까	-10.6382
촉	-10.6387
▁듣	-10.6387
▁측면에서	-10.6388
▁일도	-10.6388
▁시상식	-10.6392
▁돌아올	-10.6393
▁바쁜	-10.6394
▁체결	-10.6395
▁코트	-10.6397
베이	-10.6399
▁멋있	-10.6403
층에	-10.6405
▁제공해	-10.6406
마일	-10.6406
▁낫	-10.6416
받고	-10.6416
▁닭	-10.6424
흐	-10.6425
▁전화해	-10.643
▁포기하지	-10.643
▁현지에서	-10.6431
거리는	-10.6433
운동	-10.6437
되었고	-10.6439
▁골라	-10.6443
▁전날	-10.6444
▁해리	-10.6448
▁보았	-10.6449
▁대가	-10.6451
▁엘리베이터	-10.6451
▁관측	-10.6453
▁눈빛	-10.6454
▁준비한	-10.646
▁공사	-10.6461
칼	-10.6461
▁생각보다	-10.6463
▁있으니까	-10.6465
쳤다	-10.6469
▁당한	-10.6476
시티	-10.6483
다시	-10.6488
▁re	-10.6495
▁검은	-10.6496
▁못했던	-10.6497
▁세력	-10.6499
▁주위	-10.65
▁가격으로	-10.6501
ea	-10.6503
문제	-10.6504
▁현금으로	-10.6508
▁지역은	-10.6508
▁대책	-10.6509
▁그렇습니다	-10.6511
▁논쟁	-10.6511
▁무조건	-10.6512
▁부탁드려	-10.6512
▁대부분은	-10.6513
▁종합	-10.6513
정책	-10.6517
성에	-10.6518
▁경계	-10.652
▁초반	-10.652
팔	-10.6522
되었으면	-10.6523
▁드러나	-10.6527
▁발휘	-10.6528
▁치르	-10.6529
▁경우에	-10.6531
▁연예인	-10.6536
페이	-10.6544
▁당일	-10.6546
사회	-10.6546
▁발라	-10.6552
었다고	-10.6552
▁못해서	-10.6553
겼	-10.6554
참	-10.6554
▁그리워	-10.6564
룩	-10.6564
업자	-10.6565
ie	-10.6569
▁내려가	-10.6569
▁잉글랜드	-10.6571
▁트럭	-10.6571
▁흘리	-10.6571
협회	-10.6573
na	-10.6573
▁준비하고	-10.6573
위로	-10.6579
▁도달	-10.6579
통신	-10.658
▁수업에	-10.658
짐	-10.6583
에게도	-10.6588
▁수용	-10.659
▁정도는	-10.6594
▁가시면	-10.6596
▁같다고	-10.6599
▁나누어	-10.6601
▁대회에서	-10.6601
▁박사	-10.6602
여서	-10.6603
▁봐도	-10.6606
▁것인가요	-10.6607
▁운명	-10.6608
상에	-10.661
▁생각은	-10.6611
▁구분	-10.6612
▁마르	-10.6612
▁단순한	-10.6612
▁선고	-10.6618
AS	-10.6619
시길	-10.6619
는데요	-10.6622
주일	-10.6623
▁참여한	-10.6625
▁실천	-10.6626
잉	-10.6627
▁비트코인	-10.6631
▁장애	-10.6634
▁꽉	-10.6635
▁관련해서	-10.6637
▁벗	-10.6639
▁묘사	-10.6639
▁막을	-10.6642
ha	-10.6645
▁빌리	-10.6646
▁좋고	-10.6651
▁보내줄	-10.6652
특	-10.6652
널	-10.6653
▁간식	-10.6654
Z	-10.6655
“	-10.6656
▁누구에게	-10.6656
해주신	-10.6656
업계	-10.6659
털	-10.6663
해지는	-10.6663
▁떨어졌	-10.6665
▁목적으로	-10.6668
▁쌀	-10.6668
스키	-10.6671
세대	-10.6673
심이	-10.6681
▁해주는	-10.6682
꾼	-10.6687
▁물어	-10.6688
▁지명	-10.6689
▁쓰여	-10.6691
▁내렸다	-10.6692
▁토론토	-10.6694
▁기다려야	-10.6697
▁단점	-10.6697
▁성명	-10.6698
▁구성된	-10.6698
▁초청	-10.67
▁경비	-10.6701
▁것들	-10.6706
▁참가자들	-10.6707
▁전투	-10.6711
▁있었을	-10.6713
▁일들이	-10.6713
보니	-10.6718
▁위해선	-10.672
비용	-10.6724
▁강력	-10.6725
▁박수	-10.6725
▁공무원	-10.6726
▁좋아서	-10.6727
▁좋아할	-10.6729
▁되도록	-10.6731
▁판사	-10.6735
당한	-10.6738
▁사인	-10.6742
쾌	-10.6744
▁클래식	-10.6753
▁적극	-10.6754
했었	-10.6755
▁아끼	-10.6756
▁조용히	-10.6759
▁대표가	-10.6759
▁손님이	-10.6761
▁되기를	-10.6763
▁구속	-10.6766
▁법정	-10.6767
늘	-10.6768
▁동물들	-10.6769
▁수요	-10.6769
▁보냈어요	-10.677
▁주제로	-10.677
▁널리	-10.6772
▁반응이	-10.6773
▁고위	-10.6777
▁따르	-10.678
▁연락해	-10.6781
▁가능하다면	-10.6782
▁해외에서	-10.6783
▁오리	-10.6789
▁용서	-10.6794
▁세포	-10.6796
▁그리스	-10.6799
▁이처럼	-10.68
▁드리고	-10.6802
▁계시는	-10.6804
▁혈	-10.6806
▁굽	-10.6808
▁태어났	-10.6814
▁축복	-10.6816
▁탈출	-10.6817
조원	-10.6818
관이	-10.6822
▁어릴	-10.6827
▁길에	-10.684
▁내용에	-10.684
▁대피	-10.6842
▁위원	-10.6845
▁코치	-10.6846
▁차로	-10.6865
▁두려워	-10.6867
▁흑인	-10.6869
주셨으면	-10.6869
▁&	-10.6873
깃	-10.6873
▁태권도	-10.6876
▁미사일	-10.6876
▁접촉	-10.6876
▁둘째	-10.6877
줘서	-10.6878
답	-10.6884
없는	-10.6888
▁뿐입니다	-10.6889
▁중요합니다	-10.6891
벽	-10.6898
겼다	-10.6902
사진	-10.6904
▁발견된	-10.6907
▁데는	-10.6909
▁왔어	-10.691
▁대상이	-10.6913
됐던	-10.6917
▁느끼게	-10.6918
▁손해	-10.692
갔다	-10.6924
▁생각했다	-10.6926
▁열기	-10.6926
▁연인	-10.6927
▁멈추	-10.6928
▁똑같이	-10.6929
상태	-10.693
▁무대를	-10.6935
▁비중	-10.6936
▁유치	-10.6937
삭	-10.6937
덴	-10.6938
▁가벼운	-10.6938
▁고스란히	-10.6938
▁캠페인	-10.6938
▁다운로드	-10.6938
▁조만간	-10.6938
▁액션	-10.6938
포트	-10.6938
▁파란색	-10.6938
▁붙잡	-10.6939
▁합격	-10.6939
▁떠날	-10.694
하셨습니다	-10.694
▁성향	-10.6942
▁시작하는	-10.6943
▁살짝	-10.6943
▁창문	-10.6944
▁먹이	-10.6946
▁수요가	-10.6946
▁과학자들	-10.6947
거래	-10.6949
▁넘어서	-10.695
▁사유	-10.6955
클라	-10.6962
자들에게	-10.6966
▁추적	-10.6968
▁못하게	-10.6971
▁죽을	-10.6974
▁것이었다	-10.6981
▁영화제	-10.6983
▁방탄소년단이	-10.6984
▁봤습니다	-10.6985
▁구할	-10.6986
서비스	-10.6992
▁챔피언	-10.6995
▁애니메이션	-10.7
▁대변인	-10.7004
▁테마	-10.7007
▁소비자들	-10.7012
▁신곡	-10.7012
겐	-10.7014
▁대사관	-10.7014
램	-10.7015
▁소원	-10.7015
▁혜택을	-10.7017
▁다수	-10.7021
▁본격적으로	-10.7022
▁바보	-10.7022
▁예정이라고	-10.7024
▁사무실에	-10.7025
▁살기	-10.7028
▁먹습니다	-10.7032
▁주문할	-10.7034
백만	-10.7038
▁않았던	-10.7039
▁홀로	-10.7043
▁카드로	-10.7046
센트	-10.7056
장으로	-10.7056
▁항의	-10.7057
겠어	-10.7061
▁멋지	-10.7063
▁밝혔습니다	-10.7063
▁모두에게	-10.7063
▁흔히	-10.7063
해볼	-10.7064
▁항목	-10.7065
▁공격수	-10.7066
▁직후	-10.7066
▁포스터	-10.7067
▁계란	-10.7068
▁걸로	-10.7076
▁사람으로	-10.7077
▁고개	-10.7078
▁베이	-10.7081
▁지냈	-10.7082
▁갖는	-10.7091
찌	-10.7097
하긴	-10.7098
▁수단	-10.7105
▁전개	-10.7109
▁아래에	-10.711
▁참석해	-10.7121
놨	-10.7126
▁호날두	-10.7126
▁원인이	-10.7127
▁화웨이	-10.7129
▁고생	-10.7132
▁주둔	-10.714
▁부대	-10.7142
ia	-10.7143
료를	-10.7143
▁그나마	-10.7144
▁달콤한	-10.7145
사건	-10.7145
▁문화가	-10.7147
▁US	-10.7147
▁주방	-10.7149
▁건너	-10.715
▁복잡	-10.7153
▁떨어지는	-10.7163
럽	-10.7164
▁높아지고	-10.7166
▁처음에	-10.7176
▁되어야	-10.7177
처리	-10.7178
▁벌이	-10.7178
로스	-10.7178
상으로	-10.7184
▁CEO	-10.7184
▁인지	-10.7188
▁한마디	-10.719
▁위대한	-10.719
▁대다수	-10.7191
▁de	-10.7192
▁석유	-10.7194
▁보내드리겠습니다	-10.7196
▁몸매	-10.7197
▁중국인	-10.7198
ma	-10.7199
▁EU	-10.7202
▁데이	-10.7207
▁생겼다	-10.7217
어로	-10.7218
▁차지한	-10.7218
▁인스타그램	-10.7219
놓고	-10.7219
▁자기가	-10.722
기만	-10.7221
AP	-10.7221
▁주가	-10.7222
▁간다	-10.7222
▁주시길	-10.7223
▁잠이	-10.7226
▁일본은	-10.7229
▁될까	-10.7231
▁기기	-10.7232
▁막기	-10.7237
▁테니까	-10.7239
▁동원	-10.724
▁운이	-10.7241
유로	-10.7241
▁상원	-10.7243
▁여사	-10.7244
▁사건은	-10.7246
▁쳐	-10.725
▁그쪽	-10.7251
에서부터	-10.7251
춘	-10.7252
럭	-10.7254
▁깊게	-10.7254
▁햄버거	-10.7254
▁서울시	-10.7256
▁관찰	-10.7256
▁후에는	-10.7256
▁벨기에	-10.7256
▁페스티벌	-10.7258
▁엔진	-10.726
▁소망	-10.7261
▁좋을까요	-10.7263
률이	-10.7264
▁입어	-10.7264
▁열릴	-10.7265
▁복지	-10.7266
번의	-10.7266
▁월드	-10.7267
▁기존에	-10.7267
▁통하여	-10.7268
▁그만두	-10.7271
▁말아야	-10.7273
▁발생하지	-10.7275
▁대체로	-10.7276
▁스타들	-10.7276
▁사랑하고	-10.7277
▁비치	-10.7278
건의	-10.7282
줘요	-10.7282
▁미친	-10.7283
▁유형	-10.7286
▁우리와	-10.7291
▁인원	-10.7292
▁공연장	-10.731
▁영감	-10.7313
▁다르다	-10.7316
▁붉은	-10.7319
엉	-10.7319
▁뮤직비디오	-10.7319
▁평범한	-10.7319
▁생기	-10.732
▁샤워	-10.7321
▁레알	-10.7321
됐습니다	-10.7321
▁예능	-10.7322
▁이수지	-10.7322
▁인용	-10.7324
▁괜찮을까	-10.7326
▁장착	-10.7326
▁도망	-10.7327
▁사업에	-10.7327
▁이용해서	-10.7332
▁오염	-10.7332
▁외모	-10.7334
세계	-10.7336
▁일이에요	-10.7339
세트	-10.734
▁못한다	-10.7345
▁주장이	-10.7346
▁선호하는	-10.7352
필드	-10.7352
롭게	-10.7354
▁습관	-10.7365
▁들리	-10.7366
▁쌍	-10.7369
해준다	-10.7371
하십니다	-10.7372
▁국민들이	-10.7372
베리	-10.7374
윈	-10.7377
▁성적이	-10.7378
▁답했다	-10.7379
뒀	-10.7384
▁퍼포먼스	-10.7384
▁오사카	-10.7384
▁파티에	-10.7384
▁상사	-10.7385
▁ABC	-10.7386
▁은퇴	-10.739
▁소지	-10.7391
▁여성들	-10.7392
▁반군	-10.7396
▁수준의	-10.7398
▁생기는	-10.7405
▁완전	-10.741
받는	-10.7411
▁난민	-10.7418
됐지만	-10.7425
▁빗	-10.7429
욱	-10.743
fe	-10.7439
▁비교해	-10.7442
▁좋아해서	-10.7444
▁가능한지	-10.7445
▁방으로	-10.7446
▁상승세	-10.7448
▁알레르기	-10.7449
첩	-10.7449
▁머무	-10.7449
▁여섯	-10.745
▁돌아갈	-10.7451
▁북부	-10.7463
ine	-10.7464
▁양국	-10.7468
▁증상이	-10.7476
원의	-10.7478
▁기재	-10.748
ex	-10.7483
▁연료	-10.7483
▁하거나	-10.7484
▁진료	-10.7486
▁참석한	-10.7487
▁강도	-10.7488
▁다르	-10.749
▁헤드	-10.749
간다	-10.7493
▁한층	-10.7493
▁같지	-10.7495
여행	-10.7496
대학교	-10.7498
심하게	-10.7499
▁도착했	-10.7499
▁움직이는	-10.75
켜	-10.7502
▁털	-10.7504
▁회장은	-10.7507
▁벤	-10.7507
버릴	-10.7507
▁괜찮을	-10.7508
건이	-10.751
▁부담이	-10.7513
둥	-10.7513
롬	-10.7514
셰	-10.7515
▁마침내	-10.7517
▁이들에게	-10.7517
▁원활	-10.7517
▁남지	-10.7518
▁유효	-10.7519
▁곰	-10.7519
▁욕심	-10.752
가량	-10.7521
▁영화에	-10.7524
▁방문하는	-10.7525
▁도울	-10.7526
▁셀	-10.7527
되었다고	-10.7529
▁있어도	-10.753
성과	-10.7532
▁시작됐다	-10.7534
주시겠습니까	-10.7536
▁오해	-10.7537
▁지각	-10.7539
▁이어졌다	-10.7547
▁현지인들	-10.7548
▁흐	-10.7551
▁제외하고	-10.7553
사와	-10.7553
▁개방	-10.7558
▁헬	-10.7558
▁중에서도	-10.7559
▁입국	-10.756
▁노래가	-10.7566
▁당선	-10.7571
성은	-10.7572
오르	-10.7573
▁중국과	-10.7574
시킨다	-10.7575
MS	-10.7577
▁남기	-10.7578
▁테니스	-10.7581
잎	-10.7581
▁CCTV	-10.7581
▁스티커	-10.7581
▁호기심	-10.7581
▁싫어하는	-10.7581
▁돼지고기	-10.7582
▁채로	-10.7582
▁거리에	-10.7583
▁채팅	-10.7585
하느냐	-10.7591
▁불어	-10.7593
DA	-10.7593
▁울산	-10.7593
▁의미한다	-10.7596
▁곳이다	-10.7598
▁걸어가	-10.7604
▁왕자	-10.7604
▁숨졌다	-10.7606
▁유치원	-10.7611
행위	-10.7614
파이	-10.7615
▁가족들이	-10.7618
est	-10.7622
▁진술	-10.7625
▁사랑은	-10.7629
Ch	-10.763
▁정지	-10.7632
▁죄송	-10.7636
되었으며	-10.764
▁푹	-10.7641
▁아르바이트	-10.7646
▁겨울에	-10.7646
▁트렌드	-10.7648
▁힐러리	-10.7648
▁삼성전자	-10.7648
▁신제품	-10.7653
▁회계	-10.7654
▁돌파	-10.7656
▁있네요	-10.7656
▁연관	-10.7657
▁되었어	-10.7661
▁g	-10.7663
▁길게	-10.7663
▁시청자	-10.7664
▁팬들에게	-10.7666
▁정류장	-10.7666
▁감사해요	-10.7667
▁경쟁력	-10.7667
▁대결	-10.7669
▁가난한	-10.7672
▁라이	-10.7678
▁시원	-10.7679
▁자식	-10.7681
놓은	-10.7684
머리	-10.7687
▁직원들이	-10.769
▁구원	-10.7698
여개	-10.7702
▁합시다	-10.7703
▁살펴보	-10.7704
ec	-10.7706
▁상당수	-10.7708
▁열려	-10.7711
대는	-10.7711
되자	-10.7712
▁가볍게	-10.7715
▁왜냐면	-10.7715
▁그래야	-10.7715
▁이내에	-10.7716
▁되겠습니까	-10.7717
ter	-10.7718
▁해제	-10.7724
▁구름	-10.7725
▁자원	-10.7728
▁휴일	-10.7729
▁두산	-10.7731
▁대리	-10.7732
▁해가	-10.7733
역에서	-10.7735
▁뼈	-10.7735
냥	-10.7736
▁학원	-10.7737
▁먹었	-10.7737
▁과거에	-10.7737
▁배운	-10.7739
▁내리는	-10.7743
▁바라보는	-10.7747
해주고	-10.775
▁애정	-10.7752
▁풀이	-10.7754
▁그래요	-10.7757
▁면에서	-10.7758
▁아이는	-10.7763
▁화성	-10.7764
▁상대적	-10.7764
▁논란	-10.7771
됐	-10.7773
컴	-10.7781
밍	-10.7782
▁잃어버렸	-10.7782
▁금메달	-10.7782
▁픽업	-10.7782
해줘	-10.7784
▁특허	-10.7784
▁새끼	-10.7785
▁농담	-10.7785
▁이루고	-10.7785
▁사안	-10.7786
롭	-10.7787
▁범행	-10.7789
▁인류	-10.7789
▁조회	-10.779
▁발달	-10.7792
▁추운	-10.7793
▁장애인	-10.7799
▁안심	-10.78
▁실력을	-10.7803
▁알려지지	-10.7804
di	-10.7805
▁가능해요	-10.7806
시아	-10.7809
▁괴	-10.781
▁성실	-10.781
▁떨어지	-10.7813
▁직면	-10.7814
▁생성	-10.782
▁가도	-10.782
▁당선인	-10.7823
▁하는데요	-10.7823
▁의상	-10.7828
끼리	-10.7831
▁기업들	-10.7834
릅니다	-10.7837
니스	-10.7841
▁명단	-10.7843
▁소매	-10.7847
▁중독	-10.7848
▁버튼을	-10.7849
▁안녕	-10.7849
▁엔지니어	-10.785
▁오디션	-10.785
▁취향	-10.7852
▁버려	-10.7853
싶	-10.7854
▁진심	-10.7855
욕	-10.7855
▁이끌	-10.786
정보	-10.7866
▁비교적	-10.7868
▁받으면	-10.7869
▁이야기는	-10.7872
▁않았기	-10.7875
▁채소	-10.7884
▁싶다고	-10.7885
▁장점이	-10.7887
▁상태다	-10.7888
▁중이야	-10.7891
▁복잡한	-10.7892
▁보유한	-10.7895
▁자신만	-10.79
끼	-10.79
▁일본인	-10.7902
▁들어오는	-10.7903
▁무장	-10.7906
▁처음이다	-10.7906
▁구매한	-10.7908
▁활용할	-10.7909
▁활동하고	-10.7912
뷰	-10.7915
교회	-10.7918
▁법적	-10.7918
밭	-10.7919
▁갤럭시	-10.7919
▁솔루션	-10.7919
▁남동생	-10.7919
▁스위스	-10.7919
▁하노이	-10.7919
▁겨우	-10.7919
▁설탕	-10.792
▁원칙	-10.7922
▁있었는지	-10.7923
op	-10.7923
no	-10.7927
▁고쳐	-10.7928
▁때문이야	-10.7929
▁들어갔	-10.7929
▁발견했다	-10.7931
▁개성	-10.7933
합시다	-10.7934
▁시티	-10.7935
▁원한다면	-10.7938
▁틈	-10.7939
▁BTS	-10.7939
▁매장에서	-10.7941
▁유전자	-10.7946
▁인권	-10.7946
▁유니	-10.7947
▁취지	-10.7949
하다가	-10.7952
▁영화관	-10.7953
▁아니었	-10.7954
▁간편	-10.7954
드린	-10.7958
▁과정이	-10.7961
▁주었다	-10.7963
▁경찰관	-10.7965
▁이루기	-10.7966
▁학생들에게	-10.7968
렴	-10.7982
▁바퀴	-10.7983
▁드시	-10.7983
▁돌리	-10.7983
▁중구	-10.7984
▁제공하고	-10.7984
렁	-10.7988
학과	-10.7988
▁가능할까요	-10.799
▁숨겨	-10.799
▁검증	-10.7991
▁다닐	-10.7995
▁고백	-10.7996
죄	-10.7996
▁뻔	-10.7998
▁가져오	-10.8
▁비상	-10.8
▁거리가	-10.8001
▁말입니다	-10.8001
▁차량이	-10.8002
▁메이	-10.8004
▁말아요	-10.8006
▁다행히	-10.8007
▁약물	-10.8009
왔던	-10.801
함과	-10.8011
▁범인	-10.8013
▁구매자	-10.8016
▁게재	-10.8019
▁호소	-10.802
▁조명	-10.802
TO	-10.8021
▁시일	-10.8024
▁변호사는	-10.8028
▁보석	-10.8031
▁문화에	-10.8032
▁연습을	-10.8033
▁측에서	-10.8038
▁덕	-10.8038
ON	-10.804
▁작전	-10.8047
▁갈등	-10.8048
▁전에는	-10.8048
헤	-10.8048
▁여기까지	-10.8048
▁병력	-10.8049
▁민주주의	-10.805
▁대여	-10.8051
▁속도로	-10.8053
타운	-10.8056
▁승용차	-10.8057
▁우즈베키스탄	-10.8057
▁업로드	-10.8057
▁모으고	-10.8057
▁갖춘	-10.8058
▁클릭	-10.8058
▁요새	-10.8058
▁염색	-10.8059
▁발굴	-10.8059
율이	-10.8061
▁없애	-10.8061
미터	-10.8061
▁지나가	-10.8064
▁해결책	-10.8065
▁노력하는	-10.807
▁옥	-10.8074
▁이달	-10.8075
▁불행	-10.8078
▁받는다	-10.8081
▁됐습니다	-10.8082
▁외에도	-10.8082
▁것이기	-10.8085
▁아베	-10.809
▁안경	-10.8096
▁풍부	-10.81
▁마셔	-10.8101
▁한잔	-10.8101
▁친절한	-10.8105
▁나누	-10.8107
▁소방	-10.8108
드리고	-10.8113
▁언제든	-10.8114
▁에스	-10.8115
▁싸우	-10.8116
▁말라고	-10.8116
▁발생해	-10.8117
vi	-10.8118
▁줘서	-10.8118
▁들면	-10.812
▁음악이	-10.812
▁마음은	-10.8123
▁이루어지	-10.8124
NC	-10.8124
▁재정	-10.8127
▁쪽에	-10.8127
▁플로리다	-10.8127
▁편의	-10.8129
▁분쟁	-10.813
▁월급	-10.813
▁패배	-10.8132
▁출석	-10.8133
CO	-10.8134
델	-10.8137
▁의존	-10.8138
▁수요일에	-10.8143
▁노조	-10.8144
▁이루어진	-10.8144
▁컨	-10.8148
▁요구하는	-10.8149
▁끌	-10.8167
▁벌인	-10.8169
▁로고	-10.8169
▁점에	-10.8171
▁전면	-10.8178
▁바람에	-10.8183
옥	-10.8185
▁하도록	-10.8194
▁이제부터	-10.8195
▁세금을	-10.8198
▁우크라이나	-10.8198
▁콜롬비아	-10.8198
▁셔츠	-10.8198
▁낭비	-10.8198
▁비밀번호	-10.8198
▁푸틴	-10.8198
▁때문이	-10.82
▁층	-10.8201
▁소식통	-10.8201
▁함께하는	-10.8202
▁기다려주세요	-10.8203
▁어젯밤에	-10.8203
틱	-10.8206
▁예의	-10.8208
▁미칠	-10.8209
▁없네요	-10.8209
▁개막	-10.8209
▁시리아	-10.821
▁일각에서	-10.8212
▁명절	-10.8213
해드릴	-10.8216
▁예약이	-10.822
▁주간	-10.8222
꽃	-10.8223
▁철수	-10.8228
스티	-10.8228
▁나지	-10.8242
▁않았다는	-10.8242
▁나누고	-10.8245
스럽게	-10.8247
사랑	-10.8251
▁is	-10.8253
▁증가한	-10.8253
▁키스	-10.8262
▁어두운	-10.8269
▁피드백	-10.8269
▁쇼핑몰	-10.827
▁불가능한	-10.8271
양이	-10.8271
▁깨끗한	-10.8273
▁나빠	-10.8274
▁정규	-10.8276
▁확실	-10.8276
▁묘	-10.8278
▁것만으로	-10.8281
▁계단	-10.8282
▁결과는	-10.8282
▁기적	-10.8283
▁지원할	-10.8284
▁시점	-10.8288
▁명확	-10.8291
▁안에는	-10.8292
▁측이	-10.8292
▁정해진	-10.8292
▁보내지	-10.8293
▁나왔습니다	-10.8294
#	-10.8297
ta	-10.8297
▁관련한	-10.8298
었는지	-10.8299
하셨다	-10.83
영이	-10.8303
▁알려주실	-10.8303
▁풍부한	-10.8308
▁전송	-10.8308
▁누워	-10.8312
▁결승전	-10.8316
학자	-10.8316
▁영국의	-10.8318
▁자는	-10.8319
▁설득	-10.8321
▁걸어서	-10.8325
▁올리는	-10.8327
▁구호	-10.8328
▁지휘	-10.8328
단은	-10.833
)/	-10.8331
▁받아들이	-10.8332
부분	-10.8335
봐야	-10.8335
치지	-10.8336
▁났다	-10.8336
▁유로	-10.8336
▁실수로	-10.8339
▁이내	-10.834
▁야외	-10.8341
▁화상	-10.8342
▁아랍	-10.8342
다운	-10.8344
▁표준	-10.8346
트라	-10.8348
▁가보	-10.8353
▁지나면	-10.8355
시로	-10.8356
▁집회	-10.8357
▁즐거웠	-10.8358
▁별도	-10.8359
▁그다지	-10.8361
버그	-10.8361
▁배송이	-10.8365
▁중동	-10.8365
▁필요하다는	-10.8368
ell	-10.837
되었는데	-10.8373
▁끝나면	-10.8374
▁주차장	-10.8376
▁막아	-10.8377
자들의	-10.8383
▁일본어	-10.8383
▁졸	-10.8386
▁정성	-10.8387
▁단어를	-10.839
▁일으키	-10.8392
▁사연	-10.8393
실에	-10.8396
▁얻었	-10.8399
겠네요	-10.8401
▁로드	-10.8403
▁채우	-10.8407
▁바뀌었	-10.8412
▁감시	-10.8412
▁MBC	-10.8413
▁블록	-10.8414
▁내면	-10.8415
▁예매	-10.8418
층이	-10.8419
▁입지	-10.8422
▁이론	-10.8424
▁환전	-10.8424
▁모래	-10.8432
아야	-10.8432
▁방식이	-10.844
▁훌륭	-10.8446
위가	-10.8447
싼	-10.845
▁먹어요	-10.845
▁취하	-10.8451
’’	-10.8454
▁머리카락	-10.8456
공원	-10.8458
가격	-10.8459
거에요	-10.8459
▁총기	-10.846
▁냈	-10.846
▁지하	-10.8462
▁나라에	-10.8463
▁나가서	-10.8463
▁자르	-10.8465
▁입구	-10.8468
▁가리	-10.8468
▁기원	-10.8468
▁언급했다	-10.847
▁힘들다	-10.8476
MA	-10.8476
▁감상	-10.8478
겹	-10.8483
▁비핵화	-10.8484
▁개혁	-10.8485
▁스티브	-10.8486
▁들었는데	-10.8487
▁소고기	-10.8488
▁맞이하	-10.8489
▁기독교	-10.8493
▁소수	-10.8493
▁구성되어	-10.8494
▁원하시는	-10.8496
▁미안합니다	-10.8496
▁방지	-10.8497
▁말하면	-10.8498
▁질환	-10.85
하느라	-10.8501
하겠어요	-10.8502
▁치고	-10.8503
으신	-10.8504
▁마친	-10.8504
▁염	-10.8506
▁생각하세요	-10.8509
상에서	-10.851
▁be	-10.8511
나가는	-10.8513
▁보고서는	-10.8518
▁깔끔	-10.8519
중국	-10.8524
▁하나만	-10.8524
세로	-10.8525
▁어려움이	-10.8528
▁수준이	-10.8528
프로	-10.8529
▁생존	-10.8531
▁정권	-10.8532
▁질문이	-10.8532
▁음식에	-10.8533
ee	-10.8534
▁죽어	-10.8534
▁부진	-10.8535
현이	-10.8538
▁콩	-10.8538
TA	-10.8539
▁성공할	-10.854
▁판매가	-10.8552
▁친구들에게	-10.8555
▁붕괴	-10.8557
▁애완동물	-10.8557
▁의사소통	-10.8557
▁디스플레이	-10.8557
▁아시안게임	-10.8558
▁순서	-10.8558
▁노란색	-10.8558
월에는	-10.8558
▁벤투	-10.8559
▁논문	-10.856
▁성능	-10.8564
▁늘어난	-10.8564
했다면	-10.8565
▁온도	-10.8567
만명이	-10.8568
▁분류	-10.8572
▁주시고	-10.8574
▁Q	-10.8575
▁추석	-10.8576
▁타이어	-10.8578
▁당사	-10.8578
▁뿐이다	-10.8578
최	-10.8588
▁적게	-10.8588
▁간단하게	-10.8588
로우	-10.8594
▁그렇다고	-10.8595
▁보조	-10.8595
ers	-10.8601
rt	-10.8601
▁들어왔	-10.8604
인치	-10.8607
▁조화	-10.861
)'	-10.8613
체가	-10.8618
해줘서	-10.8619
▁당황	-10.8622
▁오일	-10.8624
▁취재	-10.8624
▁겁	-10.8626
▁이용하고	-10.8631
▁아뇨	-10.8632
▁KBS	-10.8633
▁계기로	-10.8633
▁잇따	-10.8634
▁차가운	-10.8636
해진다	-10.8638
▁번째는	-10.8638
▁위험이	-10.8639
▁쏟아	-10.8647
지원	-10.8653
▁믿	-10.8654
▁경제가	-10.8655
▁호수	-10.8656
▁편이다	-10.8656
▁내지	-10.8661
하죠	-10.8673
▁비전	-10.8673
랩	-10.8675
놀	-10.8676
▁Ro	-10.868
▁기여	-10.8684
▁도중	-10.8684
▁소금	-10.8685
BA	-10.8686
▁재고가	-10.8687
▁알기	-10.869
때로는	-10.8694
▁메모	-10.8695
▁벌이고	-10.8695
▁찾아볼	-10.8696
▁지난번에	-10.8701
▁입는	-10.8702
즈는	-10.8703
▁스테	-10.8703
▁기다릴	-10.8704
호선	-10.8704
▁뭔지	-10.8705
▁반려동물	-10.8705
▁당첨	-10.8706
▁사고를	-10.8706
▁여러분들이	-10.8709
▁곁에	-10.8709
▁거래처	-10.8709
▁열고	-10.871
▁사무	-10.8711
▁건강하게	-10.8711
▁없을까요	-10.8711
▁말라	-10.8713
스토어	-10.8716
▁떠났	-10.8717
▁파워	-10.8718
▁북미	-10.8723
▁보인	-10.8723
▁개설	-10.873
▁수천	-10.8731
▁돕는	-10.8735
스톤	-10.8736
▁믿지	-10.8739
▁부분에서	-10.8743
▁조사됐다	-10.8746
▁목격	-10.8747
▁음성	-10.8749
▁근로자	-10.8751
▁일본이	-10.8752
der	-10.8753
▁먹어야	-10.8755
또	-10.8758
주지	-10.8763
▁카페에서	-10.8763
UN	-10.8764
▁벌금	-10.8764
콤	-10.8774
로서는	-10.8777
▁리버풀	-10.878
▁바그다드	-10.878
▁세일	-10.8782
▁우연히	-10.8783
▁남녀	-10.8783
▁양쪽	-10.8783
원에서	-10.8785
하곤	-10.8785
에게서	-10.8786
▁민간	-10.8792
▁출연한	-10.8792
팬	-10.8793
▁박람회	-10.8797
▁올릴	-10.8798
▁키우는	-10.8807
납니다	-10.8808
▁다시는	-10.8814
해졌다	-10.8815
▁없었어	-10.8815
▁지분	-10.8815
▁해보	-10.8816
▁맛볼	-10.8819
▁보여준	-10.8821
되나요	-10.8825
▁가세요	-10.8825
▁이해하지	-10.8831
▁제작한	-10.8831
▁상황은	-10.8835
석이	-10.8835
▁실감	-10.8837
▁군인	-10.8837
▁이해하고	-10.8841
▁표기	-10.8842
▁의원들	-10.8844
▁관람객	-10.8847
▁교실	-10.8848
▁높게	-10.8855
▁늦었	-10.8855
▁단백질	-10.8855
▁돋보이	-10.8855
▁오프라인	-10.8855
▁탑재	-10.8857
▁급격	-10.8857
머니	-10.8859
공항	-10.8861
▁걸그룹	-10.8864
▁최상	-10.8864
▁보시면	-10.8865
병원	-10.8866
브리	-10.8871
▁중요하게	-10.8881
▁아닌지	-10.8888
▁편안한	-10.8889
▁수영장	-10.8889
▁앉아서	-10.8889
▁국가들	-10.889
▁나타나는	-10.8892
▁흥미를	-10.8894
된다면	-10.8895
▁표면	-10.8898
▁그러고	-10.8901
▁안정적	-10.8903
▁테이프	-10.8907
묘	-10.891
그러나	-10.8911
캐	-10.8913
리오	-10.8914
▁출고	-10.892
러브	-10.8921
전문	-10.8921
▁주시는	-10.8925
▁착한	-10.8928
▁피로	-10.8929
▁유감	-10.893
딘	-10.893
▁착륙	-10.8931
▁토트넘	-10.8931
▁받아들일	-10.8931
▁도서	-10.8936
▁끼치	-10.8936
▁흥분	-10.8938
▁듣지	-10.8939
▁파업	-10.8941
▁은혜	-10.8941
되었을	-10.8943
▁거주하는	-10.8945
▁낮아	-10.8947
▁추산	-10.8948
▁게다가	-10.8949
▁긍정적으로	-10.8951
피트	-10.8951
to	-10.8955
▁우산	-10.8955
▁바이오	-10.8956
▁집계	-10.8956
항공	-10.8957
▁인질	-10.8959
▁행보	-10.896
▁노력해	-10.8962
▁드리는	-10.8963
▁기대된다	-10.8964
▁환호	-10.8965
▁곳곳에	-10.8969
▁자재	-10.897
▁유학	-10.8975
▁농업	-10.8975
▁영상이	-10.8975
▁봤어	-10.8975
▁효과적	-10.8977
▁달린	-10.8978
▁프로젝트에	-10.898
안에	-10.898
▁주장하고	-10.8983
▁보니까	-10.8985
팝	-10.8986
▁인물이	-10.8986
▁통일	-10.8987
확	-10.8988
▁되었고	-10.8988
▁바닥에	-10.8993
IC	-10.8993
과정	-10.8993
▁때보다	-10.8996
겠죠	-10.8996
um	-10.8996
▁했는지	-10.8998
▁시작으로	-10.8998
▁바이	-10.9007
▁타이틀	-10.9007
▁기숙사	-10.9007
▁베를린	-10.9007
▁페이팔	-10.9007
▁흥미로운	-10.9007
▁패턴	-10.9008
▁모르겠지만	-10.9009
▁그간	-10.9009
▁놓은	-10.9009
▁제외	-10.9011
가족	-10.9012
보도록	-10.9012
▁절약	-10.9014
▁신앙	-10.9014
▁싶었어요	-10.902
▁인연	-10.902
▁조작	-10.9021
였다고	-10.9023
해보고	-10.9026
▁안쪽	-10.9028
룰	-10.9029
▁센	-10.9032
▁흰	-10.9033
▁본사	-10.9034
드로	-10.9036
▁열린다	-10.9037
▁보내세요	-10.9039
▁재생	-10.9044
▁경선	-10.9045
▁특수	-10.9046
▁편입니다	-10.9054
대표	-10.9054
꾸	-10.9055
▁시사	-10.9057
▁플라	-10.9057
▁수강	-10.9058
탑	-10.9063
▁이길	-10.9063
▁뜻이	-10.9064
▁주지사	-10.9066
▁개별	-10.9066
▁드려	-10.9067
▁요청합니다	-10.9068
▁한정	-10.9068
▁미치	-10.9074
▁요즘은	-10.9076
팩	-10.9076
▁가지는	-10.9076
쳤습니다	-10.9077
▁불리	-10.9079
▁차에	-10.9079
▁아웃	-10.908
▁코미디	-10.9083
▁뉴질랜드	-10.9084
▁올바른	-10.9084
벼	-10.9084
▁로버트	-10.9084
▁차라리	-10.9084
▁보내기	-10.9085
▁강렬	-10.9086
▁열풍	-10.9088
▁모르고	-10.9089
▁IP	-10.9094
▁흔들리	-10.9094
▁부착	-10.9094
▁로그인	-10.9099
▁분석이	-10.9099
▁탑	-10.9101
▁모델이	-10.9102
프라	-10.9107
▁과자	-10.9108
▁외교	-10.9109
▁남을	-10.9109
▁주연	-10.911
▁CD	-10.911
▁현재는	-10.9111
▁깨어	-10.9116
▁연합	-10.9126
▁기대감	-10.913
▁흥	-10.9134
▁엔터테인먼트	-10.9134
▁대표하는	-10.9136
▁않았는데	-10.9141
주기	-10.9143
▁만드	-10.9143
▁주어진	-10.9144
▁무대에서	-10.9145
▁정신이	-10.9147
▁당연	-10.9148
▁PO	-10.9157
▁한국어로	-10.9158
▁펀드	-10.916
▁뚜렷	-10.9161
둬	-10.9161
▁Tom	-10.9161
적극적인	-10.9162
▁사망했다고	-10.9164
▁상의	-10.9164
▁적당한	-10.9164
ab	-10.9165
▁화요일에	-10.9165
▁하와이	-10.9165
▁있으시면	-10.9166
▁실례합니다	-10.9166
▁집행	-10.9167
없	-10.9167
우드	-10.9169
▁사회가	-10.9172
되었던	-10.9174
▁예술가	-10.9176
▁꺼내	-10.9177
▁지혜	-10.9178
블리	-10.9178
▁취해	-10.9179
▁받아서	-10.9181
▁자본	-10.9181
나갔다	-10.9181
mo	-10.9185
▁깨달았	-10.9186
▁복구	-10.9186
▁생기면	-10.9187
cat	-10.9187
▁스파	-10.9188
▁일제	-10.9189
▁구두	-10.919
▁랩	-10.9192
▁청구서	-10.9195
▁사랑합니다	-10.9201
주신	-10.9204
▁맞고	-10.9205
▁시원한	-10.9206
▁집안	-10.9212
▁로비	-10.9212
▁어머니는	-10.9213
▁그다음	-10.9213
▁배워	-10.9222
▁나라가	-10.9222
▁델	-10.9222
▁않았고	-10.9222
▁뛰	-10.9223
▁가로	-10.9224
았던	-10.9226
▁주문이	-10.9232
▁밝히지	-10.9239
▁폴란드	-10.9239
▁눌러	-10.924
▁빼앗	-10.924
보좌관	-10.924
▁협조	-10.924
▁드러냈다	-10.924
▁체력	-10.9241
▁슬퍼	-10.9242
▁살아남	-10.9242
▁행정부	-10.9245
▁보내주시기	-10.9246
▁필요하지	-10.9246
▁연애	-10.9247
▁일일	-10.9248
▁다치	-10.9249
▁편안하게	-10.925
치기	-10.9251
▁부근	-10.9253
▁한꺼	-10.9258
▁시기에	-10.9258
▁나와서	-10.9266
▁리조트	-10.9268
▁타자	-10.927
▁매출이	-10.927
▁내일은	-10.9271
벨트	-10.9277
▁느끼지	-10.9278
▁날개	-10.9283
▁사로잡	-10.9284
▁부자	-10.9286
냅니	-10.9291
▁변하지	-10.9293
능력	-10.9294
▁관련이	-10.9294
▁공개한	-10.9298
▁서식	-10.9299
▁있는데요	-10.9304
보자	-10.9304
▁강요	-10.9306
▁있길	-10.9309
스포츠	-10.9314
칙	-10.9314
상품	-10.9317
▁찾지	-10.9318
」	-10.9318
쉐	-10.9318
▁누나	-10.9318
▁자부심	-10.9318
▁납부	-10.9319
▁남쪽	-10.9321
▁치러	-10.9321
▁환승	-10.9322
▁머무르	-10.9322
bo	-10.9323
씨와	-10.9324
▁사랑해	-10.9324
▁교류	-10.9325
▁전년	-10.9329
▁확실하게	-10.9331
▁시위대	-10.9331
큼	-10.9336
▁유력	-10.9337
▁흑	-10.934
▁on	-10.9342
▁쭉	-10.9343
▁렌즈	-10.9343
뉴스	-10.9344
▁유사한	-10.9347
ll	-10.9348
▁안보	-10.9349
▁너희들	-10.9349
▁찍는	-10.935
▁강사	-10.9351
해보겠습니다	-10.9352
▁재활용	-10.9353
▁인생에서	-10.9354
▁최근에는	-10.936
▁취한	-10.9361
▁성분	-10.9363
▁써야	-10.9366
▁옷이	-10.9366
▁독자	-10.9367
▁세월	-10.9369
▁살면서	-10.9369
▁이상으로	-10.9369
▁적절	-10.9374
▁시인	-10.9376
하든	-10.9377
되었어요	-10.938
▁높아지	-10.9381
▁불가	-10.9381
▁신나	-10.9383
▁이것에	-10.9383
▁방어	-10.9394
▁폰	-10.9394
핀	-10.9394
▁진화	-10.9397
▁뽑아	-10.9398
▁훼손	-10.9398
▁사우디	-10.9398
해온	-10.9398
▁끌어올	-10.9399
경찰	-10.9399
▁연휴	-10.9399
▁소장	-10.94
▁언급한	-10.94
▁결합	-10.94
▁신부	-10.94
▁알려주시기	-10.9401
하진	-10.9403
▁레이스	-10.9404
▁있겠습니다	-10.9404
▁가게에서	-10.9405
▁사용하면	-10.9406
된다고	-10.9408
▁벌어진	-10.9412
▁알았습니다	-10.9421
▁때때로	-10.9422
▁알았어요	-10.9422
천여	-10.9424
▁대신에	-10.9427
▁도착한	-10.9429
▁사로잡는	-10.9432
▁아카데미	-10.9434
▁정체	-10.9443
ti	-10.9448
▁물건들	-10.9448
▁지키	-10.9451
▁KT	-10.9453
▁목요일에	-10.9453
▁복사	-10.9456
▁비중이	-10.9459
▁할까	-10.9459
▁학대	-10.946
디아	-10.9462
▁홈페이지에	-10.9468
▁조용	-10.9468
▁움직임이	-10.9471
▁찍었	-10.9471
▁블로그	-10.9476
▁you	-10.9476
▁브렉시트	-10.9478
▁컨테이너	-10.9478
▁프로모션	-10.9478
▁오토바이	-10.9478
▁힙합	-10.9478
▁도지사	-10.9479
▁착각	-10.948
▁라벨	-10.948
▁흥행	-10.948
▁모이	-10.948
▁평가했다	-10.9483
▁놓았	-10.9485
▁일부는	-10.9486
▁격차	-10.9487
▁알았어	-10.9489
▁끝났	-10.9492
▁계획은	-10.9495
다리	-10.9498
▁누구보다	-10.9502
▁상관없이	-10.9502
▁느껴지는	-10.9502
▁구역	-10.9503
▁드리도록	-10.9504
▁레드	-10.9506
▁장소에	-10.9507
▁사이트에	-10.9509
▁성장할	-10.9515
▁이어지는	-10.9515
▁조용한	-10.9516
▁일어나고	-10.9516
▁감자	-10.9517
코리아	-10.9519
▁걸음	-10.9519
▁경고했다	-10.952
▁펼쳐	-10.952
였고	-10.952
▁그러는데	-10.9521
▁좋으	-10.9524
▁밀어	-10.9525
▁사용되는	-10.9527
▁빼고	-10.953
▁일어나지	-10.953
▁만들어야	-10.9542
하셨나요	-10.9544
개씩	-10.9548
▁마트	-10.9552
▁바라고	-10.9552
▁창고	-10.9553
임에	-10.9555
▁보내주실	-10.9557
랭	-10.9558
▁인테리어	-10.9558
▁틀림없	-10.9558
▁증언	-10.9559
뱅크	-10.956
주실래요	-10.956
▁십자가	-10.9561
▁편견	-10.9565
▁짜증	-10.9566
▁갚	-10.9567
▁거짓	-10.9567
매치	-10.9568
▁심판	-10.9569
▁정착	-10.957
▁명예	-10.957
▁오후에	-10.9572
▁공동체	-10.9573
▁욕구	-10.9573
▁지적이	-10.9578
▁바라보	-10.9578
▁끝나는	-10.9581
▁등에서	-10.9582
▁먹어도	-10.9583
▁빠르	-10.9583
▁우정	-10.959
사람	-10.959
▁광장	-10.959
▁대안	-10.9594
▁믿는	-10.9594
▁진행된다	-10.9594
▁좋아지	-10.9595
▁조합	-10.9598
▁캐나다에서	-10.9599
▁도는	-10.96
▁사진과	-10.96
▁관중	-10.9601
▁살이	-10.9603
▁직전	-10.9605
▁사업이	-10.9606
▁비난했다	-10.9606
▁나누는	-10.9608
▁생각한	-10.9609
▁기내	-10.9609
▁상호	-10.9611
▁일치	-10.9615
▁하나인	-10.9619
▁아니기	-10.9621
▁급한	-10.9623
▁줄여	-10.9624
▁의사를	-10.9627
▁보이기	-10.9628
▁아쉽	-10.9632
▁대학에	-10.9632
곱	-10.9633
▁나갔	-10.9636
▁즐기고	-10.9636
자마자	-10.9637
▁기억하고	-10.9639
▁네덜란드	-10.964
▁폼페이오	-10.964
▁꼼꼼	-10.964
투어	-10.964
▁소셜	-10.9641
되었나요	-10.9641
▁쿠키	-10.9642
▁마침	-10.9643
▁그룹이	-10.9646
▁다양	-10.9647
▁논	-10.9647
▁출판	-10.9648
▁가만	-10.9649
하셔	-10.965
▁남긴	-10.965
▁고대	-10.9651
▁길거리	-10.9651
up	-10.9652
오늘	-10.9652
▁자격	-10.9652
one	-10.9654
ard	-10.9656
▁수준으로	-10.9658
man	-10.966
제로	-10.9662
군의	-10.9663
▁경주	-10.9664
▁특성	-10.9664
▁사정	-10.9668
▁때문이라고	-10.9671
▁기운	-10.9673
▁적합한	-10.9674
▁싫어요	-10.9675
▁요금이	-10.9687
▁늘어나고	-10.9687
▁본선	-10.969
▁점도	-10.9697
▁돌아오는	-10.9699
뉴	-10.9701
▁하겠다	-10.9702
인데요	-10.9704
빠	-10.9707
▁뜻이다	-10.9708
리와	-10.9708
▁팩	-10.971
▁맞는지	-10.9711
▁서서	-10.9711
▁통증	-10.9712
됐을	-10.9716
▁농장	-10.9718
▁임대	-10.9719
▁어쨌든	-10.9721
▁점유율	-10.9721
▁은행에	-10.9722
▁해산물	-10.9722
▁키워	-10.9722
cnn	-10.9722
▁원피스	-10.9724
▁말씀이	-10.9726
▁대접	-10.9726
▁찾아오	-10.9727
▁물량	-10.9729
▁기쁘게	-10.973
▁헌	-10.973
▁부리	-10.9731
▁저쪽	-10.9733
▁지낼	-10.9736
▁피부에	-10.9737
▁그러던	-10.9739
내기	-10.9741
▁사전에	-10.9741
▁사랑받	-10.9742
▁포장해	-10.9749
▁나이에	-10.9749
▁택	-10.9752
▁자신감이	-10.9755
사들이	-10.9757
들로부터	-10.9757
▁사진들	-10.9759
▁지나지	-10.976
▁경로	-10.9762
ity	-10.9763
중인	-10.9764
▁타면	-10.9766
▁어떤가요	-10.9769
▁동부	-10.9771
▁증가했다	-10.9771
▁바가	-10.9772
커스	-10.9775
되었	-10.9777
▁음원	-10.9782
타임	-10.9782
▁오전에	-10.9784
▁땅에	-10.9785
▁아트	-10.9788
▁활용해	-10.9789
▁누리	-10.9792
▁송장	-10.9794
▁서부	-10.9798
▁인정받	-10.98
▁맞은	-10.9801
▁캔	-10.9801
낭	-10.9801
넬	-10.9804
▁깜빡	-10.9804
▁사각지대	-10.9804
▁게스트하우스	-10.9804
▁시간대	-10.9804
▁돌아다니	-10.9806
▁프로필	-10.9806
▁사서	-10.9806
▁교황	-10.9806
▁의뢰	-10.9807
▁예고	-10.9807
▁견해	-10.9808
▁매달	-10.9813
굴	-10.9815
▁인재	-10.9818
▁돌아가는	-10.982
▁걸리지	-10.9821
▁결과에	-10.9821
▁무엇이든	-10.9822
▁하네요	-10.9822
▁잃었	-10.9822
해드릴게요	-10.9825
▁게시물	-10.9826
▁걷는	-10.9827
▁세상이	-10.9827
▁수백	-10.9828
▁갈색	-10.9833
▁양의	-10.9835
▁약속이	-10.9838
▁유지하고	-10.9839
▁근처에서	-10.984
▁준비하는	-10.9841
단계	-10.9845
ong	-10.9846
▁골드	-10.9849
▁활동이	-10.985
▁FA	-10.9852
▁유도	-10.9855
▁요리사	-10.9856
자료	-10.9858
▁곳입니다	-10.9859
▁문제들	-10.9861
활	-10.9863
▁눈으로	-10.9867
해보는	-10.9868
▁동물을	-10.9869
▁주류	-10.9869
▁붙어	-10.987
닐	-10.9871
▁늘어나	-10.9873
▁가깝	-10.9874
▁우리나라에서	-10.9874
닌	-10.9876
▁이행	-10.9878
▁그런지	-10.988
▁받아들여	-10.9883
▁많기	-10.9887
▁보여줬다	-10.9887
▁포르투갈	-10.9887
〉	-10.9887
▁무서워	-10.9887
▁유니폼	-10.9888
▁즐거워	-10.9888
▁엄격	-10.9889
▁그들과	-10.989
▁유죄	-10.9891
해주시고	-10.9893
▁빠졌	-10.9894
▁처방	-10.9894
해졌	-10.9894
▁커지	-10.9896
▁분야에	-10.99
기에는	-10.9905
하나	-10.9906
▁되겠	-10.991
▁오르는	-10.991
▁치유	-10.9913
▁「	-10.9914
▁고려해	-10.9916
▁구현	-10.992
▁증권	-10.9923
당국	-10.9925
텍	-10.9926
▁기대한다	-10.9926
식품	-10.9927
▁짓고	-10.9931
▁바르셀로나	-10.9931
스텔	-10.9934
▁않을까요	-10.9935
▁기울이	-10.9936
▁내리고	-10.9937
▁사랑할	-10.9941
▁상관없	-10.9941
적이지	-10.9941
▁기록하고	-10.9942
▁원하고	-10.9943
▁차원에서	-10.9944
▁양측	-10.9944
▁연령	-10.9945
▁용어	-10.9946
이었다고	-10.9946
▁전쟁을	-10.9948
▁먹어보	-10.9948
▁느낀	-10.9957
개소	-10.9961
원들이	-10.9963
▁소속사	-10.9966
▁향수	-10.997
▁목적이	-10.997
▁기상	-10.9971
켄	-10.9971
▁맨체스터	-10.9971
▁여객기	-10.9972
▁온종일	-10.9972
code	-10.9972
▁빌릴	-10.9976
▁알려주시면	-10.9976
▁책임감	-10.9977
▁인지도	-10.9977
▁따뜻하게	-10.9978
▁모르지만	-10.9978
▁밀려	-10.9979
▁생생	-10.9979
▁쓰기	-10.9979
▁느꼈다	-10.9979
▁가짜	-10.9981
▁잘라	-10.9981
▁산불	-10.9983
▁조립	-10.9985
▁하시면	-10.9987
▁바래요	-10.9987
옷	-10.9992
프리	-10.9997
▁나오면	-10.9999
▁좋아한다	-11.0003
▁사야	-11.0005
▁소감	-11.0007
▁룸	-11.0008
토리	-11.0013
▁이주	-11.0019
▁없으니	-11.0022
▁방법에	-11.0024
▁게임이	-11.0024
▁잡는	-11.0026
▁우즈	-11.0028
▁말해주	-11.0028
장치	-11.003
법이	-11.0032
▁했었	-11.0032
여성	-11.0037
▁사이트에서	-11.0037
받지	-11.0041
▁원단	-11.0042
▁감정이	-11.0045
정도	-11.0045
▁실시한	-11.0054
▁관광객들이	-11.0056
▁짧게	-11.0056
▁몰랐	-11.0056
joins	-11.0057
▁북쪽	-11.0057
▁흠	-11.0058
▁사진으로	-11.0058
▁좋겠네요	-11.0058
▁자격증	-11.006
▁몰래	-11.006
▁여왕	-11.0061
▁화학	-11.0061
▁명은	-11.0063
▁사촌	-11.0065
▁누구인지	-11.0066
▁미만	-11.0066
▁이뤄	-11.0068
▁얼마인가요	-11.007
▁부를	-11.0071
▁생각하면	-11.0072
▁가동	-11.0073
▁식량	-11.0074
겠지	-11.0078
괴	-11.0081
▁하나씩	-11.0081
시즌	-11.0083
받았	-11.0086
▁비율이	-11.0087
▁주시	-11.0092
베르	-11.0096
워드	-11.0096
실에서	-11.0099
▁분량	-11.0103
▁구멍	-11.0104
▁파이	-11.0108
▁주문하고	-11.0109
▁잠들	-11.011
▁타인	-11.0113
시험	-11.0113
▁이쪽	-11.0115
▁때면	-11.0116
느라	-11.0119
▁저렴	-11.012
우리가	-11.0121
▁대통령에게	-11.0128
하듯	-11.0135
▁늘고	-11.0137
자들을	-11.0138
쇠	-11.014
▁시작해	-11.0141
▁낯선	-11.0142
▁서둘러	-11.0142
▁성폭행	-11.0142
▁캠핑	-11.0142
▁흡수	-11.0142
▁나쁘지	-11.0142
▁귀엽	-11.0143
▁빌딩	-11.0143
▁나눌	-11.0144
▁도와주는	-11.0144
▁돌아온	-11.0146
▁급속	-11.0147
▁가죽	-11.0149
▁발목	-11.0155
▁지내는	-11.0155
▁줄게요	-11.0155
▁초래	-11.0156
▁업	-11.0158
▁같았	-11.016
▁군데	-11.0161
ey	-11.0164
▁이것들	-11.0164
▁그러기	-11.0169
▁궁금해요	-11.017
▁증가하고	-11.0172
▁소요	-11.0173
▁엄마와	-11.0173
자금	-11.0175
멜	-11.0175
▁아래로	-11.0176
▁빨	-11.0181
▁편안	-11.0182
▁소비자들이	-11.0183
▁늘리	-11.0183
이었고	-11.0183
▁안내해	-11.0184
▁가려	-11.0189
▁주인이	-11.0189
▁연락할	-11.019
▁식당에서	-11.0194
▁추구	-11.0195
▁인생에	-11.0196
▁지불해야	-11.0196
▁주장하는	-11.0197
▁왔을	-11.0202
▁공중	-11.0204
▁떼	-11.0211
po	-11.0213
▁도착하면	-11.0214
사이트	-11.0216
▁의미하는	-11.0217
▁젊은이들	-11.022
▁이루어	-11.0222
▁자격이	-11.0225
▁향이	-11.0226
ap	-11.0227
▁시간과	-11.0227
▁확인됐다	-11.0227
아메리카	-11.0228
▁낚시	-11.0228
▁토마토	-11.0228
꼴	-11.0228
쩍	-11.0228
▁아픔	-11.0228
▁돌보	-11.0229
▁전설	-11.023
▁어찌	-11.0231
검사	-11.0232
달러에	-11.0232
▁행복합니다	-11.0233
▁지역이	-11.0234
▁보존	-11.0235
▁평양	-11.0235
▁감사의	-11.0235
으려고	-11.0238
푸드	-11.0239
▁녹음	-11.024
▁싶었습니다	-11.0241
▁농구	-11.0242
▁방송된	-11.0242
▁사랑스러운	-11.0242
▁되면서	-11.0242
▁느낀다	-11.0243
▁주문했는데	-11.0245
FC	-11.0245
▁나오기	-11.0248
사이드	-11.025
▁In	-11.025
if	-11.0251
▁관광객들	-11.0251
▁주길	-11.0252
▁구워	-11.0252
▁점포	-11.0253
▁지니고	-11.0255
▁취급	-11.0255
▁납니다	-11.0255
▁쏟아지	-11.0256
▁성격이	-11.0258
▁모드	-11.0258
스턴	-11.0259
▁간직	-11.0259
▁돈으로	-11.0259
나갈	-11.0261
▁향기	-11.0261
▁넘어가	-11.0264
▁투자자	-11.0265
만여	-11.0265
▁다이아몬드	-11.0266
▁압력	-11.0267
▁말해주세요	-11.0267
▁유지할	-11.027
▁St	-11.028
해주기	-11.028
age	-11.0281
▁부상자	-11.0281
▁잘하고	-11.0284
전쟁	-11.0285
▁흐르	-11.0288
▁이해해	-11.0289
▁나아	-11.0289
▁사무실에서	-11.029
▁수색	-11.0291
되거나	-11.0293
▁활동하는	-11.0294
▁표현하는	-11.0299
▁고민이	-11.03
DC	-11.03
▁내일까지	-11.03
▁외식	-11.0301
▁긴장감	-11.0303
▁누군가에게	-11.0304
▁선물로	-11.0308
탱	-11.0315
▁갤러리	-11.0315
▁아프가니스탄	-11.0315
▁거뒀다	-11.0315
▁디자인이	-11.0316
▁토끼	-11.0316
▁시도해	-11.0317
▁정도면	-11.0318
▁멀티	-11.0318
▁찍을	-11.0319
▁시험이	-11.0319
▁대학에서	-11.0321
▁해보고	-11.0321
▁있느냐	-11.0321
▁동전	-11.0323
▁매력적인	-11.0324
▁입사	-11.0329
▁등장하는	-11.0329
▁가게에	-11.0331
개발	-11.0332
▁간단히	-11.0341
▁얘기해	-11.0342
▁총선	-11.0347
클럽	-11.0349
LA	-11.035
▁오늘부터	-11.035
타워	-11.0351
주면	-11.0352
시죠	-11.0358
▁급여	-11.036
▁갔을	-11.0361
▁멤버들이	-11.0362
이젠	-11.0362
것이	-11.0364
ang	-11.0365
▁자사	-11.0366
▁샷	-11.0368
▁뷰티	-11.0372
▁번만	-11.0373
▁추구하	-11.0373
▁위원장의	-11.0373
▁반지	-11.0374
▁복제	-11.0374
▁킹	-11.0375
▁수상했다	-11.0377
▁일행	-11.0382
측은	-11.0383
▁공장에서	-11.0384
▁느껴지	-11.0384
▁지도자들	-11.0384
▁필자	-11.039
스러웠	-11.0395
낸다	-11.0398
▁음료수	-11.04
튜	-11.0401
▁하나님은	-11.0401
▁스타벅스	-11.0403
콧	-11.0403
핏	-11.0403
▁슬픈	-11.0403
▁취임	-11.0403
드레	-11.0403
▁하얀	-11.0403
▁바위	-11.0403
▁밝혀지지	-11.0404
▁책임이	-11.0404
▁리뷰	-11.0405
asp	-11.0406
▁대목이	-11.0407
▁죄송해요	-11.0408
▁맞을	-11.0409
▁잡을	-11.0411
▁조기	-11.0411
▁반환	-11.0412
▁다리가	-11.0416
▁속이	-11.0416
▁부채	-11.0417
▁수비수	-11.0421
ttp	-11.0421
휴	-11.0422
음이	-11.0423
▁다녀오	-11.0425
▁이룬	-11.0426
공간	-11.0427
▁소형	-11.0427
카르	-11.0428
작업	-11.0428
▁펼쳤다	-11.0431
▁시대에	-11.0437
▁존재하지	-11.044
▁임기	-11.0442
▁움직일	-11.0445
▁떠나는	-11.0448
▁지난번	-11.0451
▁타야	-11.0452
▁둘이	-11.0454
ER	-11.0457
▁판매자	-11.0458
▁방송에서	-11.0459
▁했으면	-11.0462
쉽	-11.0464
▁주문하신	-11.0465
▁필요성	-11.0467
▁촉구	-11.0473
▁떠올	-11.0474
▁정신적	-11.0476
증이	-11.0476
▁페이스북에	-11.048
된다는	-11.0481
국가	-11.0481
▁세계적	-11.0483
▁민간인	-11.0487
덤	-11.0488
▁걸립니	-11.0488
프레	-11.0488
▁등급	-11.049
넥	-11.0491
▁맡기	-11.0491
▁신종플루	-11.0491
굿	-11.0491
푼	-11.0491
▁자칫	-11.0492
ist	-11.0492
▁답답	-11.0492
▁부활	-11.0494
보기	-11.0499
투자	-11.0505
▁적립	-11.0506
▁중학교	-11.0509
▁유출	-11.0509
▁친절하게	-11.051
▁입양	-11.0513
▁도심	-11.0515
▁트리	-11.0516
▁알려줘	-11.052
끄	-11.052
PS	-11.052
▁필요해	-11.0521
▁독일에서	-11.0522
▁기자회견에서	-11.0524
▁입었	-11.0524
▁반대로	-11.0527
▁고유	-11.0528
▁추정되	-11.0529
금액	-11.053
▁중요하지	-11.0532
할까요	-11.0532
▁희망합니다	-11.0536
▁시스템이	-11.0537
벤	-11.0537
▁싶다면	-11.0538
▁보내야	-11.0538
▁전파	-11.0538
▁다가오	-11.0543
▁활용한	-11.0543
▁멜	-11.0544
▁열었다	-11.0545
▁기르	-11.0545
▁이민	-11.0546
딜	-11.0548
▁주위에	-11.0549
▁어린이들	-11.0551
▁사형	-11.0553
▁줘야	-11.0562
▁데에는	-11.0562
▁지상	-11.0565
▁달리고	-11.0569
▁발생하고	-11.0569
IM	-11.0571
▁떨어졌다	-11.0575
▁요즘에	-11.0577
BI	-11.0578
놔	-11.0579
Total	-11.058
▁뒷받침	-11.058
▁유나이티드	-11.058
놈	-11.058
뱀	-11.058
▁프린트	-11.058
붓	-11.058
://	-11.0581
▁문자를	-11.0581
▁문제의	-11.0582
▁첼시	-11.0582
▁자유로운	-11.0582
▁합쳐	-11.0583
▁무섭	-11.0585
▁않습니까	-11.0585
▁보람	-11.0585
▁입술	-11.0586
▁영입	-11.0586
북한	-11.0586
▁급증	-11.0587
▁연말	-11.0592
▁흥미	-11.0593
▁개발한	-11.0593
▁입주	-11.0594
my	-11.0597
▁t	-11.0598
▁알리는	-11.06
▁차분	-11.0604
▁생각해보	-11.0605
▁피터	-11.0607
▁침해	-11.0611
▁그레이	-11.0612
▁강연	-11.0613
▁단단	-11.0615
났다	-11.0619
▁아닌데	-11.062
▁등산	-11.062
TE	-11.0621
으실	-11.0621
기구	-11.0621
▁역량	-11.0623
▁기구	-11.0624
▁한국말	-11.0625
▁거울	-11.0626
▁웃고	-11.0629
시오	-11.063
▁완전한	-11.0633
보험	-11.0637
▁온전	-11.0638
웠습니다	-11.064
▁충족	-11.064
▁소주	-11.0643
▁적혀	-11.0644
▁홍수	-11.0645
▁보이는데	-11.0645
국수	-11.0648
▁효	-11.0651
주십시오	-11.0652
▁생물	-11.0655
▁인하	-11.0661
회에	-11.0662
관은	-11.0668
▁Re	-11.0669
▁도시에서	-11.0669
▁이야기하고	-11.067
킴	-11.067
▁시나리오	-11.067
▁에이전트	-11.067
▁뿌듯	-11.067
▁곧바로	-11.0671
▁하마스	-11.0671
▁교통사고	-11.0671
▁돌아왔	-11.0672
▁SBS	-11.0672
▁야채	-11.0672
▁알다시피	-11.0673
▁빛나는	-11.0673
▁푸른	-11.0673
▁나란	-11.0674
▁출산	-11.0674
▁국립	-11.0675
▁통역	-11.0678
▁유권자	-11.0679
▁성숙	-11.068
▁명백	-11.0682
▁이어진	-11.0683
▁해주고	-11.0684
▁선출	-11.0684
제도	-11.0685
▁참여하는	-11.0685
한국시간	-11.0687
스토	-11.0687
▁다행이	-11.0689
▁보겠습니다	-11.0694
▁고무	-11.0697
▁올리고	-11.0699
점으로	-11.07
▁역사적	-11.07
▁옛	-11.0705
▁대금	-11.0707
▁사회에	-11.0708
▁한참	-11.0708
▁주관	-11.0708
▁크지	-11.0711
마이	-11.0727
프로그램	-11.0729
▁유지하는	-11.0729
▁관광객이	-11.0729
▁예정이	-11.073
▁새우	-11.0732
▁예비	-11.0736
▁신원	-11.0736
득점	-11.0738
▁팬이	-11.0739
▁들어가서	-11.0742
▁참석할	-11.0746
▁코인	-11.0748
▁가보고	-11.0748
모든	-11.0749
▁이야기해	-11.075
▁저렴하	-11.0751
▁보았다	-11.0753
▁오게	-11.0754
▁주행	-11.0754
▁수원	-11.0756
▁도시에	-11.0757
쇄	-11.0758
뚝	-11.076
▁사회에서	-11.076
▁최다	-11.0761
▁걸렸다	-11.0761
▁예뻐	-11.0762
▁거래소	-11.0764
▁항공편	-11.0765
▁토대로	-11.0769
▁철학	-11.077
▁말해요	-11.077
있긴	-11.0771
▁먼지	-11.0773
▁풍성	-11.0774
▁신인	-11.0774
등을	-11.0778
▁MC	-11.0788
주시고	-11.0789
▁출력	-11.0792
인들에게	-11.0797
▁단위	-11.0801
▁젊은이들이	-11.0802
페이지	-11.0807
▁사용해요	-11.081
▁투자자들	-11.0811
▁말리	-11.0811
▁급하게	-11.0812
하였으며	-11.0812
▁맞춰서	-11.0812
꼬	-11.0815
▁이란에서	-11.0818
▁길어	-11.0822
▁빠져나	-11.0823
뿐이야	-11.0823
예술	-11.0824
▁적합	-11.0826
▁네티즌	-11.083
▁변경할	-11.0832
▁일들	-11.0835
▁기업의	-11.0836
▁잡았	-11.0838
주택	-11.0838
▁국회의원	-11.0839
▁공통	-11.0842
▁지원하는	-11.0845
▁응답자	-11.0847
▁주고받	-11.0847
샵	-11.0853
▁자카르타	-11.0853
▁초등학교	-11.0853
▁어딘가	-11.0853
▁셔틀버스	-11.0853
▁반도체	-11.0853
▁설문조사	-11.0853
나라	-11.0854
▁생태계	-11.0854
▁마땅	-11.0854
럴	-11.0855
▁아이콘	-11.0856
▁싱	-11.0856
▁채택	-11.0858
트레이	-11.0859
▁사냥	-11.0859
▁주소로	-11.086
▁주스	-11.0866
▁이겨	-11.087
▁수프	-11.0871
▁고래	-11.0872
▁매력이	-11.0873
▁어렵	-11.0874
▁유용	-11.0874
▁선배	-11.0875
▁노력하겠습니다	-11.0879
▁붙이	-11.0879
▁기뻐요	-11.0879
▁양이	-11.0884
▁존재하는	-11.0886
▁아이스	-11.0889
▁장관이	-11.0894
▁확인하는	-11.0898
사인	-11.0898
▁놓여	-11.0899
▁이해하는	-11.0903
▁IS	-11.0907
▁만들어서	-11.0907
▁접할	-11.0912
▁웃는	-11.0914
붙	-11.0914
▁체계	-11.0916
ST	-11.0926
봤다	-11.0934
섯	-11.0936
밴	-11.0936
크리	-11.0938
▁꾸준	-11.0941
셨다	-11.0943
▁사이즈로	-11.0944
첼	-11.0944
▁쌓아	-11.0946
버렸습니	-11.0946
삐	-11.0946
▁BMW	-11.0946
▁쏠리	-11.0946
▁빌보드	-11.0946
▁무렵	-11.0947
▁특이한	-11.0948
▁필름	-11.0948
▁인턴	-11.0948
▁지붕	-11.0949
▁당했다	-11.095
버렸어요	-11.0952
▁천국	-11.0954
▁팀에	-11.0955
▁맵	-11.0955
▁하셨	-11.0956
▁헬기	-11.0958
▁웨	-11.096
였지만	-11.096
▁뮤직	-11.0964
▁다수의	-11.0964
▁영원	-11.0965
음에도	-11.0966
▁참여해	-11.0966
▁소문	-11.0968
▁살아가	-11.0968
ul	-11.0968
▁담겨있다	-11.0969
▁배우들이	-11.0969
▁팁	-11.0971
밖의	-11.0974
▁조카	-11.0975
▁공연은	-11.0975
▁색깔이	-11.0976
▁찾았다	-11.0977
들입니다	-11.0982
위원장	-11.0982
▁해상	-11.0983
▁다음달	-11.0983
oo	-11.0984
티스	-11.099
▁당당	-11.0991
▁저항	-11.0997
▁말씀하신	-11.0997
▁슛	-11.0999
▁일정에	-11.1
▁취할	-11.1004
▁갖다	-11.1006
▁도착하는	-11.1008
▁용량	-11.1009
컨	-11.101
웨	-11.1011
▁참조	-11.1014
▁측에	-11.1016
하우스	-11.1019
ance	-11.1021
▁간에	-11.1028
▁개입	-11.1029
해봐	-11.1037
식으로	-11.1038
▁골키퍼	-11.1039
▁느낍니	-11.1039
▁읽으	-11.1039
싹	-11.1039
▁몸무게	-11.1039
▁무서운	-11.1039
▁빅뱅	-11.1039
▁언덕	-11.1039
▁패널	-11.104
▁꿈꾸	-11.1041
▁말하자면	-11.1043
▁불쾌	-11.1043
▁로켓	-11.1044
▁더블	-11.1044
ca	-11.1044
▁개정	-11.1046
하더라도	-11.1048
▁없으며	-11.105
▁행정	-11.1052
▁놀고	-11.1054
▁거둔	-11.1055
▁갈게요	-11.1055
웃	-11.1059
▁윌	-11.106
▁마이	-11.1064
▁상장	-11.1064
▁부산에	-11.107
▁절감	-11.107
▁다녀왔	-11.107
▁전통적인	-11.1071
▁들어와	-11.1072
▁지지자들	-11.1073
▁흐르는	-11.1074
▁구간	-11.1074
▁올라오	-11.1075
▁감수	-11.1077
▁여정	-11.108
됐는지	-11.1085
▁당연한	-11.1085
▁변동	-11.1089
▁행복할	-11.1092
ice	-11.1092
▁색이	-11.1094
▁표현할	-11.1096
▁#	-11.1097
▁나가고	-11.1099
▁힘들게	-11.1099
▁눈물이	-11.1117
▁활발한	-11.1118
▁노트	-11.1119
쳤어요	-11.1119
▁환자들	-11.1119
▁건네	-11.1119
▁리드	-11.112
빵	-11.112
▁해줍니다	-11.1123
▁행운이	-11.1124
▁있겠다	-11.1127
했었어	-11.1128
▁갔어	-11.1129
멸	-11.1132
팽	-11.1133
읍	-11.1133
▁대선후보	-11.1134
▁로맨스	-11.1134
▁오스트리아	-11.1134
▁인공지능	-11.1134
▁랭킹	-11.1134
▁죄송한데	-11.1134
▁리더십	-11.1134
▁폭풍	-11.1135
브루	-11.1137
▁반납	-11.1138
▁천연	-11.1143
▁말씀하시는	-11.1144
▁목이	-11.1145
▁편리	-11.1145
▁한국영화	-11.1148
층으로	-11.1149
▁동일	-11.1149
▁소음	-11.1152
▁오로	-11.1153
▁통증이	-11.1153
팬들	-11.1158
▁해킹	-11.1163
▁계획에	-11.1165
▁중요성	-11.1166
▁나옵니	-11.1167
어스	-11.1168
하니까	-11.1168
▁그렇다	-11.1171
▁위기에	-11.1174
▁불렀	-11.1176
▁요리는	-11.1178
이었는데	-11.1183
▁일부러	-11.1184
그는	-11.1185
▁별도로	-11.119
▁저자	-11.119
▁공주	-11.1192
▁후보는	-11.1194
▁보이며	-11.1195
▁존스	-11.1195
▁이용하면	-11.1201
주간	-11.1205
▁알아봐	-11.1206
▁프레	-11.1209
디스	-11.121
잘	-11.1212
▁존재한다	-11.1217
지금	-11.1221
▁아일랜드	-11.1223
었으나	-11.1223
뿌	-11.1226
엽	-11.1227
▁모니터	-11.1228
▁봅시다	-11.1229
▁분홍색	-11.1229
덧	-11.1229
▁무거운	-11.1229
▁침묵	-11.1229
▁두바이	-11.1231
▁벌어지는	-11.1231
▁낮추	-11.1232
▁부드럽게	-11.1232
▁이른다	-11.1233
▁것이란	-11.1236
▁국방부	-11.1236
로이드	-11.1236
▁피어	-11.1237
▁축소	-11.1238
효율	-11.1238
▁이루어져	-11.1239
▁간격	-11.124
▁인종	-11.124
▁사생활	-11.1242
▁이밖에	-11.1242
▁크로스	-11.1243
▁비극	-11.1246
▁그러지	-11.1246
▁환영합니다	-11.1248
▁반대하는	-11.1248
pa	-11.1251
▁소포	-11.1251
▁영화에서	-11.1255
▁평일	-11.1256
▁서양	-11.1259
달라는	-11.126
▁음악은	-11.126
효과	-11.1263
▁Co	-11.1264
▁토지	-11.1267
됐는데	-11.1269
▁사항에	-11.1276
▁보건	-11.1276
▁많다고	-11.1277
▁어려웠	-11.1277
▁드셔	-11.128
▁모집	-11.1282
▁진로	-11.1282
봤어요	-11.1283
▁필리핀에	-11.1284
▁본인의	-11.1291
했으니	-11.1291
▁정책이	-11.1292
있어	-11.1292
▁국물	-11.1293
▁전쟁이	-11.1294
▁보기에는	-11.1302
▁확인하기	-11.1303
▁팔고	-11.1304
▁행복해요	-11.1306
▁생활에	-11.1306
▁배경으로	-11.1307
몽	-11.1309
▁노동자들	-11.131
▁방에서	-11.1311
샌	-11.1324
▁바꾸는	-11.1324
▁그렇죠	-11.1325
▁맡겨	-11.1325
▁모스크바	-11.1325
렐	-11.1325
▁샌드위치	-11.1325
▁세미나	-11.1325
▁줄일	-11.1326
▁닮았	-11.1327
▁감지	-11.1328
성장	-11.1328
▁생각하기	-11.1329
▁먹거리	-11.133
▁베스트	-11.1331
▁드론	-11.1332
▁엠	-11.1332
AT	-11.1332
▁전반적으로	-11.1334
▁쉬고	-11.1336
▁모를	-11.1337
▁믿는다	-11.1338
▁매각	-11.1338
▁출마	-11.1338
하시겠습니까	-11.134
로써	-11.1344
▁관할	-11.1345
▁공식적으로	-11.1345
▁좋았어요	-11.1346
▁사용해야	-11.1348
▁수령	-11.1349
▁견적서	-11.1351
칩니다	-11.1351
▁요구했다	-11.1356
▁나름	-11.1361
▁키우고	-11.1368
받아	-11.1373
▁처음부터	-11.1375
▁보기에	-11.1376
▁기간에	-11.1377
▁뉴욕에서	-11.1377
▁라이프	-11.1378
ment	-11.1382
▁핫	-11.1392
▁상황입니다	-11.1393
▁죽음을	-11.1393
▁전해지	-11.1394
our	-11.1394
▁띠	-11.1396
▁중점	-11.1396
▁사임	-11.1396
▁방치	-11.1398
▁거라는	-11.1398
시겠어요	-11.14
톱	-11.1402
▁사운드	-11.1404
▁피할	-11.1406
▁출발하는	-11.1407
▁하나님께	-11.1408
니깐	-11.1408
▁보내드리	-11.1409
엠	-11.1411
▁부모님께	-11.1413
▁만나지	-11.1415
렬	-11.1416
▁포함돼	-11.1419
▁디즈니	-11.1422
드리기	-11.1424
봐요	-11.1426
▁지진이	-11.1429
▁보내주시면	-11.143
▁시술	-11.1434
▁직업이	-11.1434
분들이	-11.1435
▁절실	-11.1435
▁회의에	-11.1436
▁신분	-11.1438
▁인근에	-11.1439
리안	-11.1439
▁폴리	-11.144
▁떠오르	-11.1442
바탕	-11.1442
▁관객들이	-11.1442
▁건축물	-11.1443
인당	-11.1443
▁오시면	-11.1446
▁확률	-11.1446
▁적발	-11.1449
▁만들어졌	-11.1453
▁여행이	-11.1453
▁받습니다	-11.1455
▁터져	-11.1457
▁깔	-11.1457
▁술집	-11.146
▁대량	-11.1463
de	-11.1463
▁뭔가요	-11.1464
▁역할이	-11.1466
▁남아있는	-11.1468
▁곁	-11.147
▁사장	-11.147
▁꼬리	-11.1471
조차도	-11.1471
▁독서	-11.1474
▁연구원	-11.1476
▁하락세	-11.1478
▁폐기	-11.1484
▁이뤄진	-11.1486
▁몰아	-11.1487
님께	-11.1489
▁진행해	-11.1494
▁플레이어	-11.1494
▁수감	-11.1496
▁여기로	-11.1496
▁일종	-11.1498
DI	-11.1498
펜	-11.15
▁쏘	-11.15
▁함유	-11.15
▁잭	-11.1505
▁떠났다	-11.1505
시스템	-11.1514
획	-11.1515
롯	-11.1516
옹	-11.1516
▁체육	-11.1517
▁깎아	-11.152
▁로스앤젤레스	-11.152
▁마닐라	-11.152
▁넥센	-11.152
▁여기저기	-11.152
닷컴	-11.152
▁저지른	-11.152
▁진지하게	-11.152
▁나타날	-11.1521
▁업무에	-11.1521
▁도둑	-11.1521
▁기쁜	-11.1522
▁레벨	-11.1522
▁리포트	-11.1523
▁신분증	-11.1523
▁짐작	-11.1524
▁이뤄질	-11.1524
▁정해	-11.1525
▁헌신	-11.1525
▁야간	-11.1525
▁소개했다	-11.1526
▁집계됐다	-11.1528
▁제시한	-11.1529
레인	-11.153
▁프레임	-11.1531
▁말씀해주세요	-11.1532
▁시청률	-11.1535
으려	-11.1535
▁얻었다	-11.1537
▁법이	-11.154
▁떠올리	-11.1541
▁제공한다	-11.1541
▁투명	-11.1543
▁해결해	-11.1543
▁때문	-11.1544
밖	-11.1545
▁펼쳐지	-11.1551
그라	-11.1553
▁분양	-11.1553
▁하우스	-11.1553
▁선보이	-11.1558
end	-11.1558
▁크기의	-11.1558
▁번이나	-11.1559
▁교회에	-11.1561
천명	-11.1565
▁기지	-11.1566
▁보드	-11.1568
▁크레	-11.1569
▁반전	-11.1574
▁순간이	-11.1574
돼야	-11.1579
▁마련되어	-11.158
▁전망했다	-11.1584
봤는데	-11.1585
점에서	-11.1589
스테	-11.1589
▁퍼지	-11.1589
▁시험에	-11.1595
▁연어	-11.1598
▁꽃을	-11.1598
▁기쁘다	-11.1602
▁불가능하다	-11.1603
슬리	-11.1604
월드	-11.1606
설명	-11.1609
▁열정이	-11.1611
흔	-11.1617
음악	-11.1618
▁만나면	-11.1619
▁부통령	-11.1619
▁중소기업	-11.1619
▁준비할	-11.1621
▁다가가	-11.1621
▁놓아	-11.1622
▁행동에	-11.1623
▁파도	-11.1624
▁우울증	-11.1624
▁태워	-11.1625
▁행사장	-11.1625
▁CJ	-11.1625
▁추후	-11.1625
▁달한다	-11.1626
▁침체	-11.1627
▁축구를	-11.163
▁아파서	-11.163
▁대기업	-11.1633
▁다양하게	-11.1633
▁북한에	-11.1634
▁예정이며	-11.1634
▁본격	-11.1634
보드	-11.1635
▁동행	-11.164
▁숨기	-11.1642
▁조종사	-11.1644
▁이모	-11.1645
▁안타	-11.1648
▁비롯	-11.165
▁부른	-11.1652
▁고문	-11.1652
하므로	-11.1652
▁꿀	-11.1653
▁차량에	-11.1655
▁연구소	-11.1656
▁점심시간	-11.1656
▁각국	-11.1659
▁목적지	-11.166
▁가겠습니다	-11.1667
▁팔리	-11.167
▁있나	-11.1673
▁게이트	-11.1673
버리는	-11.168
▁결과물	-11.1684
mp	-11.1689
▁게스트	-11.1693
▁선명	-11.1695
▁설치된	-11.1699
▁눈치	-11.1705
▁진행한	-11.1708
▁구제	-11.171
했었는데	-11.1712
▁갓	-11.1713
▁다음에는	-11.1714
▁해군	-11.1716
▁국무위원장	-11.1719
▁멈춰	-11.1719
▁메신저	-11.1719
▁스티븐	-11.1719
▁큽니	-11.1719
▁무너지	-11.1719
▁앓고	-11.172
▁목욕	-11.172
▁크루즈	-11.1721
▁식탁	-11.1722
대상	-11.1723
▁포착	-11.1724
▁티저	-11.1724
▁하나하나	-11.1725
주년	-11.1725
▁격려	-11.1726
호텔	-11.1726
▁날카로	-11.1728
▁받았다고	-11.173
▁믿습니다	-11.1732
▁불편한	-11.1732
▁시골	-11.1736
▁미술관	-11.1736
▁도저	-11.1738
▁끌었다	-11.174
▁날이에요	-11.174
▁몰리	-11.1742
▁일어났다	-11.1744
▁좋아하기	-11.1747
▁고객사	-11.1748
컷	-11.175
▁다름	-11.1751
되게	-11.1751
▁매번	-11.1752
▁어렵지	-11.1752
▁제품입니다	-11.1753
ood	-11.1754
▁하시	-11.1754
▁성공한	-11.176
이신가요	-11.1762
▁강타	-11.1762
프트	-11.1763
▁많은데	-11.1763
▁볼게요	-11.1765
치료	-11.1766
▁확인했다	-11.1768
소득	-11.1771
▁주석	-11.1771
▁책정	-11.1775
▁중순	-11.1777
▁말이에요	-11.1777
▁산다	-11.1779
▁고치	-11.1786
▁사면	-11.1788
▁구사	-11.1795
▁곳곳에서	-11.1796
▁대회에	-11.1797
▁건강이	-11.1797
▁싶었다	-11.1799
▁그러면서	-11.1801
▁오셨	-11.1802
줘야	-11.1804
▁유럽에서	-11.1808
평가	-11.1809
뮤	-11.1818
톡	-11.1818
맛	-11.1819
▁잃어버린	-11.182
펄	-11.182
▁촉촉	-11.182
▁혐오	-11.182
▁정거장	-11.182
▁무역전쟁	-11.1821
관련	-11.1821
▁어떠세요	-11.1821
▁길로	-11.1825
▁나타나고	-11.1826
자동차	-11.1826
잠	-11.1827
▁에릭	-11.1828
▁치른	-11.1829
▁싶지만	-11.1829
▁있겠지만	-11.183
▁들어올	-11.1831
▁드물	-11.1833
▁밑에	-11.1833
▁나보다	-11.1833
▁체제	-11.1833
▁도와주세요	-11.1833
▁만났습니다	-11.1837
▁이야기하는	-11.184
▁휴대	-11.1842
▁이송	-11.1842
▁의장	-11.1842
스쿨	-11.1842
▁오른쪽으로	-11.1843
소프트	-11.1849
▁보증	-11.1849
▁턱	-11.1852
학생	-11.1854
▁재밌게	-11.1858
▁모델은	-11.1862
RE	-11.1862
▁힘들어요	-11.1864
▁법인	-11.1866
▁주름	-11.1867
▁시작한다	-11.1868
▁인터넷으로	-11.187
으시면	-11.1871
▁유연	-11.1873
▁정체성	-11.1881
▁빠르고	-11.1881
▁살아요	-11.1881
▁이룰	-11.1882
▁배제	-11.1884
▁비율	-11.1885
ak	-11.1885
▁출하	-11.1887
▁개발자	-11.1892
▁인생이	-11.1892
▁가능하게	-11.1893
▁없는지	-11.1896
▁벌어	-11.19
시민	-11.1902
▁돋	-11.1903
▁희생자	-11.1903
▁강점	-11.1906
▁거다	-11.1907
▁음악에	-11.1907
▁읽었	-11.1909
▁않겠다	-11.1909
▁사실에	-11.1911
▁독해	-11.1912
▁펼친	-11.1922
▁무슬림	-11.1922
▁스페셜	-11.1922
▁햇빛	-11.1922
▁냉장고	-11.1922
▁루이스	-11.1923
▁노는	-11.1924
▁일상생활	-11.1924
▁샘플은	-11.1924
피스	-11.1924
▁성관계	-11.1927
▁전망된다	-11.1929
▁세련	-11.1933
▁문학	-11.1936
아웃	-11.1936
▁없도록	-11.1937
▁가져야	-11.1937
▁고난	-11.1938
▁재판부	-11.1941
▁지르	-11.1942
▁인원이	-11.1943
MP	-11.1944
▁방침이	-11.1944
분간	-11.1948
RA	-11.195
▁숨어	-11.1954
▁양해	-11.1956
▁온라인으로	-11.196
▁손님들	-11.1961
요금	-11.1962
▁예정인	-11.1963
▁매력적	-11.1965
▁흔적	-11.1965
▁그러게	-11.1965
▁생각했던	-11.197
▁편이에요	-11.1972
▁여러분께	-11.1975
▁웹사이트에	-11.1975
▁짓는	-11.1979
▁걸린다	-11.1979
▁부족하다	-11.1994
▁갖추	-11.1997
▁체인	-11.2003
흘	-11.201
물질	-11.2014
▁최저	-11.2015
▁흉기	-11.2017
▁가나요	-11.2018
캠	-11.202
닛	-11.2022
켈	-11.2024
▁오하이오	-11.2025
▁읽기	-11.2025
▁엉덩이	-11.2025
사리	-11.2025
▁나타냈다	-11.2026
난다	-11.2026
▁감옥	-11.2027
▁침착	-11.2027
▁가져올	-11.2027
▁재킷	-11.2027
▁늘어날	-11.2027
▁되돌아	-11.2028
▁유해	-11.2028
▁중반	-11.2029
▁취약	-11.2033
▁성취	-11.2034
▁오셔서	-11.2035
▁났어요	-11.2035
▁서서히	-11.2036
▁추정된다	-11.2037
▁다릅니다	-11.2038
▁스카이	-11.204
▁유독	-11.204
▁뭐든	-11.2041
NE	-11.2042
드라마	-11.2044
▁돕기	-11.2048
▁반박	-11.2049
무늬	-11.205
▁시트	-11.2051
분들께	-11.2051
▁경제학	-11.2051
▁싶기	-11.2053
▁영국에서	-11.2054
줄게요	-11.2054
해본다	-11.206
▁샘	-11.2061
▁FC	-11.2062
코드	-11.2063
꺼	-11.2063
▁요가	-11.2064
▁자녀들	-11.2064
▁지위	-11.2065
▁출국	-11.2065
▁폭염	-11.2067
비치	-11.2068
▁설명할	-11.2068
OT	-11.2069
▁부토	-11.207
테크	-11.2077
▁빨라	-11.2078
PA	-11.2078
▁흥미롭	-11.208
▁회원들	-11.2081
ber	-11.2093
했었어요	-11.2093
▁누구와	-11.2097
▁한국인들	-11.2098
▁위성	-11.2101
▁놓으	-11.2101
▁회사와	-11.2102
▁채권	-11.2104
▁물었다	-11.2105
▁사용료	-11.2114
▁마디	-11.2117
윗	-11.2121
▁조사에서	-11.2122
렀	-11.2124
▁수석	-11.2125
▁명성	-11.2125
틸	-11.2126
▁GM	-11.2128
▁DHL	-11.2129
▁떡볶이	-11.2129
▁최저임금	-11.2129
카운티	-11.2129
▁팬클럽	-11.213
▁상기	-11.2131
▁쉽고	-11.2132
▁톱	-11.2132
▁버튼	-11.2134
▁이른바	-11.2134
▁한국인이	-11.2135
▁명칭	-11.2136
▁펼치	-11.2136
▁싶었던	-11.2136
▁대의원	-11.2137
힘	-11.2137
▁면세점	-11.2138
▁파견	-11.2139
▁넣을	-11.2139
▁자택	-11.214
▁결함	-11.2141
▁더운	-11.2142
▁있거나	-11.2144
▁판정	-11.2147
▁경유	-11.2148
▁누구를	-11.2148
▁작아	-11.2148
▁전국적으로	-11.2149
▁유료	-11.2151
▁확인한	-11.2154
▁컴퓨터가	-11.2155
▁물러	-11.2156
▁거품	-11.2156
▁앞선	-11.2161
▁매진	-11.2163
▁보내겠습니다	-11.2164
중에	-11.2165
▁걸까요	-11.2166
▁구매하고	-11.2168
투표	-11.2169
▁않는데	-11.2169
▁가져왔	-11.2171
▁기록하며	-11.2174
▁풀리	-11.2175
▁경기도가	-11.218
▁포드	-11.2181
▁됐다고	-11.2182
▁중간에	-11.2182
센터에서	-11.2183
▁떠나지	-11.2184
▁치아	-11.2184
▁자문	-11.2185
▁넘기	-11.2185
▁그러는	-11.2186
었나요	-11.2188
▁세운	-11.2194
▁무선	-11.2197
됨	-11.2198
▁엘리	-11.2199
▁남자와	-11.2201
▁남성들	-11.2206
▁참여했다	-11.2209
▁돕	-11.2212
튀	-11.2217
피아	-11.222
▁개장	-11.2225
▁폭이	-11.2225
율을	-11.2226
▁자유를	-11.2228
▁찍고	-11.2229
▁임명	-11.223
▁그라운드	-11.2231
▁발표할	-11.2233
▁알카에다	-11.2235
▁프로듀서	-11.2235
▁객관적	-11.2235
▁운항	-11.2235
▁당분간	-11.2236
▁라이언	-11.2236
▁알아보고	-11.2237
▁교훈	-11.2238
끄러	-11.2239
BC	-11.224
▁근본적	-11.224
▁프라이	-11.2241
▁가난	-11.2241
▁않았다면	-11.2241
▁마십시오	-11.2241
▁회색	-11.2242
자로서	-11.2243
▁야당	-11.2244
▁윈	-11.2245
▁노예	-11.2247
▁불거	-11.2251
▁전화기	-11.2253
케어	-11.2253
▁매수	-11.2253
▁가르치는	-11.2256
▁공지	-11.2256
▁행성	-11.2256
환경	-11.226
하셨어요	-11.226
▁사태가	-11.2261
▁반발	-11.2265
▁주거	-11.2267
▁인하여	-11.2267
▁살아있	-11.2268
▁면적	-11.227
▁생각하기에	-11.2272
▁이례적	-11.2273
ear	-11.2273
▁요구를	-11.2275
▁정확	-11.2278
ft	-11.2278
▁요청했다	-11.2278
▁걸까	-11.2279
▁나타내는	-11.2283
▁지지율	-11.2284
▁일이라고	-11.2288
▁야기	-11.2289
이었지만	-11.2289
법원	-11.229
▁성공했다	-11.2294
▁마켓	-11.2295
▁윌리엄	-11.2297
홀에서	-11.2299
▁병사	-11.23
▁결과적으로	-11.2302
▁배정	-11.2307
▁멀어	-11.2315
▁어린이들이	-11.2315
▁구상	-11.2319
▁라이트	-11.232
▁형상	-11.2324
▁마라	-11.2325
▁홍콩에서	-11.2325
▁적용된	-11.2329
▁물어볼	-11.2331
▁후보자	-11.2334
▁SM	-11.2335
엇	-11.2339
킥	-11.2341
▁블룸버그	-11.2341
▁어울려	-11.2341
버렸다	-11.2341
New	-11.2341
▁컴백	-11.2341
▁호랑이	-11.2341
▁다루는	-11.2345
▁늘어나는	-11.2345
▁생각나	-11.2345
▁숨지고	-11.2346
▁쿠바	-11.2346
▁올라온	-11.2346
▁모르겠네요	-11.2347
▁골든	-11.2351
▁황금	-11.2351
▁주머니	-11.2352
▁지나가는	-11.2354
▁천안	-11.2355
▁다짐	-11.2356
▁몽	-11.2356
▁수상자	-11.2356
▁폭우	-11.2358
집에	-11.2358
벤처	-11.2363
▁촉구했다	-11.2363
▁진전	-11.2363
▁취득	-11.2365
▁감기에	-11.2369
▁몰라서	-11.2371
바다	-11.2373
▁심심	-11.2379
▁독점	-11.2384
▁차원	-11.2389
▁나타난	-11.2389
▁드러	-11.239
▁펼치고	-11.2391
▁시스템에	-11.2398
▁제어	-11.2402
▁복수	-11.2403
▁살려	-11.2405
▁엿	-11.2406
▁구성원	-11.2407
▁전주	-11.241
▁섹시	-11.241
▁자신과	-11.2413
▁공간에서	-11.2414
▁필요하면	-11.2415
보았습니다	-11.2417
분까지	-11.2418
▁동시	-11.2418
해봐야	-11.2418
어차	-11.2419
▁같았다	-11.2421
▁지원자	-11.2421
노스	-11.2425
▁여행자	-11.2427
▁머리에	-11.2428
맥스	-11.2431
▁호주에서	-11.2431
▁나쁘	-11.2434
▁적도	-11.2435
▁말레이시아에서	-11.2437
▁노력해야	-11.2441
▁막대	-11.2444
▁마스터	-11.2446
해주면	-11.2448
톨	-11.2449
▁SUV	-11.2449
▁넷플릭스	-11.2449
▁샌프란시스코	-11.2449
▁우체국	-11.2449
▁단일	-11.2449
▁겸손	-11.245
▁소규모	-11.245
▁보트	-11.245
▁BBC	-11.2451
▁알려드리겠습니다	-11.2452
▁절망	-11.2453
▁마쳤다	-11.2454
▁영향이	-11.2454
하였는데	-11.2455
▁계세요	-11.2455
▁불고기	-11.2456
▁표본	-11.2456
▁열광	-11.2458
▁개최되었다	-11.2459
▁연락처	-11.246
▁생각하나요	-11.2461
▁만났어요	-11.2462
▁키우	-11.2463
▁선생	-11.2463
▁항구	-11.2464
▁됐어	-11.2464
▁사이버	-11.2466
▁기업은	-11.2467
위원	-11.247
▁들어보	-11.2471
▁났습니다	-11.2472
▁공개됐다	-11.2474
▁De	-11.2476
▁전남	-11.2476
▁모색	-11.2478
▁유아	-11.2478
▁꿈에	-11.2481
ns	-11.2486
▁활력	-11.2486
티브	-11.2487
▁Me	-11.2487
▁봤는데	-11.249
▁없던	-11.2493
▁싼	-11.2493
▁파트	-11.2494
▁열리고	-11.2495
▁건물이	-11.2496
▁다가오는	-11.2497
go	-11.2498
▁벌였다	-11.2498
▁파악하고	-11.2499
▁중계	-11.25
▁진학	-11.2509
이므로	-11.2509
▁햄	-11.251
▁바다를	-11.2512
▁원한다	-11.2513
▁부당	-11.2514
▁수건	-11.2514
랍니다	-11.2517
▁본격적	-11.252
▁부산에서	-11.252
하네	-11.2522
▁마법	-11.2522
▁뒤에서	-11.2526
대학	-11.2532
▁관계자들은	-11.2533
▁플래	-11.2541
▁그림이	-11.2541
되는데	-11.2542
▁선수로	-11.2543
분부터	-11.2545
▁유권자들	-11.2548
▁유사	-11.2548
▁미국으로	-11.2551
▁무용	-11.2552
▁이유입니다	-11.2553
▁도착하지	-11.2553
▁시작하기	-11.2553
BS	-11.2554
긋	-11.2557
▁국무장관	-11.2557
▁류현진	-11.2557
▁무샤라프	-11.2557
▁바닷가	-11.2557
▁프리미어리그	-11.2557
음식	-11.2558
▁날입니다	-11.2558
▁토큰	-11.2558
▁해외여행	-11.2558
▁드라이브	-11.2559
▁호응	-11.256
▁좋은데	-11.2561
▁장벽	-11.2562
▁있었으며	-11.2563
▁참가자	-11.2564
▁뒤쪽	-11.2565
▁하니까	-11.2565
루트	-11.2569
▁그랜드	-11.2571
▁과정에	-11.2571
▁예상했다	-11.2577
▁사막	-11.2578
‘	-11.2578
▁한국문화	-11.2579
▁편의점	-11.2585
▁해낼	-11.2586
▁국적	-11.2586
▁음식물	-11.259
르트	-11.259
da	-11.2591
씨에게	-11.2591
▁맞서	-11.2592
됐어요	-11.2594
▁재배	-11.2595
▁분명한	-11.2595
▁하원	-11.2597
마르	-11.2599
▁해결하는	-11.26
▁약한	-11.26
▁놀았	-11.26
Ex	-11.2605
▁아시	-11.2606
▁놀아	-11.2607
돼서	-11.2614
▁학부모	-11.2615
▁남성의	-11.2616
▁기자는	-11.2617
▁확인했습니다	-11.2619
▁정비	-11.2619
▁지키는	-11.2619
▁나설	-11.2621
▁국가에서	-11.2624
▁Mo	-11.2625
▁명시	-11.2626
▁바라보고	-11.2626
왔으면	-11.2633
▁한창	-11.2636
▁위함	-11.2637
일본	-11.264
▁싶고	-11.264
▁끈다	-11.2642
▁가는데	-11.2645
▁인생은	-11.2645
▁자정	-11.2646
▁판매할	-11.265
▁갖춰	-11.265
▁있잖아	-11.2658
▁글자	-11.266
하거든요	-11.266
▁논리	-11.2661
+	-11.2667
▁반려견	-11.2667
▁샀어요	-11.2667
▁하루하루	-11.2667
▁효율적으로	-11.2667
▁협박	-11.2667
▁협약	-11.2667
▁케빈	-11.2668
▁손쉽	-11.267
▁야후	-11.267
▁봉투	-11.267
▁핀	-11.267
▁오피스	-11.2672
▁살아갈	-11.2672
차전	-11.2676
▁다채로	-11.2676
▁사망하고	-11.2678
▁직무	-11.2679
▁술에	-11.268
▁매매	-11.2681
▁퍼져	-11.2682
▁일기	-11.2682
No	-11.2685
▁포항	-11.2688
▁진주	-11.2693
▁생겨서	-11.2694
곳이	-11.2697
▁사용된	-11.2697
▁맡았다	-11.2698
▁벌어졌다	-11.2698
▁재무	-11.2698
▁탐사	-11.2702
▁딜	-11.2703
▁필요한데	-11.2713
▁페이	-11.2718
▁장소에서	-11.2719
▁처분	-11.2719
감독	-11.2719
▁여자아이	-11.272
▁요구한	-11.2723
액이	-11.2724
▁되기도	-11.2724
▁마셨	-11.273
▁내역	-11.273
▁넣는	-11.2732
▁어디까지	-11.2734
EX	-11.2735
▁늘었다	-11.2737
▁던져	-11.274
▁사람이라고	-11.2743
▁유산	-11.2747
▁가수들	-11.2747
▁낫다	-11.2748
▁개최된	-11.2753
드린다	-11.2754
▁은행에서	-11.2754
▁곡이	-11.2755
따라	-11.2761
▁성장하고	-11.2761
▁베이스	-11.2762
시키지	-11.277
▁최고경영자	-11.2778
▁장례식	-11.2778
*	-11.2778
▁아메리카노	-11.2778
▁협업	-11.2778
▁한반도	-11.278
▁아이들과	-11.278
▁검출	-11.2781
▁무죄	-11.2782
▁모험	-11.2784
▁받으며	-11.2785
▁없지	-11.2785
▁스킨	-11.2785
▁사육	-11.2788
▁연봉	-11.2788
▁통행	-11.2789
▁자랑하는	-11.279
▁드린	-11.2796
▁녹아	-11.2796
▁둔화	-11.2797
구조	-11.2797
▁추모	-11.2798
▁기울	-11.2799
▁맞추어	-11.2801
▁관여	-11.2802
▁필요하신	-11.2803
▁마시지	-11.2804
▁아니라면	-11.2805
▁사소	-11.2806
▁화나	-11.2809
었기	-11.281
▁날씨에	-11.2811
▁욕	-11.2819
▁성별	-11.282
▁와야	-11.2821
▁기대해	-11.2823
▁연령대	-11.2824
▁갔었	-11.2828
▁떨어	-11.2832
▁주지사는	-11.2832
상황	-11.2835
▁불길	-11.2838
리라	-11.284
▁귀가	-11.2841
라이브	-11.2844
dy	-11.2846
학적	-11.2846
▁Z	-11.2847
▁주인공이	-11.2848
▁기자회견	-11.2849
▁해양	-11.2851
▁미국인들	-11.2854
▁이끌고	-11.2858
▁마이크로	-11.2859
▁울고	-11.286
▁마련된	-11.2868
▁접시	-11.287
▁멍	-11.2872
▁하느님	-11.2872
축구	-11.2873
▁형사	-11.2874
▁사랑하지	-11.2876
야드	-11.2879
▁위치에	-11.2879
▁모터	-11.2879
▁뭐야	-11.2881
▁있음	-11.2883
▁잘하지	-11.2883
▁아우	-11.2887
얀	-11.2888
▁세관	-11.2889
▁들어가지	-11.2889
풋	-11.2891
▁가라앉	-11.2891
▁다큐멘터리	-11.2891
▁레바논	-11.2891
▁아름다워	-11.2891
▁이렇다	-11.2891
▁초록색	-11.2891
아메리칸	-11.2891
▁않으셨	-11.2891
장애	-11.2892
▁그래픽	-11.2892
▁CBS	-11.2893
▁예약한	-11.2893
▁스피커	-11.2894
os	-11.2897
▁회사로	-11.2897
▁주목된다	-11.2897
▁리스크	-11.2898
▁응급	-11.2899
▁설문	-11.29
▁들어갔다	-11.2901
▁유지하기	-11.2903
▁사퇴	-11.2905
▁찾아온	-11.2906
▁듯하다	-11.2906
▁고려하면	-11.2908
▁해내	-11.2908
▁여인	-11.2909
▁동양	-11.2909
더라고	-11.291
▁단속	-11.2912
▁삽니	-11.2912
길래	-11.2913
▁기념품	-11.2913
봤습니다	-11.2915
므로	-11.2915
페어	-11.2917
만약	-11.2918
▁다음주	-11.2918
▁남겼다	-11.2921
▁품고	-11.2923
▁정기	-11.2924
▁열리	-11.2925
▁치마	-11.2926
▁사업자	-11.2926
▁화산	-11.2929
SO	-11.2931
▁지목	-11.2931
▁국민이	-11.2936
▁나간	-11.2937
▁모델로	-11.2939
▁도우	-11.2939
▁카페에	-11.2941
▁아세요	-11.2944
▁베르	-11.2946
▁뒤에는	-11.2946
▁시설이	-11.2948
▁이해하기	-11.2949
뜻	-11.2949
바람	-11.2949
▁흙	-11.295
▁역사가	-11.2952
▁명세	-11.2954
▁발레	-11.2957
▁성명에서	-11.2959
겠군요	-11.2966
▁살게	-11.2966
▁만들어요	-11.2967
▁먹었다	-11.2967
졌으며	-11.297
▁정치인	-11.2977
크라	-11.298
되도록	-11.2981
▁선택하는	-11.2981
▁믿음이	-11.2982
끔	-11.2982
▁말했	-11.2982
▁정서	-11.2982
해줘요	-11.2983
▁케인	-11.2986
디언	-11.2986
▁경쟁자	-11.2987
▁백화점	-11.2993
▁내부에	-11.2993
▁사랑해요	-11.2994
▁당사자	-11.3
였으며	-11.3001
▁만났다	-11.3003
▁이야기할	-11.3003
스럽다	-11.3003
▁일으켰	-11.3004
벅	-11.3004
▁스파게티	-11.3004
▁좋겠	-11.3004
▁LED	-11.3004
▁트로피	-11.3004
▁바나나	-11.3005
▁곤란	-11.3005
▁충실	-11.3005
▁유대인	-11.3006
▁다운	-11.3008
▁압니다	-11.3008
▁보스턴	-11.3008
▁만료	-11.3012
▁춥	-11.3012
▁좋았다	-11.3014
그래	-11.3014
TC	-11.3018
▁되죠	-11.3019
▁되세요	-11.302
▁포스트	-11.302
임이	-11.3021
▁기다렸	-11.3021
▁기후	-11.3022
▁보기엔	-11.3025
▁썩	-11.3025
▁만들지	-11.3027
IS	-11.3028
▁캘리포니아주	-11.3029
▁재발	-11.3031
▁나타내	-11.3034
▁정작	-11.3035
▁매장에	-11.3038
▁소비자가	-11.3039
보호	-11.304
▁육성	-11.3041
▁참가한	-11.3042
▁구매하는	-11.3043
▁호텔로	-11.3052
▁적혀있	-11.3052
당신	-11.3055
지역에	-11.3056
▁의류	-11.3064
방식	-11.3066
▁미루	-11.3067
▁추억이	-11.3068
▁유저	-11.3068
스틴	-11.3068
▁만지	-11.307
▁흔적이	-11.3072
▁후에도	-11.3073
▁정도였다	-11.3075
▁스타일이	-11.3076
▁문화적	-11.3077
▁선보이는	-11.3079
▁성장세	-11.3081
ain	-11.3082
▁말해줄	-11.3083
▁제약	-11.309
▁찾아야	-11.3091
그램	-11.3092
ag	-11.3097
▁이베이	-11.3098
▁임원	-11.3106
▁애인	-11.3106
per	-11.3108
▁여자들은	-11.311
▁포크	-11.311
▁성사	-11.3117
▁뚜껑	-11.3119
▁카자흐스탄	-11.3119
걔	-11.3119
▁페인트	-11.3119
▁납품	-11.3119
▁즐겼	-11.312
▁아파	-11.312
▁유럽연합	-11.312
▁헨리	-11.312
분들	-11.3122
▁블로그에	-11.3122
▁진압	-11.3122
▁웨스트	-11.3122
▁염려	-11.3123
▁헌법	-11.3124
▁다룬	-11.3125
▁존슨	-11.3126
▁보완	-11.3127
▁되었다고	-11.3127
▁알려준	-11.3128
▁유익	-11.3129
▁불과하다	-11.3129
▁움직	-11.313
▁바빠서	-11.3131
▁받았어	-11.3131
▁분들은	-11.3131
▁어른들	-11.3132
▁보증금	-11.3133
▁열매	-11.3134
▁나왔어요	-11.3135
▁사탕	-11.3135
▁잠재력	-11.3136
▁속으로	-11.3137
▁현대차	-11.3138
▁관점	-11.3138
▁청년들	-11.3138
▁환율	-11.3138
▁승점	-11.3139
안전	-11.314
▁Mar	-11.3143
아시아	-11.3144
▁일방적	-11.3144
▁가능하며	-11.3144
지방	-11.3145
▁달라지	-11.3145
▁않은데	-11.3145
셨습니까	-11.3147
▁터치	-11.3148
▁가끔은	-11.3148
▁보이지만	-11.3149
▁사람한테	-11.3149
▁정기적	-11.3151
▁겪었	-11.3152
▁선정한	-11.3158
tion	-11.3159
▁요구하고	-11.316
▁시속	-11.3161
▁예수님이	-11.3163
▁대학교에	-11.3164
▁사려고	-11.3165
▁작업에	-11.3166
▁방송국	-11.3168
▁동료들	-11.3169
▁부모들	-11.3171
▁시작되는	-11.3172
▁만나자	-11.3172
▁계속되고	-11.3173
▁김민	-11.3174
▁돌아갔	-11.3174
▁정상회담을	-11.3175
▁예상하고	-11.3178
▁예약하고	-11.3178
▁배송비	-11.318
▁활동에	-11.318
▁존경하는	-11.3184
▁음주	-11.3185
▁대법원	-11.3185
▁응시	-11.3186
▁시작되었다	-11.3187
▁베트남에서	-11.319
뇌	-11.3191
▁받았는데	-11.3192
▁불안감	-11.3195
▁해본	-11.3198
▁미처	-11.3204
▁대우	-11.3206
▁의해서	-11.3213
▁지역에서는	-11.3215
▁구하기	-11.322
▁저랑	-11.3222
하더라	-11.3223
워크	-11.3225
배우	-11.3225
▁작곡	-11.3225
랍	-11.3227
ru	-11.3227
춰	-11.3229
▁높여	-11.3235
▁아쉬워	-11.3235
▁변호인	-11.3236
▁바뀐	-11.3236
▁조건이	-11.3236
방울	-11.3236
▁발걸음	-11.3237
▁DJ	-11.324
▁넘겨	-11.3241
▁찬양	-11.3242
▁잡았다	-11.3244
일까요	-11.3244
▁김밥	-11.3245
▁이탈	-11.3246
▁불평	-11.3246
▁반찬	-11.3246
▁국민의	-11.3248
▁왼쪽으로	-11.3249
▁때문인	-11.3249
▁그럼요	-11.325
▁받으시	-11.3251
▁어디인가요	-11.3251
리트	-11.3254
▁명확하게	-11.3255
▁비누	-11.3255
▁대학생	-11.326
▁압도적	-11.326
▁소파	-11.3263
▁가상	-11.3266
▁위험에	-11.3267
▁계획하고	-11.3269
▁라이스	-11.3272
▁텐데요	-11.3273
▁정리해	-11.3277
▁앨범이	-11.3278
▁남한	-11.3278
▁도착해서	-11.3279
▁촬영한	-11.3279
▁식감	-11.3281
▁도착했어요	-11.3282
선거	-11.3282
▁부유	-11.3282
▁되었는지	-11.3285
▁파마	-11.3286
▁토니	-11.3288
▁높았다	-11.3293
▁앉아있	-11.3295
▁관광지	-11.3296
▁주셨	-11.3297
▁무엇보다도	-11.3299
▁다친	-11.3301
▁혹	-11.3301
▁진열	-11.3301
▁이불	-11.3303
▁정장	-11.3305
넘	-11.3305
▁온다	-11.3306
▁입점	-11.3308
▁남성은	-11.3309
빅	-11.3314
▁더위	-11.3314
▁마음속에	-11.3316
▁여행용	-11.3316
▁바다에	-11.3317
▁정상적	-11.3322
▁박씨	-11.3324
▁기한	-11.333
▁딸기	-11.3335
▁살아야	-11.3337
▁준비해야	-11.3341
▁피곤하	-11.3341
▁메시	-11.3341
▁알아서	-11.3346
▁배우기	-11.3347
▁못하면	-11.3348
주의자	-11.3349
▁맛있어	-11.335
▁소개하고	-11.335
봇	-11.3351
시켜야	-11.3352
▁그러다	-11.3353
▁곳곳	-11.3353
▁사르코지	-11.3353
▁안타까운	-11.3353
▁펼칠	-11.3353
돔	-11.3353
딕	-11.3353
▁줄어든	-11.3353
▁교도소	-11.3353
▁이루는	-11.3353
▁셰프	-11.3353
▁세계대전	-11.3353
▁닭고기	-11.3354
▁누구든	-11.3354
▁액체	-11.3354
▁삼촌	-11.3355
▁DNA	-11.3355
▁떨어질	-11.3357
▁팔아	-11.3357
▁미스터	-11.3357
▁리콜	-11.3358
▁유쾌	-11.3359
▁추격	-11.3359
LPGA	-11.336
▁관절	-11.336
▁추출	-11.3361
▁되니	-11.3362
▁네팔	-11.3366
ion	-11.3367
▁편리하게	-11.3368
▁매출액	-11.3369
▁둘러보	-11.3372
▁사라진	-11.3372
▁지급할	-11.3376
▁보조금	-11.3378
▁어색	-11.3381
▁씨에게	-11.3381
▁보급	-11.3387
▁덕분	-11.3392
out	-11.3392
되었는지	-11.3393
드라	-11.3393
돼요	-11.3394
▁있냐	-11.3394
▁산타	-11.3394
▁첫번째	-11.3396
▁의미로	-11.3397
GB	-11.3398
▁윌리엄스	-11.3402
▁복음	-11.3404
▁불편함	-11.3405
▁발길	-11.3405
▁달리기	-11.3406
▁행진	-11.3408
▁의견에	-11.341
▁치우	-11.3413
▁상태에	-11.3414
▁줄게	-11.3414
▁방문객	-11.3416
▁가공	-11.3417
▁페이지에	-11.342
▁성함	-11.3421
▁지불할	-11.3422
▁빛이	-11.3424
MI	-11.3429
쇼핑	-11.3431
뼈	-11.3436
▁미치지	-11.3437
눈	-11.344
▁기량	-11.3441
▁올라와	-11.3447
▁움직이지	-11.3448
시대	-11.3449
▁후보에	-11.3449
▁그릴	-11.345
▁접근할	-11.3453
▁노화	-11.3454
▁발명	-11.3454
▁풀려	-11.3456
들보다	-11.3463
달러로	-11.3463
▁굉장	-11.3464
▁트랙	-11.3464
믹	-11.3467
▁바꾸고	-11.3468
▁주사	-11.347
▁가입자	-11.3471
▁do	-11.3471
;	-11.3472
▁트와이스	-11.3472
▁티베트	-11.3472
▁선보였다	-11.3472
▁자외선	-11.3472
▁저작권	-11.3472
하시길	-11.3472
▁있으신	-11.3472
▁에어컨	-11.3472
▁마라톤	-11.3473
▁텐트	-11.3473
▁그중에서	-11.3473
▁상하이	-11.3473
사령관	-11.3473
▁지역으로	-11.3474
▁동참	-11.3476
▁감당	-11.3476
▁도착했다	-11.3476
▁인내심	-11.3476
▁골목	-11.3477
▁않으며	-11.3479
▁공유할	-11.3479
▁Li	-11.348
▁코스피	-11.348
▁육체	-11.348
▁빠질	-11.3482
▁어울리	-11.3482
▁금속	-11.3482
▁모은다	-11.3483
▁치매	-11.3483
▁충고	-11.3483
▁먹었어	-11.3484
▁반송	-11.3486
▁사정이	-11.3486
▁되시	-11.3487
▁간주	-11.3487
▁인파	-11.3488
▁주력	-11.3489
▁여긴	-11.349
▁어렵게	-11.3492
▁결정했다	-11.3496
▁키즈	-11.3498
▁주먹	-11.3499
▁시범	-11.3501
ip	-11.3503
▁연계	-11.3505
▁사라졌	-11.351
하자면	-11.3511
▁반등	-11.3511
▁메리	-11.3514
▁진행됐다	-11.3516
▁수익률	-11.3517
▁통치	-11.3518
▁지키지	-11.3523
오스	-11.3524
▁포함하여	-11.3525
▁주전	-11.3525
▁PD	-11.3525
▁즐겁	-11.3529
▁관점에서	-11.3529
▁많지만	-11.353
스케	-11.3532
▁사건으로	-11.3534
▁포함해서	-11.3536
▁알았다	-11.3536
시장에서	-11.3537
▁전직	-11.3539
▁동화	-11.3541
▁몰고	-11.3541
EN	-11.3542
▁갈아	-11.3543
국민	-11.3543
▁탄력	-11.3543
▁벽에	-11.3543
▁시작될	-11.3546
q	-11.3546
▁당신만	-11.3549
▁돌아보	-11.3551
끝	-11.3557
▁문법	-11.3559
곳에	-11.356
비스	-11.3563
밴드	-11.3567
▁보도가	-11.3569
▁공군	-11.357
▁돼야	-11.3574
▁전달해	-11.3575
볼게요	-11.3577
▁목소리로	-11.3579
▁좋아하는데	-11.3579
▁효과적인	-11.3579
ok	-11.3582
▁어떨까	-11.3582
▁양상	-11.3585
▁고수	-11.3586
계약	-11.3586
▁가정에서	-11.3589
위권	-11.359
▁알려지	-11.3591
▁South	-11.3593
▁짐바브웨	-11.3593
▁퀴즈	-11.3593
▁익숙해	-11.3593
▁욕망	-11.3594
▁이태원	-11.3594
▁국방	-11.3595
▁부탁드리겠습니다	-11.3595
▁글로	-11.3596
▁찾아서	-11.3596
port	-11.3596
▁녹색	-11.3597
▁체류	-11.36
소스	-11.36
▁찾아와	-11.36
▁겨울이	-11.3601
▁처리할	-11.3601
▁신속하게	-11.3603
▁드세요	-11.3604
▁새겨	-11.3605
▁점령	-11.3605
▁당부했다	-11.3606
▁공습	-11.3609
▁화장실에	-11.3611
▁버거	-11.3611
▁우버	-11.3612
였기	-11.3612
▁학점	-11.3612
▁상해	-11.3613
건으로	-11.3613
개월간	-11.3615
▁마음대로	-11.3616
▁간판	-11.3619
▁행복하고	-11.3619
US	-11.3619
▁고발	-11.3621
▁잡스	-11.3622
▁장래	-11.3624
▁부상으로	-11.3624
▁주제는	-11.3624
▁클리	-11.3626
친다	-11.3631
더라면	-11.3633
▁모르게	-11.3633
▁공모	-11.3634
▁던진	-11.3636
▁방문했다	-11.3639
▁합리적인	-11.3643
▁부르고	-11.3649
년째	-11.365
▁요청하신	-11.3651
ub	-11.3652
▁수백만	-11.3652
▁확인되지	-11.3657
▁포도	-11.3657
▁피아노를	-11.3658
▁원문	-11.3662
▁소식에	-11.3663
멀	-11.3666
▁지키고	-11.3667
▁변수	-11.3668
동물	-11.367
▁철도	-11.3672
▁선전	-11.3673
▁아쉬움	-11.3676
▁원유	-11.3677
그리	-11.3678
▁리얼	-11.3678
▁줄이는	-11.3679
▁당시에	-11.368
ud	-11.368
단지	-11.3681
▁차기	-11.3686
▁사용해서	-11.3687
ty	-11.3689
▁공격으로	-11.3691
▁터지	-11.3691
▁헤어지	-11.3691
본부	-11.3692
▁서로에게	-11.3693
▁그리는	-11.3694
▁방침	-11.3695
▁여자들	-11.3697
▁씨와	-11.3698
▁이후에는	-11.3702
▁결혼할	-11.3703
▁요인이	-11.3703
펀	-11.3706
▁돌봐	-11.3706
▁이득	-11.3706
▁바빠	-11.3708
▁희망이	-11.3711
▁삼아	-11.3713
셜	-11.3713
▁복장	-11.3714
캡	-11.3715
▁오케스트라	-11.3715
▁자존심	-11.3715
넨	-11.3715
▁노하우	-11.3715
▁원숭이	-11.3715
▁아저씨	-11.3715
▁브레이크	-11.3715
▁EXO	-11.3715
▁이따가	-11.3716
▁계십니다	-11.3716
▁가져갈	-11.3717
▁라인업	-11.3719
▁뜨겁게	-11.3719
▁갈등이	-11.372
▁아프지	-11.3722
▁수준에	-11.3722
▁보컬	-11.3722
▁편한	-11.3723
▁여보세요	-11.3723
▁않네요	-11.3724
▁틀어	-11.3725
▁지킬	-11.3725
하자는	-11.3727
▁메뉴판	-11.3727
▁세팅	-11.373
▁생각하게	-11.373
▁폐기물	-11.373
▁감안	-11.373
▁원치	-11.3734
▁이외에	-11.3735
질환	-11.3736
▁전반적인	-11.3737
▁외국인들	-11.3738
▁그루	-11.3741
▁보려고	-11.3741
▁믿었	-11.3742
▁발생한다	-11.3748
▁하다가	-11.3748
▁캐나다에	-11.3751
▁강원도	-11.3754
▁못했지만	-11.3758
ET	-11.3758
▁진영	-11.3759
방법	-11.376
▁봄이	-11.3763
▁성장률	-11.3764
▁이동할	-11.3766
▁아르	-11.3766
▁한국인들이	-11.3767
▁여겨지	-11.3767
▁거친	-11.3768
▁가본	-11.3769
▁높이는	-11.377
▁외롭	-11.377
▁해외에	-11.3771
▁게임에서	-11.3773
▁보인다고	-11.3774
▁준다고	-11.3776
▁주어지	-11.3777
▁지인	-11.3779
▁예선	-11.378
▁캐리	-11.3781
▁유명하다	-11.3783
▁인스타그램에	-11.3783
▁모여서	-11.3783
▁인공	-11.3783
▁받았고	-11.3783
셨으면	-11.3789
▁알바	-11.3793
▁써서	-11.3794
▁여겨	-11.3794
▁돌아와	-11.3798
▁양보	-11.3798
▁똑똑	-11.3799
▁어려	-11.381
▁나가야	-11.3811
▁문화와	-11.3811
▁줄이기	-11.3811
평균	-11.3813
AI	-11.3814
규모	-11.3814
빨리	-11.3817
▁물체	-11.3819
▁차질	-11.3823
▁칩	-11.3824
되길	-11.3826
old	-11.383
퀴	-11.3832
▁발음	-11.3832
작품	-11.3835
▁사라	-11.3837
▁인식이	-11.3837
텀	-11.3838
▁스프링	-11.3838
▁어울릴	-11.3838
▁여쭤봐	-11.3838
GDP	-11.3838
▁오페라	-11.3838
▁현명한	-11.3838
▁클레	-11.3838
▁외곽	-11.3839
▁상어	-11.3841
리러	-11.3843
▁조식	-11.3843
▁에이즈	-11.3844
▁시점에서	-11.3844
작업을	-11.3844
▁출생	-11.3845
▁좋네요	-11.3846
▁필터	-11.3846
▁현지인	-11.3847
▁회전	-11.3847
▁장악	-11.3849
▁도시락	-11.3849
▁설레	-11.385
웬	-11.3851
▁매입	-11.3852
▁인터	-11.3853
▁안타깝게도	-11.3856
▁돌아왔다	-11.3856
▁비만	-11.3856
▁잔디	-11.3857
했잖아	-11.3859
▁도박	-11.3862
▁영상에	-11.3862
기록	-11.3863
▁보복	-11.3866
내려	-11.3868
▁많아지	-11.3872
▁도내	-11.3878
▁지우	-11.3878
세포	-11.3878
주셨다	-11.3879
▁어린아이	-11.3879
▁마을에	-11.388
▁늦게까지	-11.388
▁선보인	-11.3881
신가요	-11.3884
▁선거에서	-11.3884
▁이뤄졌다	-11.3886
협상	-11.3886
▁제품과	-11.3889
님들	-11.3894
▁파손	-11.3894
▁넘는다	-11.3894
구역	-11.3895
PM	-11.3896
정신	-11.3897
▁원정	-11.3899
▁이럴	-11.3901
▁것인데	-11.3901
ies	-11.3903
▁경위	-11.3904
▁지워	-11.3905
▁들기	-11.3908
▁넣어서	-11.391
▁공항으로	-11.3911
▁형식으로	-11.3911
▁지표	-11.3912
▁여행하는	-11.3914
▁만났을	-11.3915
▁작동하지	-11.3916
탐	-11.3918
눈에	-11.392
▁카라	-11.3924
▁스페인어	-11.3926
▁뛰어나	-11.3926
▁직장에서	-11.3929
논	-11.3933
▁주변에서	-11.3937
▁느껴져	-11.3938
▁소요되	-11.3942
▁가까워	-11.3946
▁직접적으로	-11.3949
▁사용자들	-11.3951
▁어떠	-11.3952
SI	-11.3954
▁색상이	-11.3954
요리	-11.3955
▁서구	-11.3955
▁갈비	-11.3959
▁실례	-11.396
▁교정	-11.3962
▁워크숍	-11.3963
짖	-11.3963
▁버지니아	-11.3963
▁부러워	-11.3963
강남스타일	-11.3963
FIFA	-11.3963
▁목걸이	-11.3964
▁받으실	-11.3964
조치	-11.3964
▁표지판	-11.3964
▁감사드린다	-11.3964
▁도와드리겠습니다	-11.3965
▁전달할	-11.3965
▁예멘	-11.3966
▁못했다고	-11.3967
▁불가피	-11.3967
▁운임	-11.3968
▁더이상	-11.3972
▁취직	-11.3974
oul	-11.3975
▁유머	-11.3977
▁하락했다	-11.3978
▁근거로	-11.3981
▁창작	-11.3982
▁히트	-11.3984
▁드러난	-11.3985
▁극장에서	-11.3986
▁센서	-11.3993
▁공개적으로	-11.3993
▁작성한	-11.3994
▁파란	-11.3996
결과	-11.3997
▁도장	-11.3998
▁온다면	-11.4
▁주재	-11.4002
▁변신	-11.4003
▁좋지만	-11.4003
ure	-11.4005
▁환상	-11.4005
▁가능해	-11.4007
▁팬들과	-11.4008
▁확인해주세요	-11.401
▁성분이	-11.4012
▁사물	-11.4014
▁웰	-11.4014
▁면이	-11.4015
▁일어나서	-11.4015
▁장소로	-11.4016
▁시작된다	-11.4016
절로	-11.4019
▁만나요	-11.4022
▁백인	-11.4023
년에도	-11.4024
줄게	-11.4025
▁달러로	-11.4031
▁지속되	-11.4033
국인	-11.4033
하자고	-11.4034
LE	-11.4034
▁떡	-11.4035
▁재학	-11.4035
▁집어	-11.4036
▁천사	-11.4042
▁여성과	-11.4044
▁철저	-11.4045
▁연결해	-11.4047
▁본질	-11.405
▁참으로	-11.4054
장님	-11.4056
아버지	-11.4056
▁무늬	-11.406
▁Le	-11.406
쿨	-11.4061
ick	-11.4063
▁긍정적	-11.4064
지역에서	-11.4069
▁세우고	-11.4069
▁직원에게	-11.4071
▁화장실이	-11.4071
▁페이스	-11.4072
레이션	-11.4075
▁걷고	-11.4076
▁준비된	-11.4076
▁제안한	-11.4081
be	-11.4083
▁증가할	-11.4088
▁확인해야	-11.4089
밸	-11.409
▁전략이	-11.409
▁콘셉트	-11.409
▁프랜차이즈	-11.409
▁고맙다	-11.409
▁내다봤다	-11.409
▁핵무기	-11.409
▁음주운전	-11.409
▁치솟	-11.409
▁느껴진다	-11.4091
▁도민	-11.4091
▁위주로	-11.4093
▁누락	-11.4095
포드	-11.4096
▁웃음이	-11.4097
▁기침	-11.4098
▁남들	-11.4102
nt	-11.4104
▁말까지	-11.4104
받았다	-11.4106
▁당초	-11.4106
▁살리	-11.4107
▁도서관에서	-11.4107
▁대한항공	-11.4107
▁공백	-11.4112
▁놓치지	-11.4115
▁오실	-11.412
현장	-11.4121
▁최적	-11.4121
▁피곤해	-11.4125
▁걸친	-11.4126
▁클럽에	-11.4128
▁제공하기	-11.413
▁지키기	-11.4131
웁니	-11.4132
▁놀랍	-11.4134
▁후회하지	-11.4136
해주십시오	-11.4137
RO	-11.414
▁덥	-11.414
▁소개할	-11.4147
발전소	-11.4153
▁부재	-11.4155
▁똑같	-11.4155
ost	-11.4156
▁수량이	-11.4157
비행	-11.4157
EU	-11.4163
덩이	-11.4165
▁거기에서	-11.4169
▁드실	-11.4172
▁재능이	-11.4174
▁사무실로	-11.4174
▁폭로	-11.4176
머스	-11.4178
▁가족에게	-11.418
MD	-11.4183
▁일인지	-11.4184
봐도	-11.4185
▁필수적	-11.4192
브레	-11.4195
▁외치	-11.4199
쥐	-11.4201
대통령	-11.4203
▁클래스	-11.4205
ts	-11.4208
▁도서관에	-11.4212
▁달라진	-11.4216
앨	-11.4217
찔	-11.4218
▁DVD	-11.4218
▁블랙핑크	-11.4218
▁줬어요	-11.4218
▁허리케인	-11.4218
▁외로움	-11.4218
▁부작용	-11.4218
▁헬스장	-11.4218
▁바랄게요	-11.4218
▁벌어지고	-11.4219
▁카타르	-11.4219
▁여배우	-11.422
▁남자들	-11.422
▁동굴	-11.4221
▁갈아타	-11.4221
▁혼합	-11.4221
▁놓인	-11.4221
▁실례지만	-11.4222
▁말씀하셨	-11.4222
▁사이로	-11.4223
▁암살	-11.4227
▁달라질	-11.4229
아트	-11.4231
웨어	-11.4232
▁모았다	-11.4233
▁걷기	-11.4234
▁와중에	-11.4234
▁귀국	-11.4235
▁토론회	-11.4235
▁도난	-11.4239
▁최소화	-11.4241
▁취재진	-11.4241
▁권장	-11.4243
▁말하며	-11.4244
▁갈라	-11.4244
▁생산하는	-11.4245
▁규정에	-11.4245
▁들어왔다	-11.4249
▁결정할	-11.4252
▁조금이라	-11.4256
▁농사	-11.4261
▁않을래	-11.4263
이닝	-11.4265
▁이쪽으로	-11.4266
▁아내와	-11.4266
▁출연해	-11.4271
직원	-11.4274
▁체육관	-11.4275
▁배워야	-11.4278
ake	-11.4279
▁지지하는	-11.4281
▁준수	-11.4282
▁사장이	-11.4284
▁가시는	-11.4287
▁유물	-11.4293
걸요	-11.4295
▁생각하며	-11.43
번째로	-11.4302
왔는지	-11.4303
▁주목할	-11.4304
▁예로	-11.4308
▁막히	-11.4309
▁남자들이	-11.431
sa	-11.431
공학	-11.431
▁달콤	-11.4315
▁추위	-11.4319
▁잃었다	-11.4319
했네요	-11.4323
▁위치해	-11.4324
▁좋아하지만	-11.4324
아직	-11.4324
▁지문	-11.4328
스러움	-11.4333
▁열대	-11.4336
▁흐름이	-11.4338
금융	-11.434
였는데	-11.434
때문에	-11.4342
사람들이	-11.4344
쏠	-11.4344
명씩	-11.4346
▁추가해	-11.4347
찜	-11.4348
▁깊었	-11.4348
▁리처드	-11.4348
▁사우디아라비아	-11.4348
▁액세서리	-11.4348
▁일으킬	-11.4348
태평양	-11.4348
▁컨셉	-11.4348
▁밀가루	-11.4348
▁증폭	-11.4348
▁바빴	-11.4349
▁뿌려	-11.435
▁손님들이	-11.435
▁공룡	-11.435
▁쳐다보	-11.435
▁예수님께서	-11.435
▁이동하는	-11.4351
▁건강하고	-11.4351
대요	-11.4351
▁발효	-11.4354
▁비트	-11.4355
▁양성	-11.4357
▁있었나요	-11.4357
▁사장은	-11.4359
해볼게요	-11.4362
▁보이네요	-11.4363
▁관람객들	-11.4363
▁지폐	-11.4363
▁배우들	-11.4366
▁소개하는	-11.4368
▁남자아이	-11.4368
▁서점	-11.437
▁영문	-11.437
▁유입	-11.4372
▁정해져	-11.4372
▁국정	-11.4372
▁쏟아져	-11.4373
▁생겼어요	-11.4373
느냐에	-11.4373
업소	-11.4376
▁가능하면	-11.4376
▁교차	-11.4376
▁장군	-11.4378
▁노래방	-11.4379
▁통관	-11.4379
▁네티즌들	-11.4381
▁바른	-11.4383
▁쓰이는	-11.4383
▁인터넷에서	-11.4383
▁좌우	-11.4383
▁찾아내	-11.4387
▁보살	-11.4389
▁진한	-11.439
하잖아	-11.439
▁찰스	-11.439
▁웃기	-11.4392
▁기자들	-11.4393
▁예상치	-11.4398
▁온라인에서	-11.4399
▁프로그램에서	-11.4404
▁공직	-11.4406
▁그중에서도	-11.4408
색다른	-11.4408
▁재질	-11.4409
▁작고	-11.441
▁업계에서	-11.4411
▁무한	-11.4415
▁모양이	-11.4416
▁녹화	-11.4419
▁연예인들	-11.4423
▁그려진	-11.4433
▁필요하다면	-11.4435
▁연상	-11.4435
▁학원에	-11.4436
▁You	-11.4443
차량	-11.4445
▁뒤집	-11.4446
▁거니까	-11.4448
▁잡기	-11.4452
▁출시된	-11.4452
▁자아	-11.4453
되어서	-11.4454
공장	-11.4456
▁승객들	-11.4456
▁이뤄지	-11.4457
▁안무	-11.4459
▁알리고	-11.4464
받았습니다	-11.4468
▁달려가	-11.447
큰	-11.4476
▁터미널	-11.4477
하시겠어요	-11.4478
해주지	-11.4478
▁대중교통	-11.4479
▁베테랑	-11.4479
▁비빔밥	-11.4479
▁챔피언스리그	-11.4479
▁패스트푸드	-11.4479
▁프린터	-11.4479
UAE	-11.4479
▁힘입어	-11.4479
▁에이전시	-11.4479
▁탱크	-11.4479
텔레콤	-11.448
▁봉사활동	-11.448
▁워터	-11.448
▁슈팅	-11.4481
▁아레나	-11.4482
▁얼마든지	-11.4483
▁혈액	-11.4483
▁코팅	-11.4485
▁향하는	-11.4485
▁영화배우	-11.4486
캠프	-11.4486
▁만들었어	-11.4486
▁물어봤	-11.4488
▁서쪽	-11.4488
▁연결되어	-11.4488
▁걸리나요	-11.4488
▁메이저	-11.4488
챔피언십	-11.449
▁자리잡	-11.449
▁퀸	-11.4494
▁끄는	-11.4494
▁과감	-11.4496
▁유세	-11.4498
su	-11.4499
▁버티	-11.4499
▁원격	-11.4502
▁발병	-11.4503
▁나이트	-11.4503
웠어요	-11.4504
▁미스	-11.4506
평화	-11.4506
▁들어주	-11.4506
▁예시	-11.4509
공사	-11.4509
▁주변에는	-11.451
▁팩스	-11.4511
▁맛보	-11.4511
▁통보	-11.4513
▁경사	-11.4515
▁주체	-11.4517
▁브로	-11.4518
▁결정하는	-11.4519
▁싸우는	-11.452
▁선포	-11.452
▁유래	-11.4521
GO	-11.4523
▁이상하게	-11.4525
▁스피	-11.453
민들	-11.4532
▁수화물	-11.4532
▁공통점	-11.4533
▁제시간	-11.4533
▁유용한	-11.4535
▁역전	-11.4536
▁스파이	-11.454
▁지켜야	-11.4542
▁참여하고	-11.4544
▁커서	-11.4548
▁알아볼	-11.4551
▁활용하는	-11.4551
▁나타난다	-11.4554
▁식당이	-11.4556
▁등판	-11.4557
▁도중에	-11.4559
IT	-11.4559
▁집권	-11.456
▁활기	-11.456
▁나타났	-11.4561
스팅	-11.4568
▁달러에	-11.4573
▁제외하고는	-11.4573
▁운동화	-11.4576
▁익명	-11.4577
▁요리하는	-11.4577
▁안건	-11.4577
▁지장	-11.4578
▁경치	-11.4578
▁발견할	-11.4579
사람들	-11.4583
객들	-11.4584
▁대비해	-11.4586
▁시선이	-11.4591
▁안전하고	-11.4599
▁비어	-11.4604
되는지	-11.4609
윙	-11.4611
콰	-11.4613
▁라스베이거스	-11.4613
▁브라이언	-11.4613
▁안드로이드	-11.4613
▁인종차별	-11.4613
▁캄보디아	-11.4613
▁캠퍼스	-11.4613
▁크로아티아	-11.4613
▁가자지구	-11.4613
▁토마스	-11.4613
▁좌절	-11.4613
▁시너지	-11.4613
▁캐스팅	-11.4613
▁뛰어넘	-11.4613
▁싶었어	-11.4614
▁억울	-11.4614
▁놔두	-11.4615
▁첨가	-11.4616
휘	-11.4617
▁동쪽	-11.4618
▁신비	-11.4618
▁사용될	-11.4619
▁돌입	-11.462
▁해체	-11.462
▁급등	-11.462
▁요약	-11.4622
▁사랑한다	-11.4622
▁Be	-11.4623
▁교복	-11.4623
놀이	-11.4623
펀드	-11.4624
▁받아볼	-11.4624
mer	-11.4625
▁예상됩니다	-11.4625
▁이어가고	-11.4626
▁고추	-11.4627
IR	-11.4629
▁동일하게	-11.463
▁기울여	-11.463
▁드문	-11.463
▁섬세	-11.4631
▁지낸	-11.4633
▁탄탄한	-11.4636
▁물결	-11.4638
▁사상자	-11.4639
▁유창	-11.4641
▁되겠습니다	-11.4642
▁부각	-11.4643
▁도시로	-11.4646
▁표정이	-11.4649
카페	-11.465
▁얘기하는	-11.4651
▁기종	-11.4653
▁나눠서	-11.4653
ust	-11.4656
▁도면	-11.4658
▁환경에서	-11.4658
▁지하철역	-11.4659
▁자금이	-11.4659
▁않으시	-11.466
▁없음	-11.4662
▁이뤄지고	-11.4664
▁자아낸	-11.4667
▁군인들	-11.4668
▁시작하고	-11.4668
▁연동	-11.4672
▁가르치	-11.4672
▁전형적	-11.4681
▁단원	-11.4684
▁상실	-11.4687
기꺼	-11.469
답게	-11.4694
▁친구랑	-11.47
▁취소하고	-11.47
▁내놓은	-11.471
▁한달	-11.4711
▁대변	-11.4719
겠습니까	-11.4721
▁제작된	-11.4723
▁트레	-11.4725
▁복합	-11.4728
▁프랑스에서	-11.4729
▁공유하는	-11.4731
스틱	-11.4732
크림	-11.4733
▁유전	-11.4734
▁사료	-11.4738
▁나토	-11.4739
폼	-11.4748
▁휘발유	-11.4748
뜬	-11.4748
옐	-11.4748
▁매뉴얼	-11.4748
▁뮤지션	-11.4748
▁쇼케이스	-11.4748
▁지날수록	-11.4748
▁퍼레이드	-11.4748
▁꼽힌다	-11.4748
▁옥수수	-11.4748
겁	-11.4748
덩어리	-11.4748
않	-11.4748
▁손잡이	-11.4748
▁물론이죠	-11.4748
▁with	-11.4748
▁메세지	-11.4748
▁라이벌	-11.4749
▁친환경	-11.4749
▁춤추	-11.475
▁과도한	-11.475
ris	-11.475
▁있듯이	-11.475
▁코끼리	-11.475
▁계곡	-11.4752
▁야생	-11.4753
▁무엇일까요	-11.4754
▁드라이	-11.4755
▁소년이	-11.4755
떨	-11.4755
떼	-11.4756
▁실질적인	-11.4756
▁강좌	-11.4757
▁일곱	-11.4759
▁노리	-11.4759
▁안부	-11.4761
▁예상되는	-11.4761
깐	-11.4766
▁부패	-11.4769
▁마신	-11.477
▁고작	-11.477
▁회담이	-11.4775
▁미션	-11.4778
▁실시간으로	-11.4778
▁시합	-11.4778
▁제조사	-11.478
▁연루	-11.4782
▁꾸며	-11.4783
RI	-11.4784
▁강경	-11.4785
현재	-11.4785
▁명품	-11.4788
▁메모리	-11.4789
ress	-11.479
▁소모	-11.4791
졌다고	-11.4791
▁예산이	-11.4793
▁외국에서	-11.4793
▁보낸다	-11.4796
▁통로	-11.4796
▁Do	-11.4796
▁구하는	-11.4798
▁패드	-11.4799
센터에	-11.4801
파티	-11.4802
▁경찰서	-11.4807
▁지원해	-11.4807
▁코코	-11.4811
▁작품들	-11.4812
▁발리	-11.4813
BO	-11.4813
▁친척	-11.4814
▁회식	-11.4816
▁상태였다	-11.4817
CI	-11.4818
▁플로	-11.482
▁이루어졌	-11.4826
▁가기로	-11.4827
보려고	-11.4829
해보자	-11.4832
결제	-11.4835
▁회수	-11.4836
▁쓰인	-11.4841
▁연금	-11.4843
▁드시고	-11.4845
▁고양	-11.4845
tor	-11.4845
▁깨달	-11.4846
▁높아진	-11.4855
끔찍한	-11.4861
픈	-11.487
▁질서	-11.487
MC	-11.4872
▁수행할	-11.4882
짚	-11.4883
`	-11.4885
▁여쭤보	-11.4885
얄	-11.4885
쥬	-11.4885
▁끊이지	-11.4885
▁로맨틱	-11.4885
▁커뮤니케이션	-11.4885
▁컨트롤	-11.4885
▁헝가리	-11.4885
▁휩싸	-11.4885
▁바비큐	-11.4885
▁스케이트	-11.4885
▁성황리	-11.4885
▁시아파	-11.4885
▁싶으신	-11.4886
▁성범죄	-11.4886
▁손톱	-11.4888
▁탈퇴	-11.4888
▁가리지	-11.4888
▁데서	-11.4889
▁힘들고	-11.4889
▁초밥	-11.4889
▁알려졌	-11.489
▁이루어질	-11.489
SE	-11.489
▁전액	-11.4893
▁티브이	-11.4893
▁넘쳐	-11.4893
▁메달	-11.4894
▁쉬워	-11.4894
▁권고	-11.4894
▁아이에게	-11.4897
만나기로	-11.4899
CEO	-11.49
AL	-11.49
▁폐지	-11.4901
▁필리핀에서	-11.4902
▁철회	-11.4902
▁먹방	-11.4903
▁타임즈	-11.4904
▁여행객	-11.4908
▁체감	-11.4908
▁어린이집	-11.4909
ME	-11.491
▁위생	-11.4912
▁올라갈	-11.4913
▁섬유	-11.4914
▁빠졌다	-11.4915
▁볼거리	-11.4919
day	-11.4923
res	-11.4923
▁대거	-11.4929
▁이곳으로	-11.4929
▁섹시한	-11.4934
▁정상적인	-11.4935
ant	-11.4935
▁심정	-11.4935
▁싸게	-11.4935
▁한강	-11.4937
▁음식들	-11.4937
▁등장했다	-11.494
▁도와주고	-11.4941
Ca	-11.4942
▁다음날	-11.4945
▁받아들이지	-11.4949
▁학부모들	-11.495
▁찍어서	-11.495
실점	-11.4953
축제	-11.4957
ction	-11.4962
▁곳이에요	-11.4962
해주시는	-11.4964
▁알지만	-11.4966
▁기어	-11.4974
▁기억해	-11.4975
항에	-11.4976
ny	-11.498
라스	-11.4981
이었기	-11.4983
pro	-11.4984
시스	-11.4985
▁상업	-11.4986
▁생각입니다	-11.499
▁주제에	-11.4991
▁소유하고	-11.4992
▁진행자	-11.4994
▁관심사	-11.4995
▁청주	-11.4995
ail	-11.4997
▁상원의원이	-11.4999
▁보이게	-11.5004
▁가져다주	-11.5004
▁보여주기	-11.5007
▁공원에서	-11.501
▁자원봉사자	-11.5015
▁단어들	-11.5015
ore	-11.5017
▁범위에서	-11.5019
님과	-11.5019
페이스	-11.502
국제	-11.5021
킷	-11.5022
▁부모님과	-11.5022
▁신장	-11.5023
▁배드민턴	-11.5024
▁저렇게	-11.5024
▁프레젠테이션	-11.5024
▁알코올	-11.5024
▁덴마크	-11.5024
▁립스틱	-11.5024
▁튼튼	-11.5024
스퀘어	-11.5024
▁누군지	-11.5024
▁로이터	-11.5024
▁선풍기	-11.5024
▁엑소	-11.5024
▁딱딱	-11.5024
▁트레이드	-11.5024
▁추첨	-11.5024
▁도덕적	-11.5025
▁데려가	-11.5025
▁미뤄	-11.5025
▁켈리	-11.5025
믹스	-11.5025
▁FTA	-11.5026
▁돌려받	-11.5026
▁무덤	-11.5027
국장	-11.5028
▁합병	-11.503
▁타이거	-11.503
▁부릅니다	-11.503
▁즉석	-11.5031
▁연필	-11.5034
▁뛰는	-11.5035
▁국영	-11.5036
▁출동	-11.5036
▁마술	-11.5036
▁쓰면	-11.5037
▁제주도에	-11.504
▁늘려	-11.504
▁멈추지	-11.5046
▁살펴보면	-11.5047
▁모르겠는데	-11.5047
▁금연	-11.5047
▁트위터에	-11.5047
▁착수	-11.5047
▁가깝게	-11.5049
▁장미	-11.5049
▁신임	-11.5049
▁시작됩니다	-11.5053
▁con	-11.5054
▁펼쳐진다	-11.5054
▁소니	-11.5056
▁노란	-11.5058
관광	-11.5059
▁두번째	-11.5059
타르	-11.506
▁듣게	-11.506
▁상금	-11.5069
▁막상	-11.5069
테러	-11.5071
▁아미	-11.5072
▁않다면	-11.5073
바오	-11.5074
▁지점에서	-11.5075
▁들러	-11.508
오리	-11.5084
▁고객들에게	-11.5087
▁로즈	-11.509
▁Ma	-11.5091
▁얘기할	-11.5091
안타	-11.5095
▁높았	-11.5095
ial	-11.5099
▁이뤄지지	-11.5103
▁줄이고	-11.5106
▁베일	-11.5106
▁즐기기	-11.5114
▁흉	-11.5115
코트	-11.5116
My	-11.5117
▁Korean	-11.5118
▁언급하지	-11.5126
▁미용	-11.5134
▁들어가면	-11.5134
▁개수	-11.5135
▁기사님	-11.5138
▁나아지	-11.5138
▁인해서	-11.5139
▁설치되어	-11.5143
▁집중되	-11.5144
▁시중	-11.5151
댄	-11.5151
▁국제적	-11.5156
▁이루어지지	-11.5156
뢰	-11.5156
즐	-11.5158
▁이용자들	-11.5162
쿼	-11.5163
▁의혹이	-11.5163
펑	-11.5164
▁넥타이	-11.5164
▁아쉬운	-11.5164
▁순식간	-11.5164
▁견딜	-11.5164
▁시달리	-11.5165
▁쌍둥이	-11.5165
▁래퍼	-11.5165
▁얼룩	-11.5166
▁도자기	-11.5166
▁놀랄	-11.5166
▁운용	-11.5168
▁맥락	-11.5169
▁이외	-11.517
▁필립	-11.517
▁레이저	-11.5171
▁무상	-11.5171
▁얘기하고	-11.5173
▁냉동	-11.5173
▁혁명	-11.5174
▁왕복	-11.5174
▁예약할	-11.5174
▁기쁘	-11.5175
▁빠지는	-11.5175
▁회원국	-11.5176
▁주문서	-11.5177
▁모금	-11.5177
▁가셔서	-11.5179
▁작곡가	-11.518
내용	-11.5181
▁연구진	-11.5182
▁신속	-11.5182
▁저축	-11.5183
▁빈번	-11.5183
▁자막	-11.5184
▁사러	-11.5184
▁가수들이	-11.5184
▁실정이	-11.5184
▁실시간	-11.5188
싸	-11.5188
▁상위권	-11.519
시리즈	-11.5191
▁실적이	-11.5192
▁보여주세요	-11.5193
▁뜻하는	-11.5194
▁익히	-11.5194
▁첫날	-11.5195
▁않으려고	-11.5197
▁회상	-11.5197
▁실무	-11.5198
▁상인들	-11.52
▁잡혀	-11.5201
▁극심	-11.5201
▁아담	-11.5201
▁중인데	-11.5207
▁행사에서	-11.5207
▁아프게	-11.5209
▁똑똑한	-11.5209
▁용인	-11.5209
▁다르지	-11.521
▁김성	-11.5218
▁잠금	-11.522
니까요	-11.5221
▁이외에도	-11.5225
▁인디	-11.5226
▁돕고	-11.523
▁무게가	-11.523
보단	-11.5234
사용	-11.5234
▁신화	-11.5235
▁카레	-11.5235
▁사용하세요	-11.5235
▁본문	-11.5236
▁입장이다	-11.5236
▁않겠다고	-11.5242
▁보실	-11.5242
▁김영	-11.5243
▁원인으로	-11.5246
▁따르는	-11.5247
▁배상	-11.5249
▁타지	-11.5253
▁안겨	-11.5254
▁박스에	-11.5266
판매	-11.5266
적이며	-11.5269
AM	-11.5271
▁내일부터	-11.5273
▁날아가	-11.5275
▁시작해요	-11.5278
gr	-11.5287
겠네	-11.5289
▁요청하는	-11.529
int	-11.5291
▁입어보	-11.5292
▁공정한	-11.5294
▁상상력	-11.5297
할수록	-11.5299
주시는	-11.5305
ah	-11.5305
▁아름답고	-11.5306
힙	-11.5307
횡	-11.5307
州	-11.5307
긁	-11.5307
뱃	-11.5307
▁광범위	-11.5307
▁껍질	-11.5307
▁이르기까지	-11.5307
▁전략적	-11.5307
▁하이브리드	-11.5307
▁나이지리아	-11.5307
▁여드름	-11.5307
▁마카오	-11.5307
▁골고루	-11.5307
▁아프다	-11.5307
▁선보일	-11.5307
▁왕세자	-11.5308
▁퇴직	-11.5308
▁촉진	-11.5308
▁견디	-11.5308
▁이력서	-11.5308
▁결의안	-11.5308
▁다저스	-11.5308
▁공원에	-11.5308
▁녀석	-11.5308
▁방콕	-11.5309
▁끝낼	-11.5309
여건	-11.5313
▁독자들	-11.5313
▁빈곤	-11.5313
▁스피드	-11.5314
▁드림	-11.5316
▁소문이	-11.5317
▁내용입니다	-11.5318
▁아티스트들이	-11.5319
▁자율	-11.5319
▁인용해	-11.5326
▁제휴	-11.5327
▁치수	-11.5331
▁연준	-11.5334
▁어르신들	-11.5336
▁예정되어	-11.5337
▁말았다	-11.5338
앱	-11.5339
▁방문하고	-11.5339
세븐	-11.5341
바닥	-11.5344
오픈	-11.5347
▁믿어요	-11.5348
RC	-11.5349
▁생명체	-11.5349
▁직장인	-11.535
에너지	-11.5353
▁처한	-11.5355
공연	-11.5356
▁그다음에	-11.5358
되었지만	-11.5361
▁건립	-11.5363
▁집중력	-11.5364
▁투자자들이	-11.5365
▁약속한	-11.537
▁대개	-11.537
▁확인하세요	-11.5371
▁항공권	-11.5373
▁교회에서	-11.5375
▁맞았	-11.5376
▁어머니와	-11.5378
▁보호하기	-11.538
▁산소	-11.5381
▁지나서	-11.5382
선언	-11.5384
▁누적	-11.5384
▁가져와	-11.5387
▁동생이	-11.5389
▁감명	-11.5389
오프	-11.5393
SC	-11.5395
▁환불해	-11.5397
IO	-11.5399
건가요	-11.54
▁나타	-11.5403
▁정오	-11.5404
▁가루	-11.5405
▁예약해	-11.541
▁가치관	-11.5414
▁싶었	-11.542
▁감사하게	-11.5423
▁안전성	-11.5428
▁독도	-11.5433
▁나라들	-11.5435
we	-11.5441
퍼스	-11.5447
붕	-11.5447
▁있어서요	-11.5449
툴	-11.5449
되었기	-11.545
▁지나고	-11.5451
▁귀찮게	-11.5452
▁기말고사	-11.5452
▁바뀌는	-11.5452
▁바이올린	-11.5452
▁비슷하게	-11.5452
▁에피소드	-11.5452
▁이렇듯	-11.5452
▁출퇴근	-11.5452
딴	-11.5452
▁미성년자	-11.5452
▁어두워	-11.5452
▁어째서	-11.5452
첸	-11.5452
▁프로세스	-11.5452
▁VIP	-11.5453
▁텍스트	-11.5453
▁게이츠	-11.5453
▁팀원들	-11.5454
▁현황	-11.5455
▁KBO	-11.5455
▁포털	-11.5456
▁감안하면	-11.5456
▁감축	-11.5456
▁염두	-11.5457
▁경기장에서	-11.5457
▁불꽃	-11.5457
▁예외	-11.5458
▁이어폰	-11.5459
▁보잉	-11.5459
▁소요될	-11.5459
▁감탄	-11.5459
▁완료된	-11.5459
▁키움	-11.546
▁마우스	-11.5462
▁쉽다	-11.5463
▁무관	-11.5463
▁정황	-11.5464
▁타기	-11.5464
▁세균	-11.5465
▁않았으며	-11.5466
▁스카이프	-11.5466
▁가해자	-11.5466
루스	-11.5467
▁울려	-11.5468
▁포기하	-11.5473
▁나이키	-11.5476
▁고전	-11.5476
▁말해줘	-11.5479
▁관하여	-11.5482
▁포토	-11.5486
▁시작했고	-11.5488
콩	-11.549
띠	-11.5491
야겠어요	-11.5492
▁회화	-11.5492
▁주문해	-11.5492
▁원본	-11.5495
모델	-11.5497
스탄	-11.5497
빗	-11.5497
MO	-11.5501
son	-11.5501
▁요트	-11.5501
▁원해	-11.5502
▁올리기	-11.5502
▁두께	-11.5504
▁점프	-11.5505
▁김태	-11.5506
건설	-11.5517
▁물어보고	-11.5517
▁작가들	-11.5518
이라크	-11.5519
▁나가면	-11.552
▁느끼기	-11.5522
▁한동안	-11.5524
▁개최되는	-11.5525
▁못한다면	-11.5526
▁잔인	-11.5526
▁관리자	-11.5527
▁도착하기	-11.5528
거예요	-11.5529
▁기대하는	-11.5537
▁발견되지	-11.5537
▁지나갔	-11.5539
▁선배님	-11.5539
▁이루어졌다	-11.554
▁혜택이	-11.5543
▁내부에서	-11.5545
해드릴까요	-11.5547
둥이	-11.5547
▁일원	-11.5549
▁건조한	-11.5549
▁적용되는	-11.5551
▁넣었	-11.5554
▁표명	-11.556
▁일하기	-11.5562
way	-11.5567
min	-11.5568
차트	-11.5569
▁끝으로	-11.5574
▁해외로	-11.5575
▁조개	-11.5576
▁청소년들	-11.5583
▁웬만	-11.5583
▁이후에도	-11.5584
▁이별	-11.5585
▁멀지	-11.5588
▁어렵다고	-11.5595
▁기업인	-11.5595
▁참석했다	-11.5597
줍	-11.5598
팡	-11.5598
▁어떨	-11.5599
뚜	-11.5599
▁가르침	-11.5599
▁귀여워	-11.5599
▁바뀌어	-11.5599
▁샀는데	-11.5599
▁일으킨	-11.5599
▁저질렀	-11.5599
▁펜실베이니아	-11.5599
▁흘렀	-11.5599
드래곤	-11.5599
▁디테일	-11.5599
▁카운터	-11.5599
▁메이저리그	-11.56
▁선거운동	-11.5601
▁아시안	-11.5602
▁배럴	-11.5603
▁갑작스러	-11.5603
▁디스크	-11.5603
▁보답	-11.5606
▁탈락	-11.5607
▁칠레	-11.5608
▁면모	-11.5609
▁동의하지	-11.5611
▁자아내	-11.5612
▁싶으면	-11.5614
있었다	-11.5614
▁유적	-11.5614
▁낙태	-11.5615
베드	-11.5616
▁비틀	-11.5617
▁꾸미	-11.5619
▁승차	-11.562
▁정면	-11.562
▁방문했을	-11.562
▁재난	-11.5624
▁생각했는데	-11.5626
▁마감했다	-11.5626
▁벌레	-11.5626
명에게	-11.5628
▁대학교에서	-11.563
▁대장	-11.563
▁팀장님	-11.5632
▁나선다	-11.5636
▁조항	-11.5639
▁대본	-11.5641
▁습관이	-11.5644
▁온천	-11.5646
▁알았는데	-11.5648
▁떠나고	-11.5649
사이즈	-11.5649
▁못했을	-11.5649
▁에이스	-11.5652
▁간다면	-11.5653
해놓	-11.5655
▁재즈	-11.5656
시키려	-11.5659
▁마리아	-11.5661
▁찍으	-11.5661
NG	-11.5662
▁근로	-11.5662
▁여자들이	-11.5663
▁뛰어들	-11.5664
▁한가지	-11.5665
▁비판했다	-11.5666
디오	-11.5668
▁끝나지	-11.567
스타디움에서	-11.5672
▁Sh	-11.5673
▁총재	-11.5675
놓았	-11.5675
▁올려놓	-11.5681
▁후보로	-11.5681
▁살아가고	-11.5681
▁다양성	-11.5683
▁포함됐다	-11.5686
시킵니	-11.5687
▁전역	-11.569
▁배신	-11.5692
▁수준이다	-11.5696
▁좋겠는데	-11.5698
▁서브	-11.57
BB	-11.5704
▁의문이	-11.5706
▁알리기	-11.5707
▁부인했다	-11.571
신문	-11.5712
▁우세	-11.5716
▁최적화	-11.5717
클리	-11.5718
▁계속될	-11.572
ond	-11.5722
▁없었고	-11.5725
▁보호자	-11.5725
▁고리	-11.5726
▁시점에	-11.5729
▁검토해	-11.5735
▁접어들	-11.5736
▁부문에서	-11.5738
▁지체	-11.5743
융	-11.5745
▁반갑	-11.5746
뱅	-11.5746
헨	-11.5747
▁페널티	-11.5748
▁Iraq	-11.5749
▁복숭아	-11.5749
▁숟가락	-11.5749
▁카테고리	-11.5749
▁고마운	-11.5749
▁극대화	-11.5749
▁쓰러져	-11.5749
▁첨단	-11.5749
▁불어넣	-11.5749
▁빅데이터	-11.5749
▁폭탄테러	-11.5749
▁데이비스	-11.5749
▁눈앞에	-11.575
▁자랑스러워	-11.575
▁조종	-11.575
▁모니터링	-11.575
▁케냐	-11.575
▁농촌	-11.575
▁있었으나	-11.5752
▁노벨	-11.5754
▁급락	-11.5755
FO	-11.5755
▁런던에서	-11.5756
▁고조	-11.5756
▁나타나지	-11.5756
▁품절	-11.5757
▁단축	-11.5759
▁얼마입니까	-11.576
▁느껴질	-11.576
▁발생하기	-11.5763
▁창의적인	-11.5765
▁맞죠	-11.5766
▁준비해서	-11.5767
▁양말	-11.5769
ng	-11.577
라이트	-11.5773
▁붙어있	-11.5776
ind	-11.5779
▁고집	-11.5779
▁거리에서	-11.5782
기능	-11.5784
▁관리하는	-11.5785
▁민감한	-11.5786
▁비결	-11.5788
▁뜻으로	-11.5789
▁할인된	-11.579
▁진동	-11.5792
▁끝내고	-11.5792
묵	-11.5797
▁특정한	-11.5798
▁변명	-11.58
엔터테인먼트	-11.5801
▁조율	-11.5802
[	-11.5802
▁단연	-11.5803
덜	-11.5805
▁청원	-11.5806
▁우주선	-11.5807
낙	-11.5807
▁남편과	-11.5808
▁몰랐다	-11.5813
▁최씨	-11.5814
▁금요일까지	-11.5814
▁북한과	-11.5816
▁성질	-11.5818
유럽	-11.582
▁펼치는	-11.582
▁마을에서	-11.5821
볼까	-11.5822
▁속상	-11.5827
▁지나간	-11.5828
사무소	-11.5828
릭스	-11.5833
스트라	-11.5835
▁맞다	-11.5836
▁처지	-11.5838
▁사용되고	-11.584
▁대상자	-11.5841
▁복원	-11.5841
▁자제	-11.5844
▁바라며	-11.5845
▁거치	-11.5847
▁잠자	-11.5848
▁진행한다	-11.585
▁수감자	-11.5853
▁이루어지고	-11.5853
▁밀리	-11.5854
네스	-11.5856
▁드리면	-11.5857
▁전후	-11.5858
▁감사하다	-11.5858
▁저것	-11.586
▁보안관	-11.5862
▁사자	-11.5863
▁이겼	-11.5866
▁않으니	-11.5868
fa	-11.5869
▁공부하기	-11.5871
▁떠오르는	-11.5871
전자	-11.5872
▁진보	-11.5873
▁중이며	-11.5874
▁목격자	-11.5875
▁놓치	-11.5877
▁펼쳐진	-11.5878
▁애들	-11.5879
더스	-11.5882
쁜	-11.5886
▁좀비	-11.5886
PI	-11.5888
nc	-11.5894
조직	-11.5897
▁Control	-11.59
UEFA	-11.59
▁알렸다	-11.59
▁엘리자베스	-11.59
▁잃어버리	-11.59
▁카탈로그	-11.59
▁콘크리트	-11.59
왈	-11.59
▁훔쳐	-11.59
겔	-11.59
▁레시피	-11.59
▁튀김	-11.59
▁종업원	-11.59
▁어리석	-11.59
▁무장세력	-11.59
▁징계	-11.59
▁후세인	-11.5901
▁격렬	-11.5901
▁NBC	-11.5901
▁먹으려고	-11.5901
▁느리	-11.5902
▁ICO	-11.5902
▁스틸	-11.5903
▁앞쪽	-11.5904
▁솔직하게	-11.5904
▁든든	-11.5905
▁가져온	-11.5906
▁전역에	-11.5906
▁경제적으로	-11.5906
▁폭락	-11.5906
▁발생했다고	-11.5906
▁환급	-11.5907
▁밤새	-11.5908
▁광경	-11.5912
▁보시고	-11.5912
▁서핑	-11.5912
▁사라져	-11.5913
▁개척	-11.5913
▁조례	-11.5915
▁초안	-11.5917
▁차관	-11.5918
▁항소	-11.5918
▁보충	-11.5919
▁고객님께서	-11.5919
들었다	-11.592
▁침수	-11.5923
▁없었지만	-11.5924
▁않으셔	-11.5924
▁고속	-11.5925
함으로	-11.5926
▁고민하고	-11.5927
스런	-11.5927
▁변형	-11.5927
▁운영되고	-11.5928
▁피곤해서	-11.5929
▁증인	-11.5929
▁기내식	-11.5932
▁최종적으로	-11.5934
즘	-11.5935
▁악기	-11.5938
▁남았다	-11.5939
마크	-11.594
▁청중	-11.5941
▁많았고	-11.5943
▁일으키는	-11.5943
▁차트에서	-11.5943
▁지나면서	-11.5947
쑥	-11.595
메일	-11.5951
▁바래	-11.5952
▁실업	-11.5953
해드립니다	-11.5955
▁공무원들	-11.5956
▁식단	-11.5956
먼트	-11.5958
샷	-11.596
미디어	-11.5961
over	-11.5962
▁충분하지	-11.5963
디자인	-11.5965
▁시급	-11.5967
for	-11.5968
ug	-11.5969
학습	-11.5971
▁좋아하게	-11.5975
▁단위로	-11.5975
연합	-11.5978
▁제기되	-11.5979
코스	-11.598
▁예금	-11.5981
▁약국	-11.5982
텍스	-11.5983
▁만들어낸	-11.5985
▁불렀다	-11.5989
▁무력	-11.5993
▁세웠다	-11.5996
GE	-11.5999
▁바다로	-11.6003
신청	-11.6004
▁그쳤다	-11.6009
▁높이고	-11.6011
▁심사위원	-11.6012
▁주자	-11.6017
▁남겼	-11.602
▁않아야	-11.6022
▁실시된	-11.6024
▁허위	-11.6024
▁인도네시아에서	-11.6024
▁For	-11.6025
▁미세	-11.6025
▁연결된	-11.603
▁중복	-11.6031
▁암시	-11.6032
▁온다고	-11.6032
▁도왔	-11.6035
였는지	-11.6035
TI	-11.6037
▁아버지와	-11.6038
▁오타	-11.6039
▁늦어지	-11.6042
▁어젯밤	-11.6042
▁지켜보고	-11.6042
▁선수단	-11.6046
▁글씨	-11.6049
▁미안하다	-11.605
▁검토하고	-11.6052
▁동방신기	-11.6054
▁드렸습니다	-11.6054
▁실리콘	-11.6054
▁클라이언트	-11.6054
뜰	-11.6054
팟	-11.6054
▁엑셀	-11.6054
갑작스럽게	-11.6054
팍	-11.6054
▁멜로디	-11.6054
▁아마추어	-11.6054
▁힐튼	-11.6054
▁트레이닝	-11.6054
▁외계인	-11.6054
▁머물렀	-11.6054
으므로	-11.6054
▁잔뜩	-11.6055
▁합법적	-11.6055
▁깔려	-11.6057
▁속옷	-11.6057
▁잔잔	-11.6058
▁시점이	-11.6059
▁확인했어요	-11.606
▁친근	-11.6061
▁떠나기	-11.6062
▁학교생활	-11.6063
▁승리했다	-11.6064
▁유혹	-11.6064
▁심어	-11.6068
▁강세를	-11.6068
▁대폭	-11.607
▁아파요	-11.607
▁때문이었다	-11.6071
▁어디인지	-11.6072
▁확실하지	-11.6073
▁커질	-11.6075
▁호스트	-11.6075
▁조달	-11.6078
▁부처	-11.608
서울	-11.6089
▁사내	-11.6089
▁백신	-11.6092
▁관건	-11.6093
▁약점	-11.61
bi	-11.61
▁귀사에서	-11.6102
▁기둥	-11.6105
▁강원	-11.6108
▁피의자	-11.6109
빨	-11.6112
▁모여들	-11.6116
▁엄마에게	-11.6116
▁주문하면	-11.6116
떡	-11.612
햄	-11.6121
슛	-11.6121
▁사람이라면	-11.6125
▁남자에게	-11.6128
Su	-11.6128
해줍니다	-11.6131
▁해결해야	-11.6131
사람이	-11.6132
해드리고	-11.6132
▁업체들이	-11.6133
▁내외	-11.6138
▁청소년들이	-11.6139
페르	-11.6141
원제	-11.6142
생긴	-11.6144
▁거기까지	-11.6144
▁설립한	-11.6145
▁본다면	-11.6148
LP	-11.6151
▁폭염이	-11.6151
▁성장하는	-11.6152
▁경보	-11.6162
▁끝났다	-11.6165
▁걸었다	-11.6171
▁기대감이	-11.6173
발전	-11.6174
▁계열	-11.6175
▁데려다	-11.6181
▁되겠다	-11.6182
▁받아보	-11.6182
▁민감	-11.6185
▁싱가포르에서	-11.6191
▁위험성	-11.6193
▁보스	-11.6194
ba	-11.6198
늙	-11.6201
붉	-11.6207
년도에	-11.6208
ron	-11.6208
▁관계자들	-11.6208
곽	-11.6208
▁괜찮다면	-11.621
▁받으러	-11.621
▁슈퍼주니어	-11.621
▁스트리밍	-11.621
▁채식주의자	-11.621
▁피라미드	-11.621
뿔	-11.621
쿤	-11.621
▁국무부	-11.621
넛	-11.621
▁포지션	-11.621
▁셋째	-11.621
▁특파원	-11.621
▁테일러	-11.621
▁청바지	-11.621
▁페널티킥	-11.621
▁슈퍼마켓	-11.621
▁조심스럽게	-11.6211
▁근접	-11.6211
▁나눔	-11.6212
▁약화	-11.6212
▁빠지지	-11.6212
▁탁자	-11.6213
▁KIA	-11.6213
▁튀어	-11.6214
▁코엑스	-11.6214
저리	-11.6214
▁타깃	-11.6216
▁비춰	-11.6216
▁연락드리겠습니다	-11.6216
파르	-11.6217
▁반죽	-11.6217
▁저스틴	-11.6218
▁틀린	-11.6219
▁내리기	-11.622
▁다니면서	-11.6221
▁맞출	-11.6221
▁바랄	-11.6222
이라니	-11.6222
▁괴롭	-11.6226
▁이쁘	-11.6228
▁의장은	-11.6229
▁놓쳤	-11.6232
▁파병	-11.6233
▁맞았다	-11.6235
ire	-11.6236
OR	-11.6237
▁되네요	-11.6239
▁sp	-11.6239
▁읽어보	-11.6239
▁근무하는	-11.6239
▁들어가기	-11.6241
▁자치	-11.6243
웃으며	-11.6243
▁실려	-11.6244
▁요청하고	-11.6244
sion	-11.6245
▁화재로	-11.6245
▁힘으로	-11.6246
▁감추지	-11.6248
▁즉각적	-11.6249
볼까요	-11.6251
있던	-11.6252
▁반복되	-11.6255
▁전술	-11.6265
▁차이점	-11.6268
▁날에는	-11.627
▁매트	-11.627
▁알릴	-11.6271
해보도록	-11.6274
▁여보	-11.6277
▁모형	-11.6279
▁이뤄지는	-11.6282
▁봐서	-11.6282
몸	-11.6282
오바마	-11.6285
딸	-11.6286
생산	-11.6288
▁대단하다	-11.6292
레드	-11.6294
▁드시면	-11.6294
▁명확한	-11.6296
▁의학	-11.6296
▁세웠	-11.6297
▁여학생	-11.6297
▁폭스	-11.6299
▁낮게	-11.63
▁내려오	-11.6301
▁지친	-11.6302
▁끝냈	-11.6302
▁집안일	-11.6303
신다면	-11.6305
골프	-11.6305
▁ma	-11.6308
▁지경	-11.631
매체	-11.6311
▁선보인다	-11.6314
▁갖지	-11.6315
ik	-11.6317
▁좋아한다고	-11.6318
▁통상	-11.6319
▁거론	-11.6323
▁맡았	-11.6324
▁Se	-11.6324
▁선수들에게	-11.6325
리언	-11.6327
리즘	-11.6328
▁요청할	-11.6331
▁인도에서	-11.6333
▁심화	-11.6334
▁좋아하시	-11.6335
▁갖기	-11.634
▁책자	-11.6342
라이프	-11.635
ting	-11.6357
▁스캔	-11.6357
▁일이었다	-11.6362
▁돌아가고	-11.6363
뿐입니다	-11.6365
▁지연되	-11.6365
툰	-11.6369
▁가맹점	-11.6369
▁같으니	-11.6369
▁다이애나	-11.6369
▁오리지널	-11.6369
▁칵테일	-11.6369
▁테헤란	-11.6369
▁카리스마	-11.6369
▁페일린	-11.6369
▁김연아	-11.6369
▁펌프	-11.6369
▁카지노	-11.6369
▁상반기	-11.6369
▁멘토	-11.6369
▁지자체	-11.6369
▁어떡하	-11.6369
▁다가올	-11.637
▁감싸	-11.637
▁흔한	-11.6371
▁생방송	-11.6372
▁일회용	-11.6372
▁매콤	-11.6373
▁충성	-11.6373
▁토익	-11.6374
▁받으려	-11.6374
▁중이던	-11.6377
▁괴롭히	-11.6377
▁반갑습니다	-11.6379
▁안개	-11.6379
▁위축	-11.6379
▁입찰	-11.638
▁강남구	-11.638
▁견인	-11.638
▁육군	-11.638
▁호평	-11.6381
▁액수	-11.6382
▁세척	-11.6382
보았어요	-11.6383
칼로리	-11.6384
▁노후	-11.6385
▁보내드릴게요	-11.6386
▁대북	-11.6388
▁치명적인	-11.6388
▁어느새	-11.6388
PU	-11.6389
▁집까지	-11.6389
해달라	-11.639
▁벤치	-11.639
▁드러낸	-11.639
▁도출	-11.639
▁다정	-11.6391
▁면제	-11.6392
▁들어오지	-11.6392
▁다음번에	-11.6393
▁드려요	-11.6396
▁공모전	-11.6397
▁일련	-11.6398
조건	-11.6399
▁여동생이	-11.6404
▁들어본	-11.6404
▁근로자들	-11.6409
▁제작진	-11.6409
▁결성	-11.641
▁걸려요	-11.6411
▁영구	-11.6412
▁양파	-11.6413
워치	-11.6415
▁Com	-11.6416
▁결단	-11.642
해야겠어요	-11.6423
▁가능하고	-11.6424
됨에	-11.6424
▁후임	-11.6425
▁당선자	-11.6426
▁아니었습니다	-11.6428
▁친절하고	-11.6431
▁머리카락이	-11.6432
▁장사	-11.6436
▁전북	-11.6436
ner	-11.6439
▁세종	-11.644
▁시작하면서	-11.644
▁올라갔	-11.6441
▁반성	-11.6444
▁시작하면	-11.6445
▁국면	-11.6446
▁대만에서	-11.6446
버려	-11.6448
나마	-11.6448
▁아시아에서	-11.645
살아있는	-11.645
맘	-11.6452
▁스태프	-11.6453
트럼프	-11.6453
▁마음속	-11.6453
왔지만	-11.6454
▁따뜻	-11.6454
폭탄	-11.6456
▁증명서	-11.6458
▁소유자	-11.6458
뒤	-11.6459
▁지급해야	-11.646
▁한국식	-11.6464
마켓	-11.6468
▁외교관	-11.647
▁축하해	-11.6472
▁신사	-11.6473
▁울음	-11.6476
▁환호성	-11.6479
으려면	-11.6479
하겠지만	-11.6483
너스	-11.6485
▁조씨	-11.6487
▁대체할	-11.6488
▁남기고	-11.6489
▁생기고	-11.6491
▁작사	-11.6492
▁창업자	-11.6498
무역	-11.6506
▁말했어	-11.6512
▁상품들	-11.6512
▁선생님께	-11.6516
▁생각하니	-11.6519
했죠	-11.6522
▁전복	-11.6526
▁고려할	-11.6527
둑	-11.6528
▁배우자	-11.6529
▁슬프	-11.6529
밋	-11.653
▁걸렸습니	-11.653
▁미드필더	-11.653
▁샴푸	-11.653
▁스트레칭	-11.653
▁하룻밤	-11.653
美	-11.653
숯	-11.653
시켰습니다	-11.653
탭	-11.653
OLED	-11.653
▁최우선	-11.653
▁멈출	-11.653
▁쓰나미	-11.653
▁라운지	-11.653
▁까먹	-11.6531
▁트윈	-11.6531
▁중간고사	-11.6531
기아차	-11.6531
▁스테이지	-11.6532
적당히	-11.6532
▁탁월	-11.6532
▁보너스	-11.6533
▁등록된	-11.6533
▁권위	-11.6533
sc	-11.6533
▁야근	-11.6534
▁있거든요	-11.6534
왔어요	-11.6535
▁폭격	-11.6535
▁오디오	-11.6535
▁생각했어	-11.6536
▁케이티	-11.6537
▁이사회	-11.6539
▁불빛	-11.6539
▁바꾼	-11.6541
▁마틴	-11.6541
▁실용적	-11.6541
▁공유하고	-11.6542
▁다우	-11.6544
공부	-11.6546
▁궁금하다	-11.6548
▁혜택	-11.6548
▁증세	-11.6551
▁맨유	-11.6552
▁있잖아요	-11.6552
▁검정	-11.6555
해줘야	-11.6555
▁빠져나가	-11.6555
▁제공하지	-11.6557
KB	-11.6558
▁구출	-11.6559
▁제조업체	-11.6559
▁포함되	-11.6563
▁하트	-11.6563
기위해	-11.6567
▁기획사	-11.6569
▁생각됩니다	-11.657
ank	-11.6571
▁주축	-11.6572
▁부르며	-11.6572
▁보냈어	-11.6572
▁송부	-11.6572
▁말해야	-11.6572
▁보내드릴	-11.6576
▁앞세	-11.6579
▁개편	-11.6579
▁자야	-11.658
IA	-11.6581
▁차림	-11.6581
▁제공되는	-11.6582
작전	-11.6584
▁하던데	-11.6585
▁부양	-11.6585
▁가족들에게	-11.6591
▁던졌다	-11.6593
▁때문일	-11.6596
▁재단	-11.66
▁구멍이	-11.6603
▁누워있	-11.6605
TS	-11.6605
▁방문하여	-11.6608
▁선임	-11.6609
됐기	-11.661
EA	-11.661
▁곡선	-11.6613
ung	-11.6615
려졌다	-11.6617
▁이사장	-11.6618
▁넣었다	-11.6618
▁앉았	-11.662
핵	-11.6621
▁팔려	-11.6622
되어있는	-11.6622
▁창원	-11.6622
▁과장	-11.6624
▁때려	-11.6624
▁지니	-11.6624
▁카트	-11.6628
깔	-11.6631
▁요금제	-11.6631
io	-11.6635
▁제기된	-11.6637
차전에서	-11.6644
▁요한	-11.6644
▁방식이다	-11.665
CN	-11.665
▁원조	-11.6657
▁잠실	-11.6666
▁과시	-11.6668
▁맞추기	-11.6669
체제	-11.6676
▁극도	-11.6677
▁넣으	-11.6677
브랜드	-11.668
▁시작해야	-11.6683
좋은	-11.6683
▁있으시	-11.6684
▁연결하는	-11.6686
▁분주	-11.6692
템	-11.6692
옵	-11.6692
였으면	-11.6693
숭	-11.6694
궈	-11.6694
▁내렸습니다	-11.6694
▁코멘트	-11.6694
▁헐리웃	-11.6694
▁익숙한	-11.6694
▁궁극적	-11.6694
▁오래전부터	-11.6694
▁줄어드는	-11.6694
▁까닭	-11.6694
▁멸종	-11.6694
▁스트랩	-11.6694
▁마이크로소프트	-11.6694
▁하반기	-11.6694
▁프라이머리	-11.6694
▁크리스티	-11.6695
▁쾌적	-11.6695
▁탐험	-11.6695
▁있으므로	-11.6695
▁있겠습니까	-11.6695
▁사로잡았다	-11.6695
▁닮은	-11.6696
▁타이틀곡	-11.6696
▁들여다보	-11.6696
▁손바닥	-11.6696
▁대중문화	-11.6697
▁에세이	-11.6697
▁머릿속에	-11.6697
▁침입	-11.6697
구운	-11.67
▁억제	-11.67
▁남다른	-11.67
▁모욕	-11.6701
▁들어갑니다	-11.6703
다시피	-11.6704
▁화합	-11.6707
▁불안정	-11.6709
▁어필	-11.6709
▁전기차	-11.671
하자마자	-11.6711
▁참가할	-11.6713
mon	-11.6714
▁인체	-11.6714
▁생긴다	-11.6716
▁반입	-11.6717
▁믿기지	-11.6717
▁플래시	-11.672
▁깨지	-11.672
▁사명	-11.6721
ev	-11.6721
▁입맛에	-11.6722
▁대항	-11.6723
▁경연	-11.6725
▁물류	-11.6726
▁대부분이다	-11.6729
▁경영진	-11.673
▁자매	-11.673
▁자체적으로	-11.6732
▁미국인들이	-11.6733
▁복권	-11.6734
증권	-11.6738
▁것이냐	-11.6742
▁치러진	-11.6742
▁마련해	-11.6746
▁친구한테	-11.6747
▁프랑스어	-11.675
▁are	-11.6753
ix	-11.6756
ade	-11.6763
▁나타내고	-11.6764
▁소품	-11.6766
VI	-11.6767
▁덜어	-11.6767
▁거미	-11.6775
▁사살	-11.6776
▁유심	-11.6779
못	-11.6779
클린	-11.6779
주었다	-11.6788
웰	-11.6793
▁소위	-11.6794
▁각오	-11.6794
▁민원	-11.6794
쓸	-11.6794
▁내려서	-11.6794
▁관중들	-11.6796
어떤	-11.6796
▁정교	-11.6798
▁쓴다	-11.6799
▁전해진	-11.6801
야겠다	-11.6812
사태	-11.6813
▁주려고	-11.6814
▁별명	-11.6818
▁변경된	-11.682
▁달려있	-11.6821
▁변할	-11.6824
▁만들어내는	-11.6825
터리	-11.6828
시간씩	-11.6836
▁열리기	-11.6836
▁없잖아	-11.6837
야겠어	-11.6842
▁외면	-11.6845
▁수확	-11.6845
▁그때까지	-11.6846
ni	-11.6853
▁합의했다	-11.6857
릉	-11.6859
▁물론입니다	-11.6859
숍	-11.6859
▁불과한	-11.686
▁남녀노소	-11.6861
▁사무총장	-11.6861
▁애완견	-11.6861
▁옮겼	-11.6861
▁컨퍼런스	-11.6861
▁컬렉션	-11.6861
늄	-11.6861
엣	-11.6861
텅	-11.6861
▁죄책감	-11.6861
▁무승부	-11.6861
▁첨부파일	-11.6861
▁활주로	-11.6861
▁내무부	-11.6861
▁플랜	-11.6861
▁안락사	-11.6861
▁축구대표팀	-11.6861
▁무지개	-11.6862
▁우선순위	-11.6862
▁다니엘	-11.6862
▁라오스	-11.6863
▁투쟁	-11.6863
▁수하물	-11.6863
▁맞춘	-11.6864
▁업종	-11.6865
▁알려주십시오	-11.6866
▁재미있고	-11.6866
▁간접	-11.6868
▁금전적	-11.6868
▁잡힌	-11.6869
▁죽기	-11.6875
▁결석	-11.6876
야겠네요	-11.6879
▁만두	-11.688
▁수단으로	-11.688
▁뭐예요	-11.6882
▁태그	-11.6882
▁그려져	-11.6883
▁사찰	-11.6885
▁실린	-11.6885
▁손목	-11.6886
▁조건으로	-11.6887
▁정밀	-11.6888
▁추방	-11.689
▁요원	-11.6892
▁찾으려	-11.6894
▁마른	-11.6895
▁명심	-11.6902
셨던	-11.6903
시네요	-11.6903
▁빚어	-11.6904
▁모습이었다	-11.6904
▁수상한	-11.6905
▁못하지만	-11.6906
▁정전	-11.6907
▁갖는다	-11.691
▁수정된	-11.6911
▁오락	-11.6911
▁발간	-11.6912
▁아쉬움이	-11.6914
▁크로	-11.6915
▁좋았어	-11.6915
▁정점	-11.6915
▁근사	-11.6919
▁군부	-11.692
▁가르치고	-11.6921
▁들어간다	-11.6923
환자	-11.6925
셈	-11.6928
▁나오게	-11.6938
▁나가기	-11.6947
ark	-11.6956
PO	-11.6957
▁적용할	-11.6959
ai	-11.6959
ther	-11.6959
마음	-11.696
학자들	-11.6961
FA	-11.6961
▁사랑스럽	-11.6962
▁이어져	-11.6968
들끼리	-11.6968
샘	-11.6969
있어요	-11.697
졸	-11.6973
찍	-11.6976
민족	-11.6978
▁떨어지고	-11.6979
ave	-11.6979
▁다행히도	-11.6983
▁빠져들	-11.6985
등급	-11.6988
앞으로	-11.6991
▁허브	-11.6995
▁경우에도	-11.7
▁올라간	-11.7
▁정정	-11.7002
▁만족할	-11.7003
친구	-11.701
레나	-11.7014
버렸어	-11.7018
레이크	-11.7019
Love	-11.7019
▁웹사이트에서	-11.702
썰	-11.7021
▁두통	-11.7024
▁주목받	-11.7028
닷	-11.703
퓨	-11.703
뭇	-11.703
▁이글스	-11.703
▁JTBC	-11.703
▁맥도날드	-11.703
▁뮌헨	-11.703
▁세르비아	-11.703
▁시애틀	-11.703
▁하드웨어	-11.703
▁아나운서	-11.703
▁리얼리티	-11.703
▁힐링	-11.7031
▁이명박	-11.7031
▁토크쇼	-11.7031
▁느린	-11.7031
▁교과서	-11.7031
ran	-11.7031
▁손꼽	-11.7031
▁저지르	-11.7031
▁낮잠	-11.7031
▁고령	-11.7031
▁터널	-11.7032
▁잠자리에	-11.7032
▁나름대로	-11.7032
▁남학생	-11.7033
▁머스크	-11.7033
▁연구결과	-11.7033
▁USB	-11.7034
▁젤리	-11.7034
▁Day	-11.7034
▁몰입	-11.7035
▁제국	-11.7035
▁펼쳐질	-11.7037
▁확보할	-11.7038
▁방영되	-11.7039
▁귀추	-11.7039
▁싶었는데	-11.704
▁강풍	-11.7042
▁질투	-11.7042
▁수용소	-11.7043
▁최강	-11.7045
▁발생하였	-11.7045
▁외국인들이	-11.7045
vo	-11.7046
▁파이프	-11.7048
▁밀란	-11.7048
▁못했어	-11.7049
▁움직여	-11.705
▁입수	-11.7052
▁알겠어요	-11.7053
▁괴물	-11.7053
바르	-11.7055
▁놓을	-11.7058
▁토크	-11.7062
▁현실적으로	-11.7066
▁지속될	-11.7067
▁둘러싸고	-11.7068
▁잔해	-11.7068
▁대립	-11.707
업체인	-11.7074
▁사용하실	-11.7075
▁예술가들	-11.7076
냅	-11.7083
▁보여서	-11.7084
▁에드	-11.7088
▁생기지	-11.709
▁부탁해요	-11.7091
▁방문하기	-11.7096
▁상표	-11.7097
▁관계자들이	-11.7098
▁즐겁고	-11.71
달러입니다	-11.7101
리티	-11.7102
▁치안	-11.7102
▁저기요	-11.7105
▁해커	-11.7107
▁남아있다	-11.7108
▁나비	-11.711
▁부탁해	-11.7114
▁감사하고	-11.7116
부장	-11.7119
▁중독성	-11.7122
ide	-11.7122
하나님	-11.7125
틀리	-11.7127
▁시작되기	-11.713
▁하위	-11.7132
▁감면	-11.7135
ian	-11.7137
▁뜻한다	-11.714
▁예상보다	-11.7141
▁외관	-11.7141
갖	-11.7142
RM	-11.7145
깨	-11.7147
턱	-11.7147
올림픽	-11.7149
▁것일까	-11.715
운전	-11.7159
▁도쿄에서	-11.716
테라	-11.7163
▁없었기	-11.7163
등록	-11.7164
댄스	-11.7164
▁파리에서	-11.7164
▁벌어졌	-11.7166
han	-11.7167
▁어르신	-11.7168
▁비율은	-11.7168
▁주저	-11.717
▁여러분에게	-11.7176
해지면	-11.7177
▁여수	-11.7181
렌즈	-11.7184
▁소방관	-11.7184
▁사주	-11.7187
ING	-11.7187
▁넘버	-11.7188
체계	-11.719
앓	-11.7191
구매	-11.7191
▁표지	-11.7192
▁기온이	-11.7193
▁So	-11.7195
▁적자	-11.7198
통화	-11.7199
룡	-11.72
▁면허	-11.7201
앵	-11.7203
▁그렇구나	-11.7203
▁듬뿍	-11.7203
▁어우러져	-11.7203
▁여름방학	-11.7203
▁원내대표	-11.7203
▁이모티콘	-11.7203
▁이산화탄소	-11.7203
띤	-11.7203
쌈	-11.7203
쿵	-11.7203
▁삽입	-11.7203
▁알렉스	-11.7203
▁장학금	-11.7203
▁식민지	-11.7203
▁스위치	-11.7203
▁마운드	-11.7203
▁더러운	-11.7203
▁소셜미디어	-11.7203
▁사우나	-11.7203
▁도와드릴	-11.7203
▁놀이기구	-11.7203
▁결정된	-11.7203
▁해운대	-11.7204
▁NBA	-11.7204
▁용도로	-11.7204
▁테러리스트	-11.7205
▁렌트	-11.7205
▁캐롤	-11.7205
▁여분	-11.7205
▁적었다	-11.7205
▁NEW	-11.7205
▁증정	-11.7205
▁올바르	-11.7205
▁잠재	-11.7206
▁작별	-11.7207
▁다툼	-11.7207
영국	-11.7207
▁지역사회	-11.7208
▁놀이터	-11.7209
▁여름철	-11.721
일수록	-11.721
▁의논	-11.721
▁API	-11.7211
▁호환	-11.7216
▁있겠어요	-11.7216
▁자회사	-11.7221
▁조처	-11.7223
▁방지하기	-11.7224
▁고른	-11.7225
▁워싱턴에서	-11.7228
▁함부	-11.7228
▁여행사	-11.7231
▁마련돼	-11.7234
▁보시는	-11.7236
▁선교사	-11.7237
▁않니	-11.7242
▁비추	-11.7243
▁왜곡	-11.7246
▁동결	-11.725
▁입안	-11.725
▁본래	-11.7256
▁마련이다	-11.7257
▁의료진	-11.7263
▁긍정적이	-11.7266
▁사본	-11.7268
▁외신	-11.7269
▁선행	-11.7272
▁털어놓	-11.7274
▁불편하게	-11.7275
▁먹어서	-11.7275
▁낸시	-11.7278
▁접어	-11.7279
▁성도들	-11.7288
▁진행되었다	-11.7288
▁지향	-11.7288
▁침대에서	-11.7295
▁보신	-11.7297
▁돌아간	-11.73
▁공부해야	-11.73
▁알파	-11.73
대출	-11.7301
▁안정성	-11.7303
▁등장한다	-11.7304
▁재미있어	-11.7309
▁컨디션이	-11.7311
▁부분적으로	-11.7313
▁이민자	-11.7317
▁내려놓	-11.7319
▁전투기	-11.7319
▁처해	-11.7321
▁받아들이고	-11.7322
룬	-11.7323
킬로	-11.7325
▁화사	-11.7326
그럼에도	-11.7328
▁어울리지	-11.7328
떠	-11.7329
▁상태이다	-11.733
BTS	-11.7331
▁방화	-11.7332
훈련	-11.7333
▁사장님께	-11.7334
있게	-11.7335
체험	-11.7336
▁동성애자	-11.7337
▁대행	-11.7337
▁정차	-11.734
▁Jo	-11.7342
▁행동하는	-11.7343
▁약속했다	-11.7345
▁드려야	-11.7349
▁영장	-11.735
▁등장한	-11.7352
▁연대	-11.7353
▁발급받	-11.7356
▁구석	-11.7363
▁진행하기	-11.7363
강전	-11.7364
재판	-11.7366
▁기술력	-11.7367
▁만들어내	-11.7367
▁반짝이	-11.7369
코프	-11.7371
▁약세	-11.7371
az	-11.7372
▁않던	-11.7376
▁맞춤	-11.7377
▁뒤늦게	-11.7378
▁말씀드렸	-11.7378
▁밝히고	-11.7378
▁삼겹살	-11.7378
▁아픕니	-11.7378
▁에어비앤비	-11.7378
▁이더리움	-11.7378
▁전자레인지	-11.7378
꽁	-11.7378
똥	-11.7378
짠	-11.7378
댁	-11.7378
▁비주얼	-11.7378
▁유기농	-11.7378
▁레전드	-11.7378
▁만만치	-11.7378
플렉스	-11.7378
▁곤충	-11.7378
▁부회장	-11.7379
▁씨앗	-11.7379
▁자아냈다	-11.7379
▁파울루	-11.738
▁퇴원	-11.738
▁비비	-11.738
▁흐른	-11.7381
▁받아들였	-11.7382
▁레몬	-11.7383
▁라틴	-11.7383
▁벌어질	-11.7384
▁위촉	-11.7384
ath	-11.7384
▁양육	-11.7385
▁쓰레기통	-11.7386
▁비닐	-11.7387
▁자원봉사	-11.739
▁나타났습니다	-11.7391
▁키울	-11.7397
했음	-11.7397
▁한국계	-11.7397
▁분열	-11.7405
▁매너	-11.7405
오프라	-11.7407
▁로그	-11.7408
▁이겨내	-11.7409
▁감당할	-11.7412
▁사업장	-11.7414
ans	-11.7415
▁국민들에게	-11.7419
▁좋아하세요	-11.742
▁마련됐다	-11.7422
▁기승	-11.7423
▁합성	-11.7425
원이에요	-11.7429
▁직원들에게	-11.743
▁동료들과	-11.743
▁끌려	-11.7431
하였으나	-11.7437
▁말씀드리겠	-11.7441
ga	-11.7442
RP	-11.7442
▁들려주	-11.7445
▁익숙하지	-11.7446
▁컨디션	-11.7446
▁실어	-11.7447
스타인	-11.7449
▁월요일까지	-11.7451
▁느껴졌다	-11.7454
보시겠어요	-11.7454
▁나사	-11.7454
▁사용한다	-11.7461
▁작동하는	-11.7462
▁성당	-11.7464
▁자란	-11.7464
▁따져	-11.7472
▁깔끔한	-11.7472
업무	-11.7472
▁원형	-11.7474
▁이용하기	-11.7475
▁길러	-11.7475
▁대세	-11.7477
▁단정	-11.7478
▁재활	-11.7483
▁누리고	-11.7483
▁샤프	-11.7485
▁업적	-11.7486
▁인적	-11.7489
▁요청했습니다	-11.749
▁하차	-11.7495
▁나간다	-11.7495
▁참석하지	-11.7496
셨는데	-11.7498
▁수컷	-11.75
테르	-11.7501
해지기	-11.7503
▁통장	-11.7506
▁피곤한	-11.7507
▁발휘할	-11.7509
위크	-11.7511
▁Is	-11.7514
박람회	-11.7515
넌	-11.7516
▁연구팀	-11.7517
겠는데	-11.7525
▁갖추어	-11.7525
▁여유롭	-11.7527
ms	-11.7531
▁부른다	-11.7535
▁덧붙	-11.7535
▁위상	-11.7538
하시네요	-11.7539
▁계산서	-11.7539
MR	-11.7542
하겠어	-11.7545
▁보여줘	-11.7547
▁과장님	-11.7549
바리	-11.7556
시경	-11.7557
슐	-11.7557
▁알래스카	-11.7557
▁잊어버리	-11.7557
▁가르칠	-11.7557
▁온난화	-11.7557
▁도메인	-11.7557
▁트레이너	-11.7557
▁로이터통신	-11.7557
▁폭력사태	-11.7557
▁가실	-11.7557
프로야구	-11.7557
▁질렀	-11.7558
▁제안했다	-11.7558
▁운반	-11.7558
▁성폭력	-11.7559
▁멍청	-11.7559
▁용납	-11.7559
▁위치하고	-11.756
▁물어본	-11.756
다닌다	-11.7562
▁VR	-11.7562
▁위스키	-11.7563
Star	-11.7563
▁최고치	-11.7563
▁추워	-11.7564
▁친밀	-11.7564
▁생애	-11.7565
▁보육	-11.7566
▁국내외	-11.7567
▁경남	-11.7568
▁폴더	-11.7568
▁시럽	-11.7569
▁계신다	-11.7569
▁학문	-11.7569
▁작품들이	-11.7569
▁알맞	-11.757
▁있군요	-11.757
▁폭포	-11.7571
▁스캔들	-11.7572
▁주신다면	-11.7573
▁좋을까	-11.7575
▁발라드	-11.7577
▁내부적으로	-11.7579
학원	-11.758
ls	-11.7582
▁싫어해요	-11.7584
▁발표된	-11.7585
▁얼마인지	-11.7586
▁속속	-11.7586
▁마블	-11.7586
▁가축	-11.7587
▁용산	-11.7587
▁검진	-11.7587
▁남겨두	-11.7587
▁무난	-11.7587
▁방송사	-11.7593
▁들으면	-11.7596
▁니콜라	-11.7597
▁주심	-11.7603
▁공판	-11.7606
▁불교	-11.7607
▁확인하였습니다	-11.7611
▁바울	-11.7617
▁만들어졌다	-11.7619
▁대대적	-11.7623
조제	-11.7624
이나마	-11.7624
시겠습니까	-11.7626
마음껏	-11.7627
▁편리한	-11.7631
▁공약	-11.7633
▁주어진다	-11.7642
▁생각된다	-11.7646
▁어렵고	-11.7652
▁사랑한다고	-11.7653
▁불과했다	-11.7655
▁저마다	-11.7656
▁만들어지는	-11.7667
정치	-11.7667
▁발생하면	-11.7672
▁돌아가셨	-11.7674
트릭	-11.7674
▁문제라	-11.7674
▁상주	-11.7677
▁일생	-11.7679
▁보내줘	-11.7686
▁자질	-11.7688
Mi	-11.769
▁여우	-11.7697
La	-11.77
▁부실	-11.7701
바이오	-11.7704
낮	-11.7704
뮤직	-11.7707
▁원주민	-11.7712
▁인질들	-11.7713
드릴까요	-11.7713
▁과학자	-11.7719
심사	-11.7722
▁Pr	-11.7734
▁징역	-11.7736
솜	-11.7737
▁괜찮겠	-11.7738
▁괜찮으신가요	-11.7739
▁동맹국	-11.7739
▁비슷하다	-11.7739
▁예루살렘	-11.7739
▁펭귄	-11.7739
▁고마움	-11.7739
▁요르단	-11.7739
▁나스닥	-11.7739
▁신입사원	-11.7739
▁아울러	-11.7739
▁어딘지	-11.7739
▁오징어	-11.7739
▁보라색	-11.7739
현지시각	-11.7739
▁컨펌	-11.7739
▁설거지	-11.7739
▁엉망	-11.7739
▁아시다시피	-11.7739
▁진흙	-11.7739
▁귀걸이	-11.7739
▁효율적인	-11.7739
▁세인트	-11.7739
▁주니어	-11.774
▁임직원	-11.774
▁베컴	-11.7741
▁불쌍	-11.7741
▁연못	-11.7741
▁욕설	-11.7741
▁구직자	-11.7741
▁스페이스	-11.7741
▁쿠퍼	-11.7742
▁스튜	-11.7742
▁붉은색	-11.7743
▁가리키	-11.7743
▁포착됐다	-11.7743
▁학업	-11.7744
▁있음에도	-11.7744
▁보편적	-11.7746
▁검거	-11.7747
▁위쪽	-11.7747
▁위탁	-11.7748
▁나눈	-11.7749
▁매칭	-11.7749
▁끼워	-11.7749
▁물어보세요	-11.7749
▁몰랐어	-11.7751
▁자발적으로	-11.7751
▁가옥	-11.7752
▁계시나요	-11.7752
▁전세계적으로	-11.7753
▁나오나요	-11.7753
▁좋아하나요	-11.7753
▁등장해	-11.7753
▁않거나	-11.7754
▁Mr	-11.7756
▁견고	-11.7757
▁천재	-11.7757
▁미용실	-11.7758
▁한숨	-11.7759
▁숨지는	-11.7762
▁주문할게요	-11.7762
▁열정적	-11.7764
▁Na	-11.7767
▁극단적인	-11.7767
▁골문	-11.7768
▁에이미	-11.7768
▁단장	-11.7772
▁의향	-11.7775
▁가면서	-11.7779
▁거칠	-11.7781
▁좋기	-11.7782
▁주의해야	-11.7785
▁잠시만요	-11.7786
▁소란	-11.7789
▁철저한	-11.7795
▁돕는다	-11.7797
▁않나	-11.7802
▁종전	-11.7803
▁예보	-11.7808
▁페리	-11.781
덩	-11.7813
▁당부	-11.7814
▁설비	-11.7814
▁부르기	-11.7819
▁농민	-11.782
▁비유	-11.782
이라서요	-11.7823
▁우리에겐	-11.7824
▁정중	-11.7827
▁이로써	-11.7828
▁양산	-11.7829
▁날려	-11.7833
▁장시간	-11.7833
▁행복하다	-11.7839
▁강하다	-11.7847
▁백성	-11.7848
▁합리적	-11.7853
▁뛰고	-11.7853
▁살았다	-11.7856
▁패치	-11.7864
▁사용했던	-11.7865
ton	-11.7868
▁정류장에서	-11.7873
▁정답	-11.7873
▁마시기	-11.7874
▁책임자	-11.7878
하더라고요	-11.7881
▁오토	-11.7883
▁있으십니	-11.7885
▁주장한다	-11.7888
딱	-11.7896
▁해주셨	-11.7898
맵	-11.7905
▁다운받	-11.7906
▁비교하면	-11.7906
렵	-11.791
▁말았어	-11.7911
PGA	-11.7913
▁흔하	-11.7917
혐	-11.7918
▁고등학생	-11.7924
▁노르웨이	-11.7924
▁애리조나	-11.7924
▁어울린다	-11.7924
▁이에앞서	-11.7924
▁인명피해	-11.7924
▁인플레이션	-11.7924
▁있겠니	-11.7924
▁크리에이터	-11.7924
캄	-11.7924
컴퍼니	-11.7924
▁맞대결	-11.7924
▁쿠르드	-11.7924
▁터뜨리	-11.7924
스러울	-11.7924
▁차베스	-11.7924
합창단	-11.7924
▁빠지게	-11.7924
▁국가대표	-11.7924
▁다이빙	-11.7924
▁휴스턴	-11.7924
▁웨딩	-11.7925
▁암컷	-11.7925
▁조깅	-11.7925
▁커피숍	-11.7925
▁있으실	-11.7925
▁밀접	-11.7926
▁있겠네요	-11.7926
▁벗겨	-11.7926
▁청춘	-11.7926
▁스윙	-11.7926
▁무겁	-11.7927
▁모양새	-11.7928
▁쓰게	-11.7931
▁사흘	-11.7932
▁조롱	-11.7933
▁완료되었습니다	-11.7935
▁환상적인	-11.7935
▁새삼	-11.7935
▁소외	-11.7935
플라	-11.7935
▁인출	-11.7936
하셨는지	-11.7937
▁실질적으로	-11.7938
▁출간	-11.7939
▁잇는	-11.794
▁관행	-11.794
▁성령	-11.7941
▁도주	-11.7942
▁판매되는	-11.7942
▁생긴다면	-11.7942
▁복무	-11.7942
▁성남	-11.7944
폭력	-11.7944
▁나타낸	-11.7946
화물	-11.7947
▁종사하	-11.7948
리터	-11.7949
▁다쳤다	-11.7951
▁단골	-11.7952
▁감량	-11.7953
▁장담	-11.7954
▁부합	-11.7954
▁많았던	-11.7955
▁결실	-11.7956
데스	-11.7957
▁도와줘	-11.7959
▁군중	-11.7964
▁동경	-11.7966
▁계열사	-11.7972
▁승진	-11.7972
처분	-11.7974
▁가장자리	-11.7975
▁정직하	-11.7975
tic	-11.7976
▁도약	-11.7979
▁남산	-11.7984
▁분명하다	-11.7984
▁지쳐	-11.7985
▁생각하시	-11.7985
▁아무거나	-11.7985
▁뜻이에요	-11.7986
▁것이라며	-11.7986
하리라	-11.7988
▁고모	-11.7989
▁후배	-11.7994
▁반사	-11.7995
▁그림자	-11.8001
Br	-11.8001
▁마비	-11.8003
▁후속	-11.8004
▁많아지고	-11.8004
▁상업적	-11.8009
▁웃게	-11.8014
▁선정됐다	-11.8017
▁차려	-11.802
app	-11.8022
HI	-11.8024
▁고성	-11.8027
▁원화	-11.8041
▁벌기	-11.8041
▁들이받	-11.8044
▁죽었	-11.8044
▁무시하고	-11.805
▁기다렸다	-11.805
▁리치	-11.8052
war	-11.8054
▁망명	-11.8054
▁법적으로	-11.8061
역사적인	-11.8062
▁않으면서	-11.8069
▁경관	-11.8072
됐으나	-11.8073
OK	-11.8078
▁망치	-11.8078
▁우위	-11.8081
▁나노	-11.8084
월드컵	-11.8092
카메라	-11.8093
촬영	-11.8093
▁농부	-11.8093
GM	-11.8096
▁봉지	-11.8099
겨울	-11.8104
▁되려	-11.8105
잖	-11.8106
공격	-11.8107
▁에러	-11.8111
럿	-11.8111
낀	-11.8112
▁토너먼트	-11.8112
쏜	-11.8112
World	-11.8112
▁나눴다	-11.8112
▁렌터카	-11.8112
▁머지않	-11.8112
▁아이슬란드	-11.8112
▁자리매김	-11.8112
▁프리메라리가	-11.8112
썬	-11.8112
▁이스탄불	-11.8112
▁테슬라	-11.8112
▁서두르	-11.8112
▁공휴일	-11.8112
▁카를로스	-11.8112
▁다우지수	-11.8113
▁다닙니	-11.8113
▁개구리	-11.8113
▁꼽히는	-11.8113
▁무장단체	-11.8113
▁충동	-11.8114
▁목회자	-11.8114
▁갈래	-11.8114
▁빠뜨	-11.8114
▁드라이버	-11.8115
▁다가온	-11.8115
▁포스팅	-11.8115
▁맞춤형	-11.8115
▁찍힌	-11.8115
▁연쇄	-11.8116
▁펼쳐졌다	-11.8117
▁그러시면	-11.8117
▁다행이네요	-11.8117
▁국왕	-11.8117
▁배낭	-11.8117
▁애쓰	-11.8118
▁Al	-11.8118
▁전성기	-11.8119
▁긴밀	-11.812
▁있구나	-11.812
▁팀원	-11.8121
▁요소들	-11.8122
▁둥지	-11.8123
▁소풍	-11.8123
▁설교	-11.8123
▁백업	-11.8125
▁임대료	-11.8127
▁남아공	-11.8127
러닝	-11.8127
▁원하시나요	-11.8128
▁대중적	-11.813
▁물론이고	-11.8132
▁아이언	-11.8133
▁지켜주	-11.8133
▁들어가야	-11.8134
▁비단	-11.8134
▁몰랐어요	-11.8134
▁받았지만	-11.8135
▁끝났습니다	-11.8135
▁올라왔다	-11.8136
▁응모	-11.8136
▁기독교인	-11.8138
▁따뜻하고	-11.8139
▁나쁘게	-11.8139
▁미스터리	-11.8141
▁교재	-11.8141
롭지	-11.8142
▁너머	-11.8144
▁악성	-11.8147
해야겠다	-11.8149
▁권유	-11.8152
HO	-11.8152
▁아니었어요	-11.8157
▁확산되고	-11.8159
▁모르겠	-11.8161
▁기증	-11.8169
▁만나볼	-11.817
▁중요시	-11.817
▁판단했다	-11.817
▁때문으로	-11.8175
▁동의합니다	-11.8179
▁열리지	-11.8184
▁들어오면	-11.8184
▁파산	-11.8191
파리	-11.8191
▁소동	-11.8191
▁부천	-11.8192
▁tr	-11.8195
▁오겠습니다	-11.8195
▁프레스	-11.8196
졌던	-11.8196
준비	-11.8197
▁서운	-11.8199
▁단호	-11.8201
메이커	-11.8205
▁공방	-11.8205
▁기리	-11.8212
▁김종	-11.8213
RS	-11.8214
▁전철	-11.8214
▁전격	-11.8225
▁가발	-11.8234
▁아티스트들	-11.8234
▁갔었어	-11.8234
cal	-11.8237
Con	-11.8238
▁바꿔야	-11.8243
▁어린아이들	-11.8246
▁것임	-11.8246
▁색감	-11.8247
▁좌우명	-11.8253
▁생각하는데	-11.8255
▁가계	-11.8257
▁재미있었	-11.8257
▁생존자	-11.8261
▁편성	-11.8268
▁연주자	-11.8274
▁입맛	-11.8275
쉽습니다	-11.8277
춤	-11.8283
▁부장님	-11.8284
▁생각이에요	-11.8287
air	-11.829
범죄	-11.8292
곰	-11.8292
왜	-11.8293
▁백성들	-11.8295
겁니다	-11.8295
첨	-11.8297
렘	-11.8304
▁윤리	-11.8304
▁괜찮다고	-11.8305
▁떠올랐다	-11.8305
▁안방극장	-11.8305
▁에스컬레이터	-11.8305
▁유벤투스	-11.8305
▁컨설팅	-11.8305
▁피아니스트	-11.8305
즙	-11.8305
챗	-11.8305
팜	-11.8305
펫	-11.8305
▁샤리프	-11.8305
▁헤어스타일	-11.8305
▁스폰서	-11.8305
▁못지않	-11.8305
자회담	-11.8305
▁놀랍게도	-11.8305
▁무더위	-11.8305
▁에드워드	-11.8305
▁구제금융	-11.8305
▁돌고래	-11.8305
▁슬로건	-11.8305
▁저녁식사	-11.8305
▁부지런	-11.8305
▁능숙	-11.8305
▁트윗	-11.8305
▁천연가스	-11.8305
▁받으셨	-11.8305
▁아시안컵	-11.8305
▁거북이	-11.8305
▁플레이오프	-11.8305
▁다루고	-11.8306
▁기대되는	-11.8306
▁샤이니	-11.8306
스테이트	-11.8306
▁입장권	-11.8306
▁선글라스	-11.8307
▁팬덤	-11.8307
▁맞붙	-11.8307
▁와이프	-11.8307
▁날씬	-11.8307
▁면담	-11.831
▁견제	-11.831
▁순찰	-11.831
▁먹어본	-11.8311
▁소홀	-11.8311
▁화폐	-11.8311
▁관습	-11.8312
▁올리브	-11.8312
▁결말	-11.8312
▁레슨	-11.8318
▁페루	-11.8319
▁서술	-11.8321
▁로션	-11.8322
▁드는데	-11.8322
▁알람	-11.8322
▁피고인	-11.8323
▁철저하게	-11.8323
▁워너원	-11.8326
▁부드럽고	-11.8329
▁시체	-11.833
▁파울	-11.8331
▁병사들	-11.8332
▁영토	-11.8332
▁각별	-11.8333
▁대충	-11.8333
▁키워드	-11.8334
걸음	-11.8338
▁신입	-11.8338
▁거라면	-11.8341
▁의외	-11.8341
▁대담	-11.8346
▁휴전	-11.8346
▁구매하신	-11.8347
▁조류	-11.8347
▁인제	-11.8352
▁물러나	-11.8354
▁콜린	-11.8356
▁관객들에게	-11.8356
주의자들	-11.8362
▁싫어합니다	-11.8364
▁혼란스럽	-11.8368
▁파타	-11.8371
▁접전	-11.8372
▁차리	-11.8372
▁독감	-11.8372
▁육수	-11.8377
▁여당	-11.8378
IP	-11.838
▁조회수	-11.8381
보았	-11.8381
덕에	-11.8382
▁유포	-11.8384
▁수용할	-11.8386
▁작게	-11.8395
메이드	-11.8397
▁주입	-11.8397
▁없는데요	-11.8397
▁베어	-11.8403
AG	-11.8403
▁과학적	-11.8403
▁놓여있	-11.8405
▁Cha	-11.8407
▁나아갈	-11.8412
▁We	-11.8412
주셔도	-11.8413
Sa	-11.8416
받기	-11.8416
▁CS	-11.8416
▁팀장	-11.8418
▁명소	-11.842
▁세제	-11.8423
▁달라졌	-11.8428
엑	-11.8431
▁활용하여	-11.8435
라이스	-11.8436
Gr	-11.8441
TM	-11.8444
▁노력하겠다	-11.8444
▁높이기	-11.8453
▁호감	-11.8453
해왔던	-11.8456
▁HD	-11.8458
▁불안해	-11.8461
▁끝없	-11.8465
▁말씀드릴	-11.8478
▁진리	-11.848
▁무례	-11.848
▁머릿속	-11.8497
선생님	-11.8498
콕	-11.8498
▁없었는데	-11.8501
▁휩쓸	-11.8501
눕	-11.8501
▁거머쥐	-11.8501
▁달렸다	-11.8501
▁두꺼운	-11.8501
▁보내드렸	-11.8501
▁볶음밥	-11.8501
▁식료품	-11.8501
▁오키나와	-11.8501
▁자이언츠	-11.8501
▁젓가락	-11.8501
▁조별리그	-11.8501
▁팬미팅	-11.8501
꿇	-11.8501
륜	-11.8501
언더파	-11.8501
젓	-11.8501
▁납득	-11.8501
▁판타지	-11.8501
▁룸메이트	-11.8501
▁비공개	-11.8501
▁땅콩	-11.8502
▁스케치	-11.8502
▁마인드	-11.8502
▁필요하신가요	-11.8503
▁흉터	-11.8503
▁부사장	-11.8504
▁멜론	-11.8504
▁건너편	-11.8504
▁팔찌	-11.8504
▁혼잡	-11.8504
▁정상회의	-11.8505
▁퇴장	-11.8505
▁있더라도	-11.8506
▁종결	-11.851
▁마늘	-11.851
섹스	-11.8511
시키며	-11.8511
▁찾아올	-11.8511
▁글쎄요	-11.8512
어지게	-11.8513
하냐	-11.8514
▁학살	-11.8515
▁접종	-11.8518
▁업데이트된	-11.8518
▁그분들	-11.8518
▁슬프게	-11.8519
▁발령	-11.852
▁거룩	-11.8521
▁순종	-11.8522
olo	-11.8523
▁악수	-11.8524
▁보여드리	-11.8524
▁육아	-11.8526
▁자취	-11.8526
▁뜨겁다	-11.8526
▁뛰었	-11.8529
▁맛집	-11.8529
▁셀프	-11.8531
ite	-11.8534
▁우물	-11.8534
▁들어와서	-11.8534
▁기념일	-11.8536
▁물었	-11.8537
Un	-11.8538
▁평소보다	-11.8538
ound	-11.854
조각	-11.8541
▁커졌다	-11.8543
▁다문화	-11.8544
▁사격	-11.8545
▁생산량	-11.8546
App	-11.8548
▁지도부	-11.855
▁면세	-11.8552
▁공개되	-11.8552
NS	-11.8553
▁언론들	-11.8554
▁충격적인	-11.8554
▁인정하지	-11.8555
▁적용될	-11.8555
▁재현	-11.8556
▁시작하겠습니다	-11.8557
▁뇌물	-11.8558
▁그때부터	-11.8559
▁못했는데	-11.856
▁내려야	-11.856
▁정통	-11.8565
▁여러가지	-11.8568
▁커진	-11.8568
▁장애물	-11.8569
▁사라졌다	-11.8569
세력	-11.8571
체육관에서	-11.8571
▁방수	-11.8572
▁파주	-11.8577
▁처음엔	-11.8578
▁좋아질	-11.8584
분께서	-11.8585
▁시간표	-11.8589
▁사역	-11.859
으십니까	-11.8592
▁닫아	-11.8593
▁나달	-11.8594
▁신형	-11.86
▁지정된	-11.8615
▁부상했다	-11.8616
▁동성	-11.862
▁보물	-11.8631
개사	-11.8631
▁표현하기	-11.8639
▁사양	-11.8639
▁신성	-11.8644
▁넣으면	-11.8645
▁상영되	-11.8648
▁방송되는	-11.8649
▁소진	-11.8654
LS	-11.8661
카스	-11.8669
▁존재감	-11.8686
▁조상	-11.869
▁Vi	-11.8693
▁리메이크	-11.8701
▁부끄러워	-11.8701
▁뽀로로	-11.8701
▁성추행	-11.8701
▁스코틀랜드	-11.8701
▁안타까움	-11.8701
▁일으켜	-11.8701
▁호르몬	-11.8701
낱	-11.8701
츄	-11.8701
해줬으	-11.8701
▁메르켈	-11.8701
▁케네디	-11.8701
▁톡톡	-11.8701
▁글쓰기	-11.8701
▁아이러니	-11.8701
▁묵묵	-11.8701
▁늑대	-11.8701
▁타이밍	-11.8702
▁정해지지	-11.8702
▁히트곡	-11.8702
RT	-11.8702
▁OST	-11.8702
▁KTX	-11.8702
▁On	-11.8703
▁이마트	-11.8703
▁않더라도	-11.8704
▁베드로	-11.8705
경쟁	-11.8705
▁공존하	-11.8706
▁찾아봐	-11.8706
▁내구성	-11.8706
▁사과드립니다	-11.8706
▁벌금형	-11.8707
▁하워드	-11.8707
▁딜러	-11.8708
▁창립	-11.8709
▁이슬람교	-11.8709
▁구미	-11.871
▁인격	-11.8711
▁인명	-11.8712
▁출품	-11.8713
▁캐시	-11.8713
▁빨래	-11.8714
▁차갑	-11.8715
▁소변	-11.8716
▁의욕	-11.8716
▁소속팀	-11.8717
▁소독	-11.8718
▁잠재적	-11.8719
하심	-11.872
▁함정	-11.8723
▁현명하	-11.8726
▁이뤄졌	-11.8726
▁반짝	-11.8727
▁배후	-11.8729
▁치워	-11.8729
▁원하시면	-11.8734
▁기다리면	-11.8736
라이너	-11.8737
▁우연	-11.874
▁중국인들	-11.8743
▁태우고	-11.8747
▁바꾸어	-11.8749
low	-11.8751
▁상공	-11.8752
▁왕국	-11.8753
ple	-11.8756
▁만드는데	-11.8758
▁스무	-11.876
▁줄었다	-11.8761
▁같지만	-11.8761
▁없어졌	-11.8768
▁인내	-11.877
협력	-11.877
▁한옥	-11.8772
▁시청자들에게	-11.8774
▁죽었다	-11.8777
변화	-11.8779
▁Lo	-11.8781
▁구절	-11.8781
킵니다	-11.8784
스토리	-11.8786
▁양호	-11.8792
▁때문이라	-11.8798
▁레오	-11.88
타임스	-11.8803
▁방문객들	-11.8807
▁일어나면	-11.881
▁또래	-11.8814
SH	-11.8816
▁여성들에게	-11.8823
PL	-11.8823
▁빌려주	-11.8834
▁아플	-11.8836
▁대중들	-11.8839
FI	-11.8842
▁신조	-11.8846
▁전역에서	-11.8847
▁구별	-11.8852
▁즉각	-11.886
삽	-11.8866
▁당연하다	-11.887
▁않음	-11.8874
▁대리님	-11.8874
▁다가왔	-11.8877
very	-11.8882
▁면역	-11.8882
▁내용물	-11.8897
으리라	-11.89
셉	-11.8902
넣	-11.8902
▁상승했다	-11.8902
헐	-11.8905
▁그렇듯	-11.8905
댐	-11.8905
삿	-11.8905
송완영	-11.8905
▁한나라당	-11.8905
▁뷔페	-11.8905
▁발자국	-11.8905
▁일러스트	-11.8905
▁훈훈	-11.8905
▁의구심	-11.8905
▁닥터	-11.8905
▁하이라이트	-11.8905
▁매운맛	-11.8905
▁운전기사	-11.8906
▁노릇	-11.8906
▁볼륨	-11.8906
▁퍼트	-11.8907
▁윌슨	-11.8907
▁다행이에요	-11.8907
▁강릉	-11.8908
▁받으세요	-11.8908
▁척추	-11.8908
▁팀워크	-11.8908
▁증오	-11.8908
▁다뤄	-11.8908
▁다음부터는	-11.8908
김없이	-11.8908
▁용돈	-11.8909
▁측근	-11.8909
▁개인정보	-11.8909
▁보이그룹	-11.891
▁흉내	-11.891
캔	-11.891
▁일리노이주	-11.891
▁겨울철	-11.891
▁인상적이었	-11.8911
▁출범	-11.8911
▁싸워	-11.8912
▁상쾌	-11.8913
▁순환	-11.8913
▁북측	-11.8914
▁확인해보니	-11.8914
칩	-11.8915
▁몸값	-11.8915
▁변환	-11.8915
▁일어난다	-11.8916
아일랜드	-11.8917
▁나흘	-11.8918
▁일간지	-11.8919
▁영양소	-11.892
▁잠겨	-11.8921
▁평온	-11.8921
▁평등	-11.8922
▁머물러	-11.8923
▁이뤄져	-11.8926
▁소름	-11.8926
데이터	-11.8927
▁몰랐습니다	-11.8928
▁합동	-11.893
▁버터	-11.8931
▁월요일부터	-11.8932
▁해드려	-11.8938
▁국산	-11.894
▁선생님께서	-11.894
▁빼놓	-11.8943
커피	-11.8944
개혁	-11.8944
순위	-11.8946
공급	-11.8946
▁수사관	-11.8948
▁빠져있	-11.8948
칼리	-11.8948
▁넘어선	-11.895
▁개최될	-11.8953
▁억지	-11.8954
▁자유롭	-11.8955
Asia	-11.8956
▁주민들에게	-11.8959
▁많아졌다	-11.8964
▁못하다	-11.8965
트랙	-11.8969
▁사법	-11.897
▁다가왔다	-11.8971
통산	-11.898
ox	-11.8983
▁생기기	-11.8985
▁고조되	-11.8988
▁대학원	-11.8991
▁황당	-11.8991
▁동력	-11.8993
▁보네요	-11.8994
▁작용할	-11.8999
▁비교할	-11.9002
▁되니까	-11.9015
▁금지되어	-11.9017
▁뒤집어	-11.9017
▁일부분	-11.9018
▁아이유	-11.9018
▁물리적	-11.9019
▁넘치	-11.9031
CB	-11.9031
▁치료법	-11.9033
▁들리지	-11.9033
▁찾아왔	-11.9049
▁완성된	-11.9051
▁입어야	-11.906
▁구체적	-11.9062
써	-11.9065
하되	-11.9065
어갔다	-11.9066
▁홍대	-11.9074
▁들으니	-11.9075
▁섬기	-11.9081
▁노인들	-11.9083
▁어디든	-11.9091
▁전문성	-11.9098
▁옷들	-11.9105
▁셀러	-11.9105
▁데려다주	-11.9106
▁폭발물	-11.9108
▁운전사	-11.9112
▁힘듭니	-11.9113
▁김치찌개	-11.9113
▁모하메드	-11.9113
▁버스정류장	-11.9113
▁크라이슬러	-11.9113
▁훌쩍	-11.9113
뿐만아니라	-11.9113
씌	-11.9113
짱	-11.9113
캣	-11.9113
▁잊어버렸	-11.9113
▁최우수	-11.9113
▁기준금리	-11.9113
▁넥슨	-11.9113
▁주유소	-11.9113
▁변함없	-11.9113
▁배심원	-11.9113
▁나뉘어	-11.9113
▁윈도우	-11.9113
▁에센스	-11.9113
▁일환으로	-11.9113
▁옹호	-11.9113
▁스팸	-11.9114
▁키트	-11.9114
▁희귀	-11.9115
▁코스닥	-11.9115
▁그리핀	-11.9115
▁히어로즈	-11.9116
▁인프라	-11.9116
▁벽돌	-11.9117
▁효율성	-11.9117
▁불평등	-11.9119
▁사라질	-11.9119
▁높아졌다	-11.912
▁크리스티아	-11.9121
▁비참	-11.9128
▁고칠	-11.9129
▁웃어	-11.9129
▁소환	-11.913
▁시작되었	-11.913
▁당근	-11.9131
▁베이비	-11.9131
앉	-11.9132
으론	-11.9133
▁싶나요	-11.9133
▁회피	-11.9134
연구소	-11.9135
굽	-11.9135
고등학교	-11.9135
▁벌어들	-11.9135
▁감행	-11.9136
▁친구들이랑	-11.9136
해주었다	-11.9136
▁장기간	-11.9136
▁호출	-11.9136
▁상관없습니다	-11.9137
▁제기됐다	-11.9138
바퀴	-11.9138
▁교토	-11.914
▁공평	-11.9141
Car	-11.9142
멍	-11.9144
▁필요한가요	-11.9147
▁“‘	-11.9147
러시아	-11.9148
▁물속	-11.9149
▁단편	-11.9149
▁다니며	-11.9152
▁무례한	-11.9155
▁진상	-11.9159
▁들어있습니다	-11.916
▁동성애	-11.9163
▁확신합니다	-11.9164
▁지었다	-11.9165
▁귀신	-11.917
▁다양하고	-11.917
▁보류	-11.917
▁티비	-11.9171
▁not	-11.9171
▁분포	-11.9171
▁환불받	-11.9174
▁가져갔	-11.9175
▁계셨	-11.9178
▁사립	-11.918
▁방북	-11.9182
▁가까워지	-11.9182
▁먹으면서	-11.9183
했더니	-11.9186
▁아침부터	-11.9186
▁기온	-11.9187
열차	-11.9188
ish	-11.9192
▁찾아왔다	-11.9194
▁어디서든	-11.9195
▁현안	-11.9197
▁빨대	-11.92
▁빙하	-11.9203
▁질주	-11.9203
▁곁들	-11.9204
▁재물	-11.9207
▁명동	-11.9215
▁모였다	-11.9215
▁조국	-11.9233
▁믿기	-11.9235
WS	-11.9244
▁임상	-11.9244
▁이어진다	-11.9245
▁시공	-11.9247
▁체포된	-11.9248
브리지	-11.9252
▁넘었다	-11.9253
CH	-11.9255
▁반영된	-11.9264
▁뛰어나다	-11.9268
▁금주	-11.9269
하였지만	-11.9271
좋	-11.9279
퍼드	-11.928
ous	-11.9294
▁희생자들	-11.9297
메르	-11.9298
▁GS	-11.9309
연승	-11.931
▁출판사	-11.9315
▁교전	-11.932
맙	-11.9326
LOVE	-11.9326
▁부끄럽	-11.9326
▁아랍에미리트	-11.9326
▁쿠데타	-11.9326
▁프랭크	-11.9326
뛸	-11.9326
왓	-11.9326
잼	-11.9326
해봅시다	-11.9326
▁무더운	-11.9326
▁외무장관	-11.9326
▁부적절	-11.9326
▁위안화	-11.9326
▁동호회	-11.9326
▁가급적	-11.9326
▁스프레이	-11.9326
▁하루종일	-11.9326
▁숙련	-11.9326
▁돌봄	-11.9327
▁쓸쓸	-11.9327
▁수니파	-11.9327
▁갈아입	-11.9327
▁소시지	-11.9328
▁트랜	-11.9328
▁집주인	-11.9328
▁억류	-11.9328
▁사항들	-11.9328
▁여러분들께서	-11.9329
▁태양광	-11.9329
▁하얀색	-11.9329
▁포옹	-11.933
▁열렬	-11.933
▁때문이죠	-11.9331
▁요구사항	-11.9332
▁친해지	-11.9333
▁끼쳐	-11.9333
▁포스코	-11.9333
▁담았다	-11.9334
▁완공	-11.9335
▁제외하면	-11.9336
▁앤디	-11.9336
▁졸업생	-11.9337
▁받았으며	-11.9337
▁두렵	-11.9337
▁MV	-11.9339
▁예정대로	-11.9339
▁막혀	-11.9341
▁지옥	-11.9341
▁개정안	-11.9342
gu	-11.9342
▁역설	-11.9343
▁다윗	-11.9343
▁확인해보고	-11.9343
▁휴대용	-11.9345
▁실장	-11.9346
▁결재	-11.9347
하신다면	-11.9349
▁계실	-11.9349
▁담겨있	-11.935
▁고통받	-11.935
▁태우	-11.935
▁없죠	-11.9351
▁왔었	-11.9351
▁여자애	-11.9351
▁밀크	-11.9352
▁지침	-11.9353
land	-11.9353
▁떼어	-11.9355
▁분담	-11.9355
▁고립	-11.9356
▁응용	-11.9357
▁이루어져야	-11.936
예프	-11.9361
▁버디	-11.9362
▁기자들에게	-11.9363
▁살리기	-11.9372
▁그래미	-11.9372
▁경쟁사	-11.9376
▁선반	-11.9377
▁그래프	-11.9379
▁공세	-11.938
▁참석자들	-11.9382
▁소비자들에게	-11.9386
▁설득력	-11.9386
▁우편물	-11.9388
▁마시면	-11.9391
▁생겼어	-11.9399
OD	-11.9402
▁이끌었다	-11.9402
▁체포됐다	-11.9405
aw	-11.9405
▁확정된	-11.9405
NK	-11.9409
▁앤드	-11.9409
▁개통	-11.9409
당했다고	-11.941
▁아냐	-11.9412
▁형성되	-11.942
▁부족함	-11.9421
▁숨졌	-11.9421
▁연이어	-11.9426
헤드	-11.9426
▁원두	-11.9431
시켜서	-11.9435
▁양심	-11.9436
▁기법	-11.9437
▁피해자들	-11.9438
▁손상된	-11.944
▁참치	-11.9472
▁인물들	-11.9474
▁상처받	-11.9483
▁편이라	-11.9491
▁만져	-11.95
▁거부감	-11.9507
▁베어스	-11.9512
▁위력	-11.9519
▁업체들	-11.9521
▁글쎄	-11.9532
타점	-11.9533
net	-11.9535
▁브랜	-11.9537
뜩	-11.9542
긍	-11.9543
퉁	-11.9543
▁떠오른	-11.9543
▁YORK	-11.9543
▁늦잠	-11.9543
▁디바이스	-11.9543
▁아닙니까	-11.9543
▁올메르트	-11.9543
▁태블릿	-11.9543
▁핼러윈	-11.9543
▁햇볕	-11.9543
쪼	-11.9543
▁like	-11.9543
▁스리랑카	-11.9543
▁신혼여행	-11.9543
▁어제저녁	-11.9543
▁유튜버	-11.9543
▁동기부여	-11.9543
▁재확인	-11.9543
해리포터	-11.9543
▁콜로라도	-11.9543
▁휴양지	-11.9543
자율주행	-11.9543
▁고인돌	-11.9543
▁스트리트	-11.9543
▁흘려	-11.9543
▁가속화	-11.9543
킬로미터	-11.9544
▁다행입니다	-11.9544
▁미안한데	-11.9544
▁스카프	-11.9544
▁행렬	-11.9545
▁여럿	-11.9545
▁알기로는	-11.9545
▁모으는	-11.9546
▁치렀	-11.9546
▁물놀이	-11.9547
▁아껴	-11.9547
▁시리얼	-11.9547
▁인접	-11.9547
▁석탄	-11.9548
▁비교했을	-11.9548
▁침투	-11.9549
▁워커	-11.9549
▁올시즌	-11.955
▁놓지	-11.9551
▁크리스천	-11.9551
▁이어지면서	-11.9552
▁주춤	-11.9552
▁품종	-11.9553
▁부럽	-11.9554
▁발명품	-11.9554
▁운동선수	-11.9554
▁간섭	-11.9555
받아야	-11.9555
▁표출	-11.9556
▁누구한테	-11.9559
▁냉정	-11.9559
▁여의도	-11.9559
▁확신한다	-11.9562
틈이	-11.9562
WHO	-11.9562
▁고령화	-11.9562
▁느껴졌	-11.9562
▁힘내	-11.9563
▁욕실	-11.9563
▁심슨	-11.9564
▁사우스	-11.9564
▁곁들여	-11.9564
▁확인해보세요	-11.9568
▁이용객	-11.9569
▁선별	-11.9569
▁단추	-11.957
▁대리점	-11.9573
▁예정이야	-11.9576
▁산림	-11.9576
침대	-11.9576
▁구매하려고	-11.9577
스톱	-11.9577
▁방출	-11.9577
KO	-11.9578
▁절정	-11.9581
▁찍기	-11.9582
▁예방하기	-11.9582
듣	-11.9584
▁사용하시면	-11.9585
▁않으려	-11.9585
곧	-11.9585
▁외교부	-11.9587
▁그리워요	-11.9588
▁여파	-11.9589
▁보였던	-11.9589
▁불확실성	-11.9595
▁늦어서	-11.9597
▁경품	-11.9599
▁토양	-11.96
▁체니	-11.9601
▁근대	-11.9602
▁스팀	-11.9602
▁걸려서	-11.9604
▁갔는데	-11.9605
해오고	-11.9605
원씩	-11.9605
▁배포	-11.9609
▁세울	-11.9612
▁경신	-11.9612
EP	-11.9612
▁장려	-11.9618
▁고안	-11.9618
▁지어진	-11.9619
▁않자	-11.962
▁조그	-11.9623
RD	-11.9624
▁진술했다	-11.9627
▁사설	-11.9628
▁이르렀다	-11.9632
▁효력	-11.9635
▁삼진	-11.9636
▁옥상	-11.9639
▁마중	-11.9643
▁문건	-11.9655
▁나왔는데	-11.9656
해보니	-11.9667
ors	-11.9668
▁파장	-11.967
▁아시나	-11.9675
▁대학생들	-11.9677
플라이	-11.9679
SM	-11.9682
▁광산	-11.9685
▁펼쳤	-11.9692
▁겪었다	-11.9701
수술	-11.9705
▁우승자	-11.9705
▁둘러싸	-11.9717
릇	-11.9721
▁감추	-11.9723
▁이라크전	-11.9728
▁페트	-11.9732
▁탄탄	-11.9734
남자	-11.9741
▁제기했다	-11.9743
▁베개	-11.9744
됐었다	-11.9744
바다에서	-11.9745
▁미쳤다	-11.9752
▁가봐야	-11.9755
▁다니기	-11.9756
레이터	-11.9756
슴	-11.9756
▁고객님께	-11.9758
ary	-11.9761
랫	-11.9762
뉘	-11.9765
깜	-11.9765
▁John	-11.9766
▁그렇긴	-11.9766
▁내셔널	-11.9766
▁마이애미	-11.9766
▁밝히기	-11.9766
▁분데스리가	-11.9766
▁불러일으키	-11.9766
▁불필요한	-11.9766
▁블라우스	-11.9766
▁소말리아	-11.9766
▁안타까워	-11.9766
▁콘퍼런스	-11.9766
▁퀄리티	-11.9766
▁필라델피아	-11.9766
▁노무현	-11.9766
▁벗어난	-11.9766
▁샌더스	-11.9766
박근혜	-11.9766
▁깜박	-11.9766
▁둥근	-11.9766
▁팔로워	-11.9766
▁냄비	-11.9766
▁습득	-11.9766
▁우즈벡	-11.9766
▁충북	-11.9766
▁해병대	-11.9766
▁경호원	-11.9766
▁쌀쌀	-11.9766
▁평상시	-11.9766
▁스피어스	-11.9766
▁늘어났다	-11.9766
▁자랑스럽게	-11.9767
▁디앱	-11.9767
▁애써	-11.9767
▁타이완	-11.9767
▁세부사항	-11.9767
▁개개인	-11.9768
▁독창적	-11.9768
▁게시글	-11.9768
▁트리플	-11.9768
▁코미디언	-11.9769
▁롤러	-11.9769
▁내보내	-11.9769
평론가	-11.9769
▁도와준다	-11.9769
▁팔로우	-11.9769
▁평택	-11.9771
▁싸울	-11.9772
▁기점으로	-11.9772
▁YG	-11.9772
▁첨부하여	-11.9772
▁지켜볼	-11.9773
▁독보적	-11.9773
▁나아질	-11.9774
▁아버지께서	-11.9775
▁역동적	-11.9776
▁진정성	-11.9777
▁담백	-11.9777
▁최후	-11.9778
▁받아들여지	-11.9779
▁돌아오면	-11.9779
▁바라볼	-11.978
▁모시고	-11.9783
▁얼마만큼	-11.9783
▁약혼	-11.9786
▁읽었습니다	-11.9786
▁내버려	-11.9787
숨	-11.9789
▁가혹	-11.9791
ith	-11.9792
▁정치인들	-11.9792
▁차지하며	-11.9793
▁애초	-11.9793
▁올게요	-11.9795
▁반복해서	-11.9797
att	-11.9802
블루	-11.9803
▁참사	-11.9805
했니	-11.9805
▁기각	-11.9808
▁세션	-11.9811
헬	-11.9812
쌍	-11.9813
▁상속	-11.9813
▁달달	-11.9815
▁인정했다	-11.9815
인터넷	-11.9816
▁함유하고	-11.9816
벤츠	-11.982
mL	-11.9822
▁써보	-11.9826
▁현실화	-11.9827
▁남길	-11.983
▁아쉽다	-11.9835
▁현실이다	-11.9835
▁한자리에	-11.9835
▁평안	-11.9836
ence	-11.9843
미술	-11.9847
▁충분하다	-11.9858
링크	-11.9859
▁이뤄진다	-11.986
▁순천	-11.9863
매우	-11.9866
▁부담감	-11.9868
장관은	-11.9869
▁악마	-11.9871
▁없으니까	-11.9874
▁거부했다	-11.9875
▁줄거리	-11.988
했었던	-11.9881
후드	-11.9885
▁테리	-11.9888
▁발견되	-11.9905
NL	-11.9906
했어야	-11.9909
▁증가율	-11.991
ml	-11.9911
▁DB	-11.9923
▁회장님	-11.9929
▁선교	-11.9937
▁공급받	-11.9946
FP	-11.9948
▁회의실	-11.9966
atch	-11.9967
법안	-11.9971
hat	-11.9973
▁가르쳐주	-11.9976
▁끌기	-11.9977
▁골프장	-11.9984
▁우표	-11.9984
껴	-11.9989
솟	-11.9991
▁히어로	-11.9992
▁천장	-11.9993
▁국제축구연맹	-11.9993
▁놀랐다	-11.9993
▁바뀌지	-11.9993
▁발렌시아	-11.9993
▁밤늦게	-11.9993
▁벗어날	-11.9993
▁블라디미르	-11.9993
▁빅토리아	-11.9993
▁상파울루	-11.9993
▁아무쪼록	-11.9993
▁어쩌다	-11.9993
▁인디애나	-11.9993
▁피츠버그	-11.9993
앰	-11.9993
▁어마어마	-11.9993
▁쿠웨이트	-11.9993
▁핀란드	-11.9993
툭	-11.9993
▁거슬러	-11.9993
▁라이선스	-11.9993
▁위안부	-11.9993
▁향신료	-11.9993
▁월마트	-11.9993
▁누리꾼들	-11.9993
패밀리	-11.9993
▁바구니	-11.9993
▁춘천	-11.9993
▁원동력	-11.9993
▁웹툰	-11.9993
▁소방당국	-11.9993
▁어떡해	-11.9993
▁투숙객	-11.9993
▁봉쇄	-11.9994
▁쓰러지	-11.9994
▁싱싱	-11.9994
▁낮춰	-11.9994
▁즈음	-11.9995
▁도와드릴까요	-11.9995
▁스케일	-11.9995
▁압축	-11.9995
▁놀라움	-11.9996
▁조사결과	-11.9996
▁소요됩니다	-11.9997
▁계신가요	-11.9999
▁느려	-12.0001
▁돈가스	-12.0001
▁조짐	-12.0001
▁아래쪽	-12.0002
▁학급	-12.0002
▁불참	-12.0003
▁다녀왔어요	-12.0003
CR	-12.0003
▁목격했다	-12.0005
▁접목	-12.0005
▁신속히	-12.0007
▁일어나기	-12.0008
▁재앙	-12.0008
▁동향	-12.0008
▁태운	-12.0012
▁배움	-12.0014
▁음모	-12.0014
▁놀란	-12.0016
▁않겠어요	-12.0016
▁투약	-12.0017
▁장기적으로	-12.0017
▁느꼈어요	-12.0017
ern	-12.0018
▁막판	-12.0019
▁나누며	-12.002
▁동점	-12.002
▁요정	-12.0022
부르크	-12.0022
▁헤어진	-12.0023
▁필요하시면	-12.0024
▁이어졌	-12.0028
▁후배들	-12.0028
▁투구	-12.0041
▁전문적으로	-12.0043
▁왕성	-12.0045
▁도발	-12.0049
▁버마	-12.0052
▁채무	-12.0053
▁아카데미상	-12.0057
외환	-12.0061
▁폐사	-12.0065
▁기울어	-12.0066
거래소	-12.007
▁보냈는데	-12.007
▁좋아졌	-12.0071
BM	-12.0072
▁옷장	-12.0073
▁이기고	-12.0074
▁연체	-12.0076
▁만났어	-12.0078
▁학위	-12.0081
했음에도	-12.0085
▁상황이었다	-12.0092
▁바꾸기	-12.0132
▁나오는데	-12.0133
▁창의적	-12.0135
▁조합원	-12.0137
▁분장	-12.0143
바이트	-12.015
▁구독	-12.0153
▁광주시	-12.016
▁시력	-12.017
▁불확실	-12.017
▁전문점	-12.0175
IF	-12.018
광장	-12.0192
▁확정되	-12.0196
▁치명적	-12.0203
▁dis	-12.0218
대책	-12.022
▁언론사	-12.0225
▁아름다웠	-12.0225
▁감자튀김	-12.0225
▁공기청정기	-12.0225
▁데이터베이스	-12.0225
▁밴쿠버	-12.0225
▁손해배상	-12.0225
▁시끄럽	-12.0225
▁아시아나항공	-12.0225
▁재검토	-12.0225
▁청문회	-12.0225
뵈	-12.0225
썸	-12.0225
어벤져스	-12.0225
옴	-12.0225
▁운전면허	-12.0225
▁태어날	-12.0225
프린팅	-12.0225
▁카니발	-12.0225
▁솔직한	-12.0225
▁앵커	-12.0225
▁유난히	-12.0225
▁되풀이	-12.0225
▁xx	-12.0225
▁흘러나오	-12.0225
▁마일리지	-12.0225
▁까다롭	-12.0226
▁깃발	-12.0226
▁that	-12.0226
▁가뭄	-12.0226
▁어머님	-12.0226
▁원산지	-12.0226
▁탄핵	-12.0226
시네마	-12.0226
▁대중음악	-12.0227
▁형편이	-12.0227
▁짜릿	-12.0227
▁되돌려	-12.0227
▁기다려주시면	-12.0228
▁꼽았다	-12.0228
▁학술	-12.0228
쿼터	-12.0228
▁국제사회	-12.0228
▁짚어	-12.0229
▁헤엄	-12.0229
▁퇴사	-12.0229
▁이강인	-12.0229
▁오븐	-12.023
▁빈자리	-12.023
▁증진	-12.023
주민들	-12.0231
▁쟁점	-12.0231
▁알고리즘	-12.0231
하시려면	-12.0232
▁북극	-12.0232
▁만찬	-12.0233
▁않았으나	-12.0233
▁스킬	-12.0233
▁색채	-12.0234
▁열람	-12.0234
▁되겠네요	-12.0235
▁발전시키	-12.0236
▁야경	-12.0237
▁lea	-12.0238
▁모닝	-12.0239
▁쏘아	-12.024
▁산악	-12.0241
▁사망했으며	-12.0241
▁생태	-12.0241
▁걸맞	-12.0241
▁수험생	-12.0242
▁추워서	-12.0242
▁채취	-12.0242
▁작용했다	-12.0243
▁타협	-12.0244
▁가능하신	-12.0245
▁기다리겠	-12.0246
▁결론적으로	-12.0247
▁TOP	-12.0248
▁좋아하니	-12.0249
▁버리지	-12.0252
▁지난밤	-12.0254
▁매료	-12.0256
▁보습	-12.0256
작정	-12.0256
▁설마	-12.0256
▁생계	-12.0256
▁목재	-12.0258
▁윤씨	-12.0258
겠구나	-12.026
▁다녀왔습니	-12.0262
▁다하겠다	-12.0266
▁리본	-12.0266
▁편안함	-12.0267
▁못했기	-12.0267
▁강림	-12.0268
▁카터	-12.0269
▁먹었는데	-12.0271
▁발판	-12.0273
▁팔린	-12.0274
▁털어	-12.0276
▁지능	-12.0277
▁침실	-12.0282
▁지치	-12.0283
▁신문사	-12.0286
▁지원금	-12.0286
▁신작	-12.0287
TR	-12.0288
홈	-12.0293
▁근무시간	-12.0294
▁확산되	-12.0296
꿈	-12.0299
박물관	-12.0299
테이프	-12.0299
▁현지인들에게	-12.03
새로운	-12.0303
나이트	-12.0309
언론	-12.0313
▁걱정돼	-12.0321
근무	-12.0327
▁베풀어	-12.0329
어머니	-12.0333
car	-12.0335
▁알아내	-12.0335
▁황제	-12.0336
너무	-12.0336
▁친절함	-12.035
KA	-12.0368
▁돌려주	-12.0375
남동	-12.0375
▁구비되어	-12.0381
▁평가받	-12.0398
▁설사	-12.04
▁친분	-12.04
▁보험사	-12.0402
븐	-12.0403
▁찬사	-12.0413
EE	-12.0435
▁갑작스	-12.046
▁근본	-12.0461
▁경상	-12.0462
앗	-12.0462
『	-12.0463
쭈	-12.0463
▁IoT	-12.0463
▁Japan	-12.0463
▁고맙게	-12.0463
▁노스캐롤라이나	-12.0463
▁묻어나	-12.0463
▁블라고예비치	-12.0463
▁상호작용	-12.0463
▁성매매	-12.0463
▁즐깁	-12.0463
▁쫄깃	-12.0463
▁포트폴리오	-12.0463
▁필라테스	-12.0463
▁헬리콥터	-12.0463
』	-12.0463
눅	-12.0463
쏙	-12.0463
튬	-12.0463
▁간담회	-12.0463
▁더더욱	-12.0463
▁영유아	-12.0463
▁여태까지	-12.0464
▁브리핑	-12.0464
▁울타리	-12.0464
▁기다림	-12.0464
▁징후	-12.0464
▁월드시리즈	-12.0464
▁훔치	-12.0464
▁Show	-12.0464
▁북핵	-12.0464
▁차려입	-12.0465
▁댄서	-12.0465
▁희망한다	-12.0465
▁UPS	-12.0465
▁제이슨	-12.0466
▁말씀드리고	-12.0467
▁your	-12.0467
▁재사용	-12.0467
▁가르쳤	-12.0467
▁순서대로	-12.0467
▁EMS	-12.0467
▁이르게	-12.0468
▁AFP	-12.0468
▁채굴	-12.0469
▁자랑스러운	-12.0469
▁팝업	-12.0469
▁어워드	-12.047
▁대도시	-12.0471
▁테러범	-12.0472
▁로컬	-12.0473
▁말아주세요	-12.0473
▁문득	-12.0475
▁세월호	-12.0475
▁아무튼	-12.0475
▁경기력	-12.0475
▁빵집	-12.0479
▁재벌	-12.048
▁거꾸	-12.0483
▁먹으며	-12.0484
▁예언	-12.0484
▁플러그인	-12.0484
▁포근	-12.0485
▁발생했을	-12.0487
글라스	-12.0487
▁다룰	-12.049
▁열망	-12.0491
▁대외	-12.0491
▁공감대	-12.0493
▁염증	-12.0494
▁먹거나	-12.0494
▁들릴	-12.0498
▁벽화	-12.0498
▁함유되어	-12.0501
▁가셔야	-12.0501
▁있었음	-12.0501
▁청결	-12.0503
▁끔찍	-12.0506
▁문제인지	-12.0509
▁규칙적	-12.0513
▁재임	-12.0529
▁모공	-12.0532
▁시작됐	-12.0533
땅	-12.0543
▁충족시키	-12.0545
DE	-12.0546
▁키우기	-12.0547
밑	-12.0549
겸	-12.0549
민주당	-12.055
▁내다보	-12.055
노바	-12.0555
뷰티	-12.0556
닿	-12.0559
그녀	-12.0569
호프	-12.0582
▁플레	-12.0585
▁예정인데	-12.0594
▁구성원들	-12.0599
▁미쳤	-12.0608
▁유일하다	-12.0609
▁자료들	-12.0616
▁졸리	-12.0625
▁제공된다	-12.0631
▁일어납	-12.0634
▁편인데	-12.0641
쥐고	-12.0654
글리	-12.0661
▁주도권	-12.0674
▁타율	-12.0681
▁있겠지	-12.069
▁유학생	-12.0693
▁있겠어	-12.0699
▁따내	-12.0699
줌	-12.0707
덱	-12.0707
▁North	-12.0707
▁디트로이트	-12.0707
▁떨어뜨리	-12.0707
▁로드리게스	-12.0707
▁멜버른	-12.0707
▁밝히는	-12.0707
▁샌디에이고	-12.0707
▁스카우트	-12.0707
▁우주비행사	-12.0707
▁코카콜라	-12.0707
▁휠체어	-12.0707
뽕	-12.0707
탬	-12.0707
▁경기침체	-12.0707
▁블레어	-12.0707
▁생중계	-12.0707
▁아테네	-12.0707
▁허드슨	-12.0707
▁스릴러	-12.0707
▁프런트	-12.0707
▁롤모델	-12.0707
▁쇠고기	-12.0707
▁유망주	-12.0707
▁신생아	-12.0707
▁캡처	-12.0707
▁생동감	-12.0707
▁선진국	-12.0707
▁사회복지	-12.0707
▁핫도그	-12.0707
▁산체스	-12.0708
▁뉴캐슬	-12.0708
▁무가베	-12.0708
▁습격	-12.0708
하오니	-12.0708
▁프라이팬	-12.0708
▁천주교	-12.0708
▁삭감	-12.0708
▁스터디	-12.0708
▁소용이	-12.0708
됐네요	-12.0708
▁버릇	-12.0709
▁메르스	-12.0709
▁증강	-12.0709
▁침몰	-12.0709
▁종사자	-12.0709
▁was	-12.0709
▁솜씨	-12.071
open	-12.071
▁논평	-12.071
▁his	-12.071
▁키보드	-12.0711
▁코리안	-12.0711
▁원하신다면	-12.0711
▁아랫	-12.0712
▁지나친	-12.0714
▁말씀해주시면	-12.0714
▁리비아	-12.0716
▁비롯하여	-12.0717
▁흔들었다	-12.0718
▁확연	-12.0718
▁연습생	-12.0721
▁표결	-12.0721
▁조심하세요	-12.0721
▁좋아하시나요	-12.0722
▁불황	-12.0723
▁바늘	-12.0724
▁지역별로	-12.0724
▁희미	-12.0729
▁이루었다	-12.073
here	-12.0732
▁설치돼	-12.0738
▁현관	-12.0738
▁이르면	-12.0741
▁모션	-12.0743
▁키웠	-12.0744
▁호박	-12.0746
▁아니었어	-12.0748
▁들으며	-12.075
장님께서	-12.0754
▁깨진	-12.0755
▁지휘자	-12.0757
▁손색	-12.0758
▁먹여	-12.0761
▁커져	-12.079
▁말씀드린	-12.0793
쌀	-12.0802
▁밝혀진	-12.0803
녹	-12.0803
좋아요	-12.0806
블랙	-12.0806
홈런	-12.0808
채널	-12.0809
슈퍼	-12.081
방향	-12.0828
▁구단주	-12.0831
연패	-12.0845
리얼	-12.0849
▁소유주	-12.0859
▁금식	-12.0863
▁책들	-12.0879
▁경비원	-12.0882
▁잡혀있	-12.0906
▁위층	-12.0928
▁발견됐	-12.0934
▁끌어내	-12.0936
겠냐	-12.0939
▁해주었	-12.0943
▁물감	-12.095
뷔	-12.0953
벡	-12.0957
▁will	-12.0957
▁견과류	-12.0957
▁괜찮으시다면	-12.0957
▁다우존스	-12.0957
▁들렸다	-12.0957
▁럭셔리	-12.0957
▁레드벨벳	-12.0957
▁마카롱	-12.0957
▁살펴볼	-12.0957
▁시끄러운	-12.0957
▁어우러진	-12.0957
▁없으신가요	-12.0957
▁에티오피아	-12.0957
▁인센티브	-12.0957
▁준결승	-12.0957
▁페미니즘	-12.0957
▁프로토콜	-12.0957
▁겨냥한	-12.0957
▁광화문	-12.0957
▁브라우저	-12.0957
▁촘촘	-12.0957
▁형편없	-12.0957
빔	-12.0957
▁시진핑	-12.0957
▁페더러	-12.0957
▁자연스레	-12.0957
▁브런치	-12.0957
▁막걸리	-12.0957
▁무너져	-12.0957
▁영업이익	-12.0957
▁금감원	-12.0957
▁마음가짐	-12.0958
▁포브스	-12.0958
head	-12.0958
▁촉박	-12.0958
▁놓쳐	-12.0958
▁햇살	-12.0958
▁포스트시즌	-12.0958
▁Jackal	-12.0958
▁황의조	-12.0958
▁가짜뉴스	-12.0958
▁have	-12.0958
▁포맷	-12.0958
▁무너졌	-12.0958
▁어둡	-12.0959
▁꼭대기	-12.0959
▁진지한	-12.096
▁먹어봐	-12.096
▁소극적	-12.096
▁GPS	-12.0961
▁징역형	-12.0961
▁용접	-12.0961
▁앞머리	-12.0961
▁찍혀	-12.0961
▁잡아먹	-12.0962
▁다녀올	-12.0962
▁서랍	-12.0963
▁유닛	-12.0965
▁되돌	-12.0965
▁교외	-12.0965
▁조끼	-12.0966
▁재촉	-12.0966
▁싶었지만	-12.0966
▁수영복	-12.0967
▁by	-12.0969
▁되시길	-12.0969
▁잇따르	-12.0969
▁오래전에	-12.097
▁출현	-12.097
▁묵직	-12.0971
▁높아질	-12.0972
▁반대편	-12.0973
▁단풍	-12.0975
▁찾아갈	-12.0976
▁파손된	-12.0977
▁창피	-12.0978
▁있든	-12.098
▁녹차	-12.0982
▁병행	-12.0983
▁카불	-12.0986
▁현역	-12.0992
까봐	-12.0993
▁두려워하지	-12.0993
▁프레드	-12.0994
▁돌아와서	-12.0995
게끔	-12.0995
▁순방	-12.0996
▁사망했	-12.0998
▁원망	-12.1011
▁따위	-12.1024
앞	-12.1034
▁만하다	-12.1048
▁투표율	-12.1056
뛰	-12.1062
▁생겨났	-12.1065
싸움	-12.1068
톰	-12.1068
닭	-12.1071
▁이민자들	-12.1072
경기장	-12.1074
▁몰아치	-12.1092
▁기억력	-12.1098
ally	-12.1129
▁자동화	-12.1142
▁월세	-12.1143
▁예정이니	-12.1144
▁이웃들	-12.1145
nes	-12.1155
▁can	-12.1165
▁워너	-12.1186
▁수익성	-12.1189
▁과도하	-12.1196
▁암호	-12.1204
씬	-12.1208
▁여겼	-12.1209
궤	-12.1212
벳	-12.1214
▁괜찮았	-12.1214
▁무너뜨	-12.1214
▁넉넉하	-12.1214
▁돋보인다	-12.1214
▁뜨거워	-12.1214
▁산타클로스	-12.1214
▁스탠드	-12.1214
▁얼어붙	-12.1214
▁에드워즈	-12.1214
▁옷차림	-12.1214
▁피닉스	-12.1214
▁브래드	-12.1214
▁센트럴	-12.1214
▁아바타	-12.1214
▁입소문	-12.1214
▁동대문	-12.1214
▁일반적이다	-12.1214
▁라마단	-12.1214
▁커리어	-12.1214
▁금융위기	-12.1214
▁야생동물	-12.1214
▁찜질	-12.1214
▁유통기한	-12.1214
▁스킨케어	-12.1214
▁획기적	-12.1214
▁충남	-12.1214
▁신화통신	-12.1214
▁일시적으로	-12.1214
▁우아한	-12.1214
▁순조롭	-12.1214
▁김정일	-12.1214
▁에밀리	-12.1215
▁성직자	-12.1215
▁독특하	-12.1215
▁무리뉴	-12.1215
▁현대자동차	-12.1215
▁기쁠	-12.1216
▁있으시다면	-12.1216
▁파나마	-12.1217
▁샌드	-12.1217
▁가져다드릴게요	-12.1217
▁않으세요	-12.1217
▁교민들	-12.1217
▁커튼	-12.1217
▁패션쇼	-12.1218
▁조그마	-12.1218
▁면허증	-12.1218
▁과잉	-12.1219
▁평범하	-12.1219
▁와이어	-12.1219
▁극찬	-12.122
▁ATM	-12.122
▁베팅	-12.122
▁프라하	-12.1221
▁라이터	-12.1221
▁MOU	-12.1222
▁영암	-12.1223
▁어머니께서	-12.1223
▁아니더라도	-12.1224
▁아쉽지만	-12.1225
▁탐방	-12.1225
▁서늘	-12.1225
▁돌아왔어요	-12.1226
▁야유	-12.1227
▁긍정	-12.1227
▁계급	-12.1228
▁모르는데	-12.123
▁선사한다	-12.1231
▁탐구	-12.1234
▁북경	-12.1235
▁정확하지	-12.1235
▁제조업	-12.1236
▁죽이는	-12.1237
EO	-12.1239
▁하향	-12.124
▁마찰	-12.124
▁확인하시고	-12.124
▁구슬	-12.124
▁마셨어요	-12.1241
▁상환	-12.1243
▁막강	-12.1244
▁원자로	-12.1244
▁시련	-12.1244
▁구매했는데	-12.1244
▁확신해요	-12.1246
▁부친	-12.1247
top	-12.1248
▁경기도내	-12.1249
▁포도주	-12.1249
▁폭동	-12.1249
▁도매	-12.125
▁압수	-12.125
▁터질	-12.1251
▁면역력	-12.1253
헤르	-12.1255
▁다름없	-12.1256
셨는지	-12.1258
▁케이트	-12.1263
▁시사회	-12.1263
▁중심부	-12.1265
▁주식시장	-12.1279
하셨습니까	-12.1303
돼있다	-12.131
▁연구자들	-12.1324
▁구독자	-12.1327
실래요	-12.133
앨범	-12.134
ja	-12.1341
▁다가갈	-12.1346
여러분	-12.1348
음으로써	-12.1349
ami	-12.1349
펜스	-12.1358
▁상승률	-12.1362
출동한	-12.1367
▁지나갈	-12.1379
놓는다	-12.1382
▁USD	-12.1401
▁떨어지면	-12.1411
▁내려갔	-12.1427
▁극단적	-12.1432
▁따뜻해	-12.1446
▁IN	-12.1448
▁통신사	-12.1448
▁괜찮은데	-12.1458
▁CGV	-12.1477
▁가톨릭	-12.1477
▁거스름돈	-12.1477
▁고군분투	-12.1477
▁넘어섰다	-12.1477
▁멈췄	-12.1477
▁부딪히	-12.1477
▁이코노미	-12.1477
▁토네이도	-12.1477
▁파파라치	-12.1477
▁프리랜서	-12.1477
▁한가운데	-12.1477
▁식습관	-12.1477
▁국가안보	-12.1477
▁무너진	-12.1477
▁식재료	-12.1477
▁민병대	-12.1477
▁테두리	-12.1477
▁인건비	-12.1477
MLB	-12.1477
▁벗어났	-12.1477
▁껴안	-12.1477
▁데려오	-12.1477
▁섭외	-12.1477
▁국가주석	-12.1477
▁규격	-12.1477
▁마이너스	-12.1477
▁무제한	-12.1477
▁억압	-12.1478
▁사냥꾼	-12.1478
▁설렘	-12.1478
▁말했듯이	-12.1478
▁번거롭	-12.1478
▁지방선거	-12.1479
▁파트너십	-12.1479
▁레코드	-12.148
▁징수	-12.148
able	-12.148
▁소녀시대	-12.1481
▁복싱	-12.1481
▁디젤	-12.1482
▁익혀	-12.1482
▁말씀드려	-12.1482
▁팔았	-12.1483
네이션	-12.1486
▁무효	-12.1488
▁휴무	-12.1488
▁철강	-12.1489
특별하게	-12.1492
▁밀집	-12.1493
▁즐기면서	-12.1494
▁데니스	-12.1495
▁철거	-12.1495
▁청량	-12.1496
▁영예	-12.1496
▁대나무	-12.1497
▁늘릴	-12.1498
▁토스트	-12.15
▁않았습니까	-12.1501
▁빌린	-12.1501
▁정당화	-12.1503
▁들으면서	-12.1504
▁연합군	-12.1507
▁마칠	-12.1507
▁극우	-12.151
▁마시면서	-12.1511
▁동등	-12.1512
▁마스터스	-12.1515
▁자가용	-12.1515
In	-12.152
▁최저치	-12.1526
▁싸웠	-12.1528
▁극단	-12.1537
▁쏟아내	-12.1542
▁교역	-12.1549
▁배려심	-12.155
act	-12.1551
All	-12.1553
▁끼친	-12.1555
▁헤어졌	-12.1556
AV	-12.1557
▁질문들	-12.1566
the	-12.1567
▁정치권	-12.1575
▁하셨는데	-12.158
▁논리적	-12.1589
▁구하라	-12.159
▁당했	-12.1602
▁연기력	-12.1613
[...]
