<pad>	0
<unk>	0
<s>	0
</s>	0
<mask>	0
<0x00>	0
<0x01>	0
<0x02>	0
<0x03>	0
<0x04>	0
<0x05>	0
<0x06>	0
<0x07>	0
<0x08>	0
<0x09>	0
<0x0A>	0
<0x0B>	0
<0x0C>	0
<0x0D>	0
<0x0E>	0
<0x0F>	0
<0x10>	0
<0x11>	0
<0x12>	0
<0x13>	0
<0x14>	0
<0x15>	0
<0x16>	0
<0x17>	0
<0x18>	0
<0x19>	0
<0x1A>	0
<0x1B>	0
<0x1C>	0
<0x1D>	0
<0x1E>	0
<0x1F>	0
<0x20>	0
<0x21>	0
<0x22>	0
<0x23>	0
<0x24>	0
<0x25>	0
<0x26>	0
<0x27>	0
<0x28>	0
<0x29>	0
<0x2A>	0
<0x2B>	0
<0x2C>	0
<0x2D>	0
<0x2E>	0
<0x2F>	0
<0x30>	0
<0x31>	0
<0x32>	0
<0x33>	0
<0x34>	0
<0x35>	0
<0x36>	0
<0x37>	0
<0x38>	0
<0x39>	0
<0x3A>	0
<0x3B>	0
<0x3C>	0
<0x3D>	0
<0x3E>	0
<0x3F>	0
<0x40>	0
<0x41>	0
<0x42>	0
<0x43>	0
<0x44>	0
<0x45>	0
<0x46>	0
<0x47>	0
<0x48>	0
<0x49>	0
<0x4A>	0
<0x4B>	0
<0x4C>	0
<0x4D>	0
<0x4E>	0
<0x4F>	0
<0x50>	0
<0x51>	0
<0x52>	0
<0x53>	0
<0x54>	0
<0x55>	0
<0x56>	0
<0x57>	0
<0x58>	0
<0x59>	0
<0x5A>	0
<0x5B>	0
<0x5C>	0
<0x5D>	0
<0x5E>	0
<0x5F>	0
<0x60>	0
<0x61>	0
<0x62>	0
<0x63>	0
<0x64>	0
<0x65>	0
<0x66>	0
<0x67>	0
<0x68>	0
<0x69>	0
<0x6A>	0
<0x6B>	0
<0x6C>	0
<0x6D>	0
<0x6E>	0
<0x6F>	0
<0x70>	0
<0x71>	0
<0x72>	0
<0x73>	0
<0x74>	0
<0x75>	0
<0x76>	0
<0x77>	0
<0x78>	0
<0x79>	0
<0x7A>	0
<0x7B>	0
<0x7C>	0
<0x7D>	0
<0x7E>	0
<0x7F>	0
<0x80>	0
<0x81>	0
<0x82>	0
<0x83>	0
<0x84>	0
<0x85>	0
<0x86>	0
<0x87>	0
<0x88>	0
<0x89>	0
<0x8A>	0
<0x8B>	0
<0x8C>	0
<0x8D>	0
<0x8E>	0
<0x8F>	0
<0x90>	0
<0x91>	0
<0x92>	0
<0x93>	0
<0x94>	0
<0x95>	0
<0x96>	0
<0x97>	0
<0x98>	0
<0x99>	0
<0x9A>	0
<0x9B>	0
<0x9C>	0
<0x9D>	0
<0x9E>	0
<0x9F>	0
<0xA0>	0
<0xA1>	0
<0xA2>	0
<0xA3>	0
<0xA4>	0
<0xA5>	0
<0xA6>	0
<0xA7>	0
<0xA8>	0
<0xA9>	0
<0xAA>	0
<0xAB>	0
<0xAC>	0
<0xAD>	0
<0xAE>	0
<0xAF>	0
<0xB0>	0
<0xB1>	0
<0xB2>	0
<0xB3>	0
<0xB4>	0
<0xB5>	0
<0xB6>	0
<0xB7>	0
<0xB8>	0
<0xB9>	0
<0xBA>	0
<0xBB>	0
<0xBC>	0
<0xBD>	0
<0xBE>	0
<0xBF>	0
<0xC0>	0
<0xC1>	0
<0xC2>	0
<0xC3>	0
<0xC4>	0
<0xC5>	0
<0xC6>	0
<0xC7>	0
<0xC8>	0
<0xC9>	0
<0xCA>	0
<0xCB>	0
<0xCC>	0
<0xCD>	0
<0xCE>	0
<0xCF>	0
<0xD0>	0
<0xD1>	0
<0xD2>	0
<0xD3>	0
<0xD4>	0
<0xD5>	0
<0xD6>	0
<0xD7>	0
<0xD8>	0
<0xD9>	0
<0xDA>	0
<0xDB>	0
<0xDC>	0
<0xDD>	0
<0xDE>	0
<0xDF>	0
<0xE0>	0
<0xE1>	0
<0xE2>	0
<0xE3>	0
<0xE4>	0
<0xE5>	0
<0xE6>	0
<0xE7>	0
<0xE8>	0
<0xE9>	0
<0xEA>	0
<0xEB>	0
<0xEC>	0
<0xED>	0
<0xEE>	0
<0xEF>	0
<0xF0>	0
<0xF1>	0
<0xF2>	0
<0xF3>	0
<0xF4>	0
<0xF5>	0
<0xF6>	0
<0xF7>	0
<0xF8>	0
<0xF9>	0
<0xFA>	0
<0xFB>	0
<0xFC>	0
<0xFD>	0
<0xFE>	0
<0xFF>	0
▁	-3.0649
.	-3.30611
을	-4.15001
의	-4.26318
이	-4.29306
,	-4.37349
에	-4.40446
가	-4.49329
를	-4.61761
1	-4.6691
는	-4.70566
0	-4.78441
2	-4.93141
은	-4.96679
고	-5.22891
과	-5.27265
▁수	-5.28723
도	-5.32811
로	-5.34224
한	-5.45066
에서	-5.46052
일	-5.49801
▁있다	-5.5208
3	-5.5415
와	-5.62945
으로	-5.64667
(	-5.66696
5	-5.71322
인	-5.72081
)	-5.73399
▁‘	-5.76763
▁“	-5.82517
4	-5.8711
’	-5.89852
다	-5.90493
”	-5.92105
·	-5.9273
하는	-5.94092
▁이	-5.98449
지	-5.9927
하고	-6.01601
할	-6.02717
▁있는	-6.03562
▁등	-6.06089
6	-6.06183
해	-6.06613
9	-6.08704
8	-6.14562
7	-6.17062
년	-6.20434
기	-6.27724
?	-6.30056
만	-6.32672
▁제	-6.38422
▁한다	-6.39213
▁한	-6.40159
▁그	-6.41014
월	-6.47695
▁전	-6.52107
▁것으로	-6.54024
했다	-6.54737
▁및	-6.55804
시	-6.56472
자	-6.62234
▁대한	-6.63771
서	-6.70368
대	-6.70841
된	-6.74588
▁위해	-6.80139
주	-6.80983
▁중	-6.84222
나	-6.84802
들이	-6.8536
사	-6.88223
면	-6.89146
수	-6.90818
▁것	-6.90824
며	-6.90942
어	-6.91255
▁더	-6.91682
에는	-6.97129
리	-6.98056
▁한국	-6.98446
하게	-7.00168
적	-7.0078
개	-7.00918
▁경우	-7.0145
게	-7.02569
▁밝혔다	-7.03377
라	-7.03752
까지	-7.03952
▁지난	-7.05978
▁내	-7.06049
%	-7.06447
▁따라	-7.07054
성	-7.07646
에게	-7.08409
상	-7.1143
▁할	-7.13137
▁통해	-7.13894
스	-7.1456
하기	-7.147
▁김	-7.14948
동	-7.15839
▁때	-7.16472
하지	-7.18095
제	-7.18345
화	-7.18378
▁함께	-7.18833
▁이번	-7.19283
▁나는	-7.20128
정	-7.20474
진	-7.20497
▁안	-7.20538
한다	-7.20838
이다	-7.21259
▁말했다	-7.23832
명	-7.27084
부	-7.27147
장	-7.27233
야	-7.28081
요	-7.29285
▁것이	-7.302
원	-7.3235
차	-7.33312
▁있습니다	-7.33662
▁위한	-7.34098
▁많은	-7.34246
조	-7.3554
▁두	-7.35554
구	-7.35744
▁미국	-7.37022
▁시	-7.37888
▁가장	-7.37994
▁다른	-7.38437
회	-7.39008
선	-7.39165
입니다	-7.40546
비	-7.41517
미	-7.41717
아	-7.4184
적인	-7.42582
세	-7.42673
산	-7.42825
▁대해	-7.4283
소	-7.42928
호	-7.43128
▁하는	-7.43321
전	-7.44215
▁것이다	-7.44664
하여	-7.44728
▁후	-7.45043
▁서울	-7.45266
▁저는	-7.46498
이라고	-7.46552
-	-7.46913
▁등을	-7.47066
▁것을	-7.47485
될	-7.48486
▁잘	-7.49252
▁그는	-7.49734
분	-7.49925
▁것은	-7.50684
▁각	-7.51561
하며	-7.5271
▁다음	-7.53148
트	-7.53521
▁주	-7.5399
▁같은	-7.5421
되는	-7.54897
히	-7.54925
▁했다	-7.56271
▁우리	-7.57546
▁큰	-7.576
여	-7.57701
에서는	-7.57941
용	-7.58188
▁관련	-7.58828
니	-7.61345
치	-7.61454
보	-7.61471
실	-7.62005
해야	-7.63031
관	-7.63105
▁가운데	-7.63276
형	-7.6351
신	-7.6391
▁또는	-7.64481
▁미	-7.64752
우	-7.64856
이나	-7.65244
▁필요한	-7.66205
당	-7.66513
식	-7.67112
▁있어	-7.67169
▁지역	-7.67287
▁게	-7.67348
▁때문에	-7.67538
▁다	-7.68047
보다	-7.68102
던	-7.68141
부터	-7.68386
적으로	-7.68914
드	-7.69229
됐다	-7.70614
▁이후	-7.71076
▁최근	-7.71173
▁구	-7.7154
중	-7.71738
▁정	-7.72009
▁뒤	-7.72285
▁해	-7.74554
▁있도록	-7.74674
▁경기도	-7.74706
▁원	-7.75432
들은	-7.75932
▁신	-7.76011
▁중국	-7.76526
▁유	-7.76621
마	-7.76991
▁지난해	-7.77775
▁많이	-7.77839
법	-7.77876
영	-7.77987
▁오	-7.78363
"	-7.78502
▁사	-7.78503
돼	-7.78612
▁이날	-7.79012
연	-7.79098
▁이상	-7.79219
▁지	-7.79277
위	-7.79433
▁특히	-7.79758
▁현재	-7.79866
면서	-7.79889
▁따른	-7.8072
▁등이	-7.81207
▁올해	-7.81474
재	-7.81651
경	-7.81957
국	-7.81967
계	-7.82056
하	-7.82193
▁다시	-7.8248
▁국내	-7.83729
▁비	-7.83757
라고	-7.84021
유	-7.84236
▁없는	-7.84301
하면서	-7.84747
▁다양한	-7.84988
무	-7.85382
▁말	-7.85682
▁바	-7.85932
권	-7.86445
명이	-7.86951
▁세계	-7.87935
▁될	-7.8832
천	-7.88443
▁모두	-7.88639
하면	-7.89575
단	-7.89979
▁지원	-7.91059
▁있다는	-7.91387
방	-7.91454
▁대	-7.91511
금	-7.91858
▁약	-7.91909
▁박	-7.91991
▁모든	-7.92152
▁사용	-7.92313
되고	-7.92753
라는	-7.92952
∼	-7.93471
▁하고	-7.93762
▁내가	-7.93812
▁직접	-7.93905
▁나	-7.9394
▁총	-7.94411
질	-7.94755
들을	-7.94882
▁제가	-7.95387
군	-7.95744
▁보고	-7.95988
▁양	-7.96759
하여야	-7.9746
석	-7.97465
▁구청장은	-7.97673
▁데	-7.97731
문	-7.98388
▁경기	-7.99049
들의	-8.00266
▁A	-8.00645
들	-8.00684
러	-8.00764
▁위하여	-8.0117
억	-8.01639
파	-8.01657
오	-8.01855
공	-8.02119
▁간	-8.02307
▁좋은	-8.02469
▁아	-8.02713
▁교육	-8.02769
▁있다고	-8.02965
안	-8.03041
합니다	-8.03071
▁운영	-8.03636
물	-8.03768
▁없다	-8.04044
▁경제	-8.04217
지만	-8.04447
이하	-8.0479
르	-8.0488
▁일본	-8.05159
양	-8.05537
▁동안	-8.05977
▁당시	-8.06684
▁있을	-8.07158
에도	-8.07935
▁해당	-8.08013
타	-8.08082
▁오후	-8.08133
▁문	-8.08234
▁거	-8.08352
▁따르면	-8.0845
배	-8.0847
▁보	-8.08512
▁이어	-8.08519
▁아니라	-8.08527
▁부	-8.08819
▁조	-8.08936
▁지금	-8.08971
▁장	-8.08994
▁불	-8.09805
▁등의	-8.09839
▁오늘	-8.099
▁저	-8.10151
▁이를	-8.10729
▁모	-8.10906
▁줄	-8.10999
▁서	-8.11135
강	-8.119
▁무	-8.11937
▁또	-8.1196
▁사업	-8.12055
이라는	-8.12108
포	-8.12314
했던	-8.12319
▁강	-8.12669
」	-8.12754
종	-8.12967
▁동	-8.13
▁우리는	-8.13012
▁달	-8.13203
간	-8.13296
▁세	-8.13355
점	-8.13685
모	-8.13969
▁영화	-8.13983
내	-8.13989
급	-8.14258
▁새로운	-8.14599
'	-8.14634
현	-8.15206
데	-8.15267
된다	-8.15286
▁관리	-8.16354
▁「	-8.16453
▁않은	-8.16471
▁관한	-8.16569
▁어떤	-8.16713
청	-8.16767
▁마	-8.17196
되어	-8.17416
▁첫	-8.17606
항	-8.17699
▁다만	-8.17937
발	-8.18153
▁조사	-8.18328
▁연	-8.1859
▁때문이다	-8.18745
▁너무	-8.18786
민	-8.18839
▁경우에는	-8.18994
▁못	-8.19128
▁높은	-8.19443
▁차	-8.19648
▁된다	-8.1968
이라	-8.19962
▁국가	-8.20613
▁자	-8.20716
▁일부	-8.20755
습니다	-8.20892
해서	-8.21066
▁북한	-8.21506
프	-8.21692
m	-8.2177
▁재	-8.21929
▁결과	-8.22127
길	-8.2225
란	-8.22288
▁만큼	-8.22367
▁이런	-8.22573
크	-8.22583
학	-8.22906
시간	-8.23364
관리	-8.23595
▁있었다	-8.23624
▁난	-8.23885
교	-8.24015
체	-8.24373
직	-8.24483
▁볼	-8.24627
▁반	-8.2498
▁날	-8.25279
▁투자	-8.2544
▁알	-8.25553
▁시간	-8.26243
▁하	-8.26316
▁진행	-8.26381
▁시장	-8.26714
▁문화	-8.26794
▁건	-8.27239
▁여성	-8.27296
▁당신은	-8.27448
반	-8.27811
▁기업	-8.27961
▁기	-8.28196
▁필요	-8.2831
▁않고	-8.28726
하다	-8.28884
▁초	-8.29152
▁정부	-8.29207
▁관계자는	-8.29431
▁합니다	-8.29942
▁있으며	-8.30238
▁확인	-8.3044
건	-8.30448
▁보인다	-8.31086
▁열린	-8.31097
▁어떻게	-8.31161
감	-8.31264
▁당신이	-8.31275
▁전했다	-8.31451
▁오전	-8.31769
엔	-8.31899
▁방	-8.31997
▁사람	-8.32134
별	-8.32325
▁주요	-8.32353
거	-8.32365
▁등에	-8.32784
▁번	-8.32835
처럼	-8.33014
했고	-8.33073
▁개발	-8.33107
하거나	-8.33512
위원회	-8.33794
었다	-8.33923
증	-8.34102
터	-8.34258
▁오는	-8.34286
▁대통령이	-8.34769
역	-8.34928
▁트럼프	-8.34936
사업	-8.35377
▁상	-8.35478
▁있어요	-8.35679
▁여러	-8.35995
▁판매	-8.35998
는데	-8.36043
했습니다	-8.36171
▁설치	-8.36259
▁대표	-8.36865
▁정도	-8.37112
▁네	-8.37116
승	-8.3713
▁평가	-8.3716
▁예정이다	-8.37329
▁있고	-8.37587
▁없이	-8.37854
▁설명했다	-8.3817
▁노	-8.38214
▁하나	-8.38244
▁전국	-8.38323
운	-8.38342
▁추가	-8.38519
항에	-8.38571
병	-8.38844
했다고	-8.39351
▁좀	-8.39356
생	-8.39404
▁추진	-8.39419
▁성	-8.39495
▁남	-8.39605
▁학교	-8.39913
▁그리고	-8.40026
▁받은	-8.40126
▁소	-8.4014
되지	-8.40304
디	-8.40691
▁선	-8.41385
린	-8.41399
▁기존	-8.42389
▁파	-8.42524
심	-8.42638
약	-8.43031
▁이용	-8.43607
▁사람이	-8.44034
▁어느	-8.44123
▁시작	-8.44145
▁기술	-8.44285
층	-8.44373
루	-8.44537
티	-8.44831
▁올	-8.44911
온	-8.45405
행	-8.45861
두	-8.46167
▁공	-8.46304
▁법	-8.4636
▁도시	-8.46361
▁연구	-8.46367
그	-8.4645
자가	-8.4681
태	-8.47573
지역	-8.47628
려	-8.47954
▁참여	-8.47956
▁개선	-8.48311
▁생각	-8.4837
▁같이	-8.48384
즈	-8.48534
바	-8.48667
이었다	-8.48727
▁단	-8.48788
▁가능성이	-8.4882
▁정부가	-8.4905
▁타	-8.4929
▁당	-8.49416
▁받고	-8.49546
▁부산	-8.49651
레	-8.49825
▁또한	-8.49828
▁바로	-8.50068
▁집	-8.50177
s	-8.50252
▁생산	-8.50458
▁국제	-8.505
판	-8.50515
▁대학	-8.50628
▁본	-8.507
속	-8.50762
▁정책	-8.50914
▁최대	-8.50958
▁계속	-8.51059
▁있지만	-8.51079
토	-8.51098
하도록	-8.51227
▁자신의	-8.51441
업	-8.51463
억원	-8.51542
▁정말	-8.51676
▁물	-8.51873
거나	-8.5213
▁이미	-8.52291
노	-8.52456
▁사회	-8.52571
▁매우	-8.52916
▁국회	-8.53038
▁배	-8.53051
▁된	-8.53062
만원	-8.53144
▁더욱	-8.53308
▁최	-8.53419
▁몇	-8.53449
박	-8.5345
희	-8.53587
▁산업	-8.53715
명의	-8.53848
▁피	-8.53927
▁문제가	-8.54369
▁결정	-8.54405
▁온	-8.54573
산업	-8.54651
▁않는	-8.5474
▁것입니다	-8.54889
지는	-8.5499
▁제품	-8.55196
▁회사	-8.55224
▁대상으로	-8.55244
▁확대	-8.55433
▁발	-8.55451
▁외	-8.55462
였다	-8.55533
준	-8.55675
카	-8.55785
▁들어	-8.56241
임	-8.56371
개월	-8.56694
▁기록	-8.56859
▁호의	-8.57018
코	-8.57095
래	-8.57464
▁문제	-8.57635
▁말한다	-8.57723
▁환경	-8.57864
지원	-8.58035
▁조성	-8.5807
해요	-8.58239
▁새	-8.58245
철	-8.58264
교육	-8.58284
▁전체	-8.58366
▁청와대	-8.58503
▁서비스	-8.58723
집	-8.58758
통	-8.58811
문화	-8.58921
▁북	-8.58934
남	-8.58948
▁관심	-8.58959
작	-8.59257
▁개인	-8.59297
창	-8.59382
▁산	-8.59428
출	-8.59436
복	-8.59577
류	-8.59755
▁차량	-8.59823
▁분	-8.6054
기를	-8.60665
조제	-8.61049
▁발생	-8.6105
일까지	-8.61367
▁가지	-8.61377
▁군	-8.61378
▁신청	-8.61381
등	-8.61624
일부터	-8.61664
▁방문	-8.61735
네	-8.61835
▁아직	-8.61978
시설	-8.61997
살	-8.62061
▁살	-8.62071
초	-8.62086
▁때에는	-8.62266
했지만	-8.62278
▁해외	-8.62623
▁우리가	-8.62805
센터	-8.62856
▁생활	-8.62902
e	-8.63201
력	-8.63251
▁당신의	-8.63269
▁배우	-8.63274
▁입	-8.63695
불	-8.63765
단체	-8.64352
▁갈	-8.64389
▁지급	-8.64469
▁포	-8.64927
▁크게	-8.65031
▁친구	-8.65248
▁아닌	-8.65353
▁먼저	-8.65421
▁시간이	-8.65608
입	-8.65656
▁처리	-8.65749
▁일이	-8.65886
▁처음	-8.66006
▁발표	-8.66099
번	-8.66185
▁매	-8.66197
▁계획	-8.66205
▁개	-8.66233
▁그의	-8.66286
▁단체	-8.66441
▁시설	-8.6645
▁됐다	-8.66552
▁명	-8.66561
림	-8.66599
피	-8.66645
▁속	-8.66832
▁것이라고	-8.66888
▁집중	-8.67185
저	-8.67278
G	-8.67341
설	-8.67342
▁열	-8.67385
평	-8.67498
▁공개	-8.67511
기업	-8.67551
▁대통령	-8.67566
▁손	-8.67682
에서도	-8.67801
색	-8.67904
되면서	-8.67906
▁만들어	-8.68046
명을	-8.68062
▁기간	-8.68142
현지시간	-8.68258
▁조례	-8.68532
▁활동	-8.69071
▁수사	-8.69345
▁K	-8.69605
▁어	-8.6987
▁그런	-8.69976
D	-8.70148
▁가족	-8.70272
하였다	-8.70286
량	-8.70318
본	-8.70396
예	-8.70661
▁가격	-8.70677
더	-8.70703
조에	-8.70889
▁사람들이	-8.70981
▁성장	-8.7105
이에요	-8.71136
▁채	-8.71506
▁보내	-8.71536
▁감사	-8.71537
▁노력	-8.71543
▁않았다	-8.71938
어요	-8.72039
▁있나요	-8.7205
▁공동	-8.72207
으며	-8.72294
▁등으로	-8.72345
▁관심이	-8.72347
▁심	-8.72417
▁사진	-8.72422
▁사항을	-8.72842
져	-8.72902
장은	-8.7311
▁경찰은	-8.73332
▁걸	-8.73462
▁도입	-8.73531
▁B	-8.73575
▁스	-8.73599
매	-8.73624
▁전문	-8.73772
▁음식	-8.73959
▁업무	-8.7402
씨가	-8.74199
▁글로벌	-8.74441
▁서울특별시	-8.74479
▁발전	-8.74527
▁앞서	-8.74684
▁실	-8.75248
▁보면	-8.75311
▁앞으로	-8.7539
되면	-8.75492
▁되는	-8.75536
▁수도	-8.75637
절	-8.75733
시장	-8.7575
▁역시	-8.75757
▁소속	-8.76067
▁이에	-8.76118
▁구성	-8.76341
▁하지만	-8.76501
▁안전	-8.76583
▁그동안	-8.77399
▁사랑	-8.77663
각	-8.77699
▁위	-8.77904
장을	-8.78126
▁남북	-8.78215
▁영국	-8.78216
년간	-8.78252
▁있는데	-8.78261
▁기대	-8.78273
외	-8.78404
▁중인	-8.786
▁않을	-8.78699
추	-8.78859
▁준비	-8.79133
▁송	-8.79239
▁지정	-8.79297
인데	-8.7962
▁임	-8.7974
▁자동차	-8.79753
▁행정	-8.79881
t	-8.8033
▁각종	-8.80649
▁나타났다	-8.80658
▁인해	-8.80691
▁지난달	-8.80807
▁시행	-8.80911
▁물론	-8.81009
▁사고	-8.81057
A	-8.81065
▁학생	-8.81085
환	-8.81299
▁예	-8.81423
▁행사	-8.81473
▁적용	-8.8152
▁러시아	-8.8154
▁과정에서	-8.81618
▁경	-8.81663
▁수출	-8.81681
난	-8.81758
팀	-8.81875
▁규모	-8.8191
▁가지고	-8.8192
장이	-8.81976
▁편	-8.81977
▁각각	-8.82268
로부터	-8.82302
▁현장	-8.82419
▁강화	-8.82444
▁공급	-8.82489
▁증가	-8.82526
열	-8.82543
▁여	-8.82635
▁과거	-8.82637
하기로	-8.82778
▁만에	-8.82812
▁일반	-8.82851
편	-8.82923
워	-8.83062
▁있기	-8.83076
▁실제	-8.83111
▁나온다	-8.83301
▁일정	-8.83336
했어요	-8.83357
랑	-8.83404
▁받아	-8.83486
립	-8.83533
근	-8.83552
▁현지	-8.83655
▁주문	-8.83681
▁일자리	-8.83695
▁인기	-8.83777
▁공무원	-8.83851
이란	-8.84016
▁대비	-8.84039
되었다	-8.84117
▁그가	-8.84176
들에게	-8.84378
후	-8.84402
▁인터넷	-8.84466
▁관계	-8.84607
▁우선	-8.84694
▁기관	-8.84724
▁경기도가	-8.84733
처	-8.84755
▁아파트	-8.84804
▁만나	-8.84868
▁공연	-8.84881
▁받을	-8.85006
▁구매	-8.85015
▁영향을	-8.85095
▁여행	-8.85168
▁설명	-8.85174
▁영	-8.85217
▁알고	-8.85372
락	-8.85493
)’	-8.85574
백	-8.85624
S	-8.85679
▁계약	-8.85778
▁대통령은	-8.85828
▁왜	-8.85983
언	-8.86137
범	-8.86473
목	-8.86591
▁해요	-8.86603
론	-8.86758
▁전에	-8.86797
▁음악	-8.86843
했으며	-8.86899
▁있게	-8.86921
▁제공	-8.86971
▁업체	-8.86976
령	-8.87068
▁것도	-8.8716
▁게임	-8.87165
하던	-8.8717
▁인사	-8.87272
▁너	-8.87364
▁대상	-8.87484
▁백	-8.87533
▁인상	-8.87597
▁우	-8.87613
▁정보	-8.8792
▁없어	-8.8793
▁유지	-8.8794
▁같다	-8.88507
▁강조했다	-8.88536
▁최고	-8.8867
기도	-8.88878
들과	-8.88947
▁활성화	-8.89089
▁선택	-8.89127
▁이러한	-8.89636
도록	-8.89689
▁사실	-8.89732
▁주민	-8.89742
▁선수	-8.89764
▁독일	-8.89792
씨	-8.90063
▁눈	-8.90142
▁감	-8.90146
▁가능한	-8.90271
▁의원	-8.90282
▁않아	-8.90324
▁삼	-8.90377
P	-8.90473
▁보호	-8.9054
숙	-8.90562
▁선정	-8.90791
▁하루	-8.90941
▁서로	-8.90943
▁한국의	-8.91066
▁계획이다	-8.91118
경제	-8.91272
▁이야기	-8.91428
버	-8.91473
업체	-8.91561
▁구축	-8.91594
기관	-8.91619
▁협력	-8.9167
▁건물	-8.91705
순	-8.91734
▁찾아	-8.91798
▁변	-8.91928
▁경찰	-8.9198
▁변화	-8.92254
스트	-8.92271
▁중요한	-8.92497
다고	-8.92589
▁외국인	-8.92601
▁판단	-8.92736
▁목적으로	-8.9316
결	-8.93305
▁점	-8.93366
▁나라	-8.93425
대로	-8.93514
▁제작	-8.93987
▁중심으로	-8.94027
▁것이라는	-8.94079
▁이렇게	-8.94147
▁검토	-8.94175
B	-8.94334
달	-8.9448
▁변경	-8.94685
키	-8.94707
%)	-8.94735
사가	-8.94827
너	-8.95038
▁하며	-8.95042
▁나왔다	-8.95293
▁한다는	-8.95316
견	-8.95321
곡	-8.95335
▁알려졌다	-8.95573
▁건강	-8.95605
으면	-8.95729
▁고용	-8.95746
▁역할을	-8.95831
▁문재인	-8.95841
▁해결	-8.95902
▁해당하는	-8.95919
▁두고	-8.95919
▁주변	-8.95933
광	-8.95974
기술	-8.96011
망	-8.96158
▁최종	-8.96358
정책	-8.96611
▁마련	-8.96862
료	-8.96935
▁이동	-8.96938
▁논의	-8.97135
▁있어서	-8.97372
도지사는	-8.97412
▁전달	-8.9742
음	-8.97635
▁저희	-8.97644
채	-8.97701
▁조직	-8.97705
▁해야	-8.97709
마다	-8.97748
▁홍보	-8.97749
훈	-8.97795
성이	-8.97802
▁분석	-8.98276
한다는	-8.98283
변	-8.98293
성을	-8.98405
▁여자	-8.98522
표	-8.98531
▁이는	-8.98744
▁상승	-8.98836
▁이제	-8.9888
▁신고	-8.98893
▁황	-8.99291
▁피해	-8.99295
주의	-8.9944
▁요청	-8.99561
▁도내	-8.99581
K	-8.99626
졌다	-8.99678
말	-8.99755
▁막	-8.99894
▁핵심	-8.99903
▁모습을	-8.99983
▁국민	-9.00043
규	-9.0019
▁특별	-9.00234
▁받았다	-9.00355
▁어려운	-9.00382
자는	-9.00386
▁그룹	-9.00533
▁보도했다	-9.00791
▁위원	-9.00795
▁드라마	-9.0093
▁가진	-9.00972
▁수입	-9.00987
M	-9.01055
든	-9.01189
울	-9.01222
▁도로	-9.01237
▁달리	-9.01276
▁하지	-9.01309
▁상품	-9.01382
▁대응	-9.01408
▁호	-9.0157
▁매년	-9.01588
▁갖고	-9.01591
▁애	-9.01619
▁앞	-9.01639
▁전문가	-9.01686
▁번째	-9.01768
▁중구	-9.01785
▁규제	-9.01994
▁좋아	-9.02025
환경	-9.02064
▁수업	-9.02102
▁건설	-9.02119
▁금융	-9.02126
▁주택	-9.02139
▁브랜드	-9.02145
▁유럽	-9.0239
▁리	-9.02587
▁마을	-9.02765
▁선거	-9.03015
▁화	-9.0307
▁대신	-9.03084
▁중소기업	-9.03216
▁가능하다	-9.03259
▁상황에서	-9.03286
▁방송	-9.03326
투	-9.03682
▁온라인	-9.03715
▁일을	-9.03738
▁지방	-9.03817
씨는	-9.03957
▁받는	-9.03992
▁내일	-9.0401
▁공공	-9.04141
▁대하여	-9.0417
▁제대로	-9.0422
▁불법	-9.0426
▁있던	-9.04643
▁버스	-9.0469
▁되고	-9.04704
했을	-9.04752
▁진출	-9.04779
학교	-9.0479
독	-9.04822
▁윤	-9.0485
▁팀	-9.04976
▁조금	-9.05336
▁경영	-9.05343
▁대회	-9.05386
▁아이	-9.05425
▁문제를	-9.05477
▁연기	-9.0551
▁내년	-9.05637
▁기준	-9.05687
▁정도로	-9.05766
▁디자인	-9.05894
a	-9.05904
▁진	-9.05909
▁별지	-9.05967
액	-9.0618
▁구조	-9.0622
▁베트남	-9.06404
▁사업을	-9.06413
거리	-9.06461
▁협상	-9.06464
했다는	-9.06671
▁운동	-9.06686
하자	-9.06859
▁얼마나	-9.07036
▁표현	-9.07039
날	-9.07068
네요	-9.07122
▁개최	-9.07181
▁인천	-9.07312
▁비핵화	-9.07325
▁점을	-9.07351
담	-9.07382
▁평균	-9.07502
▁남자	-9.07508
▁활용	-9.07559
▁이전	-9.07947
▁감소	-9.07986
▁자신이	-9.08109
▁의미	-9.083
▁네가	-9.08345
▁회장	-9.0849
▁많다	-9.08685
▁영어	-9.08762
▁아니	-9.08869
▁전시	-9.08938
▁금	-9.0894
탄	-9.0902
플	-9.0905
▁우려	-9.09134
▁목소리	-9.09139
▁사실을	-9.09182
▁들	-9.09247
T	-9.0935
▁거쳐	-9.09426
▁시험	-9.09581
▁카	-9.09643
▁체험	-9.09729
▁가는	-9.09756
개발	-9.09794
▁예산	-9.09935
김	-9.0995
기가	-9.10009
년부터	-9.10045
이며	-9.1008
▁발생한	-9.10108
▁작성	-9.10191
▁부분	-9.10245
▁내부	-9.10288
▁여기	-9.10295
북	-9.1039
▁직원	-9.10393
▁관	-9.10473
▁청년	-9.10505
▁요구	-9.10569
L	-9.10607
▁그러나	-9.10627
▁평화	-9.10641
▁예약	-9.1068
릴	-9.10761
▁주장	-9.10915
까	-9.1104
하는데	-9.11214
▁한류	-9.1131
▁비해	-9.11439
▁거예요	-9.11457
▁반대	-9.11489
▁성과	-9.11554
▁장애인	-9.11563
지를	-9.11715
▁사건	-9.1175
▁됩니다	-9.11775
▁관련해	-9.11865
충	-9.11975
▁우리나라	-9.12034
▁시민	-9.12041
▁합의	-9.121
▁S	-9.1212
에선	-9.1228
▁바랍니다	-9.12287
▁은행	-9.12294
원이	-9.12387
▁상태	-9.12471
▁분야	-9.12497
암	-9.1261
▁거래	-9.12625
서를	-9.12709
▁교통	-9.12772
품	-9.12785
▁정부의	-9.12941
▁기본	-9.12961
기간	-9.13154
▁이상의	-9.13155
▁예상	-9.13156
덕	-9.13214
름	-9.13333
▁되	-9.13407
격	-9.13507
▁제출	-9.13509
▁치	-9.13569
긴	-9.13587
▁밤	-9.1359
▁후보	-9.13627
▁주장했다	-9.13657
▁프로그램	-9.13666
자를	-9.13673
▁호텔	-9.13698
▁현	-9.13712
▁질	-9.1395
▁혐의로	-9.13966
▁관광	-9.13978
▁예정	-9.13982
▁자유한국당	-9.14108
▁역	-9.14124
▁예술	-9.14166
▁민간	-9.14203
▁같아	-9.14208
▁광주	-9.14223
▁이들	-9.14227
▁인도	-9.14306
▁삼성	-9.14308
▁추천	-9.14395
▁등록	-9.14565
▁대형	-9.14745
▁부동산	-9.14781
▁취소	-9.14857
p	-9.14897
C	-9.14971
총	-9.15023
▁근무	-9.15072
▁추	-9.15185
▁그럼	-9.152
퍼	-9.15218
습	-9.1548
R	-9.15635
▁의견을	-9.15639
▁마지막	-9.15665
▁전화	-9.15699
▁성공	-9.15725
운영	-9.15741
▁책	-9.15765
▁대통령의	-9.15806
▁검찰	-9.1591
봉	-9.15936
▁적	-9.15972
▁혹시	-9.15981
▁맞	-9.15987
▁규정	-9.16039
▁전통	-9.16206
▁자체	-9.16214
▁미래	-9.16251
송	-9.16255
▁청소년	-9.16346
위를	-9.16388
여명이	-9.16449
▁프랑스	-9.16523
▁영상	-9.16647
▁넘	-9.16677
▁포함	-9.1675
정보	-9.16979
▁담당	-9.17032
▁거야	-9.17123
▁내용을	-9.172
▁중단	-9.17201
▁반영	-9.17234
경기	-9.17285
▁현대	-9.17425
▁교수	-9.17443
▁대해서는	-9.17475
▁못한	-9.17656
o	-9.17717
▁그것	-9.17756
▁회의	-9.17769
▁코	-9.1784
▁경쟁	-9.18018
▁화재	-9.18022
▁검사	-9.18146
▁참	-9.18189
▁길	-9.18196
▁미국의	-9.18348
▁공유	-9.18467
▁제한	-9.18504
▁사회적	-9.18628
▁시스템	-9.18664
▁홍	-9.18695
▁그녀는	-9.18711
▁모습이	-9.19059
▁시즌	-9.19085
▁내용	-9.19126
▁조정	-9.1913
합	-9.19192
▁없습니다	-9.19263
▁같아요	-9.1934
조사	-9.19386
▁전망이다	-9.19462
▁없었다	-9.19597
볼	-9.19626
▁가수	-9.19647
▁대부분	-9.19675
익	-9.19697
▁정치	-9.19711
▁고객	-9.19721
▁발견	-9.19787
▁당신	-9.19843
▁수립	-9.19878
▁자료	-9.19931
▁작은	-9.19946
km	-9.20055
▁혁신	-9.20074
i	-9.20079
▁쉽게	-9.20246
한다고	-9.20247
▁아시아	-9.20296
▁만든	-9.20563
▁공식	-9.20604
▁조선	-9.20639
▁결과를	-9.20694
개의	-9.20704
▁자리	-9.2072
하고자	-9.20774
▁공격	-9.20776
▁소개	-9.20852
▁팔	-9.20889
▁가정	-9.20894
▁콘텐츠	-9.20965
▁필요하다고	-9.20982
▁법률	-9.20987
막	-9.21017
▁정보를	-9.21209
▁꼭	-9.21213
공사	-9.21486
▁축제	-9.21567
향	-9.21572
▁지원을	-9.21824
▁취업	-9.21828
▁잠	-9.21864
▁제주	-9.21867
하지만	-9.21885
▁창업	-9.21913
N	-9.21915
▁에너지	-9.2193
▁이유로	-9.21936
▁안에	-9.21937
▁얘기	-9.22018
▁규정에	-9.22106
협회	-9.22151
▁앞두고	-9.22204
브	-9.22216
병원	-9.22262
▁부담	-9.22284
E	-9.22356
블	-9.22392
▁토	-9.2242
▁적극	-9.22463
▁의료	-9.22525
함	-9.22596
▁향후	-9.22662
▁광고	-9.22712
▁허	-9.22799
▁전환	-9.2282
돌	-9.22929
▁덧붙였다	-9.22942
▁도움이	-9.23051
▁않다	-9.23086
▁자기	-9.2312
▁자신	-9.23126
▁나서	-9.23388
▁연결	-9.23406
▁비롯해	-9.23482
계획	-9.23496
월부터	-9.23571
▁친	-9.23762
▁치료	-9.23829
▁거의	-9.23878
쳐	-9.23883
▁순	-9.23895
▁적이	-9.23895
▁위반	-9.23923
▁한다고	-9.23937
구청장	-9.23954
▁어제	-9.23978
g	-9.2405
▁스스로	-9.24135
▁목표	-9.24182
▁감독	-9.24183
▁실제로	-9.24364
지도	-9.24375
▁지적	-9.2442
▁확보	-9.24479
션	-9.24483
으로부터	-9.24485
인지	-9.24634
했는데	-9.24673
▁전망	-9.2469
항의	-9.24865
▁인근	-9.25001
▁삼성전자	-9.2505
▁촬영	-9.25093
▁설립	-9.25163
▁자연	-9.25214
▁달러	-9.25351
▁활동을	-9.25487
▁소비자	-9.25505
▁경기도는	-9.25507
▁여전히	-9.25671
조의	-9.25684
▁작업	-9.25719
▁중앙	-9.25722
▁제도	-9.25789
▁이유	-9.25848
▁되어	-9.25928
▁미세먼지	-9.2593
▁조치	-9.26116
▁항상	-9.26137
▁것에	-9.26156
▁있는지	-9.26334
겨	-9.26357
친	-9.26372
자의	-9.26372
링	-9.26463
▁필요하다	-9.26473
▁민주당	-9.26517
극	-9.26543
▁주세요	-9.26566
▁통합	-9.2663
렸다	-9.26746
지고	-9.26781
▁도는	-9.2691
▁심의	-9.26929
▁C	-9.26987
▁점검	-9.27001
▁심사	-9.27061
왕	-9.27203
▁넘는	-9.27236
▁지적했다	-9.2726
▁상황	-9.27267
▁공사	-9.27273
▁언론	-9.27426
▁시도	-9.27458
▁위해서는	-9.27469
▁회담	-9.27565
이라며	-9.27606
▁하는데	-9.27698
▁사이	-9.27704
압	-9.27846
▁신규	-9.27847
도시	-9.27903
▁역사	-9.28072
▁통과	-9.28185
축	-9.28249
▁폭	-9.28303
▁교	-9.2831
▁제안	-9.28346
▁아래	-9.28358
율	-9.28391
활동	-9.28448
▁인한	-9.28448
애	-9.28457
▁사람들	-9.28505
▁하락	-9.28539
그룹	-9.28715
평가	-9.28722
분기	-9.2876
▁제품을	-9.28784
골	-9.28813
),	-9.28865
테	-9.29008
y	-9.29036
▁실시	-9.29158
▁논란이	-9.29233
▁나섰다	-9.29273
▁협의	-9.29322
▁대한민국	-9.29333
별로	-9.29468
▁국	-9.29515
▁결국	-9.29614
은행	-9.29615
▁돌	-9.29648
찬	-9.29695
▁예방	-9.29709
▁담	-9.29835
▁기획	-9.2986
하기도	-9.29992
례	-9.30014
▁중에서	-9.30018
’(	-9.30061
▁통한	-9.30084
▁홍콩	-9.30084
취	-9.30123
▁이해	-9.30133
▁남성	-9.30175
▁출시	-9.3022
▁의원은	-9.30263
▁대출	-9.30278
▁민	-9.30281
▁암	-9.30383
n	-9.30389
▁위험	-9.3041
권을	-9.30503
▁한반도	-9.30506
▁행복	-9.30516
▁열리는	-9.30586
안전	-9.30594
▁키	-9.30662
▁자금	-9.30758
기는	-9.30857
대회	-9.30967
▁구청장이	-9.31045
▁한편	-9.31119
F	-9.31123
있는	-9.31146
▁어린이	-9.31158
▁연락	-9.31174
▁부과	-9.31229
되기	-9.31282
▁대구	-9.31299
▁상황이	-9.31304
▁종합	-9.31374
▁장관	-9.31397
▁의원이	-9.31466
▁직	-9.31478
▁곳이	-9.31516
기에	-9.31576
▁식	-9.31595
▁출신	-9.31642
▁동시에	-9.31706
▁제재	-9.31754
▁개정	-9.31772
회의	-9.31783
▁위원장은	-9.31816
필	-9.31889
▁타고	-9.31908
▁사전	-9.31923
메	-9.32028
/	-9.32178
▁귀	-9.32389
▁이란	-9.32429
&	-9.32472
이지만	-9.32492
▁맞아	-9.325
▁작품	-9.32516
▁청	-9.32532
▁그래서	-9.32563
나요	-9.32575
▁고민	-9.32664
▁종	-9.32677
수가	-9.32757
갈	-9.32759
▁비롯한	-9.32845
▁목	-9.32908
▁스마트폰	-9.3292
▁서비스를	-9.32921
▁말을	-9.33095
▁소재	-9.33097
▁최저임금	-9.33311
▁의해	-9.3346
▁보여	-9.33596
▁극	-9.33707
▁지속	-9.33709
▁사람은	-9.33831
았다	-9.33851
▁확산	-9.33938
▁인구	-9.33976
▁참석한	-9.3405
스타	-9.34091
▁이것은	-9.341
▁결제	-9.34312
▁외부	-9.34465
▁교회	-9.34497
▁한번	-9.34507
▁우수	-9.34551
▁부족	-9.3458
되며	-9.34697
▁정부는	-9.34769
발전	-9.34844
▁현실	-9.3487
▁의한	-9.35006
서비스	-9.35062
▁참가	-9.35105
위원	-9.35117
▁영업	-9.35133
슨	-9.35258
▁공장	-9.35305
▁명의	-9.35417
▁원하는	-9.35418
▁요즘	-9.35473
커	-9.3549
점을	-9.35606
▁넘어	-9.35637
함을	-9.35753
▁고려	-9.35882
▁인간	-9.35985
▁차례	-9.36002
▁하면	-9.36073
▁자유	-9.3612
대상	-9.36122
▁승리	-9.36194
런	-9.3621
▁그렇게	-9.36237
▁나의	-9.36286
▁경찰이	-9.3635
▁만들	-9.36392
▁도착	-9.36411
▁모델	-9.36475
▁피부	-9.36488
▁싶습니다	-9.36566
곳	-9.36568
▁선발	-9.36574
운동	-9.36577
H	-9.36616
줄	-9.36641
하세요	-9.36753
주는	-9.36872
▁기억	-9.36957
▁비판	-9.36993
▁위치	-9.3707
책	-9.37123
▁지원할	-9.37232
▁처음으로	-9.37241
▁자주	-9.37337
▁왕	-9.37385
▁낮	-9.37486
▁특별한	-9.37506
▁수행	-9.37506
▁재정	-9.37861
탈	-9.37871
▁입장을	-9.37913
▁범죄	-9.37947
▁한국어	-9.37961
▁관련된	-9.37975
▁평	-9.38123
▁보수	-9.38256
▁피해자	-9.38282
이자	-9.38366
▁보는	-9.38372
▁아주	-9.38426
▁불구하고	-9.38436
사를	-9.3845
▁메	-9.38553
▁아동	-9.38586
▁예산의	-9.38763
▁사진을	-9.38832
▁없을	-9.3886
▁내용이	-9.38899
▁상담	-9.38914
▁특정	-9.38943
▁기업이	-9.39199
다면	-9.39264
▁버	-9.39323
▁저녁	-9.39329
▁권	-9.39376
▁채용	-9.39421
▁정상	-9.39555
자로	-9.39585
▁인정	-9.39657
▁쓰	-9.39898
▁이유는	-9.399
▁빨리	-9.40038
▁비용	-9.40065
▁없다는	-9.40069
착	-9.4017
▁향	-9.402
▁맞는	-9.40311
악	-9.40355
▁도널드	-9.40363
▁소통	-9.40478
사회	-9.40523
▁결혼	-9.40532
▁설	-9.40551
손	-9.40588
협	-9.40594
▁참석	-9.40602
▁집에	-9.40704
▁통	-9.40728
▁축구	-9.4075
▁이들이	-9.40802
자에게	-9.40802
씩	-9.4083
▁지지	-9.40841
자들이	-9.4089
풍	-9.40935
▁위치한	-9.40974
▁"	-9.40976
보다는	-9.41014
▁아니다	-9.41082
▁그들은	-9.41245
했으나	-9.41277
촌	-9.41323
됩니다	-9.41356
▁못했다	-9.41441
공원	-9.41493
▁보도	-9.41538
▁돈을	-9.41605
▁창출	-9.41696
주택	-9.41745
▁위기	-9.41756
하려는	-9.41804
▁주로	-9.41837
▁학생들이	-9.41911
>	-9.41921
▁들어가	-9.41932
▁머리	-9.41952
▁사실이	-9.42046
▁절	-9.4206
▁숨	-9.42082
▁별	-9.42168
▁않는다	-9.42235
▁명이	-9.42302
능	-9.42309
연구원	-9.42333
▁위원장이	-9.4236
로서	-9.4241
▁배송	-9.42464
▁팬들	-9.42481
▁크다	-9.42525
대학교	-9.42588
▁공부	-9.42607
▁병원	-9.42679
족	-9.42748
움	-9.42763
▁마무리	-9.42774
▁수밖에	-9.42793
▁범위에서	-9.42994
▁M	-9.43097
▁육성	-9.43132
▁김정은	-9.43169
▁프로젝트	-9.43215
글	-9.43256
▁우려가	-9.43287
▁소비	-9.43364
▁아버지	-9.43375
▁좋아하는	-9.43474
▁유통	-9.43594
상을	-9.4361
▁G	-9.43708
▁의사	-9.43741
▁풍	-9.43789
▁포함한	-9.43923
빈	-9.43941
▁같습니다	-9.4396
▁노래	-9.43961
f	-9.44087
▁안내	-9.44101
▁원인	-9.44138
세요	-9.44151
▁만드는	-9.44201
▁<	-9.44423
▁나와	-9.44438
▁시절	-9.44441
d	-9.44485
▁말씀	-9.4453
▁모여	-9.44544
▁레	-9.44595
▁지나	-9.44631
▁해서	-9.44711
▁아침	-9.44731
▁몸	-9.44783
라도	-9.44806
▁나온	-9.44867
▁예상된다	-9.44874
▁출연	-9.44902
▁발표한	-9.44987
투자	-9.45034
으로서	-9.45038
▁천	-9.45113
▁더불어민주당	-9.45124
▁주는	-9.45166
▁언제	-9.45355
▁복지	-9.4538
▁유명	-9.45385
▁접	-9.45566
렌	-9.45587
▁경험	-9.45594
▁해도	-9.45663
▁노동	-9.457
패	-9.45738
▁따로	-9.45782
년에	-9.46047
▁보장	-9.46074
▁완화	-9.46134
▁연장	-9.46236
케	-9.46278
한국	-9.46284
▁알려	-9.46413
▁책임	-9.46428
▁밖에	-9.46444
▁인식	-9.4649
▁않도록	-9.46587
▁그것은	-9.46626
님	-9.46629
▁술	-9.46633
▁것과	-9.46801
택	-9.46805
▁베	-9.46816
대가	-9.46853
▁보다	-9.46864
겠다	-9.46876
균	-9.46924
하려고	-9.47069
삼	-9.47093
었습니다	-9.47094
:	-9.47174
▁병	-9.47185
▁있으면	-9.47198
▁학습	-9.47244
▁대화	-9.47506
윤	-9.47525
W	-9.47595
겠습니다	-9.47596
▁대규모	-9.47763
대표	-9.47793
▁조례는	-9.47897
▁엄마	-9.47914
회사	-9.4796
▁점에서	-9.47975
▁때는	-9.47997
▁이라크	-9.4801
달러	-9.48012
▁회복	-9.48061
▁못하고	-9.48108
▁어려움	-9.48155
▁판	-9.48172
새	-9.48175
▁지도	-9.48178
▁밀	-9.48197
기로	-9.48338
▁폐	-9.48366
▁장소	-9.48426
▁임명	-9.48426
록	-9.48478
위원장	-9.48519
▁금지	-9.48536
▁상대로	-9.48621
염	-9.48741
▁중에	-9.48853
▁살아	-9.48919
▁TV	-9.48921
찰	-9.49026
▁청구	-9.4905
▁먹	-9.49065
기준	-9.49115
▁기회를	-9.49122
▁호주	-9.49356
▁우리의	-9.49359
▁방안을	-9.49374
▁풀	-9.494
▁투	-9.49432
▁훈련	-9.49443
▁제시	-9.49549
▁한국에서	-9.49618
▁않습니다	-9.49797
죠	-9.49828
▁싶어	-9.49911
▁광	-9.50058
▁새로	-9.50181
제도	-9.50301
▁서울시	-9.50333
▁중이다	-9.50367
▁미리	-9.50398
▁위해서	-9.50417
▁핵	-9.50443
▁돼	-9.50459
▁환자	-9.50461
▁관계자	-9.5049
문을	-9.50582
▁상황을	-9.50596
▁사무	-9.50703
▁너는	-9.50728
▁동의	-9.50758
▁보안	-9.50803
해주세요	-9.50819
▁뿐	-9.50988
▁죽	-9.51011
금융	-9.51041
▁발굴	-9.5108
▁그대로	-9.51109
▁조치를	-9.51141
▁사례	-9.51158
▁걱정	-9.51166
▁단지	-9.51171
▁가구	-9.51172
비를	-9.51188
▁있었던	-9.51267
▁완료	-9.51468
갑	-9.51476
▁창	-9.51596
▁인증	-9.51612
▁늘	-9.51616
▁하나에	-9.51811
▁상대	-9.51838
밀	-9.5186
시켜	-9.51864
▁많아	-9.5188
▁복	-9.51922
▁효과가	-9.51946
▁의견	-9.51971
▁접수	-9.51998
▁내려	-9.5206
▁이번에	-9.52096
츠	-9.52131
라면	-9.52177
▁생	-9.5222
▁싶은	-9.52425
▁출석	-9.52558
▁전쟁	-9.52584
▁높다	-9.5264
▁사망	-9.5278
▁이야기를	-9.52828
l	-9.52867
혜	-9.52905
뿐	-9.52927
▁전략	-9.5294
▁정상회담	-9.53016
▁없다고	-9.53098
▁사는	-9.53157
▁가입	-9.53348
▁교체	-9.53378
▁행동	-9.53448
버스	-9.53686
▁돈	-9.5369
▁확정	-9.53728
▁순간	-9.53782
씨의	-9.53982
▁독립	-9.54139
▁노인	-9.54168
였던	-9.54303
▁경찰에	-9.54471
하겠다는	-9.54477
대학	-9.54505
▁이하	-9.54515
▁수도권	-9.54532
▁여기에	-9.54608
▁경쟁력	-9.54689
▁사용자	-9.54721
정부	-9.54818
려고	-9.5482
▁기념	-9.54825
▁택시	-9.54854
▁대표가	-9.54889
▁출발	-9.54939
▁강원도	-9.55013
▁할인	-9.55013
▁꿈	-9.55028
올	-9.55045
▁북한이	-9.55085
헌	-9.55186
▁지역의	-9.55325
▁행	-9.55469
▁놓고	-9.55476
▁긴급	-9.55523
▁외국	-9.55528
▁연속	-9.55709
▁급	-9.55728
▁감독이	-9.55741
▁만약	-9.55775
▁직무	-9.55805
▁최선	-9.55809
협력	-9.55823
▁보이는	-9.55824
▁위탁	-9.56006
명으로	-9.5601
함으로써	-9.56017
▁낮은	-9.56062
▁대표는	-9.56085
조원	-9.56192
▁전자	-9.56208
시간을	-9.5634
▁그림	-9.56343
▁향상	-9.56344
▁보였다	-9.56393
생활	-9.56512
▁탈	-9.56697
술	-9.5684
▁사실상	-9.56872
▁젊은	-9.56878
▁땅	-9.56929
▁태	-9.56933
u	-9.56934
▁수준	-9.57109
▁대통령과	-9.57128
▁맞춰	-9.5719
▁잘못	-9.57202
▁가능	-9.57275
년까지	-9.57291
쪽	-9.57308
혈	-9.57353
▁정확한	-9.57451
▁운영하는	-9.57489
▁지적이	-9.57517
▁전기	-9.57522
▁업계	-9.57539
▁검찰은	-9.57616
협의회	-9.57628
%,	-9.57734
하신	-9.57745
▁둘	-9.5783
▁반도체	-9.57849
▁강한	-9.57879
▁피해를	-9.57941
▁뉴욕	-9.57955
▁이들은	-9.57999
▁실무	-9.58018
▁힘을	-9.5803
▁거리	-9.58109
낸	-9.58221
수록	-9.58248
리는	-9.58276
▁곳	-9.58315
업계	-9.58373
만명	-9.58389
▁체	-9.584
▁나오는	-9.58474
▁왔다	-9.58494
▁받지	-9.58498
년대	-9.58589
학과	-9.58609
▁북미	-9.58639
력을	-9.5864
▁싶어요	-9.58645
▁곧	-9.58787
▁대만	-9.5879
▁농	-9.58809
▁표	-9.58838
▁이상이	-9.58838
▁의회	-9.5891
▁질문	-9.58932
▁맛	-9.58968
▁플랫폼	-9.58984
처리	-9.59056
▁되면	-9.59117
주년	-9.59142
▁동물	-9.59274
왔다	-9.59309
▁보니	-9.59354
▁찾는	-9.59426
X	-9.59432
▁주도	-9.59433
녀	-9.5945
▁해소	-9.59481
▁오히려	-9.59487
▁대법원	-9.59489
▁용	-9.59518
른	-9.59521
▁그녀	-9.59545
칠	-9.59564
▁입장	-9.59587
▁당신에게	-9.59732
▁성적	-9.59769
▁법인	-9.59828
▁회원	-9.59848
!	-9.59875
▁우승	-9.59957
▁딸	-9.59962
▁허가	-9.59975
본부	-9.59982
▁수요	-9.60003
측	-9.60023
▁이행	-9.6007
▁사항은	-9.60119
▁사용할	-9.60167
▁파악	-9.60192
▁나에게	-9.60195
▁신뢰	-9.60205
▁끝	-9.60354
▁배출	-9.60371
▁지금까지	-9.60487
▁P	-9.60495
▁싶	-9.60513
▁거부	-9.6053
서는	-9.60543
▁가격이	-9.60591
▁겸	-9.60595
▁업무를	-9.60702
▁것이에요	-9.60713
▁전혀	-9.60738
▁한국에	-9.60739
관계	-9.60816
▁정리	-9.60829
▁낙	-9.60902
▁소득	-9.60961
▁문제는	-9.60978
k	-9.61067
▁바란다	-9.61081
전을	-9.61161
▁직업	-9.61182
싱	-9.61212
비용	-9.61227
▁따	-9.61267
▁매일	-9.6129
▁글	-9.61317
▁재판	-9.61357
▁롯데	-9.6141
▁위촉	-9.61443
▁규모의	-9.61464
▁건축	-9.61513
혀	-9.61516
마을	-9.61592
▁유엔	-9.61602
▁얼마	-9.61606
▁위원은	-9.61735
▁설계	-9.61737
▁운행	-9.61764
▁작가	-9.61784
▁오래	-9.61851
화를	-9.6186
▁조건	-9.61907
▁벌	-9.6191
금을	-9.6191
▁매출	-9.6192
폐	-9.61942
보험	-9.61978
▁점이	-9.62082
▁한국인	-9.62084
▁투표	-9.6209
▁수정	-9.62123
▁되었다	-9.62128
▁희망	-9.62167
▁사람들은	-9.62281
시키는	-9.62308
▁공간	-9.62312
▁학	-9.62313
▁최초로	-9.62344
▁도전	-9.62376
▁선물	-9.62428
▁골	-9.62475
▁방안	-9.62476
▁대변인은	-9.62516
력이	-9.62717
O	-9.62742
니까	-9.62756
하겠습니다	-9.62883
식을	-9.6296
▁임금	-9.6298
▁방식으로	-9.62997
▁나가	-9.63143
도로	-9.63157
▁답변	-9.63181
▁스포츠	-9.6324
▁꽃	-9.63263
▁인도네시아	-9.63335
▁붙	-9.63355
▁올라	-9.63433
r	-9.63445
▁장비	-9.63593
▁매장	-9.636
행사	-9.63673
▁이와	-9.63684
▁논란	-9.63753
▁참여하는	-9.63786
었던	-9.63809
이번	-9.63838
▁컴퓨터	-9.63932
▁결	-9.63946
▁사용하는	-9.63963
▁전부	-9.63981
▁답	-9.63984
▁잡	-9.63998
▁여부를	-9.64063
▁독	-9.6407
▁통신	-9.64076
시스템	-9.64091
▁시기	-9.64092
이고	-9.64128
▁북한의	-9.64176
성과	-9.64208
▁떠나	-9.64248
▁배치	-9.64257
▁생각이	-9.64329
▁준	-9.64349
▁방침이다	-9.64413
옥	-9.64518
▁쉽지	-9.64562
▁소송	-9.64604
▁인력	-9.64633
▁보기	-9.64663
▁미국이	-9.6475
▁담긴	-9.64873
I	-9.64972
▁사람을	-9.65069
들도	-9.6513
▁것처럼	-9.65163
▁중국의	-9.65217
▁프로그램을	-9.65248
존	-9.6534
건설	-9.65353
▁발언	-9.65355
제를	-9.65366
▁교류	-9.65366
▁싱가포르	-9.65384
▁시작했다	-9.65387
▁요리	-9.65446
구조	-9.65556
▁여름	-9.65565
▁환	-9.65574
▁제기	-9.65716
▁열심히	-9.65746
감을	-9.65748
▁본다	-9.65884
▁뜻	-9.65954
▁속에	-9.65976
▁앞에서	-9.66087
▁사이에	-9.66103
▁되지	-9.66103
▁강남	-9.66111
▁모습	-9.66229
▁기회가	-9.66238
대를	-9.66242
▁경남	-9.6625
▁증거	-9.66279
h	-9.6636
▁위협	-9.66389
됐고	-9.66391
▁빠르게	-9.66435
▁있지	-9.66462
▁때까지	-9.66473
▁있	-9.66485
▁민원	-9.66487
▁운영에	-9.66534
▁반드시	-9.6654
하겠다	-9.66543
er	-9.66586
▁기금	-9.66624
▁식당	-9.66709
▁건가요	-9.6684
머	-9.6686
▁나도	-9.66861
▁D	-9.66863
완	-9.66948
소득	-9.66975
▁스타	-9.66984
▁체결	-9.67037
복지	-9.6706
▁혐의	-9.67122
▁못하는	-9.67189
▁겁니다	-9.67304
▁낸	-9.6732
▁대해서	-9.67328
▁부문	-9.67336
행정	-9.67417
문제	-9.67448
교회	-9.67463
▁적극적으로	-9.67505
▁물건	-9.67531
▁범위	-9.67534
학년	-9.67612
페	-9.67647
▁보상	-9.67655
▁식사	-9.67702
▁전용	-9.67714
했기	-9.67718
▁유치	-9.67751
▁눈에	-9.67775
레이	-9.67807
▁셈이	-9.67839
▁단계	-9.67844
▁물품	-9.67845
걸	-9.68032
▁마음을	-9.68033
▁바탕으로	-9.68043
▁형성	-9.68055
▁날씨	-9.68069
받은	-9.6811
▁최고의	-9.68113
▁콘서트	-9.68115
▁악화	-9.68136
▁인권	-9.68176
시에	-9.68178
분야	-9.68233
▁자리를	-9.68388
▁지속적으로	-9.68421
▁후에	-9.68429
▁밝힌	-9.68431
▁공공기관	-9.68499
공간	-9.68566
지구	-9.68583
▁지역에서	-9.68648
▁경험이	-9.68667
▁양국	-9.68676
농	-9.68718
▁곡	-9.68796
▁개혁	-9.688
함에	-9.68866
▁생명	-9.6893
▁지역에	-9.6897
▁특	-9.68971
▁장기	-9.69028
▁E	-9.69053
▁위원회의	-9.69065
홍	-9.69074
▁눈길	-9.69124
세를	-9.69199
제품	-9.69209
▁미군	-9.69217
▁주제로	-9.69222
▁미국과	-9.6925
▁한국당	-9.69268
▁이것	-9.69304
▁있을까요	-9.69469
▁판결	-9.69496
▁캐나다	-9.69563
베	-9.69578
▁데이터	-9.69818
▁인물	-9.69868
▁측은	-9.69875
▁국방부	-9.69946
▁교수는	-9.69955
▁블록체인	-9.69981
수를	-9.7
▁자료를	-9.70059
▁자녀	-9.70149
▁T	-9.70159
▁목적	-9.70256
세대	-9.70346
춘	-9.70361
▁처벌	-9.70428
▁기능	-9.70476
특	-9.70578
에게는	-9.70616
▁망	-9.7062
▁기반	-9.70648
냐	-9.70669
우리	-9.70742
▁정하는	-9.70744
만큼	-9.70753
▁않	-9.70754
▁전력	-9.70767
▁시장이	-9.70793
▁커피	-9.70801
▁혐의를	-9.70829
▁아이들	-9.70842
효	-9.70852
사는	-9.70947
▁연간	-9.71036
▁기초	-9.71098
▁앞에	-9.71105
▁갈등	-9.7116
▁전날	-9.71247
▁폭행	-9.71267
▁사과	-9.71444
▁빈	-9.71506
▁금리	-9.7155
▁이름을	-9.71571
▁특성	-9.71585
▁않으면	-9.71619
업무	-9.71621
▁무슨	-9.71664
▁입고	-9.71677
카드	-9.71701
▁대전	-9.71705
빙	-9.71707
▁사항	-9.71808
▁집행	-9.71912
▁부인	-9.71916
황	-9.7197
▁가서	-9.72045
▁바다	-9.72058
▁발표했다	-9.72059
▁빠른	-9.72097
으	-9.72128
스가	-9.7216
하다는	-9.72189
▁방식	-9.7219
▁잔	-9.72204
시장은	-9.7223
칭	-9.72237
▁존	-9.72247
쿠	-9.72267
하겠다고	-9.72301
▁패	-9.72332
▁중심	-9.72372
▁합	-9.72381
▁부위원장	-9.72395
▁표시	-9.72427
▁경북	-9.72535
▁협조	-9.72613
뿐만	-9.72678
일간	-9.72822
▁비행기	-9.72852
▁교사	-9.72892
▁국립	-9.72892
▁중요	-9.72941
개국	-9.72957
▁카드	-9.72974
▁허용	-9.72991
▁도지사	-9.73003
▁없	-9.73018
▁속도	-9.73053
니다	-9.73077
▁오른	-9.73092
▁존재	-9.73199
▁이용해	-9.73505
▁통일	-9.7351
▁속에서	-9.73561
▁팬	-9.73587
연구	-9.73659
▁평양	-9.73732
▁노조	-9.73788
▁철	-9.7383
▁수용	-9.73976
▁끝난	-9.73981
량이	-9.74021
▁출전	-9.74099
▁기사	-9.74113
들에	-9.74156
▁초기	-9.7416
▁신경	-9.74191
▁운전	-9.74379
련	-9.7439
▁힘	-9.7442
▁연계	-9.74423
놓	-9.74435
월에	-9.74468
▁깨	-9.74549
▁소리	-9.74683
▁군사	-9.74724
▁하기	-9.74741
▁달라	-9.7475
방송	-9.74825
감독	-9.74826
▁의심	-9.7486
▁사고가	-9.74907
▁분양	-9.74928
▁제출하여야	-9.74979
▁R	-9.75088
▁길이	-9.75091
▁제주도	-9.75141
▁스페인	-9.75179
▁즐길	-9.75217
▁이달	-9.75247
▁취	-9.7525
▁도민	-9.75282
▁제공하는	-9.75362
▁안에서	-9.75363
▁달성	-9.7542
▁겨울	-9.75441
▁울	-9.75441
U	-9.75504
▁근로자	-9.75569
▁봉	-9.7563
스러운	-9.75671
▁이내에	-9.75685
▁보관	-9.75693
▁주거	-9.75698
라며	-9.75775
법인	-9.75778
▁반면	-9.75806
폭	-9.75847
▁대기업	-9.7595
▁추가로	-9.75974
▁투입	-9.76081
▁방법	-9.76092
▁초과	-9.76096
▁인수	-9.76098
▁뭐	-9.76108
시킬	-9.76178
▁그냥	-9.76237
▁일상	-9.76306
▁이벤트	-9.7632
▁공모	-9.76348
▁디지털	-9.76355
▁재산	-9.76382
▁지원하는	-9.76406
한다면	-9.76413
▁멕시코	-9.76441
▁의혹	-9.76476
▁품질	-9.76505
▁카페	-9.7651
납	-9.76616
▁위원회	-9.76639
▁과정	-9.76658
률	-9.76706
침	-9.76827
▁당신을	-9.76828
▁지시	-9.76932
▁보통	-9.76965
▁마음	-9.77007
▁부상	-9.77022
▁동영상	-9.77063
▁아들	-9.7709
▁했습니다	-9.77121
▁소방	-9.77165
▁없어요	-9.77191
▁절반	-9.77201
▁훨씬	-9.77239
▁나를	-9.7727
▁마케팅	-9.77297
▁무엇보다	-9.77324
▁카메라	-9.77328
▁모바일	-9.77351
▁무역	-9.77478
▁차이가	-9.77495
V	-9.77547
▁발행	-9.77563
가지	-9.77639
▁없고	-9.77653
▁H	-9.77668
지가	-9.77677
▁터키	-9.77683
까요	-9.7769
▁접근	-9.77691
구역	-9.77694
▁지구	-9.77721
▁화제	-9.77756
▁사건이	-9.77788
▁있다면	-9.77816
▁부여	-9.7782
an	-9.77826
▁대기	-9.77857
자금	-9.77861
▁실적	-9.77932
▁석	-9.77936
▁보이고	-9.78003
낼	-9.78045
▁프로	-9.78063
점이	-9.78104
▁수수료	-9.78117
▁가야	-9.7814
▁SK	-9.78176
▁기준으로	-9.78181
▁듯	-9.78183
▁웃	-9.78199
▁부모	-9.78237
▁후보자	-9.78255
▁승인	-9.78266
▁입주	-9.78273
해온	-9.78284
겠다는	-9.78287
▁제일	-9.78328
▁예측	-9.78349
▁무대	-9.78359
▁페	-9.78375
▁충분히	-9.7838
▁원내대표	-9.78457
▁완성	-9.78459
▁언급	-9.78471
물을	-9.78506
▁전해졌다	-9.78528
▁발생했다	-9.78569
▁좋다	-9.78698
▁오늘은	-9.78702
▁계획을	-9.78703
욱	-9.78771
▁관세	-9.78776
주세요	-9.78779
원은	-9.78786
▁참여한	-9.78885
▁관하여	-9.78889
▁수술	-9.79024
섭	-9.79025
하다고	-9.79098
대책	-9.79171
▁먹고	-9.7919
▁회장이	-9.79208
▁정신	-9.79235
or	-9.79262
▁특수	-9.79317
비가	-9.79473
분의	-9.79502
▁대체	-9.79523
▁직후	-9.79605
▁수가	-9.79646
▁싶다	-9.79677
도움을	-9.7974
▁스마트	-9.79747
▁결과가	-9.79773
▁크기	-9.79796
임을	-9.79832
▁장면	-9.79848
▁가치	-9.79851
▁후반	-9.80086
▁태국	-9.80096
▁생각한다	-9.80106
▁사이트	-9.80125
▁나머지	-9.80133
사의	-9.80148
▁서류	-9.80167
▁노동자	-9.80182
누	-9.80182
▁'	-9.8019
▁시작한	-9.80202
사진	-9.80208
▁밝	-9.80269
▁선언	-9.80412
▁F	-9.8057
▁들고	-9.80582
단이	-9.80584
▁주말	-9.80598
▁씨	-9.80703
▁캐릭터	-9.8073
▁세대	-9.80775
▁계	-9.80824
▁즉시	-9.80856
▁루	-9.80862
▁구입	-9.80894
▁SNS	-9.80937
하려	-9.80948
▁했어요	-9.80954
▁완	-9.80955
▁과정을	-9.80959
▁일단	-9.80982
▁교육감	-9.80985
▁보험	-9.81044
▁그러	-9.81063
▁등은	-9.81072
▁계산	-9.81094
▁유명한	-9.811
으나	-9.81159
▁공항	-9.81159
▁유치원	-9.81201
▁아름다운	-9.8133
보호	-9.8138
▁메뉴	-9.8138
▁반복	-9.81385
▁통화	-9.81406
▁헤	-9.81429
과정	-9.8143
공무원	-9.81472
▁최대한	-9.81503
▁진술	-9.81529
▁데뷔	-9.81534
알	-9.81558
▁많았다	-9.81566
▁다소	-9.81573
▁절대	-9.8169
▁오바마	-9.81691
징	-9.81711
이기	-9.81737
▁종료	-9.81776
▁만들기	-9.81815
▁일대	-9.81818
▁그들의	-9.81827
▁시각	-9.81841
▁가까운	-9.81897
▁밝혀	-9.81923
시는	-9.81925
▁비상	-9.81958
▁식품	-9.82089
▁방문해	-9.82129
▁놀	-9.82149
▁끼	-9.82173
나무	-9.82187
▁부분이	-9.82244
재단	-9.82244
▁도서관	-9.82257
▁뉴스	-9.82281
▁커	-9.82286
▁시장에서	-9.82305
기구	-9.82338
▁테러	-9.82353
돈	-9.82353
척	-9.82394
▁위원장	-9.8243
▁열고	-9.82455
읍	-9.82461
▁디	-9.82475
자와	-9.82487
차례	-9.8256
▁기업의	-9.82563
▁대책	-9.82612
조사를	-9.82638
▁혼자	-9.8267
관광	-9.82765
했	-9.82846
▁시위	-9.82911
되자	-9.82923
▁브라질	-9.8295
▁응	-9.82966
▁행사를	-9.83025
▁멤버	-9.83106
육	-9.83195
▁나무	-9.83198
▁좋지	-9.83199
▁부진	-9.83235
▁반발	-9.83257
▁LG	-9.8331
퇴	-9.83328
▁사무실	-9.83336
▁축하	-9.83352
▁상당	-9.8339
▁이미지	-9.83476
▁압박	-9.83483
▁규칙	-9.83484
▁구속	-9.83495
몰	-9.83521
▁인생	-9.83545
▁비슷한	-9.83549
▁강제	-9.83576
▁참석했다	-9.8358
▁졸업	-9.83607
▁의결	-9.83654
▁의미가	-9.83697
▁지금은	-9.83712
▁나올	-9.83741
▁중요하다	-9.83755
▁기대된다	-9.83776
▁아내	-9.83841
▁쓴	-9.83898
이었던	-9.83962
▁모집	-9.84099
국가	-9.84107
갔	-9.8412
▁의하여	-9.84143
▁진입	-9.84149
치는	-9.84149
진다	-9.84187
▁주제	-9.84218
▁장관이	-9.84232
▁때마다	-9.84243
▁사건을	-9.84282
▁정비	-9.84333
▁정치적	-9.84347
적이고	-9.84393
▁노출	-9.84406
▁악	-9.84425
▁지자체	-9.84431
▁하다	-9.84435
▁계기	-9.84441
re	-9.84442
▁떠	-9.8448
▁누	-9.84503
▁폭발	-9.84581
없이	-9.84584
▁사태	-9.84612
공단	-9.84638
▁제조	-9.84667
인가요	-9.84682
단지	-9.84683
상의	-9.84697
▁전남	-9.84708
▁높이	-9.84743
되	-9.84754
▁대중	-9.84758
▁가능성	-9.84762
▁옷	-9.84764
▁기술을	-9.84789
시부터	-9.8489
▁걸쳐	-9.84958
자원	-9.84965
▁찍	-9.85009
▁징계	-9.85013
▁봄	-9.85023
톤	-9.85046
▁인기가	-9.85065
▁먹는	-9.85076
세기	-9.85081
▁생각합니다	-9.85095
▁충격	-9.85104
▁대표팀	-9.85186
▁친환경	-9.85243
국장	-9.85263
▁비난	-9.85314
▁의지	-9.85315
in	-9.85329
▁교육을	-9.85357
▁도와	-9.85367
위에	-9.85377
▁전면	-9.8541
▁초청	-9.85457
▁꾸준히	-9.85554
▁홈페이지	-9.85558
연구소	-9.85581
▁있었습니다	-9.85614
▁취지	-9.85619
▁집단	-9.8563
벽	-9.85694
청장	-9.8571
됐던	-9.8571
▁검증	-9.8572
▁확장	-9.85729
▁선수들	-9.85766
▁열어	-9.85775
▁일어나	-9.8583
가격	-9.85838
▁부탁	-9.85885
▁징수	-9.85929
▁검찰이	-9.86003
▁변호사	-9.86056
▁내에서	-9.86114
▁과학	-9.86179
▁그때	-9.86207
사고	-9.86243
▁교육부	-9.86283
객	-9.86286
인들이	-9.8635
▁이용할	-9.86384
어야	-9.86407
으니	-9.86497
틀	-9.86542
▁살고	-9.86552
▁회계	-9.8659
▁아무	-9.86591
부서	-9.86709
▁재난	-9.86745
어서	-9.86752
검사	-9.86768
치를	-9.86771
▁실현	-9.86802
▁부서	-9.86806
▁안정	-9.86814
▁행위	-9.86857
▁나선	-9.86892
▁어디	-9.86975
▁장관은	-9.86991
▁근	-9.87004
▁위에	-9.87038
▁납부	-9.8709
▁배경	-9.87103
▁상황이다	-9.87111
개소	-9.87125
월까지	-9.87127
벌	-9.87136
능력	-9.87167
▁정책을	-9.87181
▁토지	-9.872
▁설정	-9.87211
명은	-9.87223
▁얼굴	-9.87253
▁태풍	-9.87256
▁말고	-9.87262
▁진행된	-9.87302
w	-9.87319
al	-9.87383
단계	-9.87387
▁총리	-9.87405
▁근거	-9.87414
킹	-9.87472
기금	-9.87538
안을	-9.87556
▁효과를	-9.87595
▁응원	-9.87599
▁앱	-9.87624
▁순위	-9.87653
▁그들이	-9.87758
▁힘들	-9.87786
▁폐지	-9.87797
▁남아	-9.87804
▁소유	-9.8782
▁정당	-9.87838
▁주소	-9.87907
▁법원	-9.87954
▁기대하고	-9.87968
▁평가를	-9.8797
▁마음이	-9.8797
▁비가	-9.881
▁포장	-9.88168
▁남편	-9.88294
▁출	-9.88316
▁전까지	-9.88376
▁노선	-9.88552
▁이곳	-9.8856
▁약속	-9.8867
▁시군	-9.88684
▁불러	-9.88775
▁때문입니다	-9.88779
▁갑자기	-9.88919
▁연출	-9.88939
▁최소	-9.88955
▁이름	-9.89011
▁여야	-9.89019
▁분위기	-9.89022
원의	-9.89029
핑	-9.89084
▁격	-9.89097
표를	-9.89114
▁감정	-9.89199
▁집에서	-9.89201
▁기록했다	-9.89214
있다	-9.89275
▁나오고	-9.89308
▁만난	-9.8932
팅	-9.89349
▁행사가	-9.89365
▁규정함을	-9.89415
▁강남구	-9.89446
▁사상	-9.89513
c	-9.89543
▁참석해	-9.89613
▁분석이	-9.89649
~	-9.89745
▁확인할	-9.89782
▁외교	-9.89831
▁가게	-9.8987
스는	-9.89873
상품	-9.89916
▁새벽	-9.8994
▁시행령	-9.89962
▁자산	-9.90065
▁경제적	-9.90066
▁이들의	-9.90109
▁운용	-9.90123
▁실패	-9.90128
혁	-9.90216
▁여기서	-9.90224
국제	-9.90242
곤	-9.90243
▁진단	-9.90278
▁신문	-9.90286
▁국회의원	-9.90296
랜드	-9.90348
▁차지	-9.90478
힌	-9.90489
▁상반기	-9.90491
▁구성된	-9.90492
▁상호	-9.90535
▁언어	-9.90549
▁불안	-9.9057
▁휴	-9.90591
딩	-9.90593
▁대선	-9.90627
▁처음이다	-9.9067
▁수원	-9.90687
▁아니냐	-9.90698
▁월드컵	-9.90729
▁지식	-9.90731
▁완전히	-9.90736
▁말이	-9.90758
계약	-9.90761
▁과제	-9.9079
▁의견이	-9.90811
▁조기	-9.9084
▁알게	-9.9087
▁시장에	-9.90897
▁의혹을	-9.90898
▁밥	-9.90936
▁있습니까	-9.90981
돼야	-9.91001
억원을	-9.9105
율이	-9.91058
탕	-9.91075
▁열린다	-9.91076
▁들어서	-9.9109
▁정권	-9.91095
▁주민들	-9.91127
▁앨범	-9.91241
▁절차	-9.91248
▁알아	-9.91255
▁나이	-9.9129
▁기부	-9.91341
▁결론	-9.91387
축제	-9.91392
선을	-9.91405
▁현장에서	-9.91423
▁센터	-9.91423
거래	-9.91473
시설을	-9.91539
▁주의	-9.91552
득	-9.91553
▁무료	-9.91647
▁수요가	-9.91659
▁어머니	-9.91673
▁수많은	-9.91686
▁하여야	-9.91687
▁활약	-9.91695
▁건립	-9.91765
흐	-9.91772
개를	-9.91832
혼	-9.91846
▁책을	-9.91854
▁강원	-9.91917
▁수상	-9.91928
번째	-9.9199
▁퍼	-9.92006
▁여부	-9.92026
▁방향	-9.92027
▁후원	-9.92043
▁가고	-9.92124
시켰다	-9.92221
▁섬	-9.92248
▁발생하는	-9.92257
한테	-9.92309
▁혼	-9.92355
▁구청장에게	-9.92368
▁연주	-9.92425
▁아이디어	-9.92467
▁뜻을	-9.92558
▁시대	-9.92623
▁처	-9.92636
▁등에서	-9.92655
▁대북	-9.92685
▁상대적으로	-9.92694
▁오랜	-9.92695
▁별표	-9.92696
지방	-9.92698
▁농업	-9.92708
▁돌아가	-9.92774
▁줄어들	-9.92806
장에서	-9.9285
▁불편	-9.92868
▁바른미래당	-9.9287
▁터	-9.92882
▁N	-9.92895
호에	-9.92895
▁드러났다	-9.92895
회를	-9.92951
▁듣고	-9.93042
가구	-9.93057
장과	-9.93065
▁몰	-9.93108
훈련	-9.93119
▁공개된	-9.93152
▁구체적인	-9.93207
▁누구	-9.93292
같은	-9.93306
▁적은	-9.93316
▁손을	-9.93327
▁시작된	-9.93342
▁길을	-9.93354
▁자전거	-9.93355
▁먹을	-9.93407
▁자체가	-9.93431
▁곳에	-9.93458
혹	-9.93471
었고	-9.93479
▁알려진	-9.93571
▁쌓	-9.93574
▁실험	-9.93613
▁삶의	-9.93618
▁선고	-9.93681
▁보낸	-9.93689
해도	-9.93691
▁기자	-9.9374
원을	-9.93801
▁미만	-9.9381
하되	-9.93822
▁주고	-9.93851
▁관람	-9.93853
▁기여	-9.93874
▁했지만	-9.93879
감이	-9.93901
▁형	-9.93915
시티	-9.9396
▁기타	-9.93973
▁벌써	-9.93984
▁종교	-9.93998
▁기회	-9.94001
▁직장	-9.94017
▁있어야	-9.94113
▁매체	-9.9412
▁수집	-9.94142
▁전시회	-9.94162
신청	-9.94169
▁미술	-9.94235
▁주인공	-9.94332
▁기대한다	-9.94332
▁일부를	-9.94336
▁토론	-9.94395
▁개별	-9.94411
Y	-9.94493
잡	-9.94508
▁검	-9.94643
▁해제	-9.94645
▁인터뷰	-9.94649
▁교환	-9.9465
폰	-9.94692
드리	-9.94721
▁요금	-9.9478
▁힘든	-9.94787
▁이사장	-9.94813
되었습니다	-9.94843
회장	-9.94881
▁주식	-9.94911
▁커지고	-9.94911
▁필리핀	-9.94945
▁재개	-9.94973
탁	-9.94991
혁신	-9.95038
여성	-9.95045
년이	-9.95098
됐지만	-9.95101
▁남은	-9.95123
최	-9.95139
▁모두가	-9.95143
▁우주	-9.95146
▁그린	-9.95146
▁향해	-9.95162
▁평소	-9.95189
▁의무	-9.952
▁승	-9.95234
▁사장	-9.95269
장으로	-9.95293
▁상장	-9.95298
▁사업이	-9.95315
▁포함된	-9.95498
▁올림픽	-9.95649
▁참여해	-9.95655
▁특징	-9.95707
화가	-9.95772
때	-9.95836
▁북부	-9.95887
▁부족한	-9.95934
▁어려워	-9.96008
▁정기	-9.96059
리가	-9.96105
▁피해가	-9.96141
▁단속	-9.96187
씨를	-9.96227
▁백악관	-9.96241
▁대부분의	-9.96289
수사	-9.96318
▁지연	-9.96351
▁증시	-9.9637
▁사업에	-9.96395
아이	-9.96395
지지	-9.96398
▁개입	-9.96415
▁통보	-9.96453
▁수사를	-9.96464
리그	-9.96464
▁부정	-9.96466
▁부탁드립니다	-9.96478
▁메일	-9.96483
▁벽	-9.96523
▁영역	-9.9653
됐으며	-9.96578
제가	-9.96672
셔	-9.96722
▁고발	-9.96767
▁부품	-9.96801
▁차관	-9.96805
웅	-9.96829
사항	-9.96837
컵	-9.96844
조차	-9.96848
▁갖춘	-9.96853
이어서	-9.96881
▁따른다	-9.96883
시민	-9.96885
했어	-9.96895
▁기계	-9.96919
▁주관	-9.96959
더라도	-9.97084
▁작년	-9.97145
▁점점	-9.97176
▁지하철	-9.97201
▁빌	-9.9721
검	-9.97214
▁제품이	-9.97232
명과	-9.97377
▁필	-9.97388
슬	-9.97474
▁새롭게	-9.97515
▁주민들이	-9.9756
상담	-9.97577
▁가득	-9.97656
▁공정	-9.97671
쯤	-9.97705
해왔다	-9.97747
서울특별시	-9.9781
▁일제	-9.97843
▁주목	-9.97854
▁자문	-9.97938
▁포함해	-9.97976
▁이어질	-9.98028
▁삶을	-9.98058
▁진행된다	-9.98075
사와	-9.98098
됐다고	-9.98105
람	-9.98108
▁육	-9.98123
흥	-9.98153
▁받아야	-9.98154
가요	-9.98172
전문	-9.98198
▁역량	-9.98281
▁유출	-9.98306
▁책임을	-9.98311
▁출장	-9.9832
▁중간	-9.98322
▁발급	-9.98344
관련	-9.98354
하려면	-9.98363
▁세상	-9.98381
▁의뢰	-9.98391
▁공연을	-9.98397
죄	-9.98423
▁모양	-9.98451
▁둔	-9.98475
해주는	-9.98542
보고	-9.98626
▁미국에서	-9.98639
호선	-9.98662
▁외에	-9.9867
쇼	-9.98745
▁않아요	-9.98752
▁강력한	-9.98763
▁참고	-9.98825
v	-9.98833
▁인천광역시	-9.98874
▁현상	-9.98972
▁비용을	-9.99037
▁방법을	-9.99044
▁L	-9.99045
▁암호화폐	-9.99064
▁가능성을	-9.99109
▁확인됐다	-9.99193
▁심각한	-9.99324
▁담은	-9.99387
▁내에	-9.99396
on	-9.99448
▁가까이	-9.9948
군이	-9.99529
▁저에게	-9.99532
▁내리	-9.9958
듯	-9.99643
쳤	-9.99743
▁인재	-9.99763
▁개편	-9.99771
▁쓸	-9.99779
엄	-9.9981
행위	-9.99826
▁지하	-9.99838
▁일찍	-9.99852
▁오픈	-9.99975
▁하겠습니다	-9.99998
룸	-10.0004
▁있을지	-10.0011
▁노사	-10.0015
사건	-10.0017
▁장애	-10.002
TV	-10.0022
▁종목	-10.0022
예술	-10.0025
▁충	-10.0032
▁만족	-10.0035
▁연습	-10.0037
▁봐	-10.0037
▁쪽	-10.0039
▁그리	-10.0043
▁취임	-10.0045
▁대표적인	-10.0046
법을	-10.0049
▁기능을	-10.0052
▁출범	-10.0064
▁이스라엘	-10.0081
▁출입	-10.0085
▁말하는	-10.0086
▁철도	-10.0089
▁중국이	-10.0092
▁폭염	-10.0093
▁강사	-10.0093
▁시선	-10.0093
▁지출	-10.0098
회관	-10.0099
만원을	-10.0103
먼	-10.0104
▁역할	-10.0108
▁말레이시아	-10.0116
▁끝에	-10.0119
값	-10.0128
▁전반	-10.013
▁같	-10.0132
체험	-10.0137
콜	-10.0142
▁의식	-10.0148
▁만날	-10.0153
▁구분	-10.0153
▁써	-10.0157
나는	-10.0157
Pop	-10.0161
지원센터	-10.0161
▁제거	-10.0168
▁야	-10.0169
시키고	-10.0172
▁한국과	-10.0176
▁구간	-10.018
▁안건	-10.0186
관이	-10.0186
▁난민	-10.019
▁떨어진	-10.019
▁광주시	-10.019
▁만한	-10.0191
▁포기	-10.0199
▁겪고	-10.02
있	-10.02
주가	-10.0205
분쯤	-10.0205
▁의장	-10.021
▁충돌	-10.0216
▁협약	-10.0216
▁누구나	-10.0222
▁청소	-10.0224
센	-10.0226
▁I	-10.0229
▁것인지	-10.0231
▁참여할	-10.0233
▁어렵다	-10.0235
▁이유가	-10.0243
▁야당	-10.0243
▁자격	-10.0245
▁우수한	-10.0249
률이	-10.0252
▁다수	-10.0253
▁알려져	-10.0255
감사	-10.0256
▁상황에	-10.0259
경기도	-10.026
▁감독은	-10.0262
▁발생할	-10.0264
궁	-10.0265
▁통제	-10.0266
공연	-10.0268
▁스타일	-10.0269
주기	-10.0269
▁관련한	-10.0274
▁깊은	-10.0275
▁비교	-10.0286
▁하나요	-10.0299
▁생각을	-10.0306
▁정한	-10.0307
▁지급할	-10.0308
▁스타트업	-10.0309
▁미디어	-10.031
▁부시	-10.0314
▁원활	-10.0316
었어요	-10.0326
장관	-10.0326
뉴	-10.0326
▁못해	-10.0327
▁형태	-10.0327
▁혹은	-10.0327
▁누가	-10.0334
부가	-10.034
▁개방	-10.0341
▁가동	-10.0345
▁국내외	-10.0348
▁관객	-10.035
리아	-10.0352
▁추진하는	-10.0354
▁이탈리아	-10.0359
▁여행을	-10.0366
▁문건	-10.0366
공항	-10.0367
지로	-10.0368
▁되나요	-10.037
▁보급	-10.0371
▁파일	-10.0379
▁공감	-10.0384
▁클럽	-10.0386
▁기자회견	-10.0387
▁느	-10.0388
얼	-10.039
▁사안	-10.0393
▁마치	-10.0394
▁빠져	-10.0394
▁W	-10.0397
▁오르	-10.0397
▁특징이다	-10.0402
▁다리	-10.0407
▁필요하다는	-10.0407
▁자원	-10.0409
▁보조	-10.041
▁색	-10.0417
▁입학	-10.0419
▁부지	-10.0428
▁봤	-10.0428
미국	-10.0428
▁점이다	-10.0428
▁주차	-10.0435
▁당장	-10.0439
▁해석	-10.0444
▁문서	-10.0444
▁서명	-10.0445
▁구글	-10.0448
▁사업자	-10.0453
치고	-10.0456
▁제외한	-10.0457
▁신설	-10.0457
▁불과	-10.0457
했는지	-10.0461
▁효과	-10.0462
선수	-10.0462
▁비밀	-10.0464
▁항공	-10.0464
▁어린이집	-10.0466
▁인프라	-10.0471
▁많	-10.0472
▁시점	-10.0474
▁컨	-10.0477
▁법령	-10.0482
▁열렸다	-10.0484
겠다고	-10.0486
▁패션	-10.0487
▁좌	-10.0492
▁실천	-10.0506
▁선수들이	-10.0513
▁전북	-10.0514
▁선임	-10.0516
▁관객들	-10.0522
▁만들고	-10.0525
▁일주일	-10.0527
▁환불	-10.0529
▁보완	-10.0541
▁전년	-10.0554
▁있음을	-10.0574
▁고위	-10.0577
▁뒤에	-10.0581
밖에	-10.0582
▁부부	-10.0594
▁문의	-10.0594
전에	-10.0595
▁뉴	-10.0595
힐	-10.0597
b	-10.0597
▁분리	-10.0599
세가	-10.0604
▁방지	-10.0605
▁옆	-10.0605
▁의혹이	-10.062
사업을	-10.0625
▁그러면	-10.063
▁임대	-10.063
▁기소	-10.0633
▁탄	-10.0634
▁놀이	-10.0635
▁양성	-10.0635
▁화장품	-10.0637
귀	-10.0641
▁드	-10.0652
▁전문가들은	-10.0663
▁샘플	-10.0665
사무	-10.0675
▁어린	-10.0676
앤	-10.0676
▁측정	-10.0681
▁본사	-10.0682
▁쉬	-10.0684
▁좋을	-10.0685
▁저희가	-10.0686
▁올린	-10.0687
▁변화가	-10.0687
▁노력하여야	-10.0688
▁보유한	-10.0691
▁원래	-10.0692
ar	-10.0701
▁차단	-10.0701
▁늘어난	-10.0708
앙	-10.0708
▁요소	-10.0709
▁올랐다	-10.0711
회의를	-10.0715
▁분야에서	-10.0718
욕	-10.0718
원으로	-10.0723
▁네트워크	-10.0724
전이	-10.0736
▁그래도	-10.0737
▁상영	-10.0738
▁높아	-10.0738
▁나선다	-10.0738
휴	-10.0741
▁뇌	-10.0744
▁총괄	-10.0745
▁경기도와	-10.0748
째	-10.0754
▁보일	-10.0761
▁그간	-10.0763
▁경기를	-10.0768
▁문제로	-10.0777
페이	-10.078
웨이	-10.0785
밥	-10.0789
▁민족	-10.0794
되어야	-10.0796
▁긴	-10.0799
함이	-10.0801
▁차이	-10.0805
▁했는데	-10.0806
▁될까요	-10.0807
▁옮겨	-10.081
▁훼손	-10.081
▁개설	-10.0814
▁씨가	-10.0818
▁성인	-10.082
▁통계	-10.0821
▁느낄	-10.0821
▁이건	-10.0822
▁지배	-10.0823
시까지	-10.0826
▁고등학교	-10.0829
▁역대	-10.0832
장의	-10.0835
▁법정	-10.0846
▁아이들이	-10.0849
▁적극적인	-10.0849
치료	-10.0851
▁부담이	-10.0861
▁일은	-10.0863
▁벗어나	-10.0865
▁세부	-10.0865
▁인하	-10.0866
▁했던	-10.0867
으면서	-10.0869
▁임기	-10.0869
었지만	-10.087
▁반환	-10.0873
▁구민	-10.0873
▁페이스북	-10.0881
▁함	-10.0894
▁나갈	-10.0895
음을	-10.0909
받는	-10.0912
겠	-10.0912
▁의도	-10.0915
▁정한다	-10.0916
▁고려해	-10.0919
▁김문수	-10.0921
▁공원	-10.0922
▁지불	-10.0922
]	-10.0927
▁시작으로	-10.0929
관은	-10.0935
▁대로	-10.094
상황	-10.0944
▁마리	-10.0945
▁현금	-10.0949
▁들었다	-10.0952
▁사업장	-10.096
ing	-10.0963
시험	-10.0965
예요	-10.0967
회가	-10.0967
식품	-10.0975
▁나타나	-10.0982
▁쓰레기	-10.0983
▁시민들	-10.0983
▁보존	-10.0992
위가	-10.0994
▁캐	-10.0996
하였습니다	-10.1002
▁등장	-10.1004
참	-10.1005
▁번역	-10.1006
▁거듭	-10.1016
▁장은	-10.1017
판매	-10.1036
▁극복	-10.1037
▁당국	-10.1039
십	-10.104
교육청	-10.104
엘	-10.1042
▁예비	-10.1044
▁와서	-10.1046
▁정착	-10.1048
▁지역사회	-10.1053
▁빛	-10.1055
▁크	-10.1061
▁소녀	-10.1064
이야	-10.1068
▁질문에	-10.1071
▁이사	-10.1072
선거	-10.1072
▁작업을	-10.1076
▁할머니	-10.108
여명의	-10.1082
▁촉진	-10.1084
▁행사는	-10.1086
▁비중이	-10.1093
접	-10.1095
▁강조	-10.1097
▁울산	-10.1108
▁시장의	-10.1109
▁O	-10.1111
▁풀어	-10.1113
▁감사합니다	-10.1122
▁심의를	-10.1122
▁사전에	-10.1124
▁채널	-10.1125
린다	-10.1127
▁김영	-10.113
▁폼페이오	-10.1136
서울	-10.1136
▁재판부	-10.1139
▁글을	-10.1151
컬	-10.1154
라인	-10.1156
en	-10.116
▁메시지를	-10.1163
▁시민들이	-10.1166
▁지방자치단체	-10.1168
부서의	-10.1169
▁등과	-10.1177
▁방법이	-10.1178
▁입은	-10.118
▁지진	-10.1184
▁부모님	-10.1188
▁공기	-10.1194
▁측	-10.1195
▁국토교통부	-10.1196
▁종류	-10.1196
▁밑	-10.1197
▁가을	-10.1198
▁올리	-10.12
▁곳에서	-10.1202
▁방법으로	-10.1204
것	-10.1208
일에는	-10.1209
해줄	-10.121
▁내놓	-10.1211
▁심리	-10.1213
▁이끄는	-10.1218
현장	-10.1218
신고	-10.1221
▁작	-10.1221
하시면	-10.1223
▁도심	-10.1225
마리	-10.1226
년에는	-10.1229
▁면접	-10.123
▁대사	-10.1234
응	-10.1235
개가	-10.1238
자동차	-10.1239
리를	-10.124
▁직원들	-10.124
갔다	-10.1244
▁제외	-10.1246
▁제품은	-10.1246
허가	-10.1247
젠	-10.125
▁전개	-10.126
▁J	-10.1261
▁임시	-10.1265
▁주차장	-10.1265
▁굴	-10.1267
▁문제에	-10.1269
활동을	-10.127
▁치료를	-10.127
▁못할	-10.1275
▁우리에게	-10.1289
▁권리	-10.1291
▁만남	-10.1293
▁되었습니다	-10.1293
되었고	-10.1294
자료	-10.1297
개선	-10.13
▁국민연금	-10.13
▁주목된다	-10.1303
하시는	-10.1304
▁복귀	-10.1306
군요	-10.1308
▁메시지	-10.1312
▁그것이	-10.1314
▁마이크	-10.1317
▁찬	-10.1322
「	-10.133
▁개정안	-10.1334
▁실행	-10.1334
▁인정하는	-10.1339
▁운	-10.134
상태	-10.1342
▁화면	-10.1344
과학	-10.1345
시가	-10.1347
▁개의	-10.135
▁분석했다	-10.135
리스	-10.1351
▁바라	-10.1352
됨에	-10.1356
▁마감	-10.1362
▁실시한	-10.1365
▁위로	-10.1367
자인	-10.1369
▁학부모	-10.1371
조정	-10.1373
려는	-10.1375
교통	-10.1379
▁수십	-10.138
▁국토부	-10.1381
▁당부했다	-10.1383
▁범행	-10.1383
식이	-10.1389
이기도	-10.139
▁불이	-10.1393
▁매각	-10.1395
콘	-10.1399
▁대해서도	-10.14
▁간담회	-10.1401
▁뜨거운	-10.1411
▁활용해	-10.1413
경영	-10.1416
▁무엇을	-10.1424
▁폐기물	-10.1425
▁수익	-10.1437
▁걸어	-10.1438
가족	-10.1439
▁모아	-10.1443
▁근로	-10.1445
부를	-10.1457
▁법적	-10.1463
▁가면	-10.1465
▁특허	-10.1479
공장	-10.1488
▁여당	-10.1488
등급	-10.1492
▁하늘	-10.1496
▁파견	-10.1502
코리아	-10.1506
▁확인해	-10.1506
장에	-10.1507
이면	-10.1509
▁표준	-10.1509
▁출산	-10.151
▁생각해	-10.1511
▁예고	-10.1512
▁U	-10.1513
▁있으나	-10.1517
팀이	-10.152
▁테	-10.1522
▁사랑을	-10.1524
▁충북	-10.1524
▁흐름	-10.1525
군의	-10.1528
▁기업들이	-10.1529
▁가치를	-10.153
▁정부와	-10.1531
▁아이돌	-10.1531
▁늘고	-10.1547
줬	-10.1548
▁차원에서	-10.1549
▁AI	-10.155
▁곳으로	-10.1553
▁경험을	-10.1555
▁틀	-10.1561
▁알려주	-10.1563
▁보이	-10.1564
▁차별	-10.1567
하실	-10.1576
▁사례가	-10.1579
▁바뀌	-10.1579
▁그런데	-10.1584
▁서식	-10.1587
▁찬성	-10.1588
습니까	-10.159
▁뒷	-10.1591
시킨	-10.1592
▁맞춤형	-10.1593
▁유도	-10.1595
▁간의	-10.1598
▁비즈니스	-10.1599
▁바람	-10.1599
▁소상공인	-10.1602
▁가방	-10.1603
호가	-10.1611
었	-10.1614
결과	-10.1615
여개	-10.1622
mm	-10.1623
▁곳은	-10.1624
▁급증	-10.1624
▁체제	-10.1624
▁사업은	-10.1628
체계	-10.1634
▁작동	-10.1634
▁고객이	-10.1635
▁문화를	-10.1636
▁지켜	-10.1639
먹	-10.1641
▁커뮤니티	-10.1641
▁묻	-10.1642
▁거주	-10.1648
▁엄	-10.1648
▁진짜	-10.1654
▁전공	-10.166
▁채택	-10.1663
▁선수가	-10.1664
▁나아가	-10.1665
▁빚	-10.167
▁보이지	-10.1675
방법	-10.1677
▁폭력	-10.1678
▁금감원	-10.1682
▁발송	-10.1687
▁운영을	-10.1688
▁경고	-10.1691
▁상처	-10.1692
다른	-10.1693
▁계기로	-10.17
클	-10.1701
몬	-10.1705
▁당초	-10.171
▁수학	-10.171
▁나눠	-10.171
▁빼	-10.1712
▁혜택을	-10.1713
▁더불어	-10.1716
▁잡고	-10.1717
맨	-10.1719
▁관광객	-10.172
▁후보가	-10.1721
전자	-10.1729
내용	-10.1731
▁조작	-10.1732
▁머물	-10.1736
▁테스트	-10.1741
▁공개했다	-10.1742
▁관할	-10.1746
시면	-10.1747
▁범	-10.1752
타운	-10.1765
겠지만	-10.1769
▁싸	-10.1769
▁괜찮	-10.177
물이	-10.1773
▁공연이	-10.1774
▁요구하는	-10.178
드는	-10.1782
교류	-10.1785
▁복합	-10.1787
▁탑승	-10.1792
▁확인하고	-10.1799
장치	-10.1801
▁남부	-10.1803
▁유튜브	-10.1803
▁가슴	-10.1804
▁포인트	-10.1805
▁성격	-10.1806
▁잡아	-10.1807
▁계좌	-10.181
▁지사	-10.1811
▁받게	-10.1812
▁효율적인	-10.1816
▁편성	-10.182
▁칼	-10.182
▁산불	-10.183
▁자극	-10.1834
▁담당자	-10.1837
▁베이징	-10.1838
▁드러나	-10.1842
기록	-10.1849
▁응답	-10.185
▁이어지고	-10.1851
▁집회	-10.1856
▁모임	-10.1861
▁업종	-10.1863
학생	-10.1864
▁일본의	-10.1872
재산	-10.1872
점검	-10.1876
계획을	-10.1878
▁쇼핑	-10.188
▁체포	-10.1884
▁최초	-10.1886
스를	-10.1889
▁현황	-10.1889
▁대폭	-10.1891
▁생각하는	-10.1891
▁회장은	-10.1894
▁상품을	-10.1894
신문	-10.1894
▁수여	-10.1898
▁쓰는	-10.1899
사랑	-10.1901
▁숨진	-10.1907
장애인	-10.1909
▁사유	-10.1916
▁그녀가	-10.1917
▁개념	-10.1921
▁노후	-10.1924
▁굉장히	-10.1925
▁관계를	-10.1926
기지	-10.1926
전에서	-10.1929
자들의	-10.1931
▁열정	-10.1931
▁읽	-10.1937
국민	-10.1937
라운드	-10.1938
▁받기	-10.1939
게임	-10.194
▁당일	-10.1941
▁초대	-10.1943
▁인터뷰에서	-10.1945
▁유리	-10.1951
▁화장실	-10.1951
항제	-10.1957
여명	-10.1957
▁박물관	-10.1957
심의위원회	-10.1958
▁마약	-10.1958
▁영상을	-10.1962
대의	-10.1975
▁수능	-10.1975
금액	-10.1977
지에	-10.1977
▁올해는	-10.1978
▁아기	-10.199
▁사기	-10.1992
▁재료	-10.1998
▁단축	-10.1999
▁환영	-10.2004
▁세금	-10.2007
▁건축물	-10.2011
맥	-10.2012
해진	-10.2014
▁지명	-10.2018
심사	-10.202
▁경기에서	-10.2023
J	-10.2024
▁여의도	-10.2025
▁끌고	-10.2026
▁기재	-10.2026
▁미치는	-10.2028
자리	-10.2031
▁지점	-10.2032
▁투어	-10.2033
전략	-10.2036
겠어요	-10.2037
사업자	-10.2038
▁명예	-10.204
이라도	-10.2042
▁주인	-10.2042
▁전부터	-10.2043
▁로봇	-10.2044
▁이전에	-10.2044
▁달하는	-10.2047
▁맞이	-10.2049
윈	-10.2055
▁추석	-10.2056
▁소화	-10.2058
▁받	-10.2059
▁보유	-10.2061
▁아니면	-10.2062
▁무기	-10.2062
▁형사	-10.2063
▁모색	-10.2064
▁금액	-10.2065
▁하여	-10.2068
▁여성이	-10.2068
되도록	-10.2068
▁팀이	-10.2069
▁지휘	-10.2071
▁지도자	-10.2071
▁비중	-10.2071
▁충남	-10.2075
▁넣어	-10.2079
▁임원	-10.2079
▁둔화	-10.2088
따	-10.209
▁점도	-10.209
▁잠시	-10.2091
평화	-10.2093
▁착용	-10.2097
홀	-10.2107
▁신호	-10.2108
▁옥	-10.2108
▁경기가	-10.2108
▁떨어져	-10.2109
▁그만큼	-10.2109
▁기상청	-10.2111
▁시범	-10.2122
▁누군가	-10.2127
▁가능합니다	-10.2127
▁이용자	-10.2129
▁취득	-10.2129
▁예정입니다	-10.2132
청소년	-10.2139
▁이유를	-10.214
예산	-10.2141
▁시청	-10.2144
▁담겨	-10.2147
▁시청자들	-10.2149
롱	-10.215
▁이메일	-10.2151
▁시간에	-10.2152
▁총리는	-10.2154
▁증명	-10.2154
▁능력	-10.2155
프로그램	-10.2156
둥	-10.216
▁수석	-10.2164
파크	-10.2165
단은	-10.2168
▁이번이	-10.217
▁있으니	-10.2172
▁점차	-10.2172
▁권력	-10.2176
줬다	-10.2178
▁가졌다	-10.218
빛	-10.218
▁대안	-10.2181
▁꿈을	-10.2186
▁쌀	-10.2186
▁경계	-10.2193
진흥	-10.2194
▁않게	-10.2195
▁농가	-10.2198
자들은	-10.2202
▁승리를	-10.2204
진이	-10.2204
톱	-10.2205
▁선출	-10.2205
▁관측	-10.2208
▁보여주는	-10.2208
풀	-10.2209
트리	-10.2219
▁처분	-10.2221
▁여러분	-10.2224
▁합동	-10.2225
▁아시안게임	-10.2225
▁가스	-10.2225
▁덜	-10.2226
▁눈이	-10.2226
▁총장	-10.2227
절차를	-10.2228
▁하나로	-10.2236
슈	-10.2237
데이	-10.2237
▁긴장	-10.224
▁단어	-10.2241
▁통해서	-10.2243
▁진행되는	-10.2244
▁찾은	-10.2245
▁무역전쟁	-10.2247
▁감시	-10.2249
▁고소	-10.2253
▁목표로	-10.2256
▁내린	-10.2259
▁홈	-10.2262
래요	-10.2264
께서	-10.2264
▁자리에	-10.2266
잔	-10.2272
it	-10.2273
실적	-10.2273
▁야구	-10.2273
▁기술이	-10.2277
▁축소	-10.2278
▁힘이	-10.2282
려면	-10.2284
▁부산시	-10.2288
▁소식을	-10.2288
▁방문한	-10.2289
는지	-10.2289
차량	-10.229
세계	-10.2293
▁위원회는	-10.2297
▁저장	-10.2298
▁검색	-10.23
▁법안	-10.2302
몽	-10.2302
▁생일	-10.2304
시행	-10.2307
▁유입	-10.2317
▁기독교	-10.2317
사무소	-10.2317
▁정원	-10.2322
▁높아지고	-10.2324
▁초반	-10.2332
▁보고서	-10.2334
▁아마	-10.2335
웠다	-10.2337
▁당선	-10.2337
▁첨부	-10.2344
금리	-10.2344
▁친구들	-10.2347
▁이제는	-10.2348
▁다니	-10.2355
개혁	-10.2356
▁원칙	-10.236
▁없어서	-10.2361
▁가치가	-10.2366
▁유해	-10.2369
▁불리는	-10.2371
쾌	-10.2372
▁구단	-10.2372
▁사람에게	-10.2382
셨	-10.2384
쳤다	-10.2388
▁학교에	-10.2388
▁토대로	-10.239
경찰	-10.2393
▁느낌	-10.2396
▁혼란	-10.2397
▁애플	-10.2397
▁같은데	-10.2401
▁이어졌다	-10.2404
le	-10.2405
▁본인	-10.2406
위는	-10.2406
▁대학생	-10.2409
▁죽음	-10.2417
씨와	-10.2424
▁녹	-10.2441
▁당사자	-10.2442
▁만들었다	-10.2446
▁초등학교	-10.2446
▁찾기	-10.245
▁앞둔	-10.245
턴	-10.2451
▁수리	-10.2452
프라	-10.2453
▁체육	-10.2455
▁여론	-10.2455
중앙	-10.2456
▁통하여	-10.2464
▁코스	-10.2464
▁측면	-10.2464
▁연휴	-10.2465
▁비행	-10.2478
롤	-10.248
▁보여주	-10.2482
▁있었지만	-10.2482
▁선박	-10.2488
▁전망된다	-10.2496
▁음	-10.2498
중국	-10.2499
▁첨단	-10.2499
cm	-10.25
▁이것이	-10.2502
▁영향력	-10.2502
▁학생이	-10.2504
▁자본	-10.2506
▁국내에서	-10.2508
▁금요일	-10.2512
▁총선	-10.2515
▁내렸다	-10.2516
▁강하게	-10.2516
▁음료	-10.2518
▁외교부	-10.2519
▁설치된	-10.2519
▁지속적인	-10.252
었어	-10.2521
▁이웃	-10.2522
▁찾고	-10.2522
▁개봉	-10.2524
▁찾을	-10.2524
▁기도	-10.2526
▁진화	-10.2527
▁다르	-10.2537
▁그를	-10.2538
▁진료	-10.2539
▁이름이	-10.2539
▁입증	-10.2544
▁이슈	-10.2544
▁승인을	-10.2544
탐	-10.2544
▁배달	-10.2548
받아	-10.2549
하라고	-10.255
▁반응	-10.2559
랩	-10.2561
▁부회장	-10.2562
▁팬들이	-10.2564
▁입법	-10.2565
▁판사	-10.2566
었는데	-10.2567
▁품목	-10.2569
방식	-10.2572
▁싶은데	-10.2585
▁계정	-10.2589
▁향한	-10.2593
소를	-10.2601
▁무리	-10.2602
▁사이에서	-10.2603
▁다음달	-10.2606
▁당신과	-10.2608
시대	-10.2609
▁경비	-10.2611
억달러	-10.2612
▁이끌어	-10.2613
▁좋겠다	-10.2619
졌	-10.2619
▁맥	-10.2623
▁징역	-10.2625
▁연극	-10.2625
▁저의	-10.2627
▁소식이	-10.2629
▁삶	-10.263
▁권고	-10.2631
▁세계적인	-10.2635
▁이용하는	-10.2636
년도	-10.2636
사용	-10.2638
호서식에	-10.2645
호서식의	-10.2646
▁불가능	-10.2648
▁위원장의	-10.265
▁추세	-10.2652
▁올려	-10.2656
▁전망이	-10.2664
▁안보	-10.2672
▁수치	-10.2672
▁학생들	-10.2673
조직	-10.2675
▁나중에	-10.2676
▁추정	-10.2677
▁사유가	-10.2684
철도	-10.2688
▁안전한	-10.2689
▁본격적	-10.2692
▁남성이	-10.2693
▁대부분이	-10.2693
▁비용이	-10.2694
▁바이오	-10.2695
▁캠페인	-10.2701
▁제정	-10.2703
▁증가한	-10.2705
▁점은	-10.2705
▁선사	-10.2707
▁진전	-10.2708
▁골프	-10.2712
▁사용료	-10.2712
▁질환	-10.2716
▁채권	-10.2717
만의	-10.2718
▁몽골	-10.2719
연합회	-10.2719
▁않았지만	-10.2721
벤	-10.2722
데요	-10.2722
▁둘러싼	-10.2725
럴	-10.2727
하러	-10.2731
▁돌아	-10.2731
마당	-10.2732
▁이른바	-10.2732
▁질병	-10.2733
▁날짜	-10.2733
▁밖의	-10.2734
됐다는	-10.2735
▁여유	-10.2738
▁현재까지	-10.2739
롭	-10.2741
▁대학교	-10.2744
▁국회에서	-10.2751
▁결정을	-10.2751
▁활용한	-10.2755
▁영향	-10.2757
▁휴식	-10.2758
▁옷을	-10.2759
▁한국은	-10.276
해질	-10.2761
▁관내	-10.2761
▁의미를	-10.2762
놀이	-10.2763
틴	-10.2763
▁편지	-10.2765
제로	-10.2765
▁자리에서	-10.2768
▁풀이된다	-10.2769
케이	-10.2771
▁꺼	-10.2772
▁방탄소년단	-10.2774
▁옆에	-10.2775
항공	-10.2775
▁댓글	-10.2776
털	-10.278
▁IT	-10.2781
선이	-10.2782
▁구속영장	-10.2789
▁예산을	-10.279
▁파티	-10.279
▁관련하여	-10.2791
▁보조금	-10.2792
▁열차	-10.2793
▁냉	-10.2801
▁과태료	-10.2808
계약을	-10.281
▁없지만	-10.2812
통신	-10.2813
▁산하	-10.2817
졌습니다	-10.2824
▁내고	-10.2825
▁해양	-10.2825
▁직원이	-10.2825
답	-10.2829
건의	-10.283
▁적지	-10.2834
촉	-10.284
할게요	-10.2841
▁성폭력	-10.2844
▁제출한	-10.2846
▁의원의	-10.2847
▁쇼	-10.2849
▁이익	-10.285
▁갖	-10.2856
▁말해	-10.2859
▁자세	-10.2865
스터	-10.2867
▁꾸	-10.287
니아	-10.2874
▁입을	-10.2875
▁긍정적인	-10.2878
ic	-10.288
▁표정	-10.2882
▁탄생	-10.2882
▁동반	-10.2896
업소	-10.2896
노동	-10.2899
▁품	-10.2903
▁이용한	-10.2912
is	-10.2917
마저	-10.292
▁서류를	-10.2921
▁작용	-10.2926
▁상징	-10.2928
▁공정위	-10.2933
▁폐쇄	-10.2937
▁이같이	-10.2937
▁눈물	-10.2938
업자	-10.2938
렉	-10.2943
▁입원	-10.2945
하면서도	-10.295
▁국민의	-10.2963
았습니다	-10.2965
북한	-10.2969
▁독서	-10.297
▁따뜻한	-10.2973
멘	-10.2974
▁접촉	-10.298
랄	-10.2982
▁성폭행	-10.2996
스키	-10.2998
관을	-10.2998
▁펀드	-10.2999
▁폐기	-10.3001
▁추락	-10.3007
▁교수가	-10.3009
면서도	-10.3012
▁아직도	-10.302
▁생태계	-10.3021
▁한정	-10.3023
▁무료로	-10.3026
▁분위기를	-10.3027
업체가	-10.3028
▁실내	-10.3028
▁풍부한	-10.3029
쉬	-10.303
▁시장을	-10.3034
▁수준의	-10.3036
▁감염	-10.3036
▁진실	-10.3037
부장	-10.3042
영화	-10.3044
큐	-10.3046
▁법무부	-10.3047
▁지난주	-10.305
▁숲	-10.3052
▁대거	-10.3054
▁이루어지	-10.3055
▁시스템을	-10.3056
짐	-10.3061
▁테니	-10.3065
▁지원에	-10.3065
대에	-10.307
▁주최	-10.3071
로운	-10.3071
▁먹어	-10.3074
▁비율이	-10.3074
▁주력	-10.3075
▁마치고	-10.3076
▁대처	-10.3079
▁즉	-10.308
▁올렸다	-10.308
▁뿌리	-10.3088
▁차지했다	-10.3091
▁제조업	-10.3094
들로	-10.3096
▁외에도	-10.3098
베이	-10.3103
▁분류	-10.3105
▁쓰고	-10.311
▁이중	-10.311
주민	-10.3114
▁홈런	-10.3115
▁작품을	-10.3117
▁중소	-10.3121
▁문제점	-10.3121
▁진행됐다	-10.3122
지면	-10.3126
▁영향으로	-10.3126
조선	-10.313
도서관	-10.3134
▁결합	-10.3136
▁출근	-10.3136
왔	-10.3138
▁침해	-10.3138
▁뿐만	-10.3139
▁도쿄	-10.314
하라	-10.3147
▁이뤄질	-10.3149
▁푸	-10.316
▁신용	-10.3161
▁강력	-10.3161
▁목사	-10.3163
▁형태로	-10.3163
연맹	-10.3165
▁측이	-10.3167
▁노원구	-10.3168
느냐	-10.3169
▁머	-10.3169
▁협업	-10.3175
▁올라가	-10.3178
▁대리	-10.318
▁침	-10.3191
▁시신	-10.3194
▁달려	-10.32
▁뛰어난	-10.3201
▁고급	-10.3202
조치	-10.3205
▁심장	-10.3209
▁사이즈	-10.321
▁펼쳐	-10.3211
▁분쟁	-10.3212
▁돈이	-10.3214
▁생각해요	-10.322
▁행복한	-10.3225
지면서	-10.3225
▁총리가	-10.3228
▁발사	-10.3228
되기도	-10.3231
되었	-10.3233
▁가량	-10.3233
▁충전	-10.3235
럽	-10.3238
▁죄송합니다	-10.3241
▁그건	-10.3242
▁주장이	-10.3242
▁생기	-10.3248
만이	-10.325
▁대화를	-10.3254
군은	-10.3255
위로	-10.3255
▁공동으로	-10.3256
권이	-10.3258
▁최소화	-10.3258
▁본격	-10.3262
▁게시	-10.3265
▁대상자	-10.3267
▁실시한다	-10.3268
군수	-10.3274
됐습니다	-10.3276
소리	-10.3276
하우스	-10.3278
▁나오	-10.3281
량을	-10.3282
▁부대	-10.3296
▁봤다	-10.3297
기와	-10.33
▁타격	-10.3301
▁마친	-10.3302
칙	-10.3305
▁경기도지사	-10.3307
▁따라서	-10.3309
지수	-10.3316
생산	-10.3316
▁도움	-10.3319
액이	-10.3321
▁청원	-10.3322
디자인	-10.3324
▁한화	-10.3325
▁오른쪽	-10.3327
호의	-10.3329
▁늦어	-10.3331
▁부담을	-10.3332
▁하반기	-10.3339
에만	-10.3343
해지고	-10.3346
▁이유다	-10.3348
▁자살	-10.3352
▁장식	-10.3354
▁심화	-10.3355
버리	-10.3355
하니	-10.3358
▁없었	-10.3362
▁살해	-10.3367
▁학생들의	-10.3368
▁고양이	-10.3368
▁거주하는	-10.3374
▁자국	-10.3375
▁가족이	-10.3376
▁제약	-10.338
▁담배	-10.3384
▁시설물	-10.3384
▁마음에	-10.3387
▁자율	-10.3389
FC	-10.3392
▁시정	-10.3393
▁하되	-10.3396
간의	-10.3397
이라면	-10.3398
내는	-10.3402
▁브	-10.3404
▁알려주세요	-10.3404
▁부실	-10.3407
▁과목	-10.3409
▁맡은	-10.3409
가량	-10.3412
▁인공지능	-10.3413
보고서	-10.3415
▁방북	-10.3416
▁원장	-10.3417
▁프로그램이	-10.3418
▁평가했다	-10.3418
kg	-10.3422
▁선정된	-10.3426
▁번호	-10.3426
▁각자	-10.3427
▁늘어	-10.3434
▁단독	-10.3436
▁낼	-10.3438
하길	-10.3439
요원	-10.3443
▁신체	-10.3445
▁추진하고	-10.3452
▁소집	-10.3457
께	-10.3458
▁건의	-10.3459
▁투자자	-10.346
▁구현	-10.3463
▁부르	-10.3463
▁휘	-10.3463
▁준다	-10.3464
자산	-10.3468
처분	-10.347
보는	-10.347
수는	-10.3482
경찰서	-10.3484
▁워싱턴	-10.3484
▁이목	-10.3486
▁불만	-10.3488
갈수록	-10.3492
▁결과에	-10.3492
까지는	-10.3493
▁미사일	-10.3493
▁동료	-10.3493
▁장치	-10.3496
▁현상이	-10.3497
▁국경	-10.3498
▁자는	-10.3499
▁일자리를	-10.3499
▁추억	-10.3502
▁수당	-10.3503
▁직전	-10.3506
증을	-10.3506
▁않기	-10.3506
▁조명	-10.3507
▁강연	-10.3508
▁것보다	-10.3509
▁걸리	-10.3513
▁사람들에게	-10.3514
▁나왔	-10.3516
스포츠	-10.3517
▁않았습니다	-10.3521
ed	-10.3523
규모	-10.3523
▁물질	-10.3524
▁공개한	-10.3526
웨	-10.3532
▁현대차	-10.3539
▁꼽	-10.3541
▁티	-10.3542
▁김씨	-10.3544
의원	-10.3544
실장	-10.3545
협의체	-10.3546
▁발달	-10.3547
▁증진	-10.3547
▁명절	-10.3549
▁정확히	-10.3555
▁필요합니다	-10.3558
▁지원한다	-10.3567
▁유형	-10.3571
▁날이	-10.3571
▁하면서	-10.3575
▁전망했다	-10.3575
나라	-10.3576
▁제목	-10.358
▁덕분에	-10.358
▁종이	-10.3583
부문	-10.3583
▁막기	-10.3584
▁면제	-10.3586
▁보낼	-10.3586
드려	-10.359
핀	-10.3594
▁부처	-10.3595
▁균형	-10.3595
▁흔들	-10.3598
▁덕	-10.36
▁선생님	-10.3605
▁문화예술	-10.3606
▁시책	-10.3608
▁영양	-10.3609
▁둔다	-10.3615
▁시내	-10.3617
▁현안	-10.3623
▁이틀	-10.3626
▁설명이	-10.3626
▁무게	-10.3628
▁연말	-10.363
▁개발한	-10.3631
▁저도	-10.3633
▁조절	-10.3635
레스	-10.3635
▁동생	-10.3638
▁상태다	-10.3648
▁입지	-10.3653
▁움직임	-10.3655
▁관계가	-10.3655
▁호응	-10.3658
▁재배	-10.3664
▁농촌	-10.3665
▁미얀마	-10.3671
st	-10.3671
▁운전자	-10.3674
▁미국은	-10.3675
▁발휘	-10.3678
▁강의	-10.3682
▁단위	-10.3689
집니다	-10.3691
▁지내	-10.3692
▁적절한	-10.3696
▁코리아	-10.3698
당이	-10.37
증권	-10.3703
▁왼쪽	-10.3704
▁아빠	-10.3708
▁연방	-10.3709
at	-10.371
▁장점	-10.3711
게요	-10.3712
▁증가했다	-10.3712
▁비교적	-10.3715
▁너희	-10.3715
봉투	-10.3715
▁어디서	-10.3719
웠	-10.372
▁그게	-10.3724
▁많고	-10.3725
▁전역	-10.3732
▁장르	-10.3733
▁기획재정부	-10.3734
▁맥주	-10.3737
▁추진할	-10.3737
▁세력	-10.3737
묘	-10.3739
▁한글	-10.3739
▁옛	-10.3743
▁자동	-10.3744
▁유발	-10.3745
▁서울대	-10.3745
▁클	-10.375
▁주재	-10.3751
▁베네수엘라	-10.3755
▁진로	-10.3756
딜	-10.3758
▁이슬람	-10.3759
등록	-10.3759
▁정식	-10.3764
▁본격적으로	-10.3764
▁관해	-10.3765
▁효율적으로	-10.3765
▁문자	-10.3765
▁연합	-10.377
▁충분한	-10.3772
▁담아	-10.3773
▁지역은	-10.3775
▁검찰에	-10.3779
▁런던	-10.3784
▁손실	-10.3785
받고	-10.3789
렸	-10.3791
받을	-10.3791
시키기	-10.3792
▁파리	-10.3795
▁끝나	-10.3802
▁통상	-10.3802
▁소장	-10.3803
▁목숨	-10.3805
탑	-10.3806
▁아는	-10.3806
▁CCTV	-10.3811
▁자신들	-10.3812
▁준수	-10.3824
▁건조	-10.3827
▁발전을	-10.3833
▁필수	-10.3833
했었다	-10.3834
▁현장에	-10.3838
▁영어를	-10.384
▁성명	-10.3841
▁실시할	-10.3842
▁반응을	-10.3843
▁방향으로	-10.3847
▁실수	-10.385
▁감면	-10.3853
원장	-10.3854
▁얻고	-10.3854
되거나	-10.3855
진흥원	-10.3856
▁KT	-10.3858
▁진행한다	-10.3867
랜	-10.3869
▁명령	-10.3872
▁트위터	-10.3875
소송	-10.3877
성장	-10.3881
▁의사를	-10.3882
▁활용할	-10.3883
▁빠진	-10.3885
▁재미	-10.3885
▁여성의	-10.3888
▁배터리	-10.389
▁곳이다	-10.3891
받	-10.3894
▁제공한다	-10.3895
비는	-10.3896
▁점심	-10.3897
짝	-10.3899
사들이	-10.39
▁지분	-10.3903
기획	-10.3903
▁한인	-10.3905
▁대하여는	-10.3911
만으로	-10.3913
▁상당히	-10.3913
▁동기	-10.3915
▁명단	-10.3922
▁각국	-10.3922
튼	-10.3924
▁끌어	-10.3927
▁모르는	-10.3927
구나	-10.393
구를	-10.3931
▁생존	-10.3935
▁임신	-10.3936
기능	-10.3936
▁소설	-10.3939
▁숫자	-10.394
▁경유	-10.3941
▁제공하고	-10.3946
▁콜	-10.3949
제한	-10.395
▁바꾸	-10.3953
봐	-10.3955
솔	-10.3959
▁않지만	-10.396
▁왜냐하면	-10.3961
▁분위기가	-10.3967
▁행사에	-10.3969
▁사람들을	-10.3969
사로	-10.3973
대는	-10.3977
▁기각	-10.3978
▁선정됐다	-10.3978
분이	-10.3983
줘	-10.3984
▁단기	-10.3988
▁일원	-10.3989
▁교부	-10.3994
▁폭로	-10.3995
▁김치	-10.3996
▁체계	-10.4007
▁받는다	-10.4008
▁기분이	-10.4008
▁것이란	-10.4012
▁인원	-10.4018
▁차지하는	-10.4018
▁일하는	-10.4023
▁호소	-10.4026
▁기반으로	-10.4026
▁사고로	-10.4027
중인	-10.4028
▁피의자	-10.403
▁분야의	-10.4031
▁새해	-10.4033
▁삭제	-10.4034
▁비리	-10.4034
▁건강한	-10.4035
▁가시	-10.4038
▁소요	-10.404
▁회사가	-10.4041
▁학원	-10.4043
지기	-10.4043
▁운영할	-10.4051
전문가	-10.4051
▁진행하고	-10.4061
▁전해	-10.4062
▁있었고	-10.4065
창업	-10.4068
▁경매	-10.407
장애	-10.4071
▁걸려	-10.4072
조례	-10.4073
▁아프리카	-10.4073
▁비판했다	-10.4074
▁소관	-10.4075
▁행보	-10.4081
▁별도의	-10.4085
실에서	-10.4086
쓰	-10.4087
도지사	-10.4092
과장	-10.4092
▁대책을	-10.4096
스의	-10.41
피스	-10.4102
▁뛰	-10.4104
▁사업의	-10.4107
▁재판에	-10.4109
재정	-10.4109
▁증가하고	-10.4109
▁보육	-10.4112
▁조사됐다	-10.4112
▁운동을	-10.4114
▁온도	-10.4118
▁열었다	-10.412
▁화웨이	-10.4123
▁때도	-10.4127
▁진행될	-10.4132
▁끝내	-10.4136
▁약간	-10.4138
▁엘	-10.4138
▁아닙니다	-10.4143
▁늦게	-10.4143
▁묵	-10.4146
건이	-10.4148
▁공포	-10.415
▁없도록	-10.4153
▁아이가	-10.4153
엔터테인먼트	-10.4157
용품	-10.4161
▁사용한	-10.4163
타임	-10.4166
▁공동주택	-10.4169
직원	-10.4171
▁녹색	-10.4174
▁진행하는	-10.4177
▁싫어	-10.4178
섬	-10.4179
해졌다	-10.4181
꽃	-10.4182
조건	-10.4183
▁복구	-10.4184
잉	-10.4188
수당	-10.419
▁북측	-10.4192
법이	-10.4192
▁운영하고	-10.4192
▁공화당	-10.4194
사항을	-10.4198
▁영화제	-10.4199
▁바람이	-10.4199
▁한식	-10.42
▁이르는	-10.4201
천만	-10.4202
▁출마	-10.4202
투표	-10.4203
▁연설	-10.4206
명에	-10.4206
의료	-10.4206
졌고	-10.4206
▁폴	-10.4209
▁시사	-10.4215
하다가	-10.4215
▁합격	-10.4216
▁경기도의	-10.4223
▁거에요	-10.4224
▁고향	-10.4224
죽	-10.4229
▁감독의	-10.423
연합	-10.4231
▁공약	-10.4233
▁수준으로	-10.4234
위원회의	-10.4234
▁탓에	-10.4238
▁절감	-10.4239
당한	-10.4239
학자	-10.4242
체육	-10.4243
▁낮아	-10.4244
였습니다	-10.4245
▁노래를	-10.4245
▁프리미엄	-10.4246
▁중국과	-10.4252
▁기다리고	-10.4258
▁적정	-10.4266
▁천안	-10.4268
▁고려하여	-10.4269
▁데다	-10.427
▁사망자	-10.4271
▁최저	-10.4272
▁동네	-10.4273
▁늘었다	-10.4274
릭	-10.4282
▁않아도	-10.4283
▁임기는	-10.4283
▁주기	-10.4284
샤	-10.4288
여행	-10.4289
▁상태에서	-10.4292
▁축	-10.4293
▁진행할	-10.4298
단의	-10.4301
▁산정	-10.4302
▁그려	-10.431
▁이재명	-10.4313
▁나설	-10.4314
▁상업	-10.4316
▁중요성	-10.4317
▁뛰어	-10.4319
▁슬	-10.432
층에	-10.432
▁들여	-10.4325
▁간사	-10.4326
▁손상	-10.4326
▁대상이	-10.4327
▁잇따라	-10.4327
▁단순	-10.4329
드립니다	-10.4329
▁유일	-10.433
CC	-10.4331
▁사법	-10.4333
▁방해	-10.4334
▁여권	-10.4335
규정	-10.4337
센터에서	-10.4337
▁기록한	-10.4346
▁구체적으로	-10.4351
▁수급	-10.4351
하였고	-10.4351
▁매입	-10.4354
▁휴대전화	-10.4357
▁적발	-10.4358
▁이래	-10.4358
▁중국에서	-10.436
▁해안	-10.436
정신	-10.4361
ra	-10.4365
▁빠지	-10.4371
간다	-10.4371
▁압수수색	-10.4372
▁오랫동안	-10.4372
▁논	-10.4377
▁것이라	-10.4377
짜리	-10.4378
▁어려울	-10.438
▁불어	-10.4389
▁투수	-10.439
▁현행	-10.4392
칸	-10.4395
▁공동체	-10.4397
▁자랑	-10.4402
▁판단했다	-10.4405
▁소식	-10.441
▁예를	-10.441
▁명시	-10.4413
시설의	-10.4414
▁효	-10.4423
▁왔	-10.4423
▁분야에	-10.4429
▁냈다	-10.4432
▁최신	-10.4436
▁연수	-10.4439
▁멋진	-10.444
작업	-10.4446
▁이어지는	-10.4446
▁친구들과	-10.4449
쟁	-10.445
」(	-10.4452
만한	-10.4452
▁제공할	-10.4456
▁분명	-10.4457
늘	-10.4458
▁서구	-10.4459
▁상당한	-10.4461
▁성향	-10.4466
▁그래	-10.4473
룡	-10.4475
▁전담	-10.4477
하나	-10.4477
프로	-10.4479
▁전기차	-10.448
▁공시	-10.448
▁휴대폰	-10.4486
▁편의점	-10.4488
▁조사하고	-10.449
▁신고를	-10.4492
더니	-10.4496
참여	-10.45
▁확신	-10.4504
이즈	-10.4506
▁공무원이	-10.4507
여서	-10.4511
좌	-10.4515
▁토론회	-10.4516
스와	-10.4518
여건	-10.4519
▁존중	-10.452
인들의	-10.4521
▁별로	-10.4522
ᆞ	-10.4523
보면	-10.4524
▁문학	-10.4525
념	-10.453
▁공간을	-10.4531
▁하였다	-10.4535
▁임직원	-10.4535
노조	-10.4537
▁침체	-10.4537
▁확인했다	-10.4537
▁합류	-10.4543
▁위임	-10.4545
▁개최한다	-10.4546
부는	-10.4548
건강	-10.4552
▁했다고	-10.4553
▁한미	-10.4554
▁득점	-10.4557
▁기대감	-10.4558
▁이때	-10.456
▁과연	-10.4565
▁실종	-10.4566
Q	-10.4569
둘	-10.457
▁기간이	-10.457
▁가끔	-10.4572
▁홀	-10.4573
▁돼요	-10.4576
▁계획이	-10.4577
준다	-10.4579
▁받았	-10.458
▁바에	-10.4581
엽	-10.4583
▁말한	-10.4584
▁정의	-10.4584
▁자유롭게	-10.4585
안정	-10.4591
안이	-10.4593
▁크리스마스	-10.46
▁융자	-10.4602
▁봉사	-10.4603
인력	-10.4605
화된	-10.4615
▁숙박	-10.4615
미가	-10.4617
입니까	-10.4618
▁사랑하는	-10.4618
▁세워	-10.462
▁표창	-10.462
▁거래소	-10.4621
▁당국은	-10.4625
▁생긴	-10.4625
▁드리	-10.4626
허	-10.4629
▁열릴	-10.463
방위	-10.4632
▁파업	-10.4632
▁입력	-10.4633
▁운송	-10.4633
▁예능	-10.4634
▁번째로	-10.4637
▁발생해	-10.4637
▁지방선거	-10.464
▁능력을	-10.4643
▁선도	-10.4645
▁컨설팅	-10.4646
▁케이팝	-10.4646
▁김정	-10.4647
텔	-10.4648
▁대법원장	-10.4651
▁주변에	-10.4652
▁행사에는	-10.4652
시즌	-10.4653
대출	-10.4661
▁떨어지	-10.4663
놓은	-10.4665
▁사건에	-10.4667
▁리그	-10.4668
▁핸드폰	-10.4669
▁에어	-10.4677
▁때부터	-10.4678
▁박람회	-10.4679
위원회는	-10.4687
▁하노이	-10.4692
▁어디에	-10.4693
▁깊이	-10.4695
규제	-10.4695
포럼	-10.4696
▁요청했다	-10.4697
▁편의	-10.4699
x	-10.4699
▁크리스	-10.47
▁비율	-10.4702
기관의	-10.4702
텐	-10.4703
종합	-10.4704
▁수비	-10.4704
▁이내	-10.4705
▁사업비	-10.4707
▁입구	-10.4712
▁공익	-10.4715
▁손흥민	-10.4716
▁사항이	-10.4717
▁답했다	-10.4719
▁지원이	-10.472
▁변동	-10.4721
▁않았	-10.4722
▁경주	-10.4723
▁정의당	-10.4725
▁진행되고	-10.4725
▁유행	-10.4725
▁세종	-10.4732
▁요청할	-10.4733
▁V	-10.4735
주고	-10.4736
▁구상	-10.4742
▁촉구했다	-10.4742
▁종로구	-10.4747
▁경우에	-10.4748
▁선적	-10.4748
▁파괴	-10.4748
▁지역을	-10.4751
▁비전	-10.4755
▁유일한	-10.4757
▁발견된	-10.476
▁재무	-10.4763
주시겠어요	-10.4764
질환	-10.4765
▁별도로	-10.4768
▁대표하는	-10.4769
시키	-10.477
▁동일한	-10.4775
▁인쇄	-10.4778
▁수사에	-10.4798
▁희생	-10.4801
▁강릉	-10.4801
▁태도	-10.4804
▁아베	-10.4804
▁상상	-10.4804
펀드	-10.4808
▁직원들이	-10.4809
▁돌려	-10.4811
▁빠	-10.4815
상이	-10.4818
▁경위	-10.4818
멸	-10.4822
▁기후변화	-10.4825
▁고정	-10.4825
▁어떠한	-10.4826
▁개막	-10.4826
▁벌인	-10.4826
▁추진한다	-10.4828
▁코치	-10.4828
▁최초의	-10.4833
▁철거	-10.4838
▁그렇지	-10.4838
▁남녀	-10.4838
▁비치	-10.4839
▁관측이	-10.4842
▁라인	-10.4842
스크	-10.4843
▁되기	-10.4845
▁전화를	-10.4846
▁다르다	-10.4847
▁발주	-10.4848
시기	-10.485
됐	-10.485
학원	-10.485
▁정상회담을	-10.4852
▁댄스	-10.4852
▁이곳에서	-10.4854
▁기준을	-10.4857
▁꽤	-10.4858
▁이어지	-10.486
▁측면에서	-10.486
음악	-10.4861
▁개인정보	-10.4862
▁붕괴	-10.4864
▁게재	-10.4866
▁맞게	-10.4866
▁작성하여	-10.4867
▁재단	-10.4867
▁돌아오	-10.4869
석이	-10.487
▁높이고	-10.4871
첩	-10.4871
▁분노	-10.4871
▁찍어	-10.4873
▁며칠	-10.4873
▁활발	-10.4873
장비	-10.4877
▁앞으로도	-10.4878
▁박근혜	-10.4879
▁괴	-10.4882
es	-10.4883
▁공간이	-10.4883
▁지역경제	-10.4887
▁산업혁명	-10.4888
▁위험이	-10.4889
▁아이를	-10.4891
본부장	-10.4892
▁양측	-10.4894
▁들어간	-10.4899
▁극장	-10.49
▁상위	-10.4902
▁세트	-10.4905
▁지사는	-10.4906
▁경기도지사가	-10.4908
▁맞은	-10.4908
▁흘러	-10.4911
▁거론	-10.4913
보수	-10.4914
산업의	-10.4916
▁조합	-10.4917
물질	-10.4918
▁한국을	-10.492
▁한층	-10.4921
만달러	-10.4925
▁파키스탄	-10.4927
회담	-10.4929
▁국방	-10.4931
▁매력	-10.4935
▁소년	-10.4936
▁적응	-10.4937
▁주가	-10.494
▁고통	-10.494
▁기업들	-10.4941
▁복원	-10.4944
▁숙소	-10.4945
▁학교에서	-10.4947
▁대피	-10.4949
▁신임	-10.495
▁내용은	-10.4952
▁쿠	-10.4953
▁항공기	-10.4955
트로	-10.4956
▁치매	-10.4958
▁보입니다	-10.4959
▁음악을	-10.496
▁일이다	-10.4962
▁몰랐	-10.4967
월에는	-10.4968
▁용역	-10.4969
공급	-10.4975
▁역사를	-10.4979
리스트	-10.4983
민이	-10.4983
▁경기장	-10.4985
근무	-10.4985
뜨	-10.4986
▁대표이사	-10.4986
원에	-10.4992
▁누리	-10.4993
▁재고	-10.4996
킨	-10.4998
확	-10.4999
▁잊	-10.5001
▁의존	-10.5006
▁뮤지컬	-10.5006
▁네이버	-10.5007
▁몰려	-10.5013
』	-10.5014
▁급격	-10.5015
▁기울	-10.5015
▁얻어	-10.5015
▁고교	-10.5016
▁그럴	-10.5019
▁갔다	-10.5026
▁사진이	-10.5026
▁잘못된	-10.503
▁가맹점	-10.5031
▁단원	-10.5032
▁강서구	-10.5036
▁생겨	-10.5036
▁거두	-10.5039
▁자신감	-10.5042
환자	-10.5043
▁맡아	-10.5046
▁구청장	-10.505
▁발의	-10.505
▁매주	-10.5052
▁자연스럽게	-10.5055
▁갈등이	-10.5063
▁반응이	-10.5064
▁세상을	-10.5067
▁이곳에	-10.507
▁이루	-10.5071
호서식	-10.5072
▁능력이	-10.5072
▁신발	-10.5073
▁상태로	-10.5073
이드	-10.5075
▁죄	-10.5075
▁시상식	-10.5078
▁무엇인지	-10.5079
▁이야기가	-10.5081
▁분들이	-10.5087
닝	-10.5092
회는	-10.5094
▁보아	-10.5097
▁좋습니다	-10.5097
▁카카오	-10.5098
▁걸릴	-10.5101
▁요구했다	-10.5107
▁경찰관	-10.5107
절차	-10.5108
▁사용해	-10.511
▁솔	-10.5112
료를	-10.5114
▁중동	-10.5114
▁야외	-10.5115
▁사찰	-10.5115
▁포함하여	-10.5118
▁하는지	-10.5119
▁시리즈	-10.5119
▁열기	-10.5119
▁계열사	-10.5121
▁아무리	-10.5121
▁본회의	-10.5122
교육을	-10.5123
▁승부	-10.5124
us	-10.5124
▁발견됐다	-10.5127
일자리	-10.5128
▁고양시	-10.5129
이용	-10.513
▁기다리	-10.513
et	-10.513
▁마련됐다	-10.5132
▁행위를	-10.5137
▁정지	-10.5142
▁내다봤다	-10.5143
▁아이템	-10.5144
▁않을까	-10.5145
▁미래를	-10.5147
▁나오지	-10.5148
▁매출이	-10.515
넷	-10.5151
▁맛이	-10.5153
▁띄	-10.5154
▁된다는	-10.5155
체계를	-10.5155
데다	-10.5157
기간을	-10.5159
▁제품에	-10.516
▁무시	-10.5161
▁예상되는	-10.5161
▁쪽으로	-10.5162
▁서초구	-10.5164
▁협의회	-10.5164
▁물을	-10.5165
▁맞지	-10.517
당국	-10.5174
없는	-10.5174
▁동원	-10.518
▁국민들	-10.518
▁색상	-10.5181
▁없기	-10.5182
▁즐거운	-10.5184
▁전세계	-10.5189
▁기능이	-10.5191
▁모인	-10.5193
브리	-10.5196
▁이끌	-10.5197
▁서비스가	-10.5197
▁사회복지	-10.5201
닥	-10.5208
연대	-10.5209
▁방침	-10.5211
▁사건의	-10.5212
컨	-10.5212
▁주석	-10.5213
▁환경부	-10.5216
럼	-10.5217
▁이수	-10.5219
▁묘	-10.522
▁소지	-10.5221
▁토요일	-10.5222
▁광장	-10.5226
회계	-10.5227
▁조사한	-10.5228
▁문화재	-10.5229
▁덮	-10.5229
에너지	-10.5229
▁마지막으로	-10.5232
▁조례에	-10.5237
▁들어오	-10.5239
▁국무장관	-10.5241
▁촉구	-10.5242
텍	-10.5244
▁노력이	-10.5245
▁특별히	-10.5249
▁모으고	-10.5249
▁영향이	-10.525
▁조각	-10.5252
단을	-10.5253
고등학교	-10.5253
▁내내	-10.5254
▁김태	-10.5269
▁시민단체	-10.5273
캠퍼스	-10.5273
▁헌법	-10.5276
▁사정	-10.5281
▁않다는	-10.5283
되었으며	-10.5285
▁상생	-10.5287
▁성능	-10.529
▁일어난	-10.529
▁대법관	-10.529
▁만들어진	-10.529
▁자사	-10.529
▁그에게	-10.5291
▁중심의	-10.5296
시간이	-10.5296
마켓	-10.5297
▁물류	-10.5301
▁결승	-10.5304
고용	-10.5305
▁몸을	-10.5308
맛	-10.5309
곳이	-10.5309
렬	-10.5312
▁때문	-10.5312
▁캠프	-10.5313
멍	-10.5314
▁없으면	-10.5315
다운	-10.5317
▁인사를	-10.5321
개사	-10.5323
▁주민의	-10.5324
▁손해	-10.5327
셀	-10.5329
굴	-10.5332
ha	-10.5339
▁벌이고	-10.5339
센터는	-10.5339
▁김성	-10.5345
▁증상	-10.5346
닉	-10.5348
▁교통사고	-10.535
▁연구원은	-10.5354
▁화려한	-10.536
▁공부를	-10.5361
▁행정부	-10.5366
▁격려	-10.5369
▁오염	-10.537
▁단순히	-10.537
▁너에게	-10.5371
▁헤어	-10.5376
팔	-10.5376
▁발언을	-10.5377
▁하나님	-10.5381
▁통행	-10.5383
▁맞추	-10.5384
▁정치권	-10.5384
▁대행	-10.539
부분	-10.5397
▁인정받	-10.5399
▁용기	-10.5405
▁제기됐다	-10.5405
▁형식	-10.5405
▁북미정상회담	-10.5406
▁선호	-10.5409
들어	-10.541
▁떨	-10.541
합니까	-10.5413
▁담겼다	-10.5414
체제	-10.5423
▁도중	-10.5429
▁모른다	-10.543
▁크고	-10.5431
▁부총리	-10.5431
▁학생들은	-10.5431
▁전문성	-10.5433
▁일본에서	-10.5435
▁참여했다	-10.5435
[	-10.5436
▁하자	-10.5436
▁죄송하지만	-10.5439
▁공직	-10.5442
▁부채	-10.5444
▁확충	-10.5448
▁주관하는	-10.5448
▁음반	-10.5451
▁따르	-10.5453
▁분명히	-10.5453
▁검사를	-10.5457
▁위원으로	-10.5459
님이	-10.5463
컴	-10.5464
심을	-10.5468
▁판정	-10.5471
▁슈	-10.5473
센터를	-10.5473
활	-10.5474
▁텐데	-10.5477
책을	-10.5477
▁강도	-10.5484
▁게임을	-10.5485
▁방향을	-10.5488
▁요인	-10.5494
▁미중	-10.5497
스코	-10.55
▁춤	-10.5505
▁가질	-10.5508
▁중점	-10.5515
▁중학교	-10.5515
벨	-10.5515
공학	-10.5522
▁과정이	-10.5523
▁현장을	-10.5536
율을	-10.5538
으로써	-10.5538
▁들어갔다	-10.5539
라스	-10.5539
심사를	-10.554
▁보유하고	-10.5543
▁기온이	-10.5544
▁개성	-10.5544
▁한계	-10.5548
▁화성	-10.5549
방향	-10.5551
분석	-10.5552
▁경력	-10.5553
▁참가한	-10.5554
▁어려움이	-10.5554
법에	-10.5556
▁승객	-10.5557
▁영장	-10.5557
▁한국이	-10.5563
▁환자가	-10.5569
▁배려	-10.5569
▁있었다고	-10.5569
빌	-10.558
▁대여	-10.558
서비스를	-10.5581
▁산림	-10.5581
기기	-10.5581
▁필요할	-10.5583
▁늘어날	-10.5583
젤	-10.5586
▁배제	-10.5586
점으로	-10.5589
▁KBS	-10.5589
▁기원	-10.5591
짜	-10.5595
▁최악	-10.5596
▁퇴직	-10.5598
리에	-10.5598
▁금융당국	-10.56
논	-10.5603
▁보여준다	-10.5604
▁부작용	-10.5607
▁함께하는	-10.561
▁양식	-10.5611
헤	-10.5612
▁않는다는	-10.5617
급여	-10.5617
브라	-10.5619
▁방치	-10.5624
킬	-10.5624
▁콩	-10.5626
▁김현	-10.5629
▁동참	-10.5629
▁들려	-10.5629
학습	-10.5633
▁the	-10.5633
장에게	-10.5635
▁활동이	-10.5635
▁하이	-10.5637
▁소수	-10.5637
▁두산	-10.5645
▁부당	-10.5646
모델	-10.5647
하자는	-10.5647
▁시작됐다	-10.5648
콤	-10.5649
▁스웨덴	-10.5649
▁풍경	-10.5654
▁생각하고	-10.5654
홀에서	-10.5654
▁포항	-10.5654
▁지표	-10.5656
무역	-10.5659
▁전원	-10.5661
아동	-10.5662
▁단장	-10.5664
▁회사에	-10.5668
▁마련했다	-10.5668
낭	-10.5673
▁성실	-10.5674
▁관리를	-10.5677
결정	-10.5681
▁상환	-10.5687
▁미칠	-10.5688
▁만료	-10.5689
▁석유	-10.5691
담당	-10.5692
▁값	-10.5692
방안	-10.5693
▁때문이에요	-10.5694
▁받으	-10.5694
▁병원에	-10.5694
▁좋	-10.5699
▁권한	-10.5699
▁관여	-10.5702
▁결정했다	-10.5704
▁비판이	-10.5704
▁재발	-10.5705
▁유력	-10.5706
▁소속사	-10.5706
▁과정에	-10.571
▁활동에	-10.5711
▁면적	-10.5713
▁추모	-10.5713
▁음성	-10.5714
안에	-10.5715
▁아마존	-10.5719
▁하겠다	-10.5719
▁수탁자	-10.5719
▁좋아요	-10.5724
▁플레이	-10.5724
ch	-10.5729
▁허위	-10.5734
▁최창식	-10.5735
▁어깨	-10.5735
▁김씨는	-10.5736
▁발령	-10.5738
▁of	-10.574
▁불리	-10.5745
▁살인	-10.5745
▁명칭	-10.5748
▁원을	-10.5749
▁이뤄진	-10.5751
▁가능할	-10.5753
▁사퇴	-10.5753
▁수준이	-10.5754
▁있었는데	-10.5755
▁한강	-10.5755
▁준비를	-10.5759
▁늦	-10.5761
▁인공	-10.5761
▁힘들어	-10.5764
▁항공사	-10.5768
▁스토리	-10.5769
▁정책이	-10.577
▁찍은	-10.5772
푸	-10.5779
▁거치	-10.578
▁시행규칙	-10.5788
셔서	-10.5789
▁맨	-10.5795
우스	-10.5798
▁집값	-10.5799
▁이내로	-10.5799
박물관	-10.58
▁공을	-10.5802
▁여론조사	-10.5802
▁배정	-10.5803
▁증언	-10.5804
▁도와주	-10.5809
▁세미나	-10.5813
▁궁금증	-10.5816
릿	-10.5821
▁저렴한	-10.5821
▁국무부	-10.5821
팩	-10.5821
▁사라지	-10.5825
▁고장	-10.5825
▁스트레스	-10.5826
▁청약	-10.583
▁진보	-10.5831
▁마시	-10.5832
as	-10.5834
헬	-10.5834
▁만나는	-10.5835
un	-10.5836
범죄	-10.5836
▁이해관계	-10.5843
▁회의에	-10.5844
▁파트너	-10.5847
▁백화점	-10.5852
▁이민	-10.5855
▁높이는	-10.5859
▁안정적인	-10.586
▁사항에	-10.5861
▁김포	-10.5862
▁없었던	-10.5863
▁개통	-10.5864
▁국무위원장이	-10.5864
렸습니다	-10.5864
▁승용차	-10.5865
끼	-10.5865
▁분석한	-10.5865
▁주주	-10.5868
▁접속	-10.5871
▁경우는	-10.5875
▁일정이	-10.5878
▁좋았	-10.5881
▁적어	-10.5881
사업에	-10.5883
▁입국	-10.5884
서류	-10.5888
▁상당수	-10.5894
▁주말에	-10.5896
▁냄새	-10.5899
▁데이터를	-10.59
▁동아리	-10.5909
▁이들을	-10.5913
▁개최했다	-10.5913
였지만	-10.5914
▁티켓	-10.5917
줘야	-10.5921
▁마련된	-10.5922
▁라이	-10.5924
▁이뤄졌다	-10.5926
▁챔피언	-10.5927
▁석방	-10.5928
▁재활용	-10.5928
▁준용한다	-10.5928
▁끌	-10.5929
▁앉아	-10.593
▁나타	-10.5931
▁가로	-10.5934
▁익	-10.5936
리지	-10.5938
▁입금	-10.5938
부지사	-10.5941
▁항목	-10.5947
▁내년에	-10.595
▁대통령을	-10.5954
▁듯한	-10.5955
▁신중	-10.5956
▁입장이다	-10.5957
▁씨는	-10.5961
대장	-10.5961
▁고기	-10.5961
▁아무런	-10.5963
▁전세	-10.5964
▁식물	-10.5966
맘	-10.597
비율	-10.5975
▁김종	-10.598
▁맛있는	-10.5981
델	-10.5981
▁손님	-10.5982
▁준공	-10.5985
▁이집트	-10.5987
▁마주	-10.5988
동안	-10.5989
▁역사적	-10.5989
예방	-10.5991
포인트	-10.5992
▁창원	-10.5993
맞	-10.5994
▁획득	-10.5996
액을	-10.5996
▁이번에는	-10.5997
▁주체	-10.5998
▁세월호	-10.6
▁아프	-10.6004
옹	-10.6004
▁줄어든	-10.6005
방지	-10.6005
▁세계적으로	-10.601
회에	-10.6011
오는	-10.6014
교사	-10.6015
안타	-10.6019
▁타이	-10.6024
▁수백	-10.6025
특별	-10.6028
▁시공	-10.6029
▁매달	-10.6034
사실	-10.6036
인권	-10.6037
▁진행한	-10.6038
▁격차	-10.6039
▁음주운전	-10.604
▁부스	-10.6042
연수	-10.6043
토록	-10.6046
비서관	-10.6048
▁많지	-10.6051
농업	-10.6052
▁부분에	-10.6052
▁호와	-10.6056
▁고용노동부	-10.6059
▁예전	-10.6059
▁고문	-10.6061
IS	-10.6062
▁집으로	-10.6063
▁이사회	-10.6064
▁안전관리	-10.6064
▁심지어	-10.6067
▁소규모	-10.607
▁갤럭시	-10.6071
학회	-10.6075
▁계속해서	-10.608
둔	-10.6084
드릴	-10.6084
▁바닥	-10.6085
상은	-10.6085
▁포럼	-10.6085
▁영화가	-10.6091
▁높게	-10.6093
▁당직	-10.6094
▁정체	-10.6099
▁여건	-10.61
▁생태	-10.61
▁늘어나	-10.61
▁논문	-10.6101
▁『	-10.6102
▁설비	-10.6103
▁위촉한다	-10.6105
▁해군	-10.6105
▁확인한	-10.6108
▁만족도	-10.6112
▁지원사업	-10.6114
어진	-10.6114
▁계절	-10.6116
▁엔진	-10.6116
▁훌륭한	-10.6118
▁너를	-10.6118
▁슈퍼	-10.612
편의	-10.6125
▁일에	-10.6127
▁널리	-10.6127
▁그들	-10.6127
밭	-10.6129
▁미팅	-10.613
▁지닌	-10.6132
▁EU	-10.6136
▁부분은	-10.6136
▁추적	-10.6136
▁있다며	-10.6137
빠	-10.6139
▁걷	-10.6142
▁교육청	-10.6144
▁협상이	-10.6145
▁호흡	-10.6147
▁배상	-10.6148
수요	-10.6149
았	-10.6152
▁전파	-10.6152
▁한복	-10.6154
▁농산물	-10.6154
▁치열한	-10.6155
▁쇼핑몰	-10.6155
▁광역	-10.6155
▁대단	-10.6156
▁손해배상	-10.6165
년으로	-10.6166
▁조항	-10.6166
▁컸다	-10.6174
▁철수	-10.6177
▁주지	-10.6179
▁성별	-10.6179
▁샤	-10.6184
▁실시간	-10.6187
▁제시한	-10.6189
▁상원의원	-10.6193
▁사용하고	-10.6194
▁박사	-10.6196
▁월드	-10.6197
널	-10.6198
었을	-10.62
▁무대에	-10.6202
▁지도부	-10.6202
▁대다수	-10.6202
▁지원하기	-10.6204
시설이	-10.6206
▁평가가	-10.6206
▁발효	-10.6206
머리	-10.6207
▁그렇다면	-10.6208
띠	-10.621
▁이재	-10.6211
릉	-10.6216
▁일시	-10.6218
협정	-10.622
직을	-10.6221
▁빅	-10.6222
▁좌석	-10.6223
천명	-10.6223
유통	-10.6224
▁좋겠어요	-10.6225
▁상승세	-10.6226
▁드론	-10.6226
▁할지	-10.6232
▁리더	-10.6234
▁정보가	-10.624
▁확실히	-10.6241
▁송금	-10.6241
▁친절	-10.6243
▁파주	-10.6244
▁자카르타	-10.6246
▁신용카드	-10.6247
꾼	-10.6251
램	-10.6252
▁기준에	-10.6257
협상	-10.6261
정치	-10.6263
함과	-10.6264
▁지정된	-10.6266
▁떨어지는	-10.6272
▁이정	-10.6272
봤	-10.6274
▁기차	-10.6276
▁이상을	-10.6279
▁않았다고	-10.6281
▁페스티벌	-10.6284
▁간사는	-10.6285
▁실적이	-10.6288
▁고양	-10.6294
에따르면	-10.63
▁공고	-10.6305
▁구청장의	-10.6305
▁증상이	-10.631
▁세계에서	-10.6311
▁최근에는	-10.6312
▁본인이	-10.6312
아웃	-10.6313
▁이주	-10.6318
▁사고를	-10.6318
▁주목을	-10.6318
멜	-10.6318
▁딱	-10.6318
요금	-10.6321
▁휴가	-10.6322
IC	-10.6323
▁경쟁이	-10.6327
▁마세요	-10.6328
▁종종	-10.6331
쏘	-10.6337
▁공인	-10.6339
▁즐기는	-10.6342
▁탁	-10.6346
▁태권도	-10.6346
▁매매	-10.6346
▁PC	-10.6347
▁착수	-10.6347
AR	-10.6348
▁탄력	-10.6352
▁화가	-10.6361
▁싶지	-10.6363
▁시기에	-10.6364
▁많아서	-10.6365
▁대외	-10.6368
▁곳을	-10.6368
▁조처	-10.6384
▁진주	-10.6385
▁방어	-10.6389
▁즐기	-10.639
▁실시하고	-10.6392
▁월요일	-10.6393
▁당해	-10.6395
▁테이블	-10.6396
▁비슷	-10.6396
▁창작	-10.6397
펜	-10.6397
▁클린턴	-10.6401
▁멀	-10.6401
▁원칙으로	-10.6401
▁싸움	-10.6403
억원이	-10.6405
▁실력	-10.6408
▁용인	-10.6416
▁조화	-10.6417
▁소비자들	-10.6419
▁근처에	-10.6419
▁뒷받침	-10.6419
▁류	-10.6419
▁대한항공	-10.642
▁부착	-10.6422
▁편집	-10.6422
▁감성	-10.6422
찌	-10.6425
▁민주	-10.6428
▁당분간	-10.643
▁소송을	-10.6433
뉴스	-10.6437
▁몇몇	-10.6438
▁영업이익	-10.6438
었으며	-10.644
▁몰아	-10.644
쁘	-10.6441
▁상가	-10.6441
체가	-10.6442
▁부정적	-10.6443
▁못한다	-10.6444
▁농도	-10.6445
보장	-10.6445
▁생활을	-10.6445
▁성사	-10.6448
▁포착	-10.6448
짓	-10.645
▁적절	-10.6451
▁북쪽	-10.6452
▁해상	-10.6455
▁엄청난	-10.6457
우는	-10.6464
▁화물	-10.6469
▁이상으로	-10.6473
▁빅데이터	-10.6475
▁대중교통	-10.6475
▁조언	-10.6477
▁음주	-10.6481
▁유사	-10.6483
▁무려	-10.6483
▁트렌드	-10.6484
▁높았다	-10.6484
▁MBC	-10.6484
▁수상자	-10.6484
▁말까지	-10.6485
▁입시	-10.6485
▁쥐	-10.6487
▁설득	-10.649
▁취약	-10.6493
▁서부	-10.6497
통합	-10.65
▁사건은	-10.6507
▁매월	-10.6509
▁모르	-10.6509
▁국무총리	-10.6511
▁보냈다	-10.6511
▁창조	-10.6512
▁실질적인	-10.6512
▁청주	-10.6512
▁드러내	-10.6513
해지는	-10.6516
▁내놓은	-10.6518
▁고시	-10.6519
▁금액을	-10.6521
▁레스토랑	-10.6521
▁밖으로	-10.6522
▁참가자	-10.6524
▁경우도	-10.6524
대와	-10.6524
▁완전	-10.6524
▁위원이	-10.6525
▁여사	-10.6525
▁위축	-10.6527
▁느끼는	-10.6529
▁차량이	-10.6529
▁닿	-10.6531
▁하나가	-10.6537
▁부장판사	-10.6539
▁흥	-10.6539
▁쏟아	-10.6544
▁관람객	-10.6544
▁영화는	-10.6547
▁부위	-10.6549
▁색깔	-10.6549
▁초점	-10.6551
▁궁	-10.6556
교육감	-10.6558
효과	-10.6558
▁비디오	-10.656
원에서	-10.656
▁차질	-10.6567
▁독특한	-10.6567
▁곧바로	-10.6567
IT	-10.6572
보니	-10.6574
▁제도를	-10.6575
▁해체	-10.6577
▁주에	-10.6579
▁국민이	-10.6581
▁수행할	-10.6581
일본	-10.6582
됐을	-10.6584
삭	-10.6585
픽	-10.6586
▁선포	-10.659
▁된다고	-10.659
▁기존에	-10.6592
▁사망한	-10.6594
▁위원회에	-10.6597
▁포스코	-10.6597
았던	-10.6598
▁집계	-10.66
▁나눔	-10.6601
기반	-10.6604
▁비교해	-10.6604
▁찾	-10.6609
▁아침에	-10.661
왔던	-10.6611
▁기조	-10.6612
▁충족	-10.6613
▁넘치는	-10.6617
▁알리	-10.6621
▁짓	-10.6622
▁짜	-10.6622
▁긍정적	-10.6625
▁고조	-10.6627
지부	-10.6628
▁아니지만	-10.663
▁지켜보	-10.6631
▁그중	-10.6632
센터가	-10.6633
▁연락을	-10.6633
▁근육	-10.6635
▁쉬운	-10.6637
▁않아서	-10.6638
▁감축	-10.6639
하였으며	-10.6639
▁위촉직	-10.664
▁심한	-10.6642
▁전액	-10.6642
▁퍼포먼스	-10.6642
분께	-10.6644
▁지원하고	-10.6644
금지	-10.6645
계열	-10.6646
차전	-10.6648
▁귀국	-10.6653
▁무죄	-10.6658
▁남쪽	-10.6658
▁케이	-10.6664
▁지상	-10.6664
▁전직	-10.6665
▁보고서를	-10.6668
▁보내는	-10.6669
성은	-10.6669
▁업데이트	-10.667
▁당한	-10.6671
▁다섯	-10.6671
▁벌금	-10.6672
▁다르게	-10.6674
▁빌려	-10.6675
▁조지	-10.6676
▁은퇴	-10.6678
pop	-10.6681
▁지체	-10.6681
청은	-10.6684
▁언제나	-10.6687
▁노무현	-10.6689
▁방안이	-10.6692
▁형태의	-10.6693
▁도모	-10.6694
▁멀리	-10.67
▁인형	-10.6702
▁모자	-10.6705
▁지역주민	-10.6705
▁되길	-10.6705
었으나	-10.6709
▁이미지를	-10.6709
▁용의자	-10.671
▁과일	-10.6713
▁연구개발	-10.6714
▁대답	-10.6714
▁누적	-10.6714
국이	-10.6719
▁취재	-10.672
▁조심	-10.6722
▁기업에	-10.6723
▁오지	-10.6724
▁탑재	-10.673
▁기분	-10.6731
▁소프트웨어	-10.6737
▁문구	-10.6738
사장	-10.6741
▁선두	-10.6741
▁배당	-10.6743
▁전투	-10.6744
▁보험료	-10.6744
투어	-10.6745
▁이곳은	-10.6748
마트	-10.6754
▁경제가	-10.6756
▁소방당국	-10.6756
퍼센트	-10.6757
▁작품이	-10.6758
▁기다려	-10.6758
▁임무	-10.6763
▁귀사	-10.6764
역에서	-10.6765
▁집권	-10.6766
▁작업이	-10.6768
▁공중	-10.677
대한	-10.677
▁예외	-10.6776
▁대결	-10.6781
▁사유로	-10.6783
▁만화	-10.6783
껏	-10.6784
▁예배	-10.6786
시아	-10.6786
망을	-10.6787
▁수량	-10.6788
▁펴	-10.6792
▁장면이	-10.6793
▁가기	-10.6793
하라는	-10.6798
▁음식점	-10.6799
▁압력	-10.6799
된다는	-10.6802
▁의장은	-10.6804
▁교육과정	-10.6804
▁차트	-10.6806
▁진학	-10.6809
▁미소	-10.6809
▁예정이라고	-10.6811
▁일환으로	-10.6813
▁팝	-10.6813
▁모니터링	-10.6813
▁한계가	-10.6814
▁베이	-10.6814
▁항의	-10.6815
▁통보하여야	-10.682
▁성경	-10.6821
▁급등	-10.6821
▁곳곳에	-10.6822
곰	-10.6822
▁웹사이트	-10.6823
▁발생하지	-10.6827
▁원인이	-10.6828
▁점수	-10.6828
▁위기에	-10.6829
▁전통시장	-10.683
느	-10.6834
하셨	-10.6836
억원으로	-10.6837
운반	-10.6839
▁알리는	-10.6846
▁재직	-10.6846
▁공적	-10.6851
▁영수증	-10.6851
▁택배	-10.6852
무늬	-10.6853
▁회수	-10.6854
▁성장을	-10.6865
▁특화	-10.6865
청년	-10.6868
니스	-10.6869
▁자리가	-10.6869
▁무엇이	-10.687
▁법원행정처	-10.687
▁퇴근	-10.6871
▁증권	-10.6874
▁도서	-10.6874
▁매수	-10.6874
▁관찰	-10.6875
▁요청한	-10.6875
개로	-10.6877
▁하던	-10.6878
협동조합	-10.6881
▁객실	-10.6891
▁정황	-10.6892
▁이승	-10.6893
건으로	-10.6896
▁거라	-10.6897
▁가져	-10.6897
▁입찰	-10.6898
되지만	-10.6899
▁일으키	-10.6899
▁전문가들	-10.6902
캠프	-10.6903
▁것이며	-10.6903
▁가능해	-10.6904
▁적합한	-10.6904
▁수영	-10.6906
▁돌파	-10.6908
▁대장	-10.6911
위험	-10.6912
지게	-10.6912
▁이명박	-10.6919
▁이송	-10.6921
▁듣는	-10.6922
▁받았습니다	-10.6923
▁순서	-10.6929
▁당연직	-10.693
▁담당하는	-10.693
▁회사는	-10.6931
▁흥행	-10.6931
▁문화가	-10.6933
드릴게요	-10.6934
▁하나님의	-10.6939
보건	-10.6944
인구	-10.6946
▁조달	-10.6948
▁강아지	-10.6948
▁소환	-10.695
▁거기	-10.6951
▁와인	-10.6953
▁지어	-10.6955
▁자영업자	-10.6958
▁느껴	-10.6959
하더라도	-10.6959
▁인정되는	-10.6961
▁수색	-10.6961
에겐	-10.6962
▁고유	-10.6963
▁틈	-10.6963
▁차세대	-10.6966
▁만났	-10.6973
▁없는데	-10.6979
▁정책에	-10.6981
▁체납	-10.6981
▁방영	-10.6981
▁칠	-10.6982
▁찾아가	-10.6982
▁시대에	-10.6983
경쟁	-10.6984
태평양	-10.6987
▁동일	-10.6987
▁보인	-10.6989
잠	-10.6989
▁인정할	-10.699
연금	-10.6991
▁고령	-10.6992
▁벌였다	-10.6992
▁인천시	-10.6994
▁취급	-10.6995
▁높이기	-10.6998
총회	-10.6999
▁논리	-10.7
▁북한과	-10.7
▁가사	-10.7
▁출국	-10.7001
▁등급	-10.7003
롬	-10.7006
▁탄핵	-10.7006
▁둘째	-10.7007
▁너무나	-10.701
▁갖추고	-10.7012
▁되며	-10.7016
ay	-10.7016
▁자회사	-10.7018
▁선생	-10.7018
캔	-10.7026
씨에게	-10.7026
▁무장	-10.7028
번호	-10.7029
소방서	-10.703
▁인지	-10.7035
▁믿음	-10.7036
▁뭔가	-10.7036
▁진정	-10.7036
▁달아	-10.7037
발전소	-10.704
▁급여	-10.7042
▁생각에	-10.7042
▁환율	-10.7044
▁자치	-10.7045
대상자	-10.7046
호텔	-10.7047
▁방식을	-10.7048
▁융합	-10.7048
테크	-10.7049
▁생겼	-10.705
▁몸이	-10.7051
수익	-10.7052
▁방법은	-10.7054
▁감동	-10.7055
z	-10.7055
케어	-10.7056
▁쏠리고	-10.7056
드라	-10.7058
▁헬기	-10.7059
▁아예	-10.7061
▁않았던	-10.7061
▁오면	-10.7062
이랑	-10.7064
▁진행했다	-10.7064
▁수요일	-10.7065
▁모았다	-10.7067
▁구호	-10.707
▁알아보	-10.7071
▁드리겠습니다	-10.7076
▁밴드	-10.7077
▁연금	-10.7078
▁당국이	-10.7087
▁창립	-10.709
▁속도가	-10.7091
▁달라고	-10.7092
▁경기도내	-10.7093
공유	-10.7094
▁감각	-10.7094
▁체감	-10.7094
▁가족과	-10.7095
▁끌었다	-10.7097
개월간	-10.7098
시쯤	-10.7099
▁정도가	-10.7102
천만원	-10.7104
▁지위	-10.7105
▁조례에서	-10.7105
목적	-10.7108
▁시작해	-10.7109
▁레이	-10.7109
▁유망	-10.7109
▁보지	-10.7113
▁행정안전부	-10.7114
▁동장	-10.7116
부산	-10.7119
▁광진구	-10.7122
면적	-10.7126
ri	-10.7126
▁선진국	-10.7129
▁느낌이	-10.7129
받았다	-10.713
위원회를	-10.7135
빌딩	-10.7137
기간이	-10.7139
▁출동	-10.7141
▁최소한	-10.7142
▁행동을	-10.7143
집행	-10.7144
국장은	-10.7147
심의	-10.7147
안보	-10.7147
▁김용	-10.7149
▁많습니다	-10.7149
▁빵	-10.7151
▁정부에	-10.7153
▁여자친구	-10.7153
타워	-10.7155
th	-10.7155
▁거절	-10.7156
기본법	-10.7163
티브	-10.7163
ro	-10.7163
▁생길	-10.7163
뱅크	-10.7164
▁to	-10.7165
▁아니고	-10.7165
원과	-10.7173
룩	-10.7173
▁블랙	-10.7174
▁규모로	-10.7181
▁일본인	-10.7182
▁내지	-10.7183
▁아르헨티나	-10.7183
▁한때	-10.7184
▁끈	-10.7189
담당관	-10.719
AI	-10.7191
드리고	-10.7192
펠	-10.7193
▁점포	-10.7197
▁김동	-10.7198
▁소형	-10.7198
한국시간	-10.7199
▁그날	-10.7199
▁개선을	-10.7201
▁보건복지부	-10.7206
▁신제품	-10.7206
▁성공적	-10.7206
▁준비한	-10.7206
▁침대	-10.7208
▁관광지	-10.7209
▁보내고	-10.7213
으려	-10.7213
켓	-10.7222
▁주민이	-10.7222
▁실시하는	-10.7222
▁맞서	-10.7225
▁이뤄지지	-10.7227
▁구역	-10.7229
▁호에	-10.7231
▁다음과	-10.7232
샘	-10.7233
▁병원으로	-10.7235
▁철회	-10.7236
▁어렵다는	-10.7237
▁피곤	-10.7237
다니	-10.7238
청사	-10.7239
▁연령	-10.724
▁디자이너	-10.7241
괴	-10.7242
▁내게	-10.7243
▁늘어나고	-10.7243
▁떠난	-10.7243
▁들어가는	-10.7245
▁수준을	-10.7248
▁끝나고	-10.7248
▁아니라고	-10.725
▁끊임없	-10.7253
▁수렴	-10.7255
▁민간인	-10.7256
▁폭탄	-10.7257
자재	-10.7262
▁예산안	-10.7266
▁마련한	-10.7267
세포	-10.7272
내기	-10.7272
밍	-10.7273
셋	-10.7273
▁조회	-10.7274
US	-10.7279
▁실망	-10.728
▁시간은	-10.7281
골을	-10.7281
▁LA	-10.7282
▁야간	-10.7284
▁보내주	-10.7284
▁가해자	-10.7285
▁벗	-10.7286
▁원전	-10.7289
수단	-10.729
▁미니	-10.73
▁조치가	-10.7301
흡	-10.7305
▁일요일	-10.7307
▁지수	-10.7307
▁곳곳에서	-10.7314
▁추산	-10.7314
조합	-10.7314
▁간편	-10.7315
상으로	-10.7321
▁재능	-10.7324
인증	-10.7326
▁언급했다	-10.733
재판	-10.7334
하나요	-10.7334
▁뷰티	-10.7335
▁사업이다	-10.7336
▁선배	-10.7339
▁북한에	-10.7339
▁과장	-10.734
폴	-10.7341
▁갖는	-10.7344
▁작성한	-10.7345
▁이뤄	-10.7345
▁요건	-10.7345
제는	-10.7346
▁가리	-10.7347
푸드	-10.7347
▁함은	-10.735
▁지원금	-10.7357
▁금융기관	-10.7358
▁차기	-10.7358
▁회사에서	-10.7359
▁기업과	-10.736
정지	-10.7362
▁높여	-10.7363
▁종전선언	-10.7364
▁돼지	-10.7364
▁되도록	-10.7365
▁분들	-10.7365
▁당연히	-10.7367
▁의원들	-10.7368
주간	-10.7368
▁자료에	-10.7375
▁비싸	-10.7376
듣	-10.7378
▁염	-10.7378
▁설명회	-10.7379
책임	-10.7379
▁정상화	-10.7381
▁중에는	-10.7383
▁예산이	-10.7383
▁말할	-10.7384
▁동부	-10.7387
▁났다	-10.7394
▁사우디	-10.7394
▁남겨	-10.7394
▁나쁜	-10.7395
▁물량	-10.7399
▁기온	-10.7401
▁전후	-10.7401
▁주최하고	-10.7402
▁솔루션	-10.7403
▁다수의	-10.7403
▁클라우드	-10.7404
▁모범	-10.7404
▁가공	-10.7405
▁조리	-10.7407
▁화학	-10.7408
▁근로시간	-10.741
▁유사한	-10.7411
▁초래	-10.7416
▁지지율	-10.7416
▁예선	-10.742
▁연임	-10.7421
▁물가	-10.7425
농가	-10.7427
리어	-10.7427
▁제외하고는	-10.7428
▁돌봄	-10.7429
뢰	-10.7434
▁사업으로	-10.7435
▁대체로	-10.7436
▁아티스트	-10.7436
▁마찬가지로	-10.7438
▁배우고	-10.7439
▁지사가	-10.7442
il	-10.7444
▁경찰과	-10.7445
▁경기북부	-10.7447
캐	-10.7448
▁공연장	-10.745
▁남아있	-10.745
▁성남	-10.7451
▁보건	-10.7454
▁유물	-10.7454
▁믿고	-10.7457
▁막을	-10.7463
▁다행	-10.7465
▁후속	-10.7466
▁민주주의	-10.7466
▁특검	-10.7468
▁대구시	-10.747
▁운영한다	-10.7475
▁유아	-10.7476
촉진	-10.7478
▁갖게	-10.7479
▁국가가	-10.7482
▁음식이	-10.7482
▁국정	-10.7483
민주	-10.7484
▁칸	-10.7486
콘텐츠	-10.7486
▁자원봉사	-10.7488
바이오	-10.7488
내고	-10.7489
스테	-10.7489
▁사례를	-10.7492
▁적자	-10.7494
▁끈다	-10.7495
▁남자친구	-10.7496
▁관악구	-10.7497
였	-10.7499
▁불가	-10.7499
수원	-10.7499
▁기업을	-10.7504
▁이익을	-10.7505
▁흡연	-10.7506
%(	-10.7508
▁저소득층	-10.7509
▁서버	-10.7509
▁변수	-10.7513
▁중독	-10.7514
▁예정인	-10.7517
폴리	-10.7519
획	-10.7523
▁연관	-10.7524
▁심각	-10.7526
▁또다시	-10.7527
▁투자가	-10.753
▁테마	-10.753
▁진정한	-10.753
▁왔습니다	-10.7532
▁관장	-10.7533
대응	-10.7534
핵	-10.7534
▁기기	-10.7537
▁정규직	-10.7539
같이	-10.754
▁애초	-10.7547
▁태양광	-10.7548
사례	-10.7548
▁하원	-10.7551
▁연예인	-10.7555
▁든다	-10.7557
폐기물	-10.7557
▁전략을	-10.7561
▁종사자	-10.7564
▁마포구	-10.7564
▁세탁	-10.7564
▁노하우	-10.7568
▁법원이	-10.7568
자들을	-10.758
▁열려	-10.7582
합의	-10.7585
▁물이	-10.7585
▁본격화	-10.7586
▁미국에	-10.7591
▁아이폰	-10.7591
등을	-10.7593
올림픽	-10.7596
▁발간	-10.7596
심에서	-10.7596
▁파손	-10.7597
덴	-10.7599
▁납품	-10.7599
▁요구할	-10.7599
▁이어진	-10.76
▁기대가	-10.7601
운용	-10.7603
▁합병	-10.7605
▁정해	-10.7607
▁편리	-10.7609
▁목요일	-10.761
▁버전	-10.761
▁대통령에게	-10.7611
▁기상	-10.7614
▁부족하다	-10.7614
전쟁	-10.7614
Z	-10.7619
▁전반에	-10.7623
▁고속도로	-10.7624
▁비자	-10.7624
자들	-10.7626
겁	-10.7626
▁보전	-10.7627
키로	-10.7633
공동	-10.764
▁스크린	-10.764
▁라디오	-10.764
▁여지	-10.7641
▁납치	-10.7641
▁치킨	-10.7647
▁위탁할	-10.7648
▁현지인들	-10.7649
▁사립유치원	-10.7651
▁증가하는	-10.7651
▁온몸	-10.7652
▁연구소	-10.7652
▁무대를	-10.7653
▁켜	-10.7655
법원	-10.766
▁쾌적	-10.7662
MC	-10.7664
▁묻는	-10.7665
▁근처	-10.7669
▁기관의	-10.7669
▁체크	-10.767
▁펜	-10.7671
▁몰리	-10.7671
▁소식통	-10.7674
▁조금씩	-10.7676
▁드러냈다	-10.7682
통일	-10.7683
▁총재	-10.7685
▁가입자	-10.7686
밤	-10.7689
▁산책	-10.7697
겸	-10.7698
보전	-10.77
잖아	-10.7702
el	-10.7703
▁준비가	-10.7705
정보통신	-10.772
임대주택	-10.7721
▁유학	-10.7725
▁송파구	-10.7726
▁신분	-10.7727
▁참여하고	-10.7727
▁부활	-10.7728
▁원내대표가	-10.773
▁과도한	-10.773
▁제기한	-10.773
나갈	-10.7731
▁이처럼	-10.7733
▁브렉시트	-10.7734
▁복잡	-10.7735
▁상금	-10.7737
▁김진	-10.7738
▁감상	-10.7738
▁살펴보면	-10.7742
져야	-10.7743
▁섭취	-10.7745
▁체력	-10.7745
▁사람으로	-10.7745
▁해주	-10.7746
▁평생	-10.7749
▁세우	-10.7749
▁병역	-10.7755
▁메인	-10.7755
▁허리	-10.7755
하였을	-10.7757
▁노동자들	-10.7757
▁언급한	-10.7758
▁포상	-10.7759
▁몰라	-10.7764
▁시인	-10.7767
셔야	-10.7768
▁돕는	-10.7769
▁보면서	-10.7772
만여	-10.7776
▁크지	-10.778
▁강경	-10.778
▁의지가	-10.7783
▁수익률	-10.7784
▁이게	-10.7788
수준	-10.7792
▁발전에	-10.7792
▁했다는	-10.7793
▁급속	-10.7795
▁좌우	-10.7797
am	-10.7798
▁무산	-10.7803
▁윤리	-10.7804
▁커질	-10.7807
▁매니저	-10.7809
▁없애	-10.781
▁정보화	-10.7811
▁인류	-10.7821
▁면담	-10.7831
▁담고	-10.7832
걸음	-10.7835
▁안전성	-10.7836
즐	-10.7837
경비	-10.7837
▁유럽연합	-10.7841
▁상대방	-10.7842
▁생물	-10.7844
▁활	-10.7848
▁잇	-10.785
▁세운	-10.7854
▁막아	-10.7854
▁관계자들이	-10.7855
▁팀장	-10.7857
▁나한테	-10.786
시의회	-10.786
대교	-10.7862
▁디스플레이	-10.7863
▁구청	-10.7864
특위	-10.7867
시장에서	-10.7868
▁과학기술	-10.7869
▁중입니다	-10.7872
▁유전자	-10.7874
▁조사에서	-10.7875
▁국제사회	-10.7882
▁해결하기	-10.7887
과정에서	-10.7887
▁반대로	-10.7888
▁주행	-10.7888
▁청사	-10.7889
▁불량	-10.789
▁일고	-10.789
▁성추행	-10.7893
▁추정된다	-10.7894
유지	-10.7895
▁유연	-10.7895
공동체	-10.7895
▁관리에	-10.7896
놓고	-10.7899
박람회	-10.79
사인	-10.79
▁가져다	-10.7902
▁재원	-10.7902
문학	-10.7902
▁원유	-10.7904
▁권리를	-10.7906
주시고	-10.7906
▁작곡	-10.7906
▁차원의	-10.7906
▁부각	-10.7907
▁후에는	-10.791
클럽	-10.7911
▁종류의	-10.7912
럭	-10.7914
▁서양	-10.7915
산업단지	-10.7917
▁검출	-10.7918
된다고	-10.7918
▁몸에	-10.7923
▁드립니다	-10.7923
▁치르	-10.7924
▁거세	-10.7926
▁CNN	-10.7935
ol	-10.7939
▁정서	-10.7943
규칙	-10.7945
▁쌍	-10.7945
잎	-10.7946
▁집안	-10.7947
▁불편을	-10.7949
십시오	-10.7952
▁법관	-10.7952
▁오류	-10.7952
▁보고서는	-10.7952
▁도시재생	-10.7957
▁관계자들	-10.7957
▁나아	-10.796
했으면	-10.7961
ur	-10.7962
▁있었어요	-10.7964
▁콘	-10.7966
▁기증	-10.7967
▁인하여	-10.7967
▁학대	-10.7967
▁그랬	-10.7971
▁교실	-10.7971
▁첫날	-10.7972
▁주장하는	-10.7975
컷	-10.7978
▁특유의	-10.7978
▁운항	-10.7983
▁사용하지	-10.7985
라이프	-10.7985
▁그걸	-10.7985
▁전주	-10.7986
꺾	-10.7986
피해	-10.799
and	-10.7992
시킨다	-10.7993
IP	-10.7994
▁조율	-10.7994
▁든	-10.7994
▁얻었다	-10.7995
▁넘어서	-10.7996
▁참가자들	-10.7996
▁원장은	-10.7998
칼	-10.8001
▁비싼	-10.8003
▁방학	-10.8007
톡	-10.8009
▁중국은	-10.801
▁가족들	-10.8012
▁고성	-10.8015
▁비록	-10.8015
▁소중한	-10.8018
▁사로잡	-10.802
▁미안	-10.802
▁지목	-10.802
▁김상	-10.802
▁내외	-10.802
▁꼽힌다	-10.8021
▁카카오톡	-10.8022
해달라	-10.8022
▁하더라도	-10.8024
▁소문	-10.8027
▁강요	-10.8028
음에도	-10.8028
▁논쟁	-10.8032
▁얼굴을	-10.8037
▁강화를	-10.8038
▁가능하며	-10.804
건축	-10.804
▁일반적으로	-10.8043
▁거리가	-10.8043
▁부상을	-10.8044
▁친구들이	-10.8045
▁팀을	-10.8049
▁여수	-10.8049
▁떼	-10.8052
현이	-10.8053
▁잡지	-10.8055
만명이	-10.8056
▁카드를	-10.8057
▁내릴	-10.8058
▁마스크	-10.8058
▁오래된	-10.806
▁행사로	-10.806
▁위생	-10.806
▁친구와	-10.8061
든지	-10.8063
▁뼈	-10.8066
프리	-10.8069
사업의	-10.8072
품을	-10.8073
▁기관이	-10.8073
▁사정이	-10.8075
▁화요일	-10.8076
▁비정규직	-10.8078
겐	-10.8081
▁소비자가	-10.8085
▁우즈베키스탄	-10.8086
지역에	-10.8088
▁매력을	-10.8088
▁참사	-10.809
천여	-10.8091
▁김씨가	-10.8092
뇨	-10.8095
▁건너	-10.8101
수시로	-10.8102
▁경찰의	-10.8104
▁나누	-10.8105
▁가능성은	-10.8108
▁소유자	-10.8108
정원	-10.8108
▁책임이	-10.811
▁기간에	-10.8112
▁본선	-10.8115
▁임용	-10.8116
▁것들이	-10.8116
▁흔	-10.8118
▁사실이다	-10.8119
▁브리핑	-10.8119
▁내야	-10.8122
줍니다	-10.8124
백만	-10.8125
혈관	-10.8127
정비	-10.8129
▁대량	-10.8131
▁대해선	-10.8131
▁먼	-10.8132
▁도민들	-10.8132
▁규칙은	-10.8133
▁유기	-10.8134
▁서울에서	-10.8137
▁끝까지	-10.8137
▁지나치	-10.8138
역사	-10.8139
▁잡은	-10.814
▁받아들여	-10.8141
▁부득이	-10.8141
▁요구가	-10.8149
▁주류	-10.815
룰	-10.8153
현재	-10.8156
▁서울시가	-10.8156
▁수거	-10.8157
▁안전하게	-10.8159
드림	-10.8161
▁통신원	-10.8165
▁있거나	-10.8169
▁김해	-10.8169
▁회의에서	-10.817
▁대립	-10.8171
▁문장	-10.8173
▁결혼식	-10.8173
▁무용	-10.8174
▁보증	-10.8174
▁재해	-10.8175
더라	-10.8176
장소	-10.8176
수입	-10.8179
이라서	-10.818
▁걸그룹	-10.8181
▁물리	-10.8184
▁점유율	-10.8185
▁컬러	-10.8185
▁개시	-10.8185
▁이탈	-10.8188
TS	-10.8189
▁상태를	-10.819
▁자격증	-10.8193
▁깜짝	-10.8195
▁상품이	-10.8196
유치원	-10.8196
▁정규	-10.8197
▁이름은	-10.8198
▁국가대표	-10.8201
▁보여주고	-10.8202
▁하나인	-10.8203
▁그림을	-10.8206
후보	-10.8208
▁리스크	-10.8209
▁뒤집	-10.8213
▁차장	-10.8215
▁차가	-10.8215
▁정상이	-10.8217
▁별도	-10.8217
워크	-10.8218
리조트	-10.8218
▁이혼	-10.822
▁소리가	-10.8221
▁관련해서	-10.8222
▁다가오	-10.8223
중심	-10.8223
▁코너	-10.8225
▁벌어진	-10.8226
앨	-10.8228
민의	-10.823
▁관리하는	-10.8231
▁기여할	-10.8231
론이	-10.8232
BC	-10.8234
▁AP	-10.8239
▁치열	-10.824
▁대사관	-10.824
▁웹	-10.824
▁잊지	-10.8242
▁낮추	-10.8246
기업의	-10.8246
▁건전	-10.8246
▁제안했다	-10.8247
▁성분	-10.8249
▁사실은	-10.8249
▁간부	-10.825
▁기본계획	-10.8251
▁힘들다	-10.8254
▁농협	-10.8254
▁성공했다	-10.8255
▁국비	-10.8258
▁설문조사	-10.8259
▁이내의	-10.826
▁당했다	-10.8263
전형	-10.8264
▁수상했다	-10.8265
▁유포	-10.8266
▁수익을	-10.8268
▁지금도	-10.827
▁선물을	-10.827
▁효율성	-10.8271
▁신앙	-10.8271
랭	-10.8273
▁육군	-10.8273
▁학술	-10.8273
▁거대한	-10.8275
▁부근	-10.8275
▁수행하는	-10.8276
▁in	-10.8277
▁된다면	-10.8277
▁추정되는	-10.8278
▁태양	-10.8284
▁사장이	-10.8285
년째	-10.8285
용으로	-10.8286
▁저항	-10.8288
크림	-10.829
▁강세	-10.829
▁발매	-10.8292
▁위법	-10.8296
▁내는	-10.8297
▁이거	-10.8298
▁궁금	-10.8298
▁육아	-10.8299
▁국어	-10.8299
▁학생들에게	-10.8301
▁고려하면	-10.8301
▁하천	-10.8302
콩	-10.8302
▁이뤄지	-10.8303
차로	-10.8305
었기	-10.831
▁없게	-10.8311
▁의문	-10.8312
▁시는	-10.8314
▁들어갈	-10.8315
쇠	-10.8315
베르	-10.8316
▁즐겨	-10.8317
▁재미있	-10.8319
▁논의를	-10.832
▁프로그램은	-10.8325
▁기자가	-10.8325
▁고객님	-10.8326
▁가려	-10.8328
▁올바른	-10.8328
▁응시	-10.8329
보드	-10.8329
▁작전	-10.8331
심이	-10.8331
▁동맹	-10.8332
▁이해할	-10.8333
▁흉기	-10.8338
▁응답자	-10.8338
▁일각에서	-10.8339
▁줄여	-10.8339
▁스케줄	-10.8339
▁패널	-10.834
de	-10.834
▁독립운동	-10.8342
▁사람과	-10.8343
▁저자	-10.8343
명에게	-10.8345
▁남기	-10.8345
▁유족	-10.8346
▁가능하도록	-10.8346
자들에게	-10.835
노동조합	-10.835
▁민주노총	-10.8351
총장	-10.8353
협약	-10.8353
▁오해	-10.8354
▁박스	-10.8358
점에서	-10.8359
▁포함되어	-10.836
다리	-10.836
▁SBS	-10.8362
▁강좌	-10.8363
행정기관	-10.8364
▁리스트	-10.8364
▁상세	-10.8367
▁자세한	-10.8369
▁뒤늦게	-10.8373
故	-10.8373
로서의	-10.8373
▁지역으로	-10.8374
▁반대하는	-10.8375
▁숨졌다	-10.8378
▁조금만	-10.8379
▁차지하고	-10.8379
지역의	-10.8381
▁케냐	-10.8384
▁통계청	-10.8389
▁뜨	-10.8389
▁다행히	-10.839
▁한해	-10.8392
설계	-10.8393
▁내년부터	-10.8394
▁병원에서	-10.8394
▁유죄	-10.8394
▁안산	-10.8396
▁그곳	-10.8399
▁장점이	-10.8402
▁기름	-10.8402
▁기술력	-10.8403
▁세입	-10.8407
로써	-10.8411
사령관	-10.8419
동물	-10.8421
폭이	-10.8421
▁기자회견에서	-10.8422
▁공군	-10.8422
▁자원봉사자	-10.8423
▁고백	-10.8424
▁블루	-10.8426
설비	-10.8432
▁면세점	-10.8432
▁거기에	-10.8432
▁가능한가요	-10.8433
자본	-10.8434
박스	-10.8435
▁보러	-10.8439
▁역할이	-10.844
▁그나마	-10.844
▁건수	-10.8441
▁펼쳐진다	-10.8441
▁드러	-10.8446
▁적어도	-10.8447
▁시술	-10.8453
▁평택	-10.8454
▁연봉	-10.8456
▁영어로	-10.8458
▁거짓말	-10.8464
▁드는	-10.8464
된다면	-10.8467
렸던	-10.8468
원들이	-10.8468
▁기업인	-10.8472
▁중순	-10.8475
▁지침	-10.8477
▁이상인	-10.8477
▁발목	-10.8478
▁활력	-10.8478
▁명품	-10.8478
률을	-10.8478
▁현지에서	-10.8478
▁목격	-10.8479
▁나가는	-10.8482
자치	-10.8483
중소기업	-10.8485
▁동력	-10.8487
드리겠습니다	-10.8489
▁이른	-10.8489
▁날부터	-10.8492
배우	-10.8494
▁군인	-10.8494
▁거친	-10.8499
▁장악	-10.8499
▁판매하는	-10.85
▁웃음	-10.85
▁멤버들	-10.8501
관리하여야	-10.8505
▁의하면	-10.8508
▁사이버	-10.8509
▁사무총장	-10.8509
▁호텔에서	-10.851
학적	-10.851
▁주문한	-10.8512
▁극단	-10.8518
이익	-10.8518
순위	-10.8519
▁페이지	-10.8519
▁신인	-10.8521
▁배가	-10.8523
▁수원시	-10.8524
▁솔로	-10.8526
▁여성들	-10.8527
▁연인	-10.8529
▁봐야	-10.8529
▁모습으로	-10.853
녹	-10.853
▁판문점	-10.853
▁아울러	-10.8531
▁문제의	-10.8531
개발사업	-10.8532
부담	-10.8533
▁구체적	-10.8534
▁플라스틱	-10.8537
였고	-10.8538
▁소개했다	-10.854
렛	-10.8542
예정	-10.8545
하시고	-10.8548
▁아니라는	-10.8549
▁보복	-10.855
추진	-10.8555
▁긴밀	-10.8555
▁취미	-10.8557
▁먹거리	-10.8558
▁비롯	-10.8558
▁과세	-10.8558
져서	-10.8561
▁혐의가	-10.8561
수행	-10.8562
▁행사장	-10.8562
MS	-10.8563
▁물어보	-10.8564
▁높였다	-10.8565
▁시너지	-10.8565
요양	-10.8567
▁전문가들이	-10.8567
▁가요	-10.8568
미술	-10.8577
▁김민	-10.8578
▁드러난	-10.8579
▁CEO	-10.8585
해준다	-10.8586
딘	-10.8587
▁아니한다	-10.8588
▁아프간	-10.8593
▁메이	-10.8594
▁철저히	-10.8599
▁조만간	-10.8599
▁집계됐다	-10.8599
▁구성원	-10.8599
곳을	-10.8601
▁목록	-10.8603
▁이례적	-10.8603
▁양산	-10.8603
▁신라	-10.8604
▁약물	-10.8605
스턴	-10.8606
▁것이고	-10.8606
▁의장이	-10.8609
▁홈페이지에	-10.8609
▁금융감독원	-10.861
▁기쁨	-10.8611
▁빨	-10.8611
▁채워	-10.8612
변경	-10.8613
▁식으로	-10.8617
▁결코	-10.8617
보증	-10.8618
▁한쪽	-10.862
바다	-10.862
▁안양	-10.862
이었지만	-10.8621
▁경찰청	-10.8621
▁연료	-10.8622
▁서면	-10.8622
▁간단한	-10.8622
▁서민	-10.8625
▁계약서	-10.8626
붙	-10.8627
▁감안하면	-10.8628
▁응급	-10.8628
▁취약계층	-10.8631
▁워크숍	-10.8633
렁	-10.8633
▁벨기에	-10.8634
▁착공	-10.8634
ir	-10.8636
▁후보는	-10.8638
▁놀라	-10.8641
▁보며	-10.8643
명령	-10.8644
별지	-10.8645
▁병력	-10.8646
▁갖춰	-10.8646
프레	-10.8648
▁방문하는	-10.8648
광장	-10.8649
▁움직이	-10.8649
▁십	-10.8651
▁환호	-10.8652
버린	-10.8654
듬	-10.8654
▁포함돼	-10.8655
▁챙겨	-10.8656
▁철저한	-10.8656
▁국민들이	-10.8657
▁흡수	-10.8657
▁다녀	-10.8658
▁관리자	-10.8664
보세요	-10.8666
수산	-10.8667
작품	-10.8668
▁중국에	-10.8668
▁방식이	-10.867
▁중국인	-10.8671
▁철학	-10.8675
▁변호사는	-10.8676
▁매출액	-10.8679
▁꼼꼼	-10.8679
스티	-10.8681
▁우승을	-10.8682
▁저기	-10.8683
▁프리	-10.8685
▁끝나면	-10.8687
검진	-10.8689
팬	-10.8691
▁관중	-10.8692
▁늘어나는	-10.8692
▁남긴	-10.8692
스쿨	-10.8695
▁달에	-10.8695
▁신축	-10.8698
▁향상을	-10.8698
▁주가가	-10.87
▁사장은	-10.8701
윗	-10.8702
횡	-10.8702
▁산업단지	-10.8711
▁바이러스	-10.8711
▁땀	-10.8714
에게도	-10.8716
▁하니	-10.8716
드라마	-10.8718
실장은	-10.872
▁갖추	-10.8722
▁경향이	-10.8723
▁패배	-10.8724
▁인스타그램	-10.8725
▁인건비	-10.8726
▁스튜디오	-10.8729
미터	-10.8729
▁얘기를	-10.873
특구	-10.8731
▁사연	-10.8732
스카	-10.8733
▁들어온	-10.8736
층이	-10.8736
▁출연해	-10.8738
▁쟁점	-10.8739
운전	-10.8739
▁주위	-10.8744
▁면허	-10.8746
▁동시	-10.8747
▁바라보	-10.8753
▁정상회담이	-10.8754
▁직면	-10.8757
▁아쉬움	-10.876
▁일하고	-10.876
▁상용화	-10.876
▁아니한	-10.8762
▁기념식	-10.8762
▁주민등록	-10.8763
끼리	-10.8764
▁연락이	-10.8764
▁검토하고	-10.8766
비와	-10.8769
월드	-10.8771
▁날아	-10.8774
▁의혹에	-10.8776
▁공격을	-10.8782
▁알았	-10.8783
▁워낙	-10.8784
결제	-10.8786
▁오늘날	-10.879
▁표명	-10.8791
트라	-10.8791
▁금고	-10.8791
▁받아들이	-10.8795
벤처기업	-10.8796
▁자립	-10.8797
▁개척	-10.8801
▁밤에	-10.8802
바이	-10.8803
▁도구	-10.8805
▁앤	-10.8806
꾸	-10.8809
하였	-10.881
브레	-10.8811
The	-10.8811
▁조사에	-10.8812
▁아까	-10.8813
기업이	-10.8813
▁섬유	-10.8814
▁준비하고	-10.8816
노동자	-10.8817
굿	-10.8819
▁경로	-10.882
▁기준이	-10.882
▁꼬	-10.8821
▁아직까지	-10.8822
▁보건소	-10.8822
▁급식	-10.8824
▁강동구	-10.8826
▁인용해	-10.8827
TF	-10.8827
▁특성상	-10.8833
재난	-10.8833
▁수료	-10.8835
▁앞선	-10.8835
▁복무	-10.8835
▁올해부터	-10.8836
▁하락세	-10.8841
▁추진하기	-10.8842
터미널	-10.8842
▁좋겠습니다	-10.8845
▁밝혀졌다	-10.8846
▁취재진	-10.8846
▁김재	-10.8848
▁선호하는	-10.8849
▁불가능한	-10.885
▁위주로	-10.8855
▁지방세	-10.8855
▁영화의	-10.8856
▁성범죄	-10.8857
▁아들이	-10.8858
▁투기	-10.8859
▁뒤로	-10.8859
▁개관	-10.886
▁참가해	-10.8861
▁배경으로	-10.8862
▁효율적	-10.8865
통제	-10.8866
▁유용	-10.8869
▁군대	-10.8871
내가	-10.8873
▁밝혔습니다	-10.8877
▁멈추	-10.8877
▁출판	-10.8877
▁국면	-10.8879
▁계시	-10.8883
착륙	-10.8889
▁표면	-10.8893
▁국적	-10.8893
▁동행	-10.8897
봤다	-10.8897
▁현재는	-10.8899
▁영광	-10.89
▁바뀐	-10.8901
▁다니는	-10.8901
▁평생교육	-10.8902
▁줄었다	-10.8904
▁여기는	-10.8906
▁인근에	-10.8907
▁예수님	-10.8907
연준	-10.8907
▁예수	-10.8909
생활을	-10.8909
▁현실화	-10.891
▁수소	-10.8911
▁국가들	-10.8912
▁잭슨	-10.8912
▁미뤄	-10.8913
▁말했습니다	-10.8914
구의회	-10.8914
▁해결할	-10.8915
▁프로그램에	-10.8918
▁미친	-10.8918
▁중재	-10.8919
님께서	-10.892
▁사이의	-10.8921
▁바이어	-10.8922
워드	-10.8923
거든요	-10.8928
▁자라	-10.893
▁경과	-10.893
▁않았다는	-10.8935
▁신도시	-10.8938
지급	-10.8939
▁비공개	-10.894
▁누르	-10.8946
플레이	-10.8947
▁거라고	-10.895
▁정밀	-10.8955
▁무상	-10.8958
▁반등	-10.8959
▁어쩔	-10.896
▁에어컨	-10.896
▁맡았다	-10.8963
▁내수	-10.8964
ICT	-10.8964
▁보고하여야	-10.8966
▁요구를	-10.8966
▁짐	-10.8967
▁물어	-10.8968
▁곤	-10.8972
▁총회	-10.8974
▁제시했다	-10.8975
▁관심과	-10.8977
▁미흡	-10.8978
끄	-10.8978
▁약속을	-10.8978
▁관리가	-10.898
▁대표의	-10.8983
▁소음	-10.8985
▁가축	-10.8986
▁걸린	-10.8986
인천광역시	-10.8987
▁생계	-10.899
▁수탁자는	-10.8993
졌지만	-10.8994
▁홀로	-10.8994
▁정확하게	-10.9004
▁즉각	-10.9006
▁뇌물	-10.9007
▁야생동물	-10.9007
▁잡았다	-10.9008
▁필요로	-10.901
▁동향	-10.901
라서	-10.9011
▁다채로	-10.9013
▁닭	-10.9015
▁예정된	-10.9016
▁위상	-10.9018
▁적립	-10.9019
▁부패	-10.902
▁마련해	-10.9022
▁한데	-10.9022
엠	-10.9023
우드	-10.9025
▁뛰어나	-10.9026
▁찾았다	-10.903
▁기대감이	-10.9031
▁아무것	-10.9032
▁수면	-10.9037
▁수익성	-10.9039
▁확실	-10.9039
▁평창	-10.9041
인당	-10.9044
▁거점	-10.9046
유럽	-10.9052
▁위해선	-10.9053
▁도출	-10.9054
▁찾으	-10.9054
▁강조한	-10.9056
▁적용한다	-10.9059
▁시리아	-10.906
▁이론	-10.9061
▁봉사활동	-10.9062
▁단순한	-10.9064
듀	-10.9065
터널	-10.9066
▁순천	-10.9068
부정적인	-10.9071
▁치러	-10.9075
▁기업은	-10.9077
륜	-10.9079
▁변신	-10.908
EU	-10.908
정보를	-10.9081
▁기구	-10.9082
확인	-10.9082
롭게	-10.9084
▁깨끗	-10.9085
▁순수	-10.9087
▁인상을	-10.9088
▁점에	-10.9089
팀장	-10.909
▁규명	-10.9093
선언	-10.9094
▁사회의	-10.9094
키스	-10.9097
▁동작	-10.9102
▁이걸	-10.9103
▁있을까	-10.9103
▁자동으로	-10.9104
▁지적도	-10.9106
▁병행	-10.9107
▁증대	-10.9108
부모	-10.9109
▁금융권	-10.9109
▁바르	-10.9111
▁포함한다	-10.9111
뇌	-10.9111
▁흑	-10.9112
▁한창	-10.9112
▁아마도	-10.9115
흘	-10.9115
▁읽어	-10.9115
▁실태	-10.9116
▁손에	-10.9116
▁확대를	-10.9116
봐야	-10.912
대통령	-10.9122
▁고의	-10.9123
▁자세히	-10.9125
정책을	-10.9125
튀	-10.9125
▁환자들	-10.9126
▁장려	-10.9126
▁근대	-10.9126
숭	-10.9127
▁보도가	-10.9128
▁성과가	-10.9131
낙	-10.9134
▁도가	-10.9134
▁공모전	-10.9135
▁우유	-10.9138
임에도	-10.9139
▁국가의	-10.914
▁감지	-10.9141
▁나이가	-10.9142
▁자가	-10.9142
▁대표와	-10.9144
▁추구	-10.9144
▁맞고	-10.9146
▁예정이며	-10.9147
▁상담을	-10.9148
▁의원들이	-10.9148
▁적합	-10.9148
▁성적이	-10.9149
▁파악하고	-10.9152
▁내용에	-10.9153
▁접목	-10.9157
에따라	-10.9158
▁금융위	-10.9165
▁장갑	-10.9165
▁CJ	-10.9165
▁지급한다	-10.9171
▁점수를	-10.9174
▁가격에	-10.9174
▁보험사	-10.9174
▁장학금	-10.9175
▁시진핑	-10.9175
▁구름	-10.918
수산물	-10.918
▁통지	-10.9181
▁대회에서	-10.9184
▁경비를	-10.9186
▁예상했다	-10.9186
▁승무원	-10.9188
▁구매할	-10.9188
▁고대	-10.9191
▁패키지	-10.9192
▁금액이	-10.9192
▁셀	-10.9194
육성	-10.9196
▁다이어트	-10.92
▁여성들이	-10.9206
▁이루어진	-10.9207
▁관광객이	-10.9213
▁일치	-10.9214
렸고	-10.9215
▁합쳐	-10.9215
드릴까요	-10.9218
지역에서	-10.9218
▁억제	-10.9222
▁전국에서	-10.9223
▁부천	-10.9224
라이트	-10.9225
▁붉은	-10.9226
▁경쟁률	-10.9227
▁통지하여야	-10.9228
▁노동당	-10.9228
▁석탄	-10.9229
▁영세	-10.923
렴	-10.9231
▁성남시	-10.9232
신도시	-10.9234
▁시세	-10.9235
왔지만	-10.9237
▁근거로	-10.9241
▁여론이	-10.9241
괄	-10.9242
되던	-10.9242
▁시상	-10.9242
오늘	-10.9242
▁부사장	-10.9243
▁완벽한	-10.9246
▁인연	-10.9246
▁탓	-10.9248
▁팔레스타인	-10.9248
▁푸틴	-10.9249
수술	-10.925
▁양쪽	-10.925
▁재판을	-10.9251
▁고위급	-10.9255
▁합의했다	-10.9256
센트	-10.9257
▁결심	-10.9257
▁못했던	-10.9257
▁생겼다	-10.9261
스테이	-10.9267
▁선보인다	-10.9269
▁방문할	-10.9271
▁항소심	-10.9271
▁잠깐	-10.9274
▁도약	-10.9276
▁관행	-10.9276
▁조용	-10.9277
VR	-10.9278
보트	-10.9278
▁이영	-10.9281
▁기재부	-10.9284
▁움직임이	-10.9288
▁고가	-10.9288
▁없나요	-10.9288
▁말라	-10.9289
▁기무사	-10.929
▁인적	-10.9295
▁클래식	-10.9297
교섭	-10.9299
▁계층	-10.9299
▁의류	-10.9303
▁노력하겠다	-10.9305
▁꺼내	-10.9307
비아	-10.9307
겠네요	-10.9308
▁공통	-10.9309
▁즐겁게	-10.931
▁부부가	-10.9313
▁맛있	-10.9315
▁출생	-10.9317
▁통장	-10.9319
▁늘려	-10.9319
▁스위스	-10.9322
▁포함됐다	-10.9324
포트	-10.9325
됐는데	-10.9326
▁열람	-10.9327
▁남한	-10.9328
틱	-10.933
의결	-10.9333
원인	-10.9336
▁학부모들	-10.9337
기아차	-10.9337
▁충분	-10.9337
▁활동하고	-10.934
극장	-10.9342
▁원인으로	-10.9342
▁다음날	-10.9344
▁그저	-10.9344
되었던	-10.9345
사람	-10.9345
▁탈레반	-10.9347
머니	-10.9349
▁국정원	-10.935
▁투자자들	-10.9351
▁신속하게	-10.9353
교수	-10.9353
▁인지도	-10.9357
▁출제	-10.9357
미래	-10.9358
▁비서실장	-10.9359
▁전형	-10.936
▁배울	-10.9361
▁기사를	-10.9362
춤	-10.9363
▁전임	-10.937
▁전산	-10.9371
셰	-10.9371
▁일반인	-10.9372
▁남북정상회담	-10.9372
▁공략	-10.9373
▁초등학생	-10.9373
▁확	-10.9379
▁분석된다	-10.9381
▁싫	-10.9382
▁거래가	-10.9383
▁운영위원회	-10.9384
▁제외하고	-10.9385
▁밀집	-10.9392
▁주둔	-10.9392
▁졸	-10.9392
▁감사를	-10.9392
▁아르바이트	-10.9396
▁대비해	-10.9396
▁측의	-10.9396
▁인식이	-10.9398
▁추진을	-10.9399
▁약화	-10.9401
▁맹	-10.9401
▁통일부	-10.9403
▁많을	-10.9404
▁체류	-10.9404
대학원	-10.9405
위기	-10.9406
▁않다고	-10.9411
▁성장세	-10.9412
▁비용은	-10.9414
▁가중	-10.9416
▁미래에	-10.9417
▁어디로	-10.9417
제안	-10.9419
▁함유	-10.9419
▁증인	-10.942
▁공시가격	-10.9422
▁바꿀	-10.9423
▁실태조사	-10.9424
▁개인의	-10.9425
▁할아버지	-10.9425
우리는	-10.9425
공개	-10.9426
액은	-10.9427
▁추측	-10.9427
▁다하겠다	-10.9427
소감을	-10.943
승인	-10.9433
▁수감	-10.9433
수급	-10.9433
▁진흥	-10.9434
▁사법부	-10.9438
▁바라는	-10.944
▁위원장과	-10.9443
▁가이드	-10.9444
▁만든다	-10.9444
덩	-10.9446
겠어	-10.9446
▁성공한	-10.9452
기념	-10.9452
해양	-10.9453
▁궁금해	-10.9453
앞	-10.9453
▁공방	-10.9454
노인	-10.9455
▁쏟아지	-10.9456
▁감정을	-10.9456
▁건데	-10.9458
▁수사관	-10.9459
▁오랜만에	-10.9459
▁상시	-10.946
▁발생하고	-10.946
▁그러하지	-10.9461
되었다고	-10.9462
▁형제	-10.9463
블록	-10.9463
▁붙여	-10.9465
영상	-10.9468
▁기여한	-10.947
되게	-10.9471
▁유관기관	-10.9471
▁긴장감	-10.9471
대비	-10.9473
▁장착	-10.9474
▁요구한	-10.9475
▁상원	-10.9477
▁곽	-10.9478
▁판매가	-10.9478
▁협박	-10.9483
올해	-10.9486
밖	-10.9487
방안을	-10.9488
▁운명	-10.9491
▁밀려	-10.9492
매체	-10.9494
뚝	-10.9495
▁불가피	-10.9499
▁밝은	-10.9501
▁연대	-10.9501
▁간호사	-10.9502
▁회신	-10.9505
▁지인	-10.9509
▁불가능하다	-10.951
근로자	-10.951
▁현직	-10.9511
▁수령	-10.9513
▁많았	-10.9513
▁안전사고	-10.9513
▁투쟁	-10.9514
닐	-10.952
▁이름으로	-10.952
근로	-10.9522
▁언니	-10.9522
▁목적이	-10.9523
▁상무	-10.9529
▁일본이	-10.9531
▁BMW	-10.9534
▁수술을	-10.9535
▁가계	-10.9536
▁유지하고	-10.9538
▁역전	-10.9539
▁정성	-10.954
눈	-10.954
▁일상생활	-10.954
징수	-10.9541
▁공단	-10.9543
▁팀의	-10.9544
▁보여줄	-10.9544
▁회의는	-10.9546
▁영입	-10.9549
▁안전을	-10.9554
덤	-10.9554
▁흉	-10.9555
▁실력을	-10.9555
▁면에서	-10.9557
▁성장할	-10.9557
▁존경	-10.956
되는데	-10.9561
▁승진	-10.9561
▁돌리	-10.9562
▁활발한	-10.9563
패를	-10.9568
▁것이었다	-10.9569
▁완공	-10.9573
▁내신	-10.9579
▁효율	-10.9579
기관이	-10.9581
▁선보였다	-10.9582
▁견인	-10.9583
▁제공해	-10.9583
▁횡령	-10.9584
학기	-10.9584
▁선전	-10.9584
▁탈퇴	-10.9586
▁계단	-10.9586
▁신청서를	-10.9587
▁목포	-10.9587
▁재건축	-10.9587
▁그곳에	-10.9588
▁제게	-10.9589
되었을	-10.9589
▁제보	-10.9595
▁입었다	-10.9596
해지면서	-10.9598
▁느끼	-10.9603
싼	-10.9604
▁열풍	-10.9605
▁넘기	-10.9605
▁다문화	-10.9607
스케	-10.9614
▁지원해	-10.9614
▁대우	-10.9615
▁고르	-10.9616
▁빨라	-10.9617
▁시험을	-10.9617
▁주신	-10.9618
▁좋겠어	-10.9622
▁간판	-10.9623
▁장기간	-10.9624
▁방금	-10.9625
▁도달	-10.9626
▁빚어	-10.9627
OS	-10.9631
최근	-10.9631
▁반영된	-10.9632
▁데는	-10.9634
▁구조조정	-10.9637
▁성공을	-10.9637
▁떨어졌다	-10.964
▁위에서	-10.964
▁결성	-10.9641
자료를	-10.9642
기업들의	-10.9643
벨트	-10.9645
▁제작한	-10.9646
▁준비하는	-10.9646
▁오직	-10.9648
▁종전	-10.9649
▁서울시장	-10.9651
▁통증	-10.9652
▁넌	-10.9655
하죠	-10.9657
▁인용	-10.9658
▁골키퍼	-10.9659
넬	-10.9659
▁모습이다	-10.966
▁바이	-10.966
▁패턴	-10.9661
▁찾지	-10.9665
▁돕기	-10.9667
▁탈출	-10.9667
▁입점	-10.967
▁매진	-10.967
▁민선	-10.9671
▁있었	-10.9672
▁음식은	-10.9673
▁피해자들	-10.9673
▁더해	-10.9677
카페	-10.9678
▁곁	-10.9679
▁때보다	-10.9679
▁이용하여	-10.968
듯이	-10.9681
▁금품	-10.9682
▁결의	-10.9685
▁복잡한	-10.9686
임금	-10.9686
▁보여준	-10.9688
▁양상	-10.9688
시나요	-10.9689
▁군산	-10.9689
▁굳	-10.9695
▁축산	-10.9696
▁해외에서	-10.97
POP	-10.9702
▁공개됐다	-10.9702
운영할	-10.9703
신청서	-10.9704
▁던지	-10.9706
▁하루에	-10.9706
▁말이다	-10.9709
▁처방	-10.9713
지대	-10.9714
크라	-10.9715
▁출신의	-10.9715
▁불편한	-10.9717
▁방송된	-10.972
▁있으	-10.9721
▁않았고	-10.9722
샷	-10.9723
해수욕장	-10.9723
▁천연	-10.9724
추신수	-10.9724
납니다	-10.9725
보상	-10.9726
현대	-10.9728
율은	-10.9729
기계	-10.9729
▁시간대	-10.9733
▁대변인	-10.9734
▁실적을	-10.9737
▁권한을	-10.974
▁예전에	-10.9742
광고	-10.9744
▁벤처	-10.9745
아시아	-10.9747
▁트럭	-10.9749
▁입장이	-10.975
해달라고	-10.9751
▁담보	-10.9754
▁강화하고	-10.9756
▁이외에	-10.9759
이닝	-10.9759
▁학기	-10.9763
▁글이	-10.9764
▁프로젝트를	-10.9766
ad	-10.9766
▁정치인	-10.9767
▁심의회	-10.9768
▁첫째	-10.9769
▁저하	-10.9774
놨	-10.9775
ation	-10.9776
음이	-10.9776
▁규정이	-10.9778
▁생성	-10.9778
엑스	-10.9779
▁일종	-10.9781
▁주방	-10.9781
발생	-10.9782
▁공직자	-10.9785
▁오리	-10.9786
▁나면	-10.9786
▁합의한	-10.9787
▁힘입어	-10.9787
▁필요성이	-10.9788
▁보조금을	-10.9789
▁느끼고	-10.979
▁발부	-10.979
▁내역	-10.9793
PS	-10.9795
▁나타나는	-10.9798
▁묘사	-10.9798
▁알지	-10.9799
▁반려동물	-10.98
▁극대화	-10.98
에서부터	-10.9801
▁혜택이	-10.9804
놀	-10.9809
▁소외	-10.981
▁높았	-10.9813
▁탈락	-10.9819
▁무선	-10.982
유공자	-10.9823
▁좋아합니다	-10.9823
겹	-10.9825
▁얼	-10.9825
▁심판	-10.9826
▁제임스	-10.9826
▁안녕하세요	-10.9827
▁필요해요	-10.9828
▁줄이기	-10.9829
▁고개	-10.9829
보증금	-10.9829
▁커플	-10.983
▁문화적	-10.9832
▁모습은	-10.9834
해주고	-10.9834
▁가르치	-10.9836
▁복수	-10.9838
▁엇갈	-10.9839
▁우편	-10.984
▁중요하다고	-10.9841
▁그렇다	-10.9842
▁분실	-10.9849
▁않는다고	-10.9852
순환	-10.9852
▁일반적인	-10.9853
▁요인이	-10.9854
▁실업	-10.9854
▁곤란	-10.9855
▁장에게	-10.9856
▁대표단	-10.9858
▁주실	-10.986
▁얼음	-10.986
졌던	-10.9861
▁높다는	-10.9863
됐기	-10.9864
▁거뒀다	-10.9865
하네요	-10.9866
▁기준금리	-10.9868
첨	-10.9868
▁뜻이다	-10.9868
▁선택할	-10.9871
▁나서는	-10.9873
▁저녁에	-10.9878
▁가까워	-10.9879
▁저감	-10.988
▁대부	-10.9881
▁척	-10.9881
▁기소된	-10.9882
▁의료기관	-10.9884
▁넘겨	-10.9885
▁확실한	-10.9885
▁시청률	-10.9887
융합	-10.9888
있어	-10.9889
▁검거	-10.989
윌	-10.9891
▁열리고	-10.9892
▁좋고	-10.9893
소재	-10.9894
▁고수	-10.9895
▁못하게	-10.9897
▁습관	-10.9897
수수료	-10.9898
쏠	-10.9902
나란히	-10.9905
▁커졌다	-10.9907
▁널	-10.9907
회의에서	-10.9908
▁정수	-10.9909
▁모델을	-10.9911
묵	-10.9911
▁견제	-10.9911
곳에	-10.9915
▁세계적	-10.9917
▁위원장을	-10.992
▁골목	-10.992
▁정확	-10.9922
▁영상이	-10.9923
▁화합	-10.9927
건물	-10.9927
▁학업	-10.9929
봉사	-10.9932
업무를	-10.9933
믿	-10.9934
아파트	-10.9938
▁유적	-10.9941
▁지문	-10.9941
▁종사	-10.9943
▁무역협상	-10.9944
낳	-10.9946
▁수습	-10.9947
UN	-10.9949
▁때문이	-10.995
▁지원받	-10.9953
졸	-10.9953
▁방송을	-10.9953
바퀴	-10.9954
▁채무	-10.9956
▁리더십	-10.9957
▁구민의	-10.9957
▁민생	-10.9957
▁아픈	-10.9958
▁희망을	-10.9958
▁편하게	-10.9962
▁이르면	-10.9963
▁급락	-10.9963
▁최다	-10.9966
협약을	-10.9966
달라	-10.9968
▁익숙	-10.9968
립니다	-10.9969
▁좋아해요	-10.997
▁신원	-10.997
▁펼쳤다	-10.9973
자로서	-10.9973
▁하나는	-10.9977
▁강행	-10.9982
▁정황이	-10.9984
코드	-10.9984
▁왔어요	-10.9989
요구	-10.9994
아트	-10.9994
▁싱글	-10.9996
▁웃음을	-10.9996
▁경찰서	-10.9997
▁사태가	-10.9999
▁무인	-11
▁오프라인	-11
합창단	-11
▁합의가	-11.0002
▁세무	-11.0002
▁폭이	-11.0003
▁설치할	-11.0004
▁관계자가	-11.0005
▁내리는	-11.0005
▁세금을	-11.0005
▁개발에	-11.0008
▁커진	-11.001
공사가	-11.0015
▁딸이	-11.0016
▁보석	-11.0016
▁주간	-11.0016
▁성장률	-11.0017
음식	-11.0018
꺼	-11.002
▁동해	-11.0021
▁이들에게	-11.0022
▁외모	-11.0024
▁신청할	-11.0026
▁케이크	-11.0026
▁연일	-11.0026
남동	-11.0027
▁신세계	-11.0032
달라고	-11.0032
▁견해	-11.0032
공공	-11.0035
▁객관적	-11.0035
▁상하이	-11.0036
▁불안감	-11.0038
홍보	-11.0039
▁b	-11.0043
▁되는데	-11.0044
▁고지	-11.0045
▁작품들	-11.0045
▁용산구	-11.0047
▁행사에서	-11.0049
▁선택한	-11.005
결과를	-11.0051
NC	-11.0054
▁아무도	-11.0055
▁경기도의회	-11.0055
▁중반	-11.0056
▁조사결과	-11.0057
▁국민청원	-11.0062
▁늘리	-11.0063
▁전달했다	-11.0063
▁버튼	-11.0063
ut	-11.0064
▁안으로	-11.0064
▁거로	-11.0066
GM	-11.007
▁해명	-11.0071
▁참석자들	-11.0073
▁확보한	-11.0075
야말로	-11.0075
▁바람에	-11.0078
켜	-11.0079
ec	-11.0082
▁경고했다	-11.0085
▁그만	-11.0089
▁압도적	-11.009
▁개장	-11.009
▁선보인	-11.0092
택시	-11.0095
▁드릴게요	-11.0098
▁주시기	-11.0099
▁올리는	-11.0103
▁일본은	-11.0103
▁호평	-11.0103
국으로	-11.0104
▁이동통신	-11.0104
▁마르	-11.0106
자마자	-11.0107
여름	-11.0109
▁벼	-11.011
▁중복	-11.0112
이었습니다	-11.0112
▁있었다는	-11.0118
▁제안한	-11.0119
▁풍부	-11.012
공업	-11.012
준비	-11.0121
구매	-11.0124
▁휴일	-11.0124
대사	-11.0127
▁정작	-11.0128
▁피해자가	-11.0132
▁어르신	-11.0134
▁다루	-11.0135
▁없다면	-11.0135
▁아니야	-11.0135
지금	-11.0141
붓	-11.0141
▁읽고	-11.0143
▁안성	-11.0143
험	-11.0143
▁시대를	-11.0145
장님	-11.0146
▁지향	-11.0146
▁같아서	-11.0147
▁경선	-11.015
▁용어	-11.0154
▁자리매김	-11.0155
▁정하여	-11.0157
▁생각하지	-11.0159
▁빗	-11.0164
칩	-11.0167
▁남북관계	-11.017
신속한	-11.017
남부	-11.0174
과학기술	-11.0175
▁세종시	-11.0176
▁상관없이	-11.0178
▁겉	-11.0179
▁이해가	-11.0181
▁출연한	-11.0181
▁패스트트랙	-11.0181
▁전체가	-11.0184
▁고속	-11.0184
담당자	-11.0184
▁생기는	-11.0185
▁제품들	-11.0185
자격	-11.0185
▁복용	-11.0187
책임자	-11.0188
▁여름철	-11.0189
축구	-11.0189
▁않았어요	-11.019
▁주장하고	-11.019
▁재벌	-11.0191
▁포상금	-11.0191
▁체결했다	-11.0194
AS	-11.0195
융	-11.0196
받지	-11.0199
버려	-11.0199
▁내려야	-11.0199
▁신청한	-11.0199
▁업무에	-11.0202
▁설립한	-11.0204
▁정면	-11.0204
▁결정할	-11.0206
▁대표적	-11.0207
▁뻔	-11.0207
쉽	-11.0207
▁무역분쟁	-11.0209
▁일할	-11.0211
▁주시면	-11.0212
▁준비해	-11.0213
전기	-11.0213
▁서식에	-11.0213
▁개막식	-11.0216
LE	-11.0216
▁있기를	-11.0217
별로는	-11.0217
▁커버	-11.0219
▁키워	-11.0219
교실	-11.022
▁판결이	-11.0232
▁라이브	-11.0233
▁결과는	-11.0233
▁고스란히	-11.0235
▁인테리어	-11.0235
▁흔들리	-11.0235
▁구정	-11.0236
▁제안을	-11.0236
▁명동	-11.0238
▁변화에	-11.0244
민족	-11.0245
▁전국적으로	-11.0245
▁필요성을	-11.0246
▁국외	-11.0246
▁단점	-11.0248
해볼	-11.0248
▁양승태	-11.0249
협회가	-11.0249
됐으나	-11.025
▁가르쳐	-11.025
▁말하고	-11.025
▁전송	-11.0251
▁사건과	-11.0251
트랙	-11.0254
하듯	-11.0256
▁요청을	-11.026
▁고등	-11.026
▁중부	-11.026
▁출자	-11.026
▁배포	-11.026
▁시작할	-11.0262
▁독점	-11.0262
▁사진은	-11.0263
▁공정한	-11.0264
▁독자	-11.0266
▁에스	-11.0275
플랜	-11.0276
여자	-11.0277
▁문화체육관광부	-11.0278
▁시청자	-11.0279
▁경관	-11.028
▁끝날	-11.028
▁나빠	-11.0282
남북	-11.0282
▁말로	-11.0283
비치	-11.0284
셨다	-11.0285
▁로비	-11.0287
▁세상에	-11.0287
▁구로구	-11.0288
▁나누고	-11.0288
▁이벤트를	-11.0289
ce	-11.0289
▁발견했다	-11.029
▁중심이	-11.0291
▁활성화에	-11.0293
▁상인	-11.0297
▁입양	-11.0298
▁입사	-11.0299
▁먹었	-11.03
▁이해하고	-11.0302
퓨	-11.0302
▁분당	-11.0307
▁입어	-11.0307
▁코스피	-11.0308
▁지갑	-11.0313
▁건지	-11.0315
▁토트넘	-11.0315
▁강점	-11.0316
▁이어져	-11.0317
자유	-11.0317
▁업무협약	-11.032
차원	-11.0321
▁거둔	-11.0321
▁처분을	-11.0322
▁취업자	-11.0322
▁결함	-11.0323
▁않는다면	-11.0324
▁낙태	-11.0325
▁수질	-11.0326
▁사임	-11.0326
▁공간으로	-11.0327
▁혁신성장	-11.0332
▁창고	-11.0332
▁제외한다	-11.0334
▁돌아온	-11.0334
▁대상은	-11.0335
래도	-11.0335
▁세포	-11.0337
주시길	-11.0338
▁내려가	-11.0339
▁결정이	-11.0343
뮤직	-11.0345
▁환경이	-11.0346
▁상점	-11.0347
▁성공적인	-11.0347
▁소비자들이	-11.0347
▁진행해	-11.0349
▁정해진	-11.035
▁이후에도	-11.0351
▁관계기관	-11.0352
▁수차례	-11.0352
리얼	-11.0353
▁먹으면	-11.0355
▁아카데미	-11.0356
▁넥센	-11.0357
▁많은데	-11.0357
▁출구	-11.0358
버섯	-11.036
▁농장	-11.0363
▁펼치고	-11.0365
위안	-11.0365
▁참여한다	-11.0366
관리법	-11.0367
▁경북도	-11.0368
▁결정한다	-11.0368
▁영등포구	-11.0369
▁말은	-11.0371
▁공판	-11.0372
▁사라진	-11.0372
범위	-11.0374
▁받으며	-11.0377
▁화장	-11.0378
▁진압	-11.038
▁방송에서	-11.038
▁명성	-11.0381
▁위성	-11.0381
▁요구하고	-11.0383
▁블로그	-11.0384
▁기뻐	-11.0385
▁기지	-11.0386
▁당선인	-11.0386
▁수단	-11.0389
▁센서	-11.039
▁완전한	-11.0393
으니까	-11.0393
토리	-11.0397
▁네덜란드	-11.0398
▁로버트	-11.0398
▁책은	-11.0401
나가는	-11.0401
▁임대료	-11.0401
▁도착한	-11.0403
▁국악	-11.0406
▁감안	-11.0407
▁오르는	-11.0409
스러워	-11.041
DC	-11.0411
▁포천	-11.0414
숲	-11.0416
▁근절	-11.0417
▁간다	-11.0419
▁가족들이	-11.0422
▁부모가	-11.0426
▁벤투	-11.0426
▁자칫	-11.0426
▁찌	-11.0427
▁성매매	-11.0427
▁용도	-11.0431
▁허락	-11.0434
사단	-11.0436
▁사회적기업	-11.0437
▁유산	-11.0437
▁주고받	-11.0438
▁공감대	-11.0438
▁끊이지	-11.0439
▁케이블	-11.044
▁춘천	-11.044
끈	-11.044
필드	-11.0441
▁지나가	-11.0441
▁화상	-11.0441
원자력	-11.0442
▁해킹	-11.0443
▁여가	-11.0444
▁구성한다	-11.0445
▁확인된	-11.0446
스피	-11.0451
▁목사는	-11.0453
팽	-11.0453
▁남경필	-11.0453
▁피아노	-11.0453
▁장이	-11.0453
▁소요되는	-11.0454
▁있었기	-11.0455
민원	-11.0459
▁채소	-11.0463
▁영화관	-11.0464
▁제품으로	-11.0467
IB	-11.0468
▁아트	-11.0469
▁북핵	-11.0469
▁그리스도	-11.047
▁소장품	-11.047
▁때문으로	-11.0473
초등학교	-11.0474
▁수출이	-11.0475
▁반전	-11.0476
▁제기된다	-11.0478
▁확정된	-11.0479
▁인센티브	-11.0481
▁빼앗	-11.0481
▁사인	-11.0481
전선	-11.0482
임대	-11.0483
▁당첨	-11.0483
▁없던	-11.0485
▁환자의	-11.0488
▁원료	-11.0488
▁양육	-11.0493
▁가져가	-11.0494
▁산업통상자원부	-11.0494
▁없었습니다	-11.0503
▁민주당이	-11.0503
식당	-11.0503
▁나은	-11.0504
세트	-11.0506
▁상주	-11.0506
▁아닐	-11.0508
▁될지	-11.0508
▁이용자가	-11.0508
▁조별리그	-11.0508
아일랜드	-11.0509
▁거짓	-11.0512
▁위험한	-11.0512
▁포스터	-11.0512
매치	-11.0513
▁보좌관	-11.0515
단위	-11.0516
▁편이다	-11.0516
▁타결	-11.0518
번호를	-11.052
▁용이	-11.0522
▁여비	-11.0523
▁노동계	-11.0524
▁데이트	-11.0525
▁고객에게	-11.0529
ne	-11.0532
▁키우	-11.0534
▁규정한	-11.0536
▁변호인	-11.0536
▁중국어	-11.0537
▁춤을	-11.0538
던데	-11.0538
없	-11.054
▁개최되는	-11.0543
▁시민이	-11.0543
▁분산	-11.0544
▁중앙정부	-11.0544
방문	-11.0549
▁너와	-11.0549
▁잉글랜드	-11.055
▁유지할	-11.055
▁절차가	-11.0551
▁막판	-11.0552
▁현대자동차	-11.0552
▁박사는	-11.0554
▁신흥국	-11.0554
▁아니요	-11.0556
▁구제	-11.0557
▁주된	-11.0562
곱	-11.0562
억원에	-11.0563
긋	-11.0564
▁모양새	-11.0566
▁교수님	-11.0567
▁적용해	-11.0568
▁되기를	-11.0575
미디어	-11.0575
▁판단이	-11.0576
▁상실	-11.0577
▁투명	-11.0577
▁불거진	-11.0578
▁로마	-11.0581
데이터	-11.0581
▁심사위원	-11.0582
▁없으며	-11.0584
▁사내	-11.0587
▁진심으로	-11.0587
▁정당한	-11.0588
▁달한다	-11.0589
▁핵무기	-11.0592
▁액션	-11.0592
하므로	-11.0593
▁진영	-11.0595
▁주지사	-11.0598
랍	-11.0601
▁제공하기	-11.0602
▁파워	-11.0606
▁피로	-11.0606
▁드릴	-11.061
▁국토	-11.061
▁의미한다	-11.0614
▁차지한	-11.0614
여부를	-11.0614
▁나타내	-11.0617
▁됐다고	-11.0617
▁지낸	-11.0617
ter	-11.0618
▁나타냈다	-11.062
》	-11.062
▁탑	-11.0622
하느냐	-11.0623
▁FA	-11.0624
▁시위대	-11.0625
▁반납	-11.0629
▁뭘	-11.063
관계를	-11.0631
낸다	-11.0632
▁마드리드	-11.0634
독립	-11.0634
▁건강보험	-11.0636
▁지붕	-11.0638
▁최고가	-11.0639
▁밖에서	-11.064
▁대대적	-11.0641
▁서해	-11.0645
▁고통을	-11.0647
▁횟수	-11.0648
기준을	-11.0649
▁사회적경제	-11.065
양성	-11.065
▁수혜	-11.066
지난	-11.066
▁줄이고	-11.0661
▁아름다움	-11.0662
▁서대문구	-11.0662
▁붙잡	-11.0664
▁설치하고	-11.0664
▁끝나는	-11.0665
▁창문	-11.0666
▁정체성	-11.0668
▁배우는	-11.0669
▁프레	-11.067
▁당황	-11.067
▁노력하고	-11.0672
권역	-11.0674
▁원문기사보기	-11.0676
댐	-11.0676
▁앞장서	-11.0676
▁개성공단	-11.0677
▁일관	-11.0679
▁받았다고	-11.0681
▁감소한	-11.0682
측은	-11.0682
DS	-11.0686
비행	-11.0686
▁분이	-11.0687
▁비타민	-11.069
출납	-11.069
▁각호의	-11.069
▁건물이	-11.0695
▁기원합니다	-11.0695
▁공백	-11.0696
▁고객들	-11.07
▁사립	-11.0704
▁연내	-11.0704
요청	-11.0705
▁해변	-11.0706
▁의정부	-11.0707
▁중지	-11.0708
소비자	-11.0713
▁희망하는	-11.0716
닦	-11.0718
들로부터	-11.0721
카르	-11.0722
▁것만	-11.0725
▁분석해	-11.0726
▁들어와	-11.0727
SA	-11.0731
지출	-11.0732
▁젖	-11.0733
▁의자	-11.0738
▁나서고	-11.0741
화폐	-11.0741
▁태도를	-11.0745
▁상정	-11.0746
▁코미디	-11.0746
▁국세청	-11.0746
▁메르스	-11.0747
▁갤러리	-11.0747
▁분담	-11.0748
뷰	-11.0757
좁	-11.0757
▁이루고	-11.0757
▁왜곡	-11.0758
▁않겠다	-11.0759
▁애플리케이션	-11.0761
▁태어난	-11.0761
▁사형	-11.0761
▁나타난	-11.0761
▁약속했다	-11.0763
▁오고	-11.0765
▁군수	-11.0765
la	-11.0767
▁어렵게	-11.0769
▁남자가	-11.0773
▁성희롱	-11.0775
▁일어날	-11.0775
▁선수단	-11.0777
진영	-11.0778
▁돌입	-11.0778
였어요	-11.0779
하니까	-11.078
▁경우에도	-11.0781
▁이뤄지는	-11.0783
▁경영진	-11.0784
▁어렵	-11.0784
▁언론에	-11.0785
▁알리고	-11.0786
▁제기했다	-11.0787
▁식량	-11.0788
▁캘리포니아	-11.0789
▁민관	-11.079
▁구경	-11.0794
▁임상	-11.0794
▁사람들과	-11.0795
▁불이익	-11.0796
▁김경수	-11.0798
▁철강	-11.0801
▁나누어	-11.0801
화학	-11.0803
앱	-11.0804
▁저지	-11.0806
▁실시했다	-11.0807
CO	-11.0807
이든	-11.081
▁업체들이	-11.0811
▁기한	-11.0811
▁방식이다	-11.0811
▁주셔서	-11.0812
▁살려	-11.0812
▁개최된다	-11.0812
▁대전시	-11.0812
▁이천	-11.0815
▁수강	-11.0817
▁시나리오	-11.0817
▁칭찬	-11.0818
▁나누는	-11.0818
▁의상	-11.0822
▁명소	-11.0828
뒀	-11.0829
자문	-11.0829
작업을	-11.0832
▁유료	-11.0839
id	-11.0841
▁지역구	-11.0841
▁박씨	-11.0841
▁규제가	-11.0844
▁신고가	-11.0845
▁현저	-11.0845
▁본부장	-11.0846
▁애니메이션	-11.0846
▁주장이다	-11.0847
심사위원회	-11.0847
▁여부에	-11.0849
▁특혜	-11.0849
▁코드	-11.0849
내역	-11.085
▁자신에게	-11.0851
▁회의록	-11.0851
만원으로	-11.0852
▁쓰지	-11.0852
허브	-11.0852
▁시작한다	-11.0859
웰	-11.086
▁시드니	-11.086
사회적	-11.086
▁보였	-11.0861
▁농민	-11.0862
▁드라마를	-11.0863
▁수준에	-11.0866
▁당연	-11.0866
▁우호	-11.0869
▁아쉽	-11.087
▁타인	-11.0871
▁사망했다	-11.0873
인들에게	-11.0873
▁위치해	-11.0873
▁연다	-11.0876
▁밀어	-11.0877
▁골든	-11.088
▁보내주세요	-11.0882
생명	-11.0883
▁비난했다	-11.0883
▁의료진	-11.0883
스토	-11.0885
주시는	-11.0885
깃	-11.0887
▁이뤄진다	-11.0889
▁법무	-11.089
▁거죠	-11.089
▁조세	-11.0891
▁감기	-11.0891
받았	-11.0892
▁쌓아	-11.0894
력과	-11.0894
▁용산	-11.0895
▁여러분들	-11.0895
▁내년도	-11.0896
▁취하고	-11.0897
이었고	-11.0899
수석	-11.0902
또	-11.0902
▁나오기	-11.0902
▁가이드라인	-11.0904
았어요	-11.0904
제작	-11.0906
▁줄일	-11.0907
▁살펴	-11.0908
▁측에	-11.0911
▁마찬가지	-11.0913
▁시행에	-11.0913
▁정산	-11.0914
▁이어가고	-11.0916
▁취할	-11.0917
▁고객의	-11.0918
▁국정감사	-11.0919
▁혈액	-11.0919
▁상해	-11.092
희망	-11.092
▁자신들이	-11.0922
▁치유	-11.0923
했다면	-11.0925
줘서	-11.0926
▁해석된다	-11.0927
▁기반을	-11.0927
▁무단	-11.0928
스토어	-11.0928
보안	-11.0929
북부	-11.0931
치기	-11.0933
▁추진해	-11.0934
▁이른다	-11.0937
졌으며	-11.0937
쇄	-11.0938
▁들었습니다	-11.0941
▁가르	-11.0941
▁변호사가	-11.0944
▁스티븐	-11.0947
스파	-11.095
▁c	-11.0956
▁행진	-11.0956
▁연구진	-11.0958
▁매케인	-11.0961
하셔야	-11.0962
▁편입	-11.0962
역량	-11.0964
▁애정	-11.0964
▁자꾸	-11.0965
▁패스	-11.0967
▁건강에	-11.0968
▁생각보다	-11.097
▁지정한	-11.0978
▁폭우	-11.0979
▁이후로	-11.0979
▁[	-11.0981
▁청취	-11.0982
▁개최된	-11.0983
▁버닝썬	-11.0984
소비	-11.0985
▁과감	-11.0985
▁권장	-11.0987
▁동남아	-11.099
▁비키니	-11.099
▁무렵	-11.0992
▁원정	-11.0993
▁여주	-11.0995
행동	-11.0996
ve	-11.1002
▁환승	-11.1002
사법	-11.1003
틸	-11.1003
농어촌	-11.1005
▁자택	-11.1007
ul	-11.1008
▁경호	-11.1008
▁국영	-11.101
▁대치	-11.1012
효율	-11.1012
리오	-11.1014
▁분야별	-11.1018
했었	-11.1018
▁기숙사	-11.1019
▁소스	-11.102
▁고생	-11.102
▁의제	-11.102
▁코스닥	-11.102
▁DMZ	-11.102
▁도착할	-11.1023
▁것들을	-11.1023
진단	-11.1024
▁본인의	-11.1024
▁마시고	-11.1025
▁왔는데	-11.1025
▁한국영화	-11.1026
▁오디션	-11.1026
▁마음으로	-11.1026
▁프라이	-11.1029
▁업그레이드	-11.1034
▁실정이다	-11.104
▁상속	-11.1041
▁지난번	-11.1045
▁높아졌다	-11.1052
▁금융위기	-11.1052
▁음원	-11.1053
▁갑니다	-11.1053
▁《	-11.1053
▁주연	-11.1055
바람	-11.106
모씨	-11.1061
▁이밖에	-11.1062
복합	-11.1063
▁회동	-11.1063
▁교원	-11.1066
세력	-11.1067
닌	-11.1068
▁숙제	-11.1068
▁아름답	-11.1069
▁줄이는	-11.1072
▁장관과	-11.1073
▁기록하며	-11.1073
▁개최한	-11.1075
▁불교	-11.1077
▁사회에	-11.1078
▁부족해	-11.1078
▁의거	-11.1078
▁대한민국의	-11.1081
ow	-11.1081
▁시계	-11.1083
▁살리	-11.1084
▁표기	-11.1086
▁호기심	-11.1093
▁연구팀	-11.1094
▁교황	-11.1097
▁유예	-11.1097
봤는데	-11.1098
▁볼거리	-11.1098
▁벨	-11.1099
▁무조건	-11.1099
▁남편이	-11.11
▁부르는	-11.1103
▁재생	-11.1104
▁시작하는	-11.1107
▁일으킨	-11.1107
▁깊어	-11.1109
상황을	-11.111
▁수탁	-11.1114
▁소방관	-11.1115
킴	-11.112
▁말하기	-11.1121
▁결산	-11.1121
▁태극기	-11.1122
▁기후	-11.1124
▁낮다	-11.1125
▁돼서	-11.1127
▁후보를	-11.1128
▁주축	-11.1129
▁불편함	-11.113
특보	-11.113
▁발병	-11.113
▁잇는	-11.1133
지방공무원	-11.1135
▁영유아	-11.1137
▁오사카	-11.1137
▁챙기	-11.1138
▁전반적인	-11.114
▁걱정이	-11.114
▁실감	-11.1142
▁피고인	-11.1142
단장	-11.1143
▁설치한	-11.1143
▁흔히	-11.1144
MA	-11.1144
▁불참	-11.1145
▁공존	-11.1146
▁맡았	-11.1147
▁선보이는	-11.1147
▁삼아	-11.1148
▁커다란	-11.1151
정부가	-11.1153
▁농구	-11.1154
모임	-11.1159
▁걸리는	-11.116
부대	-11.116
ent	-11.1161
▁취하	-11.1161
▁제기된	-11.1162
템	-11.1165
▁필수적	-11.1168
▁특례	-11.1171
▁선교사	-11.1173
▁증가할	-11.1174
▁실형	-11.1181
샵	-11.1181
▁대북제재	-11.1181
으세요	-11.1181
▁많다는	-11.1183
▁막대한	-11.1183
실점	-11.1184
▁치즈	-11.1184
▁유로	-11.1185
▁감소했다	-11.119
▁직접적인	-11.1191
▁첨부하여	-11.1195
▁삶이	-11.1196
▁태어나	-11.1196
▁나라가	-11.1196
몸	-11.1199
동영상	-11.1201
▁들어선	-11.1202
▁보행	-11.1202
조치를	-11.1205
삼성	-11.1205
▁해석이	-11.1206
▁묶	-11.1207
▁교정	-11.1207
▁불신	-11.1208
톰	-11.1211
문서	-11.1212
▁공격수	-11.1212
▁환전	-11.1213
▁결정된	-11.1213
▁얼굴이	-11.1215
턱	-11.122
▁제조사	-11.1222
▁중계	-11.1222
▁아픔	-11.1226
▁독도	-11.1227
▁황금	-11.1229
되었어요	-11.1229
▁계신	-11.1234
기관으로	-11.1235
▁펼치	-11.1238
장터	-11.1239
꼴	-11.124
▁사회공헌	-11.124
▁아시아나항공	-11.124
▁추구하는	-11.1242
▁단위로	-11.1245
베스트	-11.1246
▁감당	-11.1249
▁주민들은	-11.1249
사령부	-11.125
▁지급하는	-11.1251
청구	-11.1252
▁무척	-11.1252
▁축적	-11.1252
못	-11.1254
▁류현진	-11.1255
클러스터	-11.1255
▁때문이라고	-11.1256
▁청렴	-11.1256
끄러	-11.1257
▁구미	-11.1257
▁유리한	-11.126
▁벌어졌다	-11.126
▁사흘	-11.1261
법상	-11.1264
▁예보	-11.1264
리안	-11.1266
▁자제	-11.127
▁반입	-11.1272
▁대륙	-11.1272
▁단일	-11.1274
▁숨지고	-11.1276
전환	-11.1277
▁만들었	-11.1277
▁신곡	-11.1279
▁비준	-11.128
▁말씀을	-11.1283
▁비트코인	-11.1285
▁김기	-11.1285
▁한국에서는	-11.1292
문화재단	-11.1292
지방경찰청	-11.1294
▁자치구	-11.1295
▁외출	-11.1295
▁남용	-11.1296
재정적	-11.1297
▁미술관	-11.1299
외교	-11.1299
▁내놨다	-11.13
▁책임자	-11.1301
▁작가가	-11.1302
▁등재	-11.1303
▁월급	-11.1304
▁공연은	-11.1304
▁리콜	-11.1305
▁여부가	-11.1305
이었어요	-11.1305
연구기관	-11.131
▁특별법	-11.1313
▁즐거움	-11.1315
아메리카	-11.1315
▁저지른	-11.1316
학부	-11.1318
▁적발됐다	-11.132
▁행위가	-11.1324
마크	-11.1324
▁날인	-11.133
▁꼽히는	-11.133
▁위안부	-11.133
▁콜라	-11.1332
▁벌이	-11.1332
▁거리에	-11.1333
▁환수	-11.1335
▁바라보는	-11.1335
해진다	-11.1336
▁집중되고	-11.1342
▁신선	-11.1343
▁처음에는	-11.1348
▁싸우	-11.1352
▁높아질	-11.1355
아리	-11.1356
▁불만이	-11.1357
▁메모리	-11.1358
커스	-11.1359
▁등록된	-11.1359
▁직권	-11.136
▁국산	-11.136
외국어	-11.1361
▁장기화	-11.1361
프트	-11.1364
러브	-11.1365
▁엠	-11.1371
▁장벽	-11.1372
▁요리를	-11.1373
▁직장인	-11.1374
▁콜롬비아	-11.1375
▁가득한	-11.1375
가능	-11.1377
▁뚜렷	-11.1378
해져	-11.1379
▁제조업체	-11.1379
▁부문에서	-11.138
▁입장에서	-11.1381
▁몰래	-11.1382
▁달라진	-11.1382
할까	-11.1383
▁유효	-11.1384
행위를	-11.1384
디스	-11.1385
▁매도	-11.1389
뭉	-11.139
갓	-11.139
▁카자흐스탄	-11.139
▁프랜차이즈	-11.139
▁열악한	-11.139
▁실효성	-11.139
▁확대하고	-11.1392
떨	-11.1395
▁찾아보	-11.1396
▁규칙으로	-11.1402
▁이뤄지고	-11.1403
▁가상	-11.1403
앞으로	-11.1405
▁말아	-11.1405
▁똑같은	-11.1407
▁예매	-11.1408
▁보도에	-11.1409
▁봐도	-11.141
광주	-11.141
▁선교	-11.1415
▁국가주석	-11.1421
▁주무	-11.1424
▁후보로	-11.1424
▁마쳤다	-11.1428
▁보고서에	-11.1429
대사관	-11.143
▁논란에	-11.143
▁책정	-11.1431
▁녹음	-11.1431
▁후에도	-11.1432
▁많아지	-11.1432
▁마이클	-11.1436
▁성격이	-11.1436
▁인원이	-11.1437
▁저출산	-11.1438
▁다룬	-11.144
▁유니	-11.1442
체육회	-11.1444
▁장난감	-11.1446
▁상권	-11.1446
▁발표할	-11.1454
공예	-11.1456
▁거대	-11.1456
▁생산량	-11.1459
지검	-11.1459
op	-11.1461
▁대입	-11.1469
▁근무하는	-11.1469
▁조합원	-11.147
▁침수	-11.1471
▁인민	-11.148
▁못했습니다	-11.148
▁민속	-11.1481
▁초콜릿	-11.1481
▁정기적으로	-11.1481
▁할리우드	-11.1481
▁교차	-11.1482
▁화해	-11.1483
▁지나면	-11.1487
▁바쁘	-11.1488
▁재미있는	-11.1488
▁동결	-11.1488
▁인터	-11.1491
젊	-11.1493
로서는	-11.1497
▁평생학습	-11.1497
▁결승전	-11.1498
▁통역	-11.1499
ID	-11.15
▁지속될	-11.1501
▁주목받고	-11.1501
▁유독	-11.1502
▁넘어가	-11.1505
식물	-11.1505
끔	-11.1507
경기장	-11.1507
▁이루어져	-11.1507
▁전수	-11.1508
엉	-11.1512
▁최우선	-11.1512
▁빅뱅	-11.1512
▁손가락	-11.1512
▁기억이	-11.1512
▁일어났	-11.1515
▁연결하는	-11.1516
플러스	-11.1516
▁최씨	-11.1516
해보고	-11.1517
▁길게	-11.1521
▁키우는	-11.1521
▁달러를	-11.1522
▁한국교회	-11.1523
통화	-11.1525
▁나타나고	-11.1527
폭력	-11.1528
▁시작되는	-11.1529
▁금연	-11.1542
주의보	-11.1544
▁이종	-11.1545
▁늦은	-11.1545
득점	-11.1545
▁대략	-11.1546
▁배운	-11.1546
▁자리잡	-11.1546
▁관람객들	-11.1552
▁간접	-11.1552
▁순으로	-11.1553
▁특사	-11.1554
드린	-11.1554
▁설치하는	-11.1556
부담금	-11.1557
▁증가세	-11.1557
▁텔레비전	-11.1558
▁정할	-11.1559
▁못하면	-11.156
▁시대의	-11.1563
▁줍니다	-11.1564
떡	-11.1564
▁소득이	-11.1564
▁주어진다	-11.1565
▁원천	-11.1569
▁완벽	-11.157
▁가자	-11.1571
▁농업인	-11.1572
▁아니었다	-11.1574
왔습니다	-11.1574
▁마크	-11.1577
▁보호자	-11.1579
▁부합	-11.1582
▁채우	-11.1583
▁녹지	-11.1584
정상	-11.1586
▁안정적으로	-11.1586
▁매운	-11.1587
▁재활	-11.1588
▁과학기술정보통신부	-11.1589
▁뮤직비디오	-11.1589
▁수확	-11.1591
대행	-11.1597
▁힘들었	-11.1598
▁발표된	-11.16
▁총격	-11.16
▁체계적인	-11.1603
▁땐	-11.1604
▁스캔들	-11.1604
▁잡는	-11.1606
▁문제와	-11.1606
힘	-11.1608
▁양보	-11.161
지침	-11.1611
▁인질	-11.1611
▁기자들	-11.1611
▁의무화	-11.1612
DA	-11.1619
▁관점에서	-11.1621
▁전무	-11.1622
베리	-11.1624
권자	-11.1625
▁몫	-11.1627
▁열렸	-11.1627
▁대회에	-11.163
▁투약	-11.1632
▁절약	-11.1633
▁코트	-11.1635
SUV	-11.1635
▁무대에서	-11.1637
▁스트레스를	-11.1642
업체인	-11.1642
▁전략적	-11.1644
▁살아가는	-11.1646
▁것인가	-11.1648
▁우정	-11.1652
▁안정성	-11.1656
▁신기술	-11.166
▁다들	-11.1661
▁유가족	-11.1663
조약	-11.1664
▁귀가	-11.1664
▁전반적으로	-11.1665
깝	-11.1666
▁내용이다	-11.1668
▁소매	-11.1669
▁해산	-11.1674
▁안심	-11.1675
▁고령화	-11.1676
게이트	-11.1678
▁최우수	-11.1679
▁접수된	-11.1679
▁천천히	-11.1682
▁치솟	-11.1682
▁폭염이	-11.1683
▁강화하는	-11.1685
사유	-11.1688
님께	-11.1689
푸르	-11.1689
▁중에서도	-11.1692
▁그곳에서	-11.1693
▁반영한	-11.1695
되었는데	-11.1696
▁혜택	-11.1697
▁약세	-11.1697
▁한국은행	-11.1701
지표	-11.1704
▁수영장	-11.1705
▁만나고	-11.1706
▁증권사	-11.1707
▁고객들이	-11.1707
▁희생자	-11.1708
▁업계의	-11.1708
▁발라	-11.1708
▁후회	-11.171
▁붐	-11.171
▁그러한	-11.171
▁사육	-11.1715
▁FTA	-11.1719
벤처	-11.1719
▁일어나는	-11.172
나눔	-11.172
▁금방	-11.1722
▁분할	-11.1722
▁나간	-11.1731
▁의무를	-11.1733
▁공유하고	-11.1734
▁불꽃	-11.1735
▁지키	-11.1737
▁찾아가는	-11.1739
▁남측	-11.1739
▁갖는다	-11.1741
▁정전	-11.1742
월말	-11.1742
팝	-11.1743
▁브라운	-11.1744
▁축구대표팀	-11.1745
▁사건으로	-11.1746
▁작년에	-11.1747
▁KB	-11.1747
▁협정	-11.1748
▁회원국	-11.1749
셨어요	-11.1749
▁시행하는	-11.175
발표	-11.1752
▁상인들	-11.1754
▁내부에서	-11.1759
▁청도	-11.1759
▁민주평화당	-11.176
▁속한	-11.1761
▁물러	-11.1763
▁생산성	-11.1764
사이클	-11.1764
▁선거에서	-11.1765
▁수잔	-11.1765
▁이하로	-11.1766
지수는	-11.1768
▁복음	-11.1769
▁들었	-11.177
설명	-11.177
▁지원대상	-11.1772
▁조국	-11.1772
▁방문했다	-11.1773
▁미루	-11.1774
▁긍정적으로	-11.1774
▁폴란드	-11.1776
▁증폭	-11.1776
▁주어	-11.1776
▁협력해	-11.1776
▁성관계	-11.1779
▁골을	-11.178
▁김성태	-11.178
펀	-11.1783
▁굳이	-11.1784
▁걸렸다	-11.1785
▁어른	-11.1785
▁구성되어	-11.1785
거래소	-11.1789
국장이	-11.179
▁해지	-11.179
▁온실가스	-11.1791
▁컨테이너	-11.1791
오케스트라	-11.1791
▁입건	-11.1793
▁소셜	-11.1793
▁문재인정부	-11.1794
▁고려할	-11.1796
▁중대한	-11.1797
채용	-11.1804
정동	-11.1806
▁이용객	-11.1811
▁관광객들이	-11.1812
▁박성	-11.1814
▁피자	-11.1814
▁있니	-11.1814
▁효과적으로	-11.1815
▁구조를	-11.1817
▁옥상	-11.1817
▁활용하는	-11.1818
활성화	-11.1819
▁출하	-11.1821
휠	-11.1823
위생	-11.1823
▁확립	-11.1825
▁명확히	-11.1826
▁이어진다	-11.1832
▁어르신들	-11.1835
▁대책이	-11.1837
샌	-11.1839
_	-11.1839
레저	-11.1839
▁드루킹	-11.1839
언론	-11.1842
▁투입해	-11.1844
▁반군	-11.1848
▁동양	-11.1849
사항이	-11.1849
경쟁력	-11.185
▁법원은	-11.1852
▁범인	-11.1854
▁기상캐스터	-11.1854
TO	-11.1855
▁입주자	-11.1856
▁서면으로	-11.1857
▁반박	-11.1859
▁최고위원	-11.1861
NA	-11.1862
냉	-11.1862
ac	-11.1863
▁양천구	-11.1867
▁청소년들이	-11.1871
▁추첨	-11.1872
받고자	-11.1872
자연	-11.1873
▁보세요	-11.1878
im	-11.1879
▁순환	-11.188
당시	-11.1882
▁그녀를	-11.1882
DI	-11.1884
노트	-11.1885
▁실시간으로	-11.1885
▁합리적인	-11.1886
쉐	-11.1886
▁공로	-11.1887
▁있었는지	-11.1888
▁씻	-11.1891
▁선고받	-11.1892
프로야구	-11.1894
▁싸이	-11.1899
▁유학생	-11.1903
▁용인시	-11.1908
레이션	-11.1909
▁소득주도성장	-11.1911
▁주최하는	-11.1917
▁되찾	-11.1918
▁개도국	-11.1918
▁인력을	-11.192
▁사장님	-11.1923
▁어린이들이	-11.1923
▁차로	-11.1924
▁나갔	-11.1925
▁떡	-11.1927
▁서울시는	-11.1928
▁안전하고	-11.193
▁축제가	-11.1931
▁조현	-11.1934
▁유지하는	-11.1935
▁상향	-11.1937
▁자발적	-11.1938
▁손님이	-11.1938
분간	-11.1942
▁완벽하게	-11.1943
▁쉴	-11.1944
▁떠오르	-11.1945
▁제작진	-11.1949
▁대가	-11.195
▁뉴질랜드	-11.195
컨벤션	-11.195
해주시면	-11.1951
▁발생한다	-11.1951
▁대변	-11.1953
레이스	-11.1953
▁되는지	-11.1955
관계자	-11.1955
용지	-11.1957
▁비건	-11.1958
블리	-11.1959
▁국무위원장의	-11.196
▁해결책	-11.1961
▁짐을	-11.1964
▁핀테크	-11.1966
▁노트북	-11.1966
▁헌신	-11.1967
▁장소에	-11.1969
드린다	-11.1969
▁많았고	-11.197
쓸	-11.1973
만대	-11.1973
▁업계에서	-11.1981
▁국회의장	-11.1983
▁괜찮은	-11.1983
▁바쁜	-11.1983
▁면역	-11.1986
▁촉구하	-11.1989
▁일도	-11.1989
주차	-11.1992
▁도주	-11.1992
▁해임	-11.1995
▁고창	-11.1999
▁새마을	-11.2008
AN	-11.2009
▁노력할	-11.201
▁빛을	-11.201
▁검은	-11.2011
▁부상으로	-11.2013
▁전당대회	-11.2014
▁선보일	-11.2014
▁구직자	-11.2015
빅	-11.2015
▁잠실	-11.2015
▁어릴	-11.2015
▁일산	-11.2016
코스	-11.2018
▁경기지사	-11.2018
▁중이던	-11.2021
▁네티즌	-11.2021
▁해법	-11.2022
ap	-11.2022
혐	-11.2023
▁활동하는	-11.203
▁가격으로	-11.2031
▁않았을	-11.2032
▁흘리	-11.2032
▁확인하는	-11.2032
▁예상보다	-11.2033
▁신분증	-11.2033
소장	-11.2033
▁모델로	-11.2033
▁프로그램으로	-11.2034
멋	-11.2034
▁전격	-11.2034
▁상자	-11.2038
대전	-11.2042
▁효과적인	-11.2045
▁사용되는	-11.2045
▁혐오	-11.2046
▁전화번호	-11.2047
실태	-11.2053
▁치른	-11.2053
바탕	-11.2053
▁스타들	-11.2053
▁같지	-11.2058
▁뚜렷한	-11.206
숨	-11.206
댄	-11.2061
▁떨어질	-11.2062
▁무언가	-11.2063
▁신장	-11.2063
▁악재	-11.2063
▁흰색	-11.2064
▁마땅	-11.2064
▁옛날	-11.2065
▁그리스	-11.2066
▁자진	-11.2066
▁혼자서	-11.2067
▁추천해	-11.2069
인터넷	-11.2069
▁굽	-11.207
원대로	-11.2071
▁국가안보	-11.2071
▁주식을	-11.2073
▁국제적	-11.2075
▁생각했다	-11.2076
▁정례	-11.2078
▁베를린	-11.2079
그래	-11.2079
▁결정한	-11.2079
▁강구	-11.208
▁핫	-11.208
▁미치지	-11.2085
▁의약품	-11.2087
해준	-11.2088
▁중심에	-11.209
▁편리하게	-11.2093
▁관절	-11.2094
▁펼칠	-11.2095
▁타당성	-11.2095
▁권위	-11.2097
회원	-11.2098
▁악취	-11.2099
▁깔	-11.2102
▁조짐	-11.2103
▁시원	-11.2104
▁사후	-11.2104
▁자녀가	-11.2113
▁상관	-11.2114
▁혁명	-11.2115
▁나라에서	-11.212
▁Korea	-11.2121
효과가	-11.2122
▁영구	-11.2125
운송	-11.2125
▁캠핑	-11.2127
투자증권	-11.213
▁모은다	-11.2133
▁물건이	-11.2134
▁작품은	-11.2135
과목	-11.2135
▁지시했다	-11.2138
▁보이며	-11.2138
▁확대될	-11.2142
▁아니에요	-11.2144
▁선정한	-11.2145
작전	-11.2147
▁방침을	-11.215
▁확보를	-11.215
사이트	-11.2152
▁답장	-11.2152
주차장	-11.2152
▁특강	-11.2158
갑니다	-11.2158
공원에서	-11.2158
▁금강산	-11.216
▁해운대	-11.216
▁어린이들	-11.2163
▁소개하고	-11.2168
▁겨울철	-11.2168
보훈	-11.217
▁시대가	-11.2171
▁그쳤다	-11.2172
▁모르겠다	-11.2172
▁데이비드	-11.2176
▁무너지	-11.2177
▁대화가	-11.2177
위탁	-11.218
se	-11.2186
▁소개하는	-11.2189
▁선행	-11.219
▁전통적인	-11.2191
▁언젠가	-11.2193
▁내륙	-11.2193
▁예쁜	-11.2193
밴드	-11.2194
▁그거	-11.2194
적격	-11.2195
▁벌여	-11.2196
▁백신	-11.2196
확대	-11.2197
▁싶다는	-11.2198
▁둘러	-11.2199
▁의혹과	-11.2199
보조	-11.22
▁듣기	-11.2201
▁있었어	-11.2201
▁시중	-11.2204
▁공항에서	-11.2204
▁감안해	-11.2206
뿌	-11.2208
▁옵션	-11.2209
해야만	-11.2209
브로	-11.2209
▁쉽고	-11.2212
▁재현	-11.2215
친다	-11.2219
▁고인	-11.2219
붕	-11.222
▁보게	-11.2221
전용	-11.2221
▁우세	-11.2221
▁활기	-11.2222
▁센터장	-11.2225
▁정신건강	-11.2225
▁주한미군	-11.2225
주셔서	-11.2225
▁원리	-11.2227
았지만	-11.2227
▁제기되고	-11.2227
부품	-11.2232
▁교복	-11.2235
▁따뜻	-11.224
텔레콤	-11.2242
▁공표	-11.2242
▁내리고	-11.2244
▁정도다	-11.2246
▁페이스북에	-11.2251
▁처리하기	-11.2253
▁올리고	-11.2254
▁공지	-11.2254
시리즈	-11.2258
쉼터	-11.2259
▁금융위원회	-11.2259
프린	-11.2262
▁치안	-11.2265
▁기다리는	-11.2265
▁배워	-11.2265
생물	-11.2265
▁아우	-11.2268
▁먹이	-11.2268
▁추후	-11.2271
▁전체적으로	-11.2273
보라	-11.2274
▁공조	-11.2274
▁두려움	-11.2275
피아	-11.2276
놓았	-11.2277
▁계획이라고	-11.2278
▁눈빛	-11.2279
SW	-11.228
▁신기	-11.2283
버그	-11.2284
▁공정성	-11.2285
▁전문기관	-11.2286
자녀	-11.2287
▁시연	-11.2287
▁환경에서	-11.2289
▁골라	-11.229
궐	-11.2291
▁좋게	-11.2292
▁자격이	-11.2297
▁젊은이들	-11.2302
com	-11.2302
▁여학생	-11.2306
▁챔피언스리그	-11.2308
▁인명피해	-11.2308
▁국민일보	-11.2308
제공	-11.2311
▁계속되고	-11.2313
▁학계	-11.2315
▁수비수	-11.2318
▁자랑하는	-11.2321
▁조사할	-11.2324
▁깔끔	-11.2325
지방자치법	-11.2325
▁나지	-11.2325
농구	-11.2325
▁놀라운	-11.2328
▁참석할	-11.233
▁정신적	-11.2331
▁토론토	-11.2332
▁다양성	-11.2332
▁가전	-11.2333
▁투명성	-11.2334
증진	-11.2335
▁공세	-11.2335
▁속도로	-11.2336
▁그릇	-11.2339
글로벌	-11.2345
▁경보	-11.2345
▁사원	-11.2345
▁명문	-11.2346
▁신속히	-11.2346
▁야생	-11.2354
▁죽은	-11.2357
▁광화문	-11.2358
▁평일	-11.2358
▁고아원	-11.2358
▁한달	-11.2359
▁알렸다	-11.236
비전	-11.2361
▁일선	-11.2362
하긴	-11.2364
청장은	-11.2367
골프	-11.237
▁책상	-11.237
▁실력이	-11.2371
▁문화원	-11.2372
▁모래	-11.2373
▁범위를	-11.2373
열차	-11.2374
▁프로모션	-11.2374
▁독해	-11.2378
▁한국문화	-11.238
▁모르겠어요	-11.2382
▁저소득	-11.2385
▁등장하는	-11.2385
▁현역	-11.2385
▁팬들에게	-11.2386
▁상황은	-11.2387
▁교과서	-11.2387
회복	-11.2388
▁말씀해	-11.2388
브랜드	-11.239
▁드디어	-11.2391
▁공론화	-11.2391
현지시각	-11.2391
hi	-11.2394
▁마련할	-11.2397
▁제공한	-11.2397
▁들리	-11.2398
▁본질	-11.2398
위주의	-11.24
▁발명	-11.2404
▁구성해	-11.2405
디아	-11.2406
▁선진	-11.2406
▁신선한	-11.2406
▁월요일에	-11.2407
▁최고경영자	-11.2408
▁잠정	-11.2409
▁나타날	-11.241
▁외면	-11.241
▁퍼지	-11.2414
겠고	-11.2417
심리	-11.2417
▁단서	-11.2419
▁포즈	-11.2421
▁죄송	-11.2422
▁주최한	-11.2424
쭉	-11.2425
▁답답	-11.2426
▁대금	-11.2426
▁지분을	-11.2427
▁과실	-11.2429
▁방송사	-11.243
▁평소에	-11.2431
▁방문객	-11.2431
▁언제든지	-11.2432
미투	-11.2434
▁버락	-11.2434
층에서	-11.2436
▁원합니다	-11.2436
재단이	-11.2437
▁총수	-11.2438
▁재임	-11.2439
▁화려	-11.244
이므로	-11.244
▁자재	-11.244
▁이슈가	-11.2441
▁사각지대	-11.2441
▁삼성바이오로직스	-11.2441
▁무더위	-11.2442
▁홍수	-11.2442
▁신속	-11.2443
▁유인	-11.2444
▁포토	-11.2445
현황	-11.2445
▁과제를	-11.2446
▁후기	-11.2448
▁금융회사	-11.2449
▁부당한	-11.245
파운드	-11.245
▁경기도청	-11.2452
▁아이들은	-11.2454
▁도정	-11.2454
▁통학	-11.2455
▁내면	-11.2455
윙	-11.2458
▁떨어진다	-11.2458
▁다양하게	-11.2458
▁PD	-11.2459
▁공식적으로	-11.246
▁수사권	-11.2461
▁봅니다	-11.2462
▁마스터	-11.2466
▁고전	-11.2468
▁입장에서는	-11.247
▁도망	-11.2473
▁법안을	-11.2474
▁질서	-11.2474
▁의사소통	-11.2476
▁절실	-11.2476
러스	-11.2476
▁고등학생	-11.2477
▁투자유치	-11.2477
▁접할	-11.2477
▁구제역	-11.2478
홈	-11.2478
▁이외의	-11.248
▁싶어서	-11.248
▁출품	-11.2481
▁마련하고	-11.2483
▁회피	-11.2484
▁속속	-11.2486
화물	-11.2486
▁광복	-11.2489
▁주목받	-11.249
▁제공된다	-11.2491
팜	-11.2492
▁휴가를	-11.2495
▁찾았	-11.2503
▁받으면	-11.2503
▁저한테	-11.2504
▁멀티	-11.2506
▁터져	-11.2508
▁타자	-11.2508
집단	-11.251
됐는지	-11.2511
▁휴대	-11.2512
▁도봉구	-11.2516
바닥	-11.2518
▁화성시	-11.2518
▁공공시설	-11.2521
▁처리할	-11.2521
▁알겠습니다	-11.2524
▁세웠다	-11.2526
▁부드러운	-11.2526
▁당내	-11.2526
▁쿠폰	-11.2527
특별위원회	-11.2528
▁출고	-11.2528
▁빈곤	-11.2528
▁송치	-11.2528
▁비닐	-11.2531
▁사진과	-11.2531
▁수상한	-11.2532
▁대목이다	-11.2533
▁확산되고	-11.2533
▁영하	-11.2535
▁이루어	-11.2536
▁한꺼번에	-11.2543
▁도청	-11.2543
▁진행되며	-11.2543
▁갑질	-11.2544
▁부산광역시	-11.2544
▁무력	-11.2545
▁자발적으로	-11.2546
▁숨겨	-11.2549
▁슛	-11.2554
캠	-11.2556
▁공사가	-11.2559
▁다큐멘터리	-11.256
싹	-11.256
변화	-11.2562
소통	-11.2564
▁중심지	-11.2567
취업	-11.2567
▁떨어졌	-11.257
▁받았던	-11.2571
▁위험성	-11.2572
▁외식	-11.2573
▁맑	-11.2576
▁해리	-11.2576
▁스타벅스	-11.2577
팔렘방	-11.2577
▁기본적으로	-11.2581
노선	-11.2581
▁반성	-11.2581
▁누릴	-11.2581
스럽다	-11.2586
▁뿐이다	-11.2589
▁청소년들	-11.259
▁문화와	-11.2591
계좌	-11.2592
▁뽑아	-11.2594
▁텍사스	-11.2594
▁산출	-11.2594
▁짐작	-11.2597
업종	-11.2598
▁추세다	-11.26
▁흙	-11.2601
▁박수	-11.2602
▁연계해	-11.2602
▁방역	-11.2609
탠	-11.2611
▁가벼운	-11.2611
▁공무	-11.2611
戰	-11.2611
▁부른	-11.2612
▁결렬	-11.2612
▁살기	-11.2612
▁알려지면서	-11.2613
▁기량	-11.2613
대금	-11.2614
▁책임감	-11.2615
▁신청자	-11.2616
▁오신	-11.2617
난다	-11.2624
▁출간	-11.2624
▁아이들에게	-11.2628
찜	-11.2628
▁공정거래위원회	-11.2628
▁작렬	-11.2629
▁손님들	-11.263
▁외곽	-11.263
▁같네요	-11.2632
▁지방정부	-11.2632
▁익명	-11.2632
▁가수들	-11.2633
▁김동연	-11.2635
▁눈치	-11.2635
▁생산하는	-11.2636
▁항구	-11.2638
▁취지로	-11.2638
▁난다	-11.2646
▁종일	-11.2646
경북	-11.2648
▁중장기	-11.2653
▁도시계획	-11.2653
구간	-11.2654
야구	-11.2654
▁사회에서	-11.2655
▁취약한	-11.2655
▁어렵다고	-11.266
▁벌어	-11.2661
갱	-11.2662
바르셀로나	-11.2662
문화예술	-11.2666
▁기사가	-11.2667
▁맞춘	-11.2667
러닝	-11.2668
▁경제정책	-11.267
▁먹기	-11.2671
▁주장한	-11.2672
▁가짜	-11.2672
▁시원한	-11.2675
▁근데	-11.2675
▁없음	-11.2675
▁시기를	-11.2677
캡	-11.2679
▁시카고	-11.268
▁관심사	-11.2681
▁바닥에	-11.2682
▁일괄	-11.2682
▁취해	-11.2684
▁형식으로	-11.2684
▁시점에	-11.2685
▁재학	-11.2686
저축은행	-11.2687
▁어렵지	-11.2687
▁교통안전	-11.2687
▁공제	-11.2687
▁둘러보	-11.2691
▁본청	-11.2693
으신	-11.2695
▁축사	-11.2695
▁메이크업	-11.2696
주시면	-11.2698
▁참가하는	-11.27
▁어렵습니다	-11.27
▁바라요	-11.27
▁취향	-11.2701
▁벌이는	-11.2703
▁인체	-11.2703
ho	-11.2703
▁교착	-11.2703
▁비롯하여	-11.2705
▁자녀들	-11.2705
채널	-11.2707
잖아요	-11.2707
▁체계적으로	-11.2708
크리	-11.2708
▁장소로	-11.2709
▁대법원장이	-11.2709
▁뛰어넘	-11.2714
꼬	-11.2715
▁종합적	-11.2715
▁제천	-11.2716
빵	-11.2718
▁염두	-11.2718
▁연애	-11.2718
▁목사가	-11.2722
▁물고기	-11.2722
그라	-11.2723
▁중이라고	-11.2726
▁걸고	-11.2726
▁신조	-11.2729
▁적용할	-11.2732
▁올릴	-11.2733
▁판단해	-11.2734
▁인턴	-11.2735
▁필요성	-11.2739
▁부구청장	-11.274
일로부터	-11.274
해줘	-11.274
▁견적	-11.2742
▁목격자	-11.2748
주시겠습니까	-11.275
▁사용하여	-11.2751
▁지사의	-11.2751
▁예쁘	-11.2751
▁신부	-11.2752
▁고려한	-11.2752
표준	-11.2753
부족	-11.2753
▁금메달을	-11.2755
ia	-11.2756
▁재선	-11.2757
▁되어있	-11.2761
투자자	-11.2761
▁과거사	-11.2762
스트리	-11.2764
▁줄어드는	-11.2766
▁듯하다	-11.2767
있습니다	-11.2767
▁부재	-11.2768
▁설치해	-11.2771
▁공항에	-11.2773
▁이끌고	-11.2776
▁우려도	-11.2778
▁설립된	-11.2779
▁개인적으로	-11.278
▁프로그램이다	-11.2781
▁꼽았다	-11.2785
▁잡기	-11.279
▁파주시	-11.2791
▁느낀	-11.2792
▁그들에게	-11.2792
▁아니하다	-11.2799
▁공부하는	-11.2799
j	-11.28
▁출퇴근	-11.28
탱크	-11.2803
▁감수	-11.2803
▁인사들이	-11.2804
▁무엇인가요	-11.2805
웃	-11.2809
▁붙어	-11.2811
보관	-11.2811
▁가능하고	-11.2813
▁많기	-11.2815
▁쪽에	-11.2816
으려고	-11.2816
▁김모	-11.2818
▁바꾸는	-11.2819
▁게시판에	-11.2819
▁과천	-11.282
퇴직	-11.2821
▁동구	-11.2823
▁내용으로	-11.2824
▁정상회담에서	-11.2827
▁촬영한	-11.2829
lo	-11.283
▁판교	-11.283
co	-11.2832
▁양질	-11.2832
▁좋다고	-11.2832
사리	-11.2833
▁김경	-11.2833
▁과시	-11.2833
▁불투명	-11.2835
▁성황리	-11.2835
▁적게	-11.2836
▁연동	-11.2838
▁열쇠	-11.2838
▁청탁	-11.2839
▁운영되고	-11.2842
▁간절	-11.2843
▁예금	-11.2844
▁모니터	-11.2849
▁노조가	-11.2849
▁부양	-11.285
닛	-11.2852
▁서둘러	-11.2853
▁손쉽게	-11.2853
▁헝가리	-11.2853
▁여동생	-11.2853
▁접어들	-11.2853
▁동화	-11.2855
▁우리은행	-11.2856
EC	-11.286
▁후임	-11.2861
지르	-11.2863
▁참석하는	-11.2864
연료	-11.2865
고속도로	-11.2866
IN	-11.2866
▁처한	-11.2868
▁스리런	-11.287
▁WBC	-11.2871
▁겨우	-11.2872
▁서쪽	-11.2872
산단	-11.2874
▁어울리는	-11.2874
▁호남	-11.2874
▁도의회	-11.2876
스럽게	-11.2877
오르	-11.2877
▁들어간다	-11.2877
▁미치	-11.2878
▁수행하기	-11.288
▁창업자	-11.2881
▁선별	-11.2884
AC	-11.2885
▁올라오	-11.2885
드렸	-11.2886
▁정준영	-11.2888
▁늘리는	-11.2889
▁구비	-11.289
▁의석	-11.289
▁금속	-11.2891
▁적힌	-11.2894
▁각급	-11.2894
▁누락	-11.2894
▁만나서	-11.2899
▁수강료	-11.29
▁주도하는	-11.2901
스마트	-11.2901
행복	-11.2903
▁해경	-11.2905
훼	-11.2905
흠	-11.2905
차전에서	-11.2906
검사를	-11.2907
▁어때	-11.2907
▁한동안	-11.2908
▁인천공항	-11.2909
▁행운	-11.291
▁흰	-11.291
곳에서	-11.2911
▁자율주행	-11.2911
▁가능성에	-11.2912
▁침입	-11.2915
▁공유하는	-11.2915
▁언론은	-11.2916
▁여러분이	-11.2916
엑스포	-11.2917
▁골프장	-11.2921
▁편견	-11.2921
▁이뤄졌	-11.2922
깐	-11.2922
교육지원청	-11.2923
▁지루	-11.2925
▁감동을	-11.2927
냐고	-11.2929
▁이해찬	-11.293
▁인정한	-11.293
▁정신을	-11.2933
▁살아남	-11.2934
▁어렵고	-11.2935
▁당부	-11.2936
PA	-11.2936
▁고용부	-11.2938
▁울산시	-11.2939
작물	-11.2941
기사	-11.2942
▁가족들과	-11.2942
▁단행	-11.2943
▁대부분은	-11.2944
▁세월	-11.2946
▁추격	-11.295
기념관	-11.2952
▁조건으로	-11.2953
▁승소	-11.2957
▁낚시	-11.2959
▁취한	-11.296
십니다	-11.2961
▁욕구	-11.2961
▁KBO	-11.2962
ES	-11.2963
▁모집한다	-11.2963
▁감독과	-11.2963
▁우울증	-11.2964
▁너한테	-11.2964
출산	-11.2965
▁방송인	-11.297
▁청년들이	-11.2971
하느라	-11.2974
켄	-11.2976
▁경기도농업기술원	-11.2976
▁넷플릭스	-11.2976
▁나름	-11.2976
▁인보이스	-11.2977
▁연령대	-11.2978
축산물	-11.2978
▁살짝	-11.2981
▁편안	-11.2982
▁규정하고	-11.2984
▁감사원	-11.2986
▁관광객들	-11.2987
▁일자	-11.299
겠습니까	-11.2993
▁정류장	-11.2994
▁대목	-11.2998
▁맥락	-11.2998
▁알기	-11.2999
▁소홀	-11.3001
▁재개발	-11.3003
▁반영해	-11.3005
경연대회	-11.3006
급식	-11.3008
FA	-11.3009
▁교재	-11.3009
▁과도	-11.301
▁예약주문	-11.3012
▁회계연도	-11.3012
됐어요	-11.3015
토론	-11.3017
▁수송	-11.3018
▁상품은	-11.3021
▁코인	-11.3022
▁실리	-11.3024
▁지자체가	-11.3029
소프트	-11.3031
▁목회자	-11.3031
▁청년들	-11.3031
홈쇼핑	-11.3033
▁광명	-11.3033
▁지내고	-11.3033
▁일본군	-11.3037
▁권익	-11.3038
▁발길	-11.3039
▁참가자들이	-11.304
누리	-11.3041
보기	-11.3042
▁생각할	-11.3043
▁세제	-11.3045
▁서울중앙지법	-11.3047
▁사료	-11.3047
▁갖추어	-11.3048
▁낭비	-11.3049
ate	-11.3049
▁이후에는	-11.3051
설명회	-11.3051
▁구매한	-11.3051
증명서	-11.3052
▁배우자	-11.3057
▁우린	-11.3058
▁불과하다	-11.3059
출입	-11.3061
▁손으로	-11.3063
▁불확실성이	-11.3063
햄	-11.3065
▁규격	-11.3065
스톤	-11.3067
▁강풍	-11.3068
▁대가로	-11.3074
▁닭장	-11.3076
▁소폭	-11.3078
▁전술	-11.3078
▁어디에서	-11.308
▁보험금	-11.3083
클래스	-11.3084
하셔서	-11.3088
▁급격한	-11.3089
▁신약	-11.309
어린이	-11.309
▁법원에	-11.3092
▁체중	-11.3097
꿀	-11.3097
▁빠졌다	-11.3097
▁생긴다	-11.3102
▁기적	-11.3103
▁마사지	-11.3103
▁언제쯤	-11.3104
▁아래와	-11.3105
Ch	-11.3106
▁입수	-11.3107
▁늘면서	-11.3108
▁나노	-11.3109
▁역사상	-11.3109
▁의원과	-11.3112
▁증세	-11.3115
▁불길	-11.3115
돋	-11.3118
▁붙잡혔다	-11.3119
▁잠재력	-11.3119
▁받았고	-11.3121
전화	-11.3122
▁입맛	-11.3123
▁중이며	-11.3123
▁등장했다	-11.3127
▁달했다	-11.3128
▁부리	-11.3128
▁접수한	-11.3129
▁불공정	-11.3134
▁실습	-11.3134
분부터	-11.3134
▁곳곳	-11.3135
▁사법농단	-11.3136
▁확인되지	-11.3136
SS	-11.3137
▁촛불	-11.3137
▁평범한	-11.3137
국제공항	-11.3137
▁측에서	-11.3138
수영	-11.3138
▁벌어지는	-11.314
▁건국	-11.3141
▁고무	-11.3143
▁생기면	-11.3144
▁이루는	-11.3144
▁속초	-11.3146
▁귀추	-11.3148
수출	-11.315
▁돌보	-11.3154
띤	-11.3155
▁박원순	-11.3155
▁어렸을	-11.3155
▁시작된다	-11.3155
▁많아요	-11.3159
▁참여하여	-11.316
▁외환	-11.3161
느라	-11.3163
▁기록하고	-11.3164
▁청문회	-11.3169
▁보좌	-11.317
▁부통령	-11.3173
▁불평등	-11.3173
▁로맨스	-11.3173
▁동쪽	-11.3173
민들	-11.3174
▁검은색	-11.3175
리서치	-11.3175
▁보여줬다	-11.3175
▁합의안	-11.3182
▁깨끗한	-11.3183
▁그녀에게	-11.3187
▁합작	-11.3188
IoT	-11.3191
▁모스크바	-11.3191
여부	-11.3192
▁삼성바이오	-11.3193
▁시범사업	-11.3193
▁소망	-11.3193
▁경연	-11.3198
▁금액은	-11.3198
▁믿을	-11.3201
▁알아야	-11.3201
어린이집	-11.3202
▁많지만	-11.3203
포드	-11.3204
▁하나님이	-11.3207
▁짓고	-11.3209
▁해방	-11.321
▁방법에	-11.3211
▁달린	-11.3212
▁선생님이	-11.3216
▁체결한	-11.3216
▁배분	-11.3216
▁재차	-11.3219
▁오기	-11.3219
정당	-11.322
▁검색어	-11.322
근본적인	-11.3221
▁확대해	-11.3222
▁길어	-11.3224
공정	-11.3225
▁손흥민이	-11.3225
▁살해한	-11.3226
▁오브	-11.3227
▁화이트	-11.3228
▁돕고	-11.3229
▁작가들	-11.3232
▁발생하면	-11.3232
▁임시정부	-11.3235
▁찾아오	-11.3238
▁승차	-11.3241
▁이외에도	-11.3241
▁나오면	-11.3242
▁경기도민	-11.3244
▁선고받았다	-11.3247
▁체육시설	-11.325
▁출동한	-11.3251
▁물놀이	-11.3251
te	-11.3254
▁감사하겠습니다	-11.3254
▁공개적으로	-11.3255
▁구두	-11.3255
고객	-11.3256
월드컵	-11.3256
밀리	-11.3256
▁사드	-11.3258
▁시달리	-11.326
▁연세대	-11.3261
▁읽는	-11.3261
▁안산시	-11.3262
▁타이틀	-11.3263
헐	-11.3264
▁공휴일	-11.3264
▁김희	-11.3265
▁있느냐	-11.3265
▁평택항	-11.3266
▁중이에요	-11.3267
▁레알	-11.3268
▁제휴	-11.327
▁보호하기	-11.3271
▁펼치는	-11.3274
▁둘러싸고	-11.3274
▁꽉	-11.3275
천억원	-11.3275
PC	-11.3276
▁부회장이	-11.3276
▁고맙	-11.3279
▁사우디아라비아	-11.3282
▁앓고	-11.3284
▁좋겠	-11.3288
렸지만	-11.3289
셨나요	-11.329
▁높아진	-11.329
▁쪽에서	-11.3295
▁시행계획	-11.3298
▁티셔츠	-11.33
▁언제든	-11.3302
사태	-11.3303
▁폭으로	-11.3304
▁남지	-11.3304
▁아랍	-11.3305
▁어머니가	-11.3305
타임스	-11.3307
▁장군	-11.3308
▁오빠	-11.3309
문재인	-11.3315
▁걸친	-11.3315
▁실질적	-11.3316
▁결단	-11.3316
▁여파로	-11.3317
▁남겼다	-11.3318
▁콘셉트	-11.3318
GDP	-11.3318
▁밝히지	-11.3318
▁뛰어들	-11.3319
사업장	-11.3319
▁선정해	-11.3322
▁성동구	-11.3323
▁한국문화원	-11.3326
▁내용과	-11.3327
▁공주	-11.3329
공모	-11.3329
지장이	-11.3331
지오	-11.3331
트럼프	-11.3333
▁부총리는	-11.3335
▁지원자	-11.3335
▁못해서	-11.3335
▁기자간담회	-11.3337
법률	-11.3339
동맹	-11.3339
▁빨간	-11.334
▁수립하여	-11.3342
▁만들어내	-11.3342
▁만찬	-11.3343
▁모금	-11.3346
▁분단	-11.3346
옳	-11.3348
▁유착	-11.3349
▁참여자	-11.3354
▁식약처	-11.3355
▁냉장고	-11.3355
하이닉스	-11.3356
▁김병	-11.3356
▁절차에	-11.3357
▁새끼	-11.3359
▁우대	-11.3362
▁안쪽	-11.3362
▁들었어요	-11.3367
▁교사들	-11.3368
▁종결	-11.3369
▁외신	-11.3369
물품	-11.3369
▁적용되는	-11.337
현상	-11.337
채권	-11.3371
▁행정처	-11.3373
▁오피스텔	-11.3374
동향	-11.3374
호텔에서	-11.3375
그러	-11.3378
▁백제	-11.3381
▁학생과	-11.3381
▁교과	-11.3382
둑	-11.339
▁공급하는	-11.3391
▁비영리	-11.3391
▁겪었다	-11.3392
▁헌법재판소	-11.3392
▁극심한	-11.3392
▁푸른	-11.3394
▁금융시장	-11.3397
▁낫	-11.3401
▁빈번	-11.3401
않	-11.3402
▁마침	-11.3403
▁소속기관	-11.3409
경찰서에	-11.3409
▁민감한	-11.3411
행하여야	-11.3412
▁회원들이	-11.3417
▁배후	-11.3417
li	-11.3418
경남	-11.342
▁통로	-11.3422
▁야기	-11.3423
▁들어갔	-11.3425
▁출력	-11.3429
▁두려워	-11.3429
▁황교안	-11.3429
▁슬픔	-11.3429
▁밝히고	-11.3429
조성	-11.3429
▁내각	-11.343
▁시중은행	-11.343
▁난방	-11.3431
휘	-11.3431
합시다	-11.3431
▁계곡	-11.3437
졌어요	-11.3437
▁속에서도	-11.3441
▁드시	-11.3445
▁크로스	-11.3448
릇	-11.345
▁체크인	-11.345
▁불가피하다	-11.3453
▁계속되는	-11.3455
러시아	-11.3456
▁기아	-11.3461
▁흑인	-11.3461
▁지난해보다	-11.3461
건축물	-11.3462
▁지도자들	-11.3462
▁개정안이	-11.3462
▁법안이	-11.3462
▁일행	-11.3463
▁먹지	-11.3466
▁자유로운	-11.3469
CEO	-11.347
▁감사드립니다	-11.347
▁사업계획	-11.347
▁보강	-11.3474
뜻	-11.3474
최적의	-11.3475
▁충주	-11.3475
해주시기	-11.3475
▁서산	-11.3478
▁국채	-11.3478
▁흐름이	-11.3478
▁곳도	-11.3482
▁공영	-11.3482
페어	-11.3482
▁''	-11.3483
해주셔서	-11.3483
▁꾸준한	-11.3485
▁환경오염	-11.3486
▁티켓을	-11.3486
▁대도시	-11.3487
▁전신	-11.3488
▁구금	-11.3488
▁NH	-11.3489
신청서를	-11.349
▁경상	-11.3493
▁꾸려	-11.3494
▁지혜	-11.3498
▁청산	-11.35
냥	-11.3501
▁확대할	-11.3501
▁가능하게	-11.3502
▁광범위	-11.3504
▁관료	-11.3508
▁지키는	-11.3508
참모	-11.3508
베이스	-11.3508
um	-11.3511
페르	-11.3515
쿨	-11.3516
▁하위	-11.3516
대책본부	-11.3516
▁흔적	-11.3516
▁갈아	-11.3517
▁해촉	-11.3519
스틴	-11.3521
▁리모델링	-11.3522
▁단백질	-11.3522
▁개원	-11.3524
▁따져	-11.3527
▁성분이	-11.3531
▁위반한	-11.3531
▁인정했다	-11.3531
▁우울	-11.3533
▁놀러	-11.3538
▁행정부가	-11.3539
▁JTBC	-11.3541
팡	-11.3541
▁돋보이는	-11.3542
▁결재	-11.3546
잘	-11.3547
▁순찰	-11.3547
▁인근에서	-11.3548
▁처우	-11.3548
▁정유	-11.3548
▁재심	-11.355
▁자신만	-11.3552
▁성숙	-11.3553
ot	-11.3556
얀	-11.3557
▁소식에	-11.3557
▁힐러리	-11.356
재생에너지	-11.356
▁달라지	-11.3564
▁저번	-11.3564
▁담았다	-11.3567
▁중국산	-11.3568
▁전설	-11.357
녕	-11.3571
▁금천구	-11.3572
▁빌리	-11.3572
제약	-11.3576
▁원문	-11.3576
MI	-11.3578
▁이용자들	-11.3579
▁중간선거	-11.358
▁이념	-11.3581
▁묻어	-11.3586
▁교육생	-11.3587
아무개	-11.3589
▁금메달	-11.359
▁반품	-11.3592
▁부산에서	-11.3592
▁발표하고	-11.3593
▁영암	-11.3594
ion	-11.3595
▁주목할	-11.3598
▁상임위	-11.36
▁골자	-11.36
국회	-11.3601
▁논의했다	-11.3603
▁만났다	-11.3604
▁근본	-11.3607
▁한옥	-11.3607
변호사	-11.3608
▁김광	-11.3608
경보	-11.3609
▁동료들	-11.3609
▁간격	-11.3609
▁악기	-11.361
▁않았어	-11.3615
였는데	-11.3616
‧	-11.3616
▁확대되고	-11.3619
에듀	-11.3619
▁예멘	-11.3621
▁메일로	-11.3622
슬라	-11.3624
▁유권자	-11.3626
▁확보하고	-11.3626
▁실시된	-11.3626
네트워크	-11.3627
PO	-11.363
▁맞춤	-11.3632
▁대변인이	-11.3632
▁확인하기	-11.3632
▁레드	-11.3634
▁분식회계	-11.3635
▁여객기	-11.3635
▁일정한	-11.3635
▁들어오는	-11.3636
▁여겨	-11.3637
▁유감	-11.3637
▁세우고	-11.3638
▁발언은	-11.3638
수리	-11.3638
▁원격	-11.3639
▁삶에	-11.3639
슛	-11.3641
▁합리적	-11.3642
▁민사	-11.3648
▁판매량	-11.365
되길	-11.3651
봤습니다	-11.3651
▁교장	-11.3651
▁결정하는	-11.3651
▁정상회의	-11.3652
▁아이스크림	-11.3654
▁공청회	-11.3654
▁확보할	-11.3655
▁있었으나	-11.3656
▁세무조사	-11.3657
▁항만	-11.3659
▁미세	-11.366
▁극단적	-11.366
았고	-11.366
창호	-11.3664
큰	-11.3665
▁기법	-11.3667
▁거주하고	-11.3668
계획서	-11.3668
▁걷기	-11.3674
▁쉬는	-11.3677
▁한국인들	-11.3679
▁시점에서	-11.368
▁좋아하지	-11.3687
▁하락했다	-11.3687
▁가져오	-11.3694
▁교역	-11.3696
더라고요	-11.3697
▁사무관	-11.3697
신탁	-11.3697
▁연체	-11.3698
AP	-11.3698
▁사서	-11.37
▁치아	-11.3703
▁기피	-11.3705
▁염증	-11.3705
▁단단	-11.3705
그린	-11.3708
▁입상	-11.3708
앓	-11.3708
▁강의를	-11.3709
제재	-11.3711
▁호날두	-11.3711
중학교	-11.3711
심의회	-11.3712
GB	-11.3714
▁장소에서	-11.3716
▁개최하는	-11.3716
▁여름에	-11.3718
▁동작구	-11.372
▁타입	-11.3724
▁기리	-11.3727
▁알리기	-11.3728
▁풀리	-11.373
▁멈춰	-11.373
▁LED	-11.373
▁스카이	-11.3734
▁하향	-11.3735
▁매번	-11.3738
▁잠재	-11.3741
▁움직이는	-11.3742
▁장사	-11.3744
였으며	-11.3744
전통	-11.3744
▁터지	-11.3746
▁일어났다	-11.3746
▁성형	-11.3746
뼈	-11.3746
▁출신인	-11.3747
법안	-11.3748
▁맞았다	-11.3748
▁겹치	-11.3751
▁협의하여	-11.3751
▁만기	-11.3751
▁저번에	-11.3753
이었는데	-11.3753
▁성공할	-11.3755
▁관계없이	-11.3756
▁차별화된	-11.3756
차게	-11.3757
▁봐요	-11.3758
지원금	-11.3758
▁젊은이들이	-11.3758
AT	-11.3759
▁기술개발	-11.3761
▁올라온	-11.3761
▁모르고	-11.3763
▁독려	-11.3763
▁농사	-11.3767
봉사단	-11.3768
▁힐링	-11.3768
▁맑은	-11.3771
▁업체들	-11.3772
▁변동성	-11.3772
▁존재한다	-11.3773
▁확보했다	-11.3773
▁하나님께서	-11.3773
OT	-11.3775
▁악용	-11.3775
▁주십시오	-11.3779
드레	-11.3779
▁돌아왔다	-11.3781
▁커지는	-11.3781
▁나랑	-11.3782
▁비만	-11.3784
▁상위권	-11.3785
▁떠났다	-11.3787
UAE	-11.3787
소방재난본부	-11.3788
▁하도급	-11.3788
▁높아지는	-11.379
▁자체적으로	-11.3791
▁주관한	-11.3792
▁정교	-11.3796
▁공용	-11.3798
▁쓰여	-11.3802
▁행복하게	-11.3803
▁논의할	-11.3804
▁경향	-11.3805
▁크다고	-11.3806
국수	-11.3807
퀸	-11.3807
▁흔적이	-11.3809
▁흥미	-11.381
▁연구결과	-11.3813
▁영웅	-11.3813
▁드러낸	-11.3814
갈비	-11.3815
▁졸업생	-11.3817
▁엄청나	-11.3821
영업	-11.3821
▁와중에	-11.3823
▁엘리베이터	-11.3826
지방자치단체	-11.3827
▁생애	-11.3833
▁좋아서	-11.3838
▁확률이	-11.3839
▁드물	-11.3844
▁아파	-11.3845
▁이르기까지	-11.3845
▁인종	-11.3846
▁억울	-11.3847
▁케이스	-11.3848
▁주었다	-11.3851
▁짓는	-11.3851
▁기록물	-11.3851
▁아닐까	-11.3851
개교	-11.3852
▁몰입	-11.3853
▁써야	-11.3853
농악	-11.3855
▁쓰기	-11.3862
▁아닌지	-11.3863
▁생선	-11.3863
▁정세	-11.3865
상황실	-11.3865
▁샤워	-11.3868
▁바위	-11.3868
▁조립	-11.3869
▁분위기다	-11.3871
▁관계공무원	-11.3872
▁거쳐야	-11.3875
▁고립	-11.3877
▁돌아와	-11.3878
▁넘겨진	-11.3881
자들과	-11.3884
OECD	-11.3884
▁오토바이	-11.3884
부처	-11.3885
모든	-11.3887
보건의료	-11.3888
▁공장에서	-11.3889
MOU	-11.389
▁설문	-11.3891
▁요인으로	-11.3894
▁두바이	-11.3897
▁복사	-11.3899
▁본래	-11.39
튜	-11.39
년마다	-11.3901
ea	-11.3902
▁민정수석	-11.3903
▁쏠린다	-11.3903
보호구역	-11.3904
단속	-11.3904
ST	-11.3907
▁있었으며	-11.3907
▁않겠	-11.3908
▁포털	-11.3909
▁때문인	-11.3912
하시나요	-11.3912
▁있었을	-11.3913
‘	-11.3917
▁경력이	-11.3922
▁소위	-11.3922
▁승계	-11.3924
▁소금	-11.3925
▁인접	-11.3925
곽	-11.3929
“	-11.3929
▁시행할	-11.3929
클레	-11.3933
▁확보하기	-11.3934
▁서해안	-11.3934
▁바지	-11.3934
밑	-11.3939
▁한자리에	-11.3941
맵	-11.3942
▁여전	-11.3949
▁최장	-11.3951
상환	-11.3951
▁지정할	-11.3952
▁꾸며	-11.3954
광역시	-11.3954
▁구리	-11.3957
▁주전	-11.3961
▁디저트	-11.3962
▁촉발	-11.3962
▁탐방	-11.3963
▁시내버스	-11.3964
해주실	-11.3967
▁누워	-11.3969
민정	-11.3969
▁명분	-11.397
▁급감	-11.397
▁전문적인	-11.397
민주화운동	-11.3972
▁단계에서	-11.3974
▁김혜	-11.3974
▁높다고	-11.3976
▁자식	-11.3978
▁안동	-11.3978
▁떨어지고	-11.3979
물량	-11.3981
▁참전	-11.3981
▁강제징용	-11.3981
▁진열	-11.3982
▁연루	-11.3983
▁원산지	-11.3983
▁중학생	-11.3984
▁위대한	-11.3986
영향평가	-11.3986
▁아래로	-11.3988
▁장시간	-11.3991
▁운전자가	-11.3993
▁모르겠	-11.3995
▁되어서	-11.3997
▁해결하는	-11.3998
▁인명	-11.3998
▁계란	-11.3999
▁관해서	-11.4
▁광교	-11.4
ie	-11.4001
문화재	-11.4001
▁양성평등	-11.4001
▁신생아	-11.4001
▁경상남도	-11.4001
명씩	-11.4003
▁동북아	-11.4005
▁탐사	-11.4005
▁무덤	-11.4006
▁이끈	-11.4007
▁이밖에도	-11.4008
▁놓인	-11.4009
▁말하며	-11.401
▁가속화	-11.401
▁오산	-11.4011
▁풀려	-11.4011
▁학문	-11.4011
BA	-11.4013
보호법	-11.4016
배출	-11.4017
툴	-11.4021
위권	-11.4021
▁엄격	-11.4021
▁비춰	-11.4023
▁먼지	-11.4023
▁분량	-11.4024
회째	-11.4024
▁제출받	-11.4024
▁어때요	-11.4028
▁장미	-11.4031
▁않자	-11.4032
▁처음부터	-11.4033
▁실정	-11.4034
▁연이어	-11.4035
오픈	-11.4036
탱	-11.4038
▁형상	-11.4039
질서	-11.4039
▁초등	-11.4039
▁식재료	-11.404
팀과	-11.4042
▁이룬	-11.4043
매장	-11.4043
▁하얀	-11.4043
▁성명에서	-11.4045
▁안무	-11.4047
▁영혼	-11.4048
▁쪽은	-11.4048
▁개최할	-11.405
옷	-11.405
▁개최하고	-11.4051
▁걱정하지	-11.4053
투스	-11.4055
▁우려된다	-11.4057
클리	-11.4057
볼게요	-11.4058
▁강렬한	-11.406
▁저작권	-11.406
▁스티커	-11.406
▁안경	-11.406
▁마련된다	-11.4062
▁계속될	-11.4063
▁매력이	-11.4064
▁뜻으로	-11.4064
정우	-11.407
SK	-11.4071
정비사업	-11.4073
▁악수	-11.4073
▁개발하고	-11.4075
드리도록	-11.4075
▁선호도	-11.4079
▁동성애	-11.408
▁한나라당	-11.408
▁여건이	-11.4081
▁것인데	-11.4081
▁카드사	-11.4083
▁노동시간	-11.4086
▁소멸	-11.4086
▁증정	-11.4087
▁우위	-11.4088
▁결과물	-11.4088
▁체험할	-11.4088
▁품종	-11.409
▁최강	-11.4093
▁부상자	-11.4096
▁지난해부터	-11.4096
사이드	-11.4098
▁벚꽃	-11.41
▁우크라이나	-11.41
상공회의소	-11.41
오던	-11.41
▁매물	-11.4102
싸	-11.4102
▁당사	-11.4105
▁찾아온	-11.4105
▁전원이	-11.4107
보았	-11.4108
▁실시하여야	-11.4108
▁경영권	-11.4109
▁심의하기	-11.4111
▁우회	-11.4115
▁GS	-11.4117
▁플로리다	-11.412
뚜	-11.412
▁정신질환	-11.4121
▁치료제	-11.4123
▁생활폐기물	-11.4123
▁호수	-11.4124
▁탄탄한	-11.4124
▁편안한	-11.4128
ee	-11.4133
▁군사적	-11.4134
▁그랜드	-11.4135
둬	-11.4136
옵	-11.4139
▁만들겠다	-11.4139
▁그렇군요	-11.4139
▁매장에서	-11.414
▁애국	-11.4143
▁비위	-11.4146
▁상승했다	-11.4148
버렸다	-11.4148
줄게요	-11.4149
▁헤드	-11.415
만으로도	-11.415
▁녹아	-11.4151
▁고마워	-11.4153
▁과반수의	-11.4153
▁행태	-11.4155
▁직위	-11.4156
▁선거제도	-11.4168
팬들	-11.4171
▁하동	-11.4173
▁꿈꾸는	-11.4176
▁늘어났다	-11.4179
▁메신저	-11.4179
▁링크	-11.418
▁커지면서	-11.4181
▁의사결정	-11.4181
▁염색	-11.4183
학년도	-11.4189
▁진단했다	-11.419
▁전시장	-11.419
매매	-11.4191
워터	-11.4191
▁환급	-11.4194
셜	-11.4197
▁공무원들이	-11.4199
복구	-11.4199
▁통신사	-11.42
▁믿어	-11.42
▁조선시대	-11.4203
▁연구위원	-11.4205
▁토양	-11.4206
▁분열	-11.4207
▁토요일에	-11.4208
위성	-11.4208
요소	-11.4214
▁즐기고	-11.4215
▁창단	-11.4216
▁중요합니다	-11.4217
▁원형	-11.4219
▁우선적으로	-11.4219
▁극우	-11.4219
▁집행유예	-11.4219
▁탄력근로제	-11.4219
▁이낙연	-11.4219
특산물	-11.422
차관	-11.4221
▁답방	-11.4222
▁진행되었다	-11.4222
▁방송국	-11.4222
▁알려지지	-11.4223
▁평화와	-11.4223
▁주사	-11.4225
테이프	-11.4226
▁제출할	-11.4226
▁지키고	-11.4228
▁그러면서	-11.4229
▁만들어야	-11.423
▁상관없	-11.4231
▁존재하는	-11.4232
▁마련돼	-11.4235
▁경제학	-11.4238
복지시설	-11.4238
핏	-11.4239
중견기업	-11.4241
▁민간위탁	-11.4241
▁다루는	-11.4243
▁대관	-11.4243
▁갔어요	-11.4243
외국인	-11.4243
▁아니었	-11.4244
▁이해하기	-11.4245
▁소주	-11.4247
▁국기	-11.4248
▁채취	-11.4249
est	-11.4254
펌	-11.4255
▁과학자들	-11.4259
▁솔직히	-11.426
▁송환	-11.4261
핸드	-11.4262
▁정보공개	-11.4262
▁나타난다	-11.4262
▁안전점검	-11.4265
▁타이어	-11.4265
보육	-11.4266
▁일당	-11.4269
▁늘어나면서	-11.4269
▁신흥	-11.4273
▁계승	-11.4275
▁점검하고	-11.4276
▁게시물	-11.4276
▁민간단체	-11.4277
디오	-11.4277
주식	-11.4278
▁이렇다	-11.428
랫	-11.428
▁쌍둥이	-11.428
▁우연히	-11.428
헬스케어	-11.428
▁천안시	-11.428
쌍	-11.4282
▁의료기기	-11.4283
▁부분에서	-11.4283
▁흐르는	-11.4285
▁기다렸	-11.429
해주신	-11.4291
▁참가할	-11.4291
LO	-11.4291
BO	-11.4293
▁가담	-11.4294
전시관	-11.4298
찔	-11.43
뉘	-11.43
▁KTX	-11.4302
▁산지	-11.4302
▁돌아갈	-11.4303
강사	-11.4304
▁소재로	-11.4306
▁덜어	-11.4306
▁않았기	-11.4309
▁영토	-11.431
▁창원시	-11.431
▁히트	-11.4313
▁김장	-11.4314
▁정상적으로	-11.4315
▁분포	-11.4316
▁위원에게	-11.4317
궤	-11.4318
▁한국전쟁	-11.4318
▁관점	-11.4318
▁재학생	-11.4319
과장이	-11.4319
▁용도로	-11.4319
▁침묵	-11.4321
▁불안정	-11.4322
▁구성하고	-11.4324
용역	-11.4325
▁시골	-11.4326
시오	-11.4327
▁주어지	-11.4331
▁등판	-11.4331
▁아끼지	-11.4335
펄	-11.434
▁가볍게	-11.434
푹	-11.434
▁힙합	-11.434
▁셰프	-11.4341
▁있으므로	-11.4341
국내	-11.4341
▁척추	-11.4343
▁언론사	-11.4344
깊	-11.4344
딸	-11.4345
▁남산	-11.4346
조작	-11.4347
▁약속한	-11.4349
▁실명	-11.435
통계	-11.435
▁윤씨	-11.4352
▁길거리	-11.4353
▁일요일에	-11.4355
▁의병	-11.4355
▁폐업	-11.4356
일방적으로	-11.4359
첼	-11.4359
▁경협	-11.4365
▁궁금합니다	-11.4367
청소	-11.4369
▁볼턴	-11.437
▁어우러진	-11.4372
▁협약식	-11.4374
▁비극	-11.4378
▁부모들	-11.4379
뭇	-11.4381
삐	-11.4381
륨	-11.4381
소방	-11.4382
▁지속가능한	-11.4383
▁데리고	-11.4383
▁대학생들	-11.4383
▁다툼	-11.4384
마음	-11.4385
▁해명했다	-11.4387
▁정상적인	-11.4387
▁우리나라에서	-11.439
▁양념	-11.4391
▁온전	-11.4395
▁가능한지	-11.4395
▁납입	-11.4396
▁쌓여	-11.4397
▁뉴욕에서	-11.4399
▁예상하고	-11.4401
▁변경할	-11.4401
▁도박	-11.4402
▁유니폼	-11.4402
▁낯선	-11.4402
▁산소	-11.4403
▁목표다	-11.4405
▁간주	-11.4405
▁노벨	-11.4407
▁효력	-11.4409
▁사용하기	-11.4411
▁조성된	-11.4411
▁선정했다	-11.4414
▁사생활	-11.4417
시책	-11.4418
▁인사들	-11.4419
물류	-11.442
하시기	-11.4421
SE	-11.4422
▁좁은	-11.4427
▁유전	-11.4429
DB	-11.4429
▁총리와	-11.4432
▁역사와	-11.4433
▁분석됐다	-11.4434
시키려	-11.4438
▁궁금한	-11.4439
▁최정	-11.444
▁점령	-11.4441
▁국제유가	-11.4443
▁다저스	-11.4445
▁경남도	-11.4447
▁기대했다	-11.4449
▁영남	-11.445
▁완료되면	-11.4451
▁음식물	-11.4452
영국	-11.4452
마케팅	-11.4453
▁적다	-11.4453
all	-11.4457
▁비율은	-11.4458
▁멤버들이	-11.4458
▁강조하는	-11.4459
▁의문이	-11.4459
주체	-11.4461
▁조정할	-11.4461
주관부서	-11.4462
▁정시	-11.4462
▁물론이고	-11.4462
▁그다음	-11.4464
▁언제까지	-11.4466
ess	-11.4466
▁편리한	-11.4466
▁반박했다	-11.4466
▁기업체	-11.4469
▁좌절	-11.447
백화점	-11.4472
▁총기	-11.4472
▁원하지	-11.4472
신용	-11.4473
▁송부	-11.4473
▁진상조사	-11.448
혁명	-11.4481
▁융자금	-11.4482
▁간식	-11.4483
▁추경	-11.4485
▁성취	-11.4486
▁보이지만	-11.4486
▁던진	-11.4487
▁염려	-11.449
▁이마트	-11.449
▁조성사업	-11.449
▁섬세	-11.4491
▁메달	-11.4494
밸리	-11.4497
▁동원해	-11.4497
▁엄청	-11.4498
▁매력적인	-11.4499
▁흐르	-11.45
▁조류	-11.45
▁카드로	-11.4503
▁안정적	-11.4503
▁박차	-11.4504
중공업	-11.4504
▁동두천	-11.4504
적십자	-11.4507
▁나옵니다	-11.4507
▁자치단체	-11.4508
▁살펴보	-11.4508
▁주관부서의	-11.4513
▁맞나요	-11.4513
▁트레	-11.4514
▁주식시장	-11.4515
▁행정적	-11.4516
▁변상	-11.4522
▁이메일로	-11.4524
딴	-11.4525
▁웹툰	-11.4525
▁잠시만	-11.4525
▁아시안컵	-11.4525
▁삭감	-11.4526
▁실질적으로	-11.4527
▁마시는	-11.453
▁물량이	-11.4532
▁성북구	-11.4533
▁육박	-11.4534
▁등장한	-11.4536
▁가마	-11.4536
낮	-11.4539
의약품	-11.454
▁못했어요	-11.4542
▁명확한	-11.4542
▁적극적	-11.4543
▁협력사	-11.4544
하였으나	-11.4544
▁금호	-11.4545
▁원내	-11.4545
뜰	-11.4546
▁셋째	-11.4546
▁나경원	-11.4546
▁착수했다	-11.4547
▁돌아올	-11.4548
▁상징하는	-11.4552
▁확보해	-11.4554
▁의학	-11.4555
▁얻었	-11.4555
▁케이티	-11.4558
▁오더	-11.4558
▁지각	-11.4559
▁요청하는	-11.4561
었는지	-11.4563
▁들면	-11.4565
▁경제부총리	-11.4566
▁욕설	-11.4567
▁카라	-11.4567
▁국방장관	-11.4568
ill	-11.4568
▁설명해	-11.4569
▁넘지	-11.4572
▁전년도	-11.4574
클로	-11.4575
▁공립	-11.4576
렸어요	-11.4578
▁무엇	-11.458
▁느끼게	-11.4581
▁공천	-11.4583
▁미쳤다	-11.4584
▁겨냥	-11.4586
▁프리미어리그	-11.4587
▁받아들일	-11.4587
▁소셜미디어	-11.4587
▁맛볼	-11.4587
▁경험과	-11.4589
겨울	-11.4589
▁적용된	-11.4595
번지	-11.4598
조사단	-11.4598
▁강화하기	-11.46
▁고난	-11.4601
▁민주화	-11.4603
▁소원	-11.4603
▁택지	-11.4604
삽	-11.4608
▁캄보디아	-11.4608
▁민감	-11.4611
▁미용	-11.4611
▁소모	-11.4612
소득세	-11.4613
마루	-11.4613
▁무사	-11.4614
겠지	-11.4614
▁나눈	-11.4615
자산운용	-11.4619
▁두되	-11.462
▁보류	-11.4623
▁무효	-11.4626
▁다짐	-11.4627
▁당선자	-11.4629
▁아프가니스탄	-11.4629
푼	-11.4629
▁깊게	-11.4629
했으니	-11.4633
▁없으니	-11.4634
▁빼고	-11.4636
▁더욱더	-11.4639
CI	-11.4639
▁결과적으로	-11.4641
▁타협	-11.4646
▁이룰	-11.4648
▁믿는다	-11.465
▁떠올리	-11.465
▁한마디	-11.465
▁이어지면서	-11.465
▁탈북	-11.4653
▁유지하기	-11.4654
특례	-11.4654
▁찍고	-11.4659
웨어	-11.4659
▁낮아지	-11.466
으므로	-11.466
▁문법	-11.4661
요건	-11.4661
▁잔디	-11.4663
ON	-11.4665
▁팔아	-11.4665
▁운영자	-11.4666
▁펼친다	-11.4668
문화원	-11.4669
▁클라	-11.4669
PM	-11.467
▁멘토	-11.467
▁오렌지	-11.4671
▁자정	-11.4672
ive	-11.4673
▁진심	-11.4674
▁추운	-11.4675
▁나오면서	-11.4677
CNN	-11.4677
마르	-11.4678
▁전남도	-11.4678
▁거기서	-11.4679
▁설명하고	-11.4679
목표	-11.4681
▁회전	-11.4682
▁건강관리	-11.4682
▁통증이	-11.4684
▁사용허가	-11.4685
셉	-11.4691
▁공기청정기	-11.4692
뜬	-11.4692
▁바람직하다	-11.4692
JO	-11.4692
컨설팅	-11.4692
▁심하게	-11.4694
▁근접	-11.4694
▁화산	-11.4694
▁전문인력	-11.4697
▁강화할	-11.4698
대책위원회	-11.4698
즘	-11.4698
▁두번째	-11.4701
객들	-11.4702
▁북구	-11.4703
할수록	-11.4704
▁때문이라는	-11.4706
▁완성차	-11.4706
▁생리	-11.4707
▁감자	-11.4709
전망	-11.4713
쌀	-11.4714
▁학교폭력	-11.4716
▁불확실성	-11.4716
▁공기업	-11.4717
▁남아있는	-11.4718
표지판	-11.4722
▁장난	-11.4726
셈	-11.4728
콘서트	-11.4731
▁보행자	-11.4732
▁판매량이	-11.4735
▁마산	-11.4735
NE	-11.4738
피해자	-11.4739
▁티저	-11.4741
▁심리적	-11.4742
▁처지	-11.4744
▁서점	-11.4747
▁서예	-11.4749
▁수험생	-11.4749
▁상임	-11.4752
▁바그다드	-11.4755
▁있으신가요	-11.4755
잔치	-11.4757
▁면밀	-11.4758
▁품격	-11.4759
▁퍼져	-11.476
닥터	-11.4761
art	-11.4763
▁자매	-11.4764
▁내달	-11.4764
▁폭락	-11.4768
▁가맹	-11.4769
▁운영된다	-11.4771
므로	-11.4772
▁수단으로	-11.4774
특별회계	-11.4775
하셨다	-11.4776
▁경상북도	-11.4776
▁주장한다	-11.4776
▁갱신	-11.4776
▁렌즈	-11.4777
▁신화	-11.4778
▁투자자들이	-11.4783
▁일본어	-11.4783
▁김영철	-11.4785
▁가려고	-11.4787
▁생각하면	-11.4789
▁신동	-11.479
▁제출했다	-11.479
끝	-11.4791
▁차별화	-11.4791
▁선제적	-11.4792
▁파악됐다	-11.4793
▁주님	-11.4793
▁원해요	-11.4795
▁도착했다	-11.4796
▁편의시설	-11.4796
▁선명	-11.4797
▁리버풀	-11.4797
▁도대체	-11.4797
▁현대중공업	-11.4799
▁변형	-11.4799
▁색다른	-11.4799
그램	-11.4802
▁유세	-11.4803
▁않겠다는	-11.4807
▁위해서다	-11.4808
▁나가겠다	-11.4811
▁유네스코	-11.4819
=	-11.4819
▁국무위원장	-11.4822
었으면	-11.4823
CS	-11.4824
대한민국	-11.4825
▁구직	-11.4825
시켜야	-11.4826
워킹	-11.4826
▁단식	-11.4826
략	-11.483
혜택	-11.4831
▁활발히	-11.4833
▁랭킹	-11.484
▁스피커	-11.484
▁흥미로운	-11.484
▁있겠지만	-11.4842
▁액수	-11.4843
▁부의장	-11.4844
▁공사장	-11.4848
함께	-11.4851
▁모두에게	-11.4852
▁대표적이다	-11.4853
팩트	-11.4856
▁복제	-11.4857
▁당대표	-11.4857
뒤	-11.4858
▁같은데요	-11.486
▁서울중앙지검	-11.4861
텀	-11.4861
▁펜션	-11.4863
▁왕자	-11.4865
▁최우수상	-11.4865
맹	-11.4866
▁시급하다	-11.4867
▁이뤄져야	-11.4867
▁시속	-11.4867
▁감염병	-11.4869
▁일대에서	-11.4869
▁선거운동	-11.4872
▁기능성	-11.4876
▁살았	-11.4879
전국	-11.488
▁배우들	-11.488
▁중증	-11.4882
▁동물원	-11.4882
SC	-11.4883
▁홍역	-11.4886
▁살피	-11.4893
▁한참	-11.4894
▁이어갔다	-11.4895
▁St	-11.4896
▁피우	-11.4896
▁말합니다	-11.4898
▁실시해	-11.4898
ment	-11.4903
톨	-11.4904
▁노회찬	-11.4904
▁이듬해	-11.4904
▁가뭄	-11.4905
▁접종	-11.4906
▁만이다	-11.4906
지난해	-11.4907
▁더블	-11.4908
▁아이디	-11.4909
▁않나요	-11.4909
▁후배	-11.491
CE	-11.4914
▁소개해	-11.4915
▁놓여	-11.4916
▁규정된	-11.492
▁찾아볼	-11.492
▁소송에서	-11.4921
렐	-11.4926
비엔날레	-11.4926
커뮤니케이션	-11.4926
▁과징금	-11.4926
▁넥슨	-11.4926
▁한눈에	-11.4926
▁확인해보	-11.4927
다보니	-11.4929
▁선언했다	-11.493
페이지	-11.4932
▁내려진	-11.4933
▁피난	-11.4934
증가율	-11.4934
▁중앙은행	-11.4935
▁필터	-11.4938
▁광산	-11.4941
▁영동	-11.4942
폼	-11.4947
▁다운로드	-11.4947
▁잇달아	-11.4947
심판	-11.4948
공화국	-11.4949
▁접근성이	-11.495
▁있겠습니다	-11.4952
▁않았는데	-11.4955
▁동굴	-11.4956
▁제작된	-11.4957
▁수탁기관	-11.4957
▁하반기에	-11.496
▁진천	-11.496
▁참조	-11.4961
▁분명한	-11.4962
▁괜찮아	-11.4963
LC	-11.4965
▁도발	-11.4965
꾀	-11.4969
▁자부심	-11.4969
▁광주광역시	-11.497
ry	-11.497
보존	-11.4971
님들	-11.4972
▁신고했다	-11.4973
▁관계자들은	-11.4974
▁있겠다	-11.4975
쇼핑	-11.4981
다시피	-11.4983
ab	-11.4987
지휘	-11.4989
$	-11.4991
▁맡는다	-11.4991
▁빠졌	-11.4991
▁파기	-11.4992
▁미안하지만	-11.4993
▁주문했다	-11.4993
▁흥미를	-11.4994
pr	-11.4995
▁로켓	-11.4995
▁스킨	-11.4996
▁라인업	-11.4997
▁측근	-11.4997
릅니다	-11.5003
▁방문하여	-11.5006
AD	-11.501
뱃	-11.5012
▁떡볶이	-11.5012
▁귀여운	-11.5012
▁조속히	-11.5012
부동산	-11.5014
▁대형마트	-11.5015
▁어우러져	-11.5019
▁채팅	-11.5021
▁연초	-11.5022
▁표본	-11.5024
세출	-11.5024
▁존재감	-11.5028
▁서서	-11.5028
눌	-11.503
▁그라운드	-11.503
지원사업	-11.5032
노스	-11.5032
▁청주시	-11.5033
▁스미스	-11.5034
▁계엄	-11.5036
▁광양	-11.5037
ity	-11.5038
▁나눌	-11.5038
▁분석하고	-11.504
여대	-11.5045
▁문제들	-11.5046
준호	-11.5046
▁결의안	-11.5047
▁잡히	-11.5047
▁것임을	-11.5049
농장	-11.5049
졌기	-11.5049
▁소아	-11.505
페스티벌	-11.5051
▁예정이에요	-11.5052
경험	-11.5054
▁도보	-11.5054
▁선발된	-11.5055
킥	-11.5056
▁휘발유	-11.5056
▁포항시	-11.506
퀴	-11.506
표시	-11.506
▁않기로	-11.506
▁모르겠어	-11.5062
▁모드	-11.5063
▁남다른	-11.5065
스페이스	-11.5067
▁동해안	-11.5068
▁제기돼	-11.5069
▁어선	-11.5069
▁어두운	-11.5078
▁낙동강	-11.5078
▁빠르고	-11.5078
▁모듈	-11.5078
▁애로사항	-11.5078
▁사냥	-11.5083
▁기장	-11.5084
▁에이스	-11.5086
he	-11.5087
▁위탁기간	-11.5089
▁일련	-11.5089
▁응모	-11.5094
▁재미있게	-11.5095
▁물리적	-11.5096
복지센터	-11.5097
싸움	-11.5097
▁겨냥한	-11.5101
CP	-11.5101
▁공부하고	-11.5102
▁알려주시면	-11.5102
있던	-11.5102
▁상사	-11.5102
▁녹화	-11.5103
▁지지자들	-11.5103
▁다치	-11.5104
▁예정돼	-11.5106
▁작아	-11.5107
▁사망했다고	-11.511
▁자율적	-11.5112
▁적었다	-11.5113
▁현금으로	-11.5114
▁비교하면	-11.5115
▁보내준	-11.5117
▁리드	-11.5117
▁고려대	-11.5118
▁기자들과	-11.5119
봄	-11.5121
넘	-11.5121
▁크루즈	-11.5121
호르몬	-11.5121
▁프로세스	-11.5122
적이지	-11.5123
▁보냅니다	-11.5124
▁동점	-11.5124
IMF	-11.5126
의료원	-11.5128
▁않으며	-11.5131
▁들지	-11.5132
▁주민들에게	-11.5135
향상	-11.5135
▁시간당	-11.5137
▁산림청	-11.5138
▁인계	-11.5138
▁배우들이	-11.514
▁알려줄	-11.514
▁주민센터	-11.514
▁참가했다	-11.5141
▁로드맵	-11.5143
▁신입생	-11.5143
▁지방보조금	-11.5144
▁날개	-11.5148
▁총액	-11.5149
▁거주자	-11.5152
▁신념	-11.5156
▁신분으로	-11.5161
▁번씩	-11.5164
빗	-11.5166
▁마침내	-11.5169
▁이견이	-11.5172
▁과잉	-11.5173
▁강타	-11.5174
▁살던	-11.5176
▁찬반	-11.5177
▁위헌	-11.5178
▁여정	-11.518
▁원조	-11.5185
더스	-11.5187
▁아나운서	-11.5188
ine	-11.5188
벌레	-11.5188
줘요	-11.5188
▁아니할	-11.5192
▁먹방	-11.5193
▁걷는	-11.5194
▁부추	-11.5195
▁연말까지	-11.5198
▁심어	-11.5198
친화	-11.52
▁바뀌었다	-11.5202
▁여왕	-11.5203
▁높아지	-11.5204
▁모이는	-11.5204
▁직속	-11.5208
▁안팎에서	-11.521
뱀	-11.521
▁시행한다	-11.521
▁차려	-11.521
▁탁월한	-11.521
공수처	-11.521
▁팬클럽	-11.5211
▁코엑스	-11.5212
▁방화	-11.5215
▁해외여행	-11.5215
▁해당한다	-11.5216
▁빠질	-11.522
▁차등	-11.5221
▁네티즌들	-11.5222
▁몸매	-11.5223
반도체	-11.5224
▁공간에서	-11.5227
센터장	-11.5227
▁준비되어	-11.5228
완화	-11.5229
▁떠올랐다	-11.5232
돔	-11.5232
▁컴백	-11.5232
▁소극적	-11.5234
▁재검토	-11.5234
운행	-11.5235
▁표지	-11.5235
▁기부금	-11.5235
▁국민적	-11.5237
▁보이기	-11.5238
▁실수로	-11.5239
▁치러진	-11.5239
스틱	-11.524
▁원본	-11.524
▁충남도	-11.5247
▁실비	-11.5248
▁방송되는	-11.5249
▁상승률	-11.5251
▁신청하여야	-11.5251
▁김승	-11.5252
▁중소벤처기업부	-11.5254
▁동남아시아	-11.5254
▁메이저리그	-11.5254
▁열광	-11.5255
▁항소	-11.5255
▁장기적으로	-11.5261
강화	-11.5263
▁알바	-11.5265
▁부인했다	-11.5266
▁배수	-11.5268
▁정통	-11.5269
▁불가피한	-11.527
되었는지	-11.527
▁물러나	-11.5271
▁방지하기	-11.5271
▁오가는	-11.5272
▁조카	-11.5274
셨습니다	-11.5276
▁느꼈다	-11.5276
닷컴	-11.5277
ist	-11.5278
▁엄격한	-11.528
▁펼쳐졌다	-11.528
▁소위원회	-11.5283
▁판단하고	-11.5286
▁다닐	-11.5287
▁언론인	-11.5287
▁돌입했다	-11.5288
▁갈라	-11.5291
현직	-11.5292
▁연루된	-11.5294
▁시급한	-11.5296
▁영변	-11.5297
▁대두	-11.5298
▁대주주	-11.53
▁공공성	-11.53
▁인성	-11.5302
▁해설	-11.5303
▁대조	-11.5304
▁효과적	-11.5305
up	-11.5307
▁박탈	-11.5309
▁유래	-11.5315
▁주자	-11.5316
▁북극	-11.5317
MD	-11.5318
▁발판	-11.5319
▁박정	-11.532
▁아쉬운	-11.5321
▁임산부	-11.5321
▁단말기	-11.5321
▁돌아보	-11.5322
▁가져올	-11.5323
▁건네	-11.5325
▁발걸음	-11.5325
국민은행	-11.5327
▁바꾼	-11.5331
▁딸기	-11.5333
▁이해하는	-11.5335
▁교육기관	-11.5336
▁완료된	-11.5336
▁암살	-11.5339
▁추진된다	-11.5339
▁충실	-11.5341
▁넘어섰다	-11.5343
▁컨디션	-11.5343
슐	-11.5343
▁미성년자	-11.5343
▁라오스	-11.5343
▁요금제	-11.5344
▁왕세자	-11.5344
▁부유	-11.5344
▁도자기	-11.5346
예술단	-11.5346
▁고래	-11.5348
▁이루어질	-11.5348
▁대중문화	-11.5349
웠던	-11.5351
▁여행사	-11.5351
답게	-11.5353
▁목적지	-11.5353
▁표결	-11.5353
▁보컬	-11.5357
INS	-11.5358
격차	-11.5359
연패	-11.5359
▁내려오	-11.5359
▁끝으로	-11.5361
▁키우고	-11.5362
▁장부	-11.5363
▁악성	-11.5363
▁배제할	-11.5363
▁접대	-11.5363
▁정문	-11.5365
▁참석한다	-11.5365
▁유력한	-11.5365
▁나와서	-11.5366
▁로이터통신	-11.5366
▁돼지고기	-11.5367
▁인천국제공항	-11.5367
▁초미세먼지	-11.5368
▁이끌었다	-11.5372
▁사상자	-11.5374
리츠	-11.5375
▁글자	-11.5383
▁일기	-11.5383
▁오찬	-11.5384
조절	-11.5388
벅	-11.5388
풋	-11.5388
역세권	-11.5389
▁반찬	-11.5391
잇	-11.5393
▁제한적	-11.5396
▁통치	-11.5397
▁바꾸고	-11.5398
▁회식	-11.5406
▁만세	-11.5406
▁수준이다	-11.5406
▁반발하고	-11.5409
▁배웠	-11.5409
▁박수를	-11.541
▁너랑	-11.541
▁의심되는	-11.5411
텃밭	-11.5411
▁한진그룹	-11.5411
▁연장할	-11.5411
▁편의성	-11.5412
▁여섯	-11.5412
▁핵시설	-11.5412
LA	-11.5413
▁잡혀	-11.5416
▁상봉	-11.5418
▁일회용	-11.5418
be	-11.5419
▁좋았다	-11.5422
논술	-11.5424
캐슬	-11.5425
▁부자	-11.5426
▁호조	-11.5426
▁협력업체	-11.5426
▁개최되었다	-11.543
점포	-11.5432
▁팽팽	-11.5434
▁아레나	-11.5434
도우미	-11.5436
▁연평균	-11.5436
▁검토할	-11.5436
큼	-11.5437
▁원작	-11.5438
▁서서히	-11.5439
▁브루	-11.5443
▁마련하기	-11.5445
▁치명적	-11.5445
유출	-11.5446
윤리	-11.5446
접수	-11.5447
▁확정됐다	-11.5447
▁취소할	-11.5448
앤드	-11.5453
▁돋보	-11.5455
▁활용하여	-11.5455
세종	-11.5456
▁불구속	-11.5456
▁코레일	-11.5456
▁신한은행	-11.5456
▁무엇입니까	-11.5457
▁생략	-11.5457
▁토큰	-11.5458
▁승점	-11.5461
▁회원들	-11.5462
▁대미	-11.5463
영화제	-11.5465
▁고객사	-11.5466
▁인사청문회	-11.5466
▁결실	-11.547
덧	-11.5471
▁몰고	-11.5473
▁성립	-11.5473
미술관	-11.5477
▁불필요한	-11.5479
스퀘어	-11.5479
간접	-11.548
▁나서야	-11.5481
▁인정하고	-11.5483
▁카풀	-11.5484
▁무사히	-11.5485
꿈	-11.5487
맥스	-11.5488
▁진동	-11.5488
▁것이라며	-11.5489
▁구원	-11.549
▁합성	-11.5497
▁흑자	-11.5498
킷	-11.5499
켈	-11.5501
▁가톨릭	-11.5502
▁교도소	-11.5502
▁반려견	-11.5503
▁지역별	-11.5504
클린	-11.5504
▁최적화	-11.5504
설치	-11.5506
▁학생들과	-11.5507
▁순방	-11.5508
경찰청	-11.5511
▁확진	-11.5517
▁위탁하여	-11.5519
루트	-11.5522
하였는데	-11.5524
▁경제성장	-11.5524
▁무거운	-11.5525
▁장성	-11.5525
nd	-11.5526
패션	-11.5527
▁지원대상자	-11.5527
▁개선될	-11.5531
▁수립하고	-11.5531
▁평등	-11.5532
▁폭풍	-11.5533
내려	-11.5536
▁번영	-11.5541
SNS	-11.5543
oo	-11.5544
▁기르	-11.5544
▁산재	-11.5544
멈	-11.5547
▁포르투갈	-11.5548
강원도	-11.5548
▁누구보다	-11.5548
했음에도	-11.5549
▁적시	-11.5549
▁담겨있다	-11.5549
▁쉽다	-11.5553
▁멀어	-11.5557
기관인	-11.5558
체육관에서	-11.5558
▁꼬리	-11.556
▁기둥	-11.556
취소	-11.5561
▁이윤	-11.5561
▁임시회	-11.5563
▁징역형	-11.5565
▁블룸버그	-11.557
▁샌프란시스코	-11.557
▁알레르기	-11.557
▁들었어	-11.5571
셨는데	-11.5573
피트	-11.5574
▁중요하게	-11.5582
▁않거나	-11.5583
▁면모	-11.5585
▁달간	-11.559
▁일체	-11.559
▁버티	-11.5591
하진	-11.5592
▁시급	-11.5592
▁스페셜	-11.5593
▁마라톤	-11.5593
으셨	-11.5594
쿼터	-11.5595
CB	-11.5597
▁음식물류	-11.5597
▁일들이	-11.5598
▁이바지	-11.56
TA	-11.5603
▁사업주	-11.5605
종목	-11.5606
▁지키기	-11.5607
▁학살	-11.5608
카메라	-11.561
▁왕복	-11.5611
슴	-11.5611
영역	-11.5613
▁고리	-11.5616
▁베테랑	-11.5616
▁악영향	-11.5616
▁경기침체	-11.5616
▁스태프	-11.5616
▁눌러	-11.5617
▁똑같이	-11.5619
▁사역	-11.562
▁높아지면서	-11.5622
▁제출된	-11.5623
▁메모	-11.5624
룬	-11.5625
▁이번엔	-11.5626
▁말이야	-11.5627
▁느낀다	-11.5628
▁강진	-11.5629
▁적발된	-11.5629
▁다가가	-11.5629
▁실물	-11.563
▁표출	-11.5631
▁주어진	-11.5633
▁만하다	-11.5633
▁신형	-11.5634
▁명확	-11.5635
납부	-11.5637
▁대세	-11.5638
▁은폐	-11.5639
▁맡겨	-11.564
▁피드백	-11.564
LNG	-11.564
▁킨텍스	-11.564
해보세요	-11.5641
▁대표자	-11.5645
▁말아야	-11.565
▁매칭	-11.5651
활용	-11.5652
▁들어올	-11.5654
▁외국인들	-11.566
▁연안	-11.5661
▁소명	-11.5663
▁만만치	-11.5663
▁표했다	-11.5663
▁추위	-11.5666
▁퇴원	-11.5666
폭탄	-11.5671
▁필자	-11.5672
▁지금부터	-11.5673
하늘	-11.5675
▁기대되는	-11.5678
▁엄중	-11.5682
▁농림축산식품부	-11.5686
▁이산가족	-11.5686
IR	-11.5686
▁외무상	-11.5686
▁막히	-11.5686
민주당	-11.5687
한겨레	-11.5687
▁고쳐	-11.5688
▁하남	-11.5688
▁친척	-11.5692
▁소독	-11.5694
▁막혀	-11.5695
거든	-11.5697
해드리겠습니다	-11.5698
▁보충	-11.5701
▁개헌	-11.5702
장려금	-11.5704
싶	-11.5704
▁청정	-11.5705
▁벌어지	-11.5705
▁약정	-11.5706
씬	-11.5709
▁우체국	-11.5709
무한돌봄	-11.5709
▁입소문	-11.5709
▁부서장	-11.5713
▁동대문구	-11.5713
▁소진	-11.5714
▁열매	-11.5716
▁구성하되	-11.5717
▁남았	-11.5718
▁전투기	-11.5719
▁주저	-11.5721
재현	-11.5722
환경개선	-11.5725
▁조언했다	-11.5729
▁안정화	-11.573
▁알코올	-11.5732
▁아동학대	-11.5733
▁단독주택	-11.5735
▁원화	-11.574
▁논평	-11.5741
정현	-11.5744
▁민원인	-11.5746
납세자	-11.5748
종합계획	-11.575
▁대접	-11.5751
▁합의문	-11.5754
짚	-11.5754
▁되돌아	-11.5756
소외계층	-11.5756
하겠지만	-11.5756
▁희귀	-11.5756
▁헌재	-11.5757
▁유동성	-11.5757
▁상륙	-11.5758
▁펼친	-11.5758
촬영	-11.576
▁끄는	-11.576
슬러	-11.5763
검증	-11.5764
왔으며	-11.5764
▁인디	-11.5767
▁각오	-11.5768
▁연락처	-11.577
▁제시하는	-11.5771
실험	-11.5773
▁프레임	-11.5774
▁건설사	-11.5774
▁알선	-11.5777
▁가시면	-11.5777
▁앞세워	-11.5779
▁세관	-11.578
▁세수	-11.5784
▁증액	-11.5785
▁혼합	-11.5785
▁그렇지만	-11.5786
▁총무	-11.5787
▁있었으면	-11.5788
찍	-11.5788
▁글씨	-11.5789
▁인식하고	-11.5793
▁출시된	-11.5795
▁경제활동	-11.5796
▁대상이다	-11.5797
▁이틀간	-11.5798
면허	-11.58
▁맨체스터	-11.5803
▁안방극장	-11.5803
증후군	-11.5803
▁국무회의	-11.5803
▁가짜뉴스	-11.5803
▁슈팅	-11.5804
▁업적	-11.5805
▁참관	-11.5806
▁정답	-11.5806
▁드레스	-11.5807
벼	-11.5811
▁때문이었다	-11.5813
수업	-11.5813
▁보내주신	-11.5814
▁맛집	-11.5817
▁탓이다	-11.5818
▁작용할	-11.5819
확보	-11.5822
▁연중	-11.5825
▁셧다운	-11.5826
▁알카에다	-11.5826
▁주유소	-11.5826
우진	-11.5827
▁판단되는	-11.5827
▁전기요금	-11.5828
▁이어갈	-11.5829
▁보편적	-11.5831
▁선정돼	-11.5832
▁기금운용	-11.5832
▁남양주	-11.5837
안내	-11.5839
되었지만	-11.5839
테러	-11.5841
주셔야	-11.5844
▁행정처분	-11.5844
▁느껴지는	-11.5844
▁없었고	-11.5845
▁동대문	-11.5846
▁맞다	-11.5847
무형문화재	-11.585
▁채용비리	-11.585
▁떠날	-11.5856
였어	-11.5857
▁나흘	-11.5858
▁우산	-11.5858
▁언급하며	-11.5859
▁들었는데	-11.5859
▁자활	-11.5859
▁않으면서	-11.5861
체육관	-11.5861
화장실	-11.5861
▁조업	-11.5861
▁특색	-11.5862
▁연결된	-11.5863
▁유명하다	-11.5868
▁일제강점기	-11.5873
▁심정	-11.5874
▁모릅니다	-11.5877
공공기관	-11.5879
▁작용했다	-11.588
▁어쩌면	-11.5881
테마파크	-11.5886
▁주름	-11.5894
성폭력	-11.5895
껴	-11.5897
▁불행	-11.5897
▁스타디움에서	-11.5897
▁해상에서	-11.5897
▁착각	-11.5898
▁요새	-11.59
떼	-11.59
▁스틸	-11.59
▁선보이고	-11.5905
▁규정함으로써	-11.5905
▁지형	-11.5909
▁“‘	-11.5909
▁세균	-11.591
▁주거환경	-11.591
기본계획	-11.591
좋은	-11.5915
렵	-11.5916
▁사격	-11.5916
▁현실적으로	-11.5916
▁아티스트들	-11.5917
▁제도적	-11.5919
▁유나이티드	-11.5921
▁낙관	-11.5921
친화적	-11.5926
손실	-11.593
▁대의원	-11.5931
쥐	-11.5935
생태	-11.5939
▁적혀	-11.594
투쟁	-11.594
▁유권자들	-11.5943
▁다쳤다	-11.5944
▁상태였다	-11.5944
▁포기하지	-11.5944
▁뜨겁게	-11.5945
▁마이너스	-11.5945
▁의원들은	-11.595
▁급하게	-11.5954
처리시설	-11.5955
▁펼쳐질	-11.5957
▁복지부	-11.5958
▁기울여	-11.5959
▁기념품	-11.5961
▁위조	-11.5965
▁경신	-11.5968
썩	-11.5969
▁넉넉	-11.5969
▁예방접종	-11.5969
경제자유구역	-11.5969
▁증빙	-11.5969
▁예상치	-11.597
▁기념해	-11.597
▁선점	-11.5971
▁메이저	-11.5972
▁올라왔다	-11.5973
▁잡았	-11.5974
▁회화	-11.5976
▁호소했다	-11.5977
▁시흥	-11.5978
▁가난한	-11.598
▁반려	-11.598
▁그려진	-11.5988
▁마실	-11.5988
▁김창	-11.5989
놔	-11.5992
▁패러다임	-11.5993
▁우선순위	-11.5996
▁아이콘	-11.5998
▁신고자	-11.6001
면접	-11.6002
▁인문학	-11.6003
▁벌금형	-11.6005
▁김준	-11.6007
곧	-11.601
▁소각	-11.6011
디스플레이	-11.6011
▁우려했다	-11.6011
▁거액	-11.6013
업무담당	-11.6014
검찰	-11.6014
▁법조계	-11.6017
▁식민지	-11.6017
▁바뀔	-11.6017
진흥법	-11.6017
▁농기원	-11.6017
▁은혜	-11.6018
▁결핵	-11.6018
렸는데	-11.6018
▁이재민	-11.6019
▁어떨까요	-11.602
▁지속되고	-11.6027
▁예우	-11.603
▁찬양	-11.6032
됨	-11.6034
PP	-11.6036
▁개발했다	-11.6036
▁실린	-11.6037
▁오스트리아	-11.6041
놈	-11.6041
▁삼성물산	-11.6041
▁퀴즈	-11.6041
▁로이터	-11.6041
▁섹시	-11.6041
워치	-11.6042
▁자치회관	-11.6042
▁말부터	-11.6042
바스	-11.6044
▁도울	-11.6046
▁압수	-11.605
▁국무위원장과	-11.6051
▁주춤	-11.6052
시설물	-11.6054
선관위	-11.6057
정상회담	-11.6058
지방법원	-11.606
▁왕실	-11.6061
▁대응하기	-11.6061
유치	-11.6061
ers	-11.6063
▁걸림돌	-11.6065
▁떠오른	-11.6065
▁쇼케이스	-11.6065
▁천장	-11.6065
▁피어	-11.6065
연구회	-11.6067
▁곤충	-11.6067
슬리	-11.6069
▁물결	-11.6073
▁낮게	-11.6075
▁나타내는	-11.608
▁에릭	-11.6083
▁저렴하	-11.6084
▁와이파이	-11.6089
▁방콕	-11.609
▁귀하	-11.6091
았는데	-11.6092
▁보도자료	-11.6093
▁재계	-11.6093
FO	-11.6096
ER	-11.6103
▁실종된	-11.6108
주식회사	-11.6109
▁분배	-11.6111
▁나눴다	-11.6113
▁프로듀서	-11.6113
▁국가정보원	-11.6113
▁사망하고	-11.6114
▁발달장애인	-11.6114
▁고사	-11.6115
▁혼잡	-11.6116
▁덕분	-11.6117
▁있음에도	-11.6118
▁동아시아	-11.6119
▁결정적인	-11.6119
▁지키지	-11.6121
▁만성	-11.6124
▁일방적	-11.6125
▁조종사	-11.6127
▁없었지만	-11.6127
해보는	-11.6128
밴	-11.6131
▁실체	-11.6134
▁불법행위	-11.6136
▁무슬림	-11.6137
▁샐러드	-11.6137
썰	-11.6137
°	-11.6137
▁안된다	-11.6137
▁대기오염	-11.6137
전시회	-11.6139
▁게스트	-11.614
▁재확인	-11.6143
▁쿠바	-11.6144
▁사업체	-11.6148
▁조용히	-11.6148
▁박종	-11.6148
ma	-11.6154
▁위장	-11.6155
▁통영	-11.6155
▁권유	-11.6158
▁터치	-11.6158
▁공통점	-11.616
▁서귀포	-11.6162
〉	-11.6162
▁KIA	-11.6162
▁항암	-11.6163
▁증설	-11.6164
RC	-11.6164
▁설교	-11.6164
▁욕심	-11.6164
앞으로도	-11.6165
▁않으려	-11.6166
▁기념행사	-11.6167
통장	-11.6168
▁아산	-11.6173
▁배부	-11.6175
▁동물보호	-11.6175
휴양	-11.6177
천원	-11.6178
▁병사	-11.6182
▁흥분	-11.6182
엇	-11.6183
년만에	-11.6186
▁첼시	-11.6188
▁훌륭	-11.6192
▁시비	-11.6195
▁야채	-11.6197
▁개편안	-11.6197
▁산업부	-11.6197
▁실어	-11.6199
▁설치돼	-11.6199
▁당원	-11.6202
▁사라졌다	-11.6204
▁여행객	-11.6204
▁정책실장	-11.6207
민간	-11.6207
SI	-11.6209
▁예고했다	-11.6209
〈	-11.621
잣	-11.621
▁종량제	-11.621
베드	-11.6211
▁영감	-11.6213
▁영예	-11.6216
슈퍼	-11.6218
분위	-11.6218
▁벌어지고	-11.622
했거나	-11.6222
▁불쾌	-11.6223
▁믿는	-11.6223
ca	-11.6224
▁합산	-11.6228
▁마비	-11.6232
▁팔리	-11.6232
▁국공립	-11.6235
▁밀접한	-11.6235
▁까닭	-11.6235
동주민센터	-11.6235
플렉스	-11.6235
▁시민들에게	-11.6236
▁손길	-11.6238
흔	-11.6239
▁두루	-11.6243
농산물	-11.6243
▁새우	-11.6244
비스	-11.6246
자회담	-11.6249
▁좋으	-11.625
▁부산항	-11.625
▁거래처	-11.625
▁불황	-11.6256
사회복지	-11.6257
컴퍼니	-11.626
▁해병대	-11.626
▁쏟아졌다	-11.6263
받기	-11.6263
FP	-11.6263
사람들	-11.6265
▁피하기	-11.6266
▁못했지만	-11.6266
▁물었다	-11.6267
▁납세	-11.6271
코드를	-11.6274
▁끌려	-11.6274
▁창설	-11.6275
▁받아서	-11.6276
▁착한	-11.6278
▁맞아요	-11.6278
균형	-11.6281
▁지정하여	-11.6283
CA	-11.6283
퉁	-11.6284
▁부임	-11.6284
▁중남미	-11.6284
▁구체화	-11.6285
많	-11.6286
답니다	-11.6287
▁황의조	-11.6288
▁내놓았다	-11.6288
▁익숙한	-11.629
▁주역	-11.6291
▁다량	-11.6293
▁이루어졌다	-11.6295
▁누설	-11.6295
▁순회	-11.6297
▁살펴보고	-11.63
측정	-11.6302
▁난이도	-11.6305
▁엘지	-11.6306
뜩	-11.6308
▁양극화	-11.6309
▁가늠	-11.6309
▁평택시	-11.631
재활	-11.6311
▁균형발전	-11.6312
▁근로자들	-11.6313
▁더해져	-11.6314
▁줄줄	-11.6314
▁파악할	-11.6314
스토리	-11.6314
▁해소하기	-11.6317
RS	-11.6318
▁건강하게	-11.6319
▁공개된다	-11.632
▁과열	-11.6324
▁단절	-11.6324
▁경사	-11.6331
▁미드필더	-11.6334
▁일으킬	-11.6334
카운티	-11.6334
▁분과위원회	-11.6336
▁걸맞	-11.6338
보조금	-11.6341
▁그러니	-11.6343
▁투입된	-11.6346
▁잔류	-11.6346
▁지하철역	-11.6348
▁걸었다	-11.6353
▁찾는다	-11.6356
▁손학규	-11.6358
분쟁	-11.636
▁빛나는	-11.6361
▁교직원	-11.6362
▁연쇄	-11.6364
검토	-11.6365
▁다릅니다	-11.6365
▁응용	-11.6366
▁과반수	-11.6367
▁레이저	-11.6369
▁냉동	-11.637
▁국왕	-11.637
▁경로당	-11.6371
▁편안하게	-11.6371
▁알려졌	-11.6374
▁친근	-11.6375
저널	-11.6377
▁북부지역	-11.6381
LS	-11.6381
▁미안해	-11.6382
▁고혈압	-11.6383
펑	-11.6383
▁재적위원	-11.6383
▁규탄	-11.6384
나이트	-11.6385
▁추정하고	-11.6385
▁강조하고	-11.6385
교육원	-11.6387
▁중립	-11.6388
▁야권	-11.6389
▁하나하나	-11.6391
▁가평	-11.6398
▁문화관광	-11.6399
보험료	-11.6401
▁기승	-11.6405
▁은행권	-11.6405
헛	-11.6408
숯	-11.6408
▁농작물	-11.6409
했음을	-11.6411
▁홍보대사	-11.6412
▁재편	-11.6413
▁바른	-11.6413
▁부검	-11.6414
믹스	-11.6415
▁없었어요	-11.6417
▁일각	-11.6418
ver	-11.6419
아프리카	-11.6421
▁이재용	-11.6423
때로는	-11.6424
▁성당	-11.6424
였기	-11.6427
▁의안	-11.6428
▁울리	-11.643
▁실질	-11.643
▁설치한다	-11.6432
▁자치법규	-11.6433
▁진상규명	-11.6433
▁손잡고	-11.6433
▁내세우	-11.6434
▁다문화가족	-11.6434
▁뉴욕타임스	-11.6434
▁놀랍	-11.6434
▁주도권	-11.6442
▁비밀번호	-11.6445
▁부풀	-11.6447
▁항공권	-11.6448
▁경제성장률	-11.6448
▁틀어	-11.6451
축구협회	-11.6454
▁묶어	-11.6454
▁하와이	-11.6455
▁과기정통부	-11.6458
▁뜨겁다	-11.6458
▁신혼부부	-11.6458
▁마련되어	-11.6461
▁숨지게	-11.6461
▁감사드린다	-11.6461
▁자동화	-11.6462
▁여배우	-11.6462
▁팔당	-11.6462
▁침투	-11.6463
거야	-11.6467
▁부천시	-11.6467
▁내놓고	-11.6468
▁제치고	-11.647
▁쏟아져	-11.6473
플랫폼	-11.6474
▁경기력	-11.6474
▁신학	-11.6477
줌	-11.6483
캐피탈	-11.6483
경사노위	-11.6484
▁작품이다	-11.6486
▁그리워	-11.6491
댄스	-11.6499
▁구매자	-11.6499
▁신산업	-11.6501
농협	-11.6506
구급	-11.6506
닷	-11.6508
▁가라앉	-11.6509
▁각별한	-11.6509
▁다가온	-11.651
패드	-11.6512
▁낙찰	-11.6515
▁청춘	-11.6516
아버지	-11.6518
▁합격자	-11.6518
▁세션	-11.6519
항목	-11.652
▁망명	-11.6523
▁여파	-11.6525
▁보람	-11.6526
▁그러던	-11.6526
▁노력해야	-11.653
미사일	-11.653
▁모형	-11.6531
▁햄버거	-11.6534
▁상설	-11.6536
직업	-11.6539
▁제도개선	-11.6539
▁전라남도	-11.6541
센스	-11.6542
▁알릴	-11.6542
▁지상파	-11.6543
▁입주민	-11.6547
▁경쟁사	-11.6547
▁거센	-11.655
▁여신	-11.6552
십니까	-11.6553
▁적성	-11.6553
총괄	-11.6555
▁국민에게	-11.6555
섹	-11.6559
한반도	-11.6559
▁기획예산과장	-11.6559
▁맞물려	-11.6559
▁구속된	-11.656
▁낮춰	-11.656
▁행렬	-11.6562
▁학교급식	-11.6563
▁우려되는	-11.6563
평균	-11.6564
▁충당	-11.6571
▁인삼	-11.6573
▁선고했다	-11.6574
▁조경	-11.6577
os	-11.6577
▁별세	-11.6582
뷰티	-11.6583
보건환경연구원	-11.6585
홀딩스	-11.6585
▁캐스팅	-11.6585
스러웠	-11.6585
▁돌아다니	-11.6586
▁개체	-11.6586
시께	-11.6587
▁그만두	-11.6589
국악	-11.6591
▁장병	-11.6591
▁가능해요	-11.6592
▁금융사	-11.6593
졌는데	-11.6596
▁장점이다	-11.6599
▁강하다	-11.6601
▁판단이다	-11.6601
▁결선	-11.6602
▁도의원	-11.6602
▁실려	-11.6603
▁위촉된	-11.6606
vi	-11.6609
▁거주지	-11.661
봅시다	-11.661
▁대행한다	-11.661
▁CBS	-11.661
▁공익신고	-11.6611
▁사로잡았다	-11.6612
▁빨간색	-11.6612
▁휴전	-11.6615
했나요	-11.6616
▁면역력	-11.6617
▁당연한	-11.6618
그러나	-11.6621
전력	-11.6623
▁골드	-11.6624
▁접근할	-11.6626
▁통화정책	-11.6626
▁없지	-11.6629
▁거울	-11.6629
강남	-11.6632
가치가	-11.6636
▁다뤄	-11.6637
▁우수사례	-11.6638
▁국군	-11.664
로봇	-11.664
▁깔려	-11.664
▁발탁	-11.6647
▁넘쳐	-11.6647
▁요구하며	-11.6654
▁직원에게	-11.666
드루킹	-11.666
긍	-11.666
경진대회	-11.6661
▁추출	-11.6661
입자	-11.6662
▁마음껏	-11.6663
▁만들어낸	-11.6664
▁전례	-11.6666
▁있죠	-11.6667
▁상식	-11.667
▁광주형	-11.6671
▁없거나	-11.6675
▁위탁운영	-11.6677
▁은평구	-11.6677
▁대단한	-11.6681
부장관	-11.6685
▁영원히	-11.6687
▁어려웠다	-11.6689
▁목욕	-11.6691
▁누나	-11.6692
▁용서	-11.6692
빨리	-11.6694
요령	-11.6695
ack	-11.6696
▁인문	-11.6697
▁던져	-11.6698
커피	-11.6703
▁미달	-11.6703
▁소련	-11.6704
SO	-11.6705
▁친서	-11.6706
▁부탁합니다	-11.6707
▁죽어	-11.6708
▁본관	-11.6711
챌	-11.6712
▁어젯밤	-11.6712
디지털	-11.6714
▁고집	-11.6715
새로운	-11.6717
▁격리	-11.6719
▁근무시간	-11.6723
오버	-11.6723
▁우즈	-11.6726
▁안심하고	-11.6728
▁작사	-11.6728
▁소나무	-11.6728
▁최종적으로	-11.6729
▁걸린다	-11.6731
▁맛있게	-11.6732
▁찾아내	-11.6734
형태	-11.6735
▁발견돼	-11.6736
▁달라질	-11.6737
▁톡톡	-11.6738
▁조선일보	-11.6739
▁전해진다	-11.6741
▁반짝	-11.6748
▁감옥	-11.6749
▁부결	-11.6751
▁고령자	-11.6754
▁근처에서	-11.6754
리즘	-11.6754
회의실에서	-11.6759
▁요청합니다	-11.676
▁잃었다	-11.6764
▁금리인상	-11.6765
▁위안화	-11.6765
최저임금	-11.6768
▁BBC	-11.6768
▁남구	-11.6768
PI	-11.6769
저수지	-11.6769
▁이민자	-11.677
▁선보이며	-11.677
▁생각하기	-11.6771
▁인허가	-11.6771
▁성도들	-11.6774
▁소중	-11.6775
▁속출	-11.6778
FI	-11.6778
▁재질	-11.6781
▁예방하기	-11.6782
▁사업추진	-11.6783
▁기다려야	-11.6783
▁사교육	-11.6784
▁농축	-11.6785
▁대중화	-11.6788
▁공개하지	-11.6789
▁일명	-11.6789
콧	-11.679
궈	-11.679
쑤	-11.679
▁개그맨	-11.679
▁컨트롤	-11.679
▁소유권	-11.6791
▁그러므로	-11.6791
▁주먹	-11.6791
▁삼성생명	-11.6792
▁리듬	-11.6794
▁축복	-11.6798
▁경감	-11.6799
▁도마	-11.68
텔레	-11.6801
▁일시적으로	-11.6803
▁출토	-11.6804
▁약국	-11.6805
▁치우	-11.6807
▁거품	-11.6808
▁출판사	-11.6813
▁쓰이는	-11.6813
▁이산화탄소	-11.6816
▁태어났	-11.6816
▁명목으로	-11.6816
▁늘리고	-11.6816
▁러시아월드컵	-11.6818
지킴이	-11.6818
▁작은도서관	-11.682
▁입체	-11.6821
▁받았어요	-11.6822
▁펼쳐지는	-11.6825
▁메시	-11.6826
▁플라	-11.6828
섬유	-11.6828
▁들어설	-11.6829
▁실증	-11.6829
▁연탄	-11.6829
▁등장해	-11.6833
▁함정	-11.6834
▁구조물	-11.6841
▁뮤지션	-11.6842
드래곤	-11.6842
모빌리티	-11.6842
▁온천	-11.6842
▁모터	-11.6842
▁좁아	-11.6842
GO	-11.6843
▁공개모집	-11.6844
▁민중	-11.6844
RI	-11.6846
▁동상	-11.6847
▁싶은데요	-11.6847
▁인파	-11.685
▁공룡	-11.685
맥주	-11.6851
▁적용된다	-11.6852
▁진술했다	-11.6856
▁집중력	-11.6856
▁미국인들	-11.6857
▁살리기	-11.6864
▁하나씩	-11.6864
▁초안	-11.6866
▁증여	-11.6866
▁바뀌어	-11.6868
▁레바논	-11.6868
늄	-11.6868
▁김대중	-11.6869
▁들여다보	-11.6871
no	-11.6871
▁넘었다	-11.6872
▁회부	-11.6872
▁진통	-11.6873
▁희망한다	-11.6873
및	-11.6877
▁무상으로	-11.6877
▁맞추어	-11.6878
▁비례	-11.6887
▁조례안	-11.6887
▁자르	-11.6889
▁외교관	-11.6893
▁잇따르고	-11.6894
▁알림	-11.6896
▁격렬	-11.6896
▁분명하다	-11.6901
▁들어왔다	-11.6901
▁농담	-11.6904
▁대항	-11.6905
▁항공편	-11.6905
▁지역별로	-11.6906
LPGA	-11.6907
면세점	-11.6908
대표팀	-11.691
▁어색	-11.6911
▁호재	-11.6912
▁몰린	-11.6914
▁동계올림픽	-11.6921
▁머무르	-11.6921
▁휩쓸	-11.6921
▁빌보드	-11.6922
▁높아진다	-11.6922
▁현실이다	-11.6922
▁간직	-11.6922
▁기밀	-11.6923
▁다녀왔	-11.6929
▁영위	-11.6929
▁걷어	-11.693
▁많았던	-11.6931
▁시작될	-11.6932
▁강북	-11.6936
▁소속팀	-11.6936
EX	-11.6936
▁수행한다	-11.694
▁장례	-11.694
ang	-11.6943
▁노인들	-11.6944
▁설치되어	-11.6944
▁아랍에미리트	-11.6947
▁대체복무	-11.6947
▁우즈벡	-11.6947
▁토로했다	-11.6949
▁우수성	-11.6951
스팅	-11.6951
▁흥미롭	-11.6953
▁칠레	-11.6953
석유화학	-11.6955
▁돌파구	-11.6958
픈	-11.6959
▁넘긴	-11.696
▁산악	-11.6968
쿼	-11.6971
▁에피소드	-11.6973
▁하마스	-11.6974
미스터	-11.6974
▁정국	-11.6977
▁나가야	-11.6977
▁체포됐다	-11.6979
▁잠재적	-11.6979
▁세계대전	-11.698
▁지역화폐	-11.6982
▁도와줄	-11.6982
▁부적절한	-11.6983
▁신작	-11.6985
▁받았지만	-11.6985
▁개최됐다	-11.6988
라이브	-11.6988
▁가려면	-11.6994
▁배급	-11.6995
진료	-11.6996
con	-11.6996
▁추방	-11.6997
▁만들어졌다	-11.6999
▁삽입	-11.7
▁종업원	-11.7
관리시스템	-11.7
▁발레	-11.7001
▁역임	-11.7001
▁지지층	-11.7003
na	-11.7006
TC	-11.7008
ard	-11.701
MO	-11.701
▁들이받	-11.7016
부두	-11.7016
▁시작되었다	-11.7019
▁미지수	-11.7022
▁직원들에게	-11.7022
▁드문	-11.7025
잭	-11.7026
▁보냈습니다	-11.7026
▁교섭단체	-11.7026
▁컨셉	-11.7027
▁롯데백화점	-11.7027
▁창의적	-11.7027
▁접근성	-11.7029
▁면세	-11.7031
▁청구서	-11.7032
▁안보리	-11.7036
▁미안해요	-11.7038
▁퇴장	-11.7038
▁알려야	-11.7038
▁탄소	-11.7042
▁과자	-11.7043
▁함양	-11.7044
▁고액	-11.7044
▁통관	-11.7052
▁복장	-11.7053
▁안타까운	-11.7053
▁자아냈다	-11.7053
뮬	-11.7053
▁디즈니	-11.7053
▁생중계	-11.7053
▁덴마크	-11.7053
▁실거래가	-11.7053
▁읽기	-11.7054
▁욕망	-11.7054
▁가능할까요	-11.7055
▁적당한	-11.7059
▁멋있	-11.706
▁남양주시	-11.7068
▁신청하면	-11.707
▁임직원들	-11.707
▁보유세	-11.707
롯	-11.7072
▁향토	-11.7074
메르	-11.7075
▁최고치	-11.7077
▁부친	-11.7078
▁전자상거래	-11.7079
▁티베트	-11.7079
▁온갖	-11.708
▁픽업	-11.708
▁실패했다	-11.7084
▁의결권	-11.7086
▁월세	-11.7093
▁폭발적	-11.7094
▁가죽	-11.7098
구획	-11.7098
평가단	-11.7099
▁정보기술	-11.7102
▁선보여	-11.7106
▁영문	-11.7107
▁토끼	-11.711
시키며	-11.711
판결	-11.7111
▁도시농업	-11.7113
▁운동장	-11.7114
▁심야	-11.7116
▁유기농	-11.7117
데일리	-11.7121
▁여겨지	-11.7123
폭행	-11.7125
시죠	-11.7127
▁보시면	-11.7132
깜	-11.7133
▁머리카락	-11.7133
▁성접대	-11.7133
▁사운드	-11.7133
▁습득	-11.7133
묘지	-11.7134
▁감싸	-11.7135
ly	-11.7135
방울	-11.7136
▁아닌데	-11.7136
▁고충	-11.7139
아리랑	-11.7141
금융투자	-11.7141
▁저렴하게	-11.7143
부시장	-11.7153
▁자본시장	-11.7155
▁블라디미르	-11.716
FIFA	-11.716
타르	-11.7161
▁사로잡는다	-11.7161
▁마찰	-11.7161
▁카타르	-11.7161
▁이유에서다	-11.7161
금융지주	-11.7163
▁원단	-11.7163
▁공문	-11.7163
▁타깃	-11.7164
▁발음	-11.7167
▁향기	-11.7171
▁키울	-11.7174
▁향수	-11.7174
▁비대위	-11.7175
▁고치	-11.7178
▁제공되는	-11.7185
되더라도	-11.7186
펫	-11.7187
▁비주얼	-11.7187
▁압류	-11.7188
ex	-11.7188
▁사설	-11.7189
▁택시기사	-11.7189
▁탄압	-11.7192
▁첨부된	-11.7193
모집	-11.7194
▁시작했습니다	-11.7194
▁남학생	-11.7195
▁직종	-11.7197
▁나왔습니다	-11.7205
▁입안	-11.7206
▁병역거부	-11.7214
ight	-11.7214
▁클릭	-11.7215
▁노동시장	-11.7217
mo	-11.7217
▁파산	-11.7219
▁설탕	-11.7219
▁가속	-11.7221
▁요구된다	-11.7221
▁아이스	-11.7224
▁신한금융	-11.7226
▁다양해	-11.723
▁포함되지	-11.7234
▁납부하여야	-11.7236
▁패소	-11.7236
LG	-11.7238
뚱	-11.7241
▁달콤한	-11.7241
홈런	-11.7241
▁있으니까	-11.7242
▁DNA	-11.7242
▁잡힌	-11.7245
▁선순환	-11.7246
▁찾아야	-11.7247
▁십자가	-11.7247
▁차가운	-11.7248
▁돕는다	-11.7251
▁바로잡	-11.7253
동아리	-11.7255
▁놓치	-11.7257
▁어려웠	-11.7261
▁제외하면	-11.7261
▁나토	-11.7261
▁보니까	-11.7262
붉	-11.7265
▁CD	-11.7266
▁밝혔지만	-11.7268
▁콘퍼런스	-11.7268
▁형평성	-11.7268
▁외무성	-11.7268
▁학식과	-11.7268
▁대선후보	-11.7269
▁열흘	-11.7272
KO	-11.7275
▁정직	-11.7277
▁호전	-11.7277
겠죠	-11.7278
▁선거법	-11.7279
연설	-11.7282
▁단일팀	-11.7284
▁지었다	-11.7286
▁학생부	-11.7287
▁공헌	-11.7288
메이커	-11.7293
▁갖기	-11.7293
▁무소속	-11.7295
▁조양호	-11.7295
▁다양하고	-11.7296
▁재취업	-11.73
FT	-11.73
민주주의	-11.7301
▁연예인들	-11.7301
가운데	-11.7302
책임관	-11.7306
▁풍성한	-11.7309
▁갔었	-11.7313
메이트	-11.7314
▁상습	-11.7315
▁후보들	-11.7321
▁무샤라프	-11.7323
▁기쁘다	-11.7323
▁기성용	-11.7323
▁래퍼	-11.7324
▁불법촬영	-11.7324
▁첩보	-11.7325
▁리뷰	-11.7326
▁떠오르고	-11.7332
교환	-11.7335
▁심문	-11.7342
▁공개돼	-11.7346
▁등장한다	-11.7346
▁먹으러	-11.735
팁	-11.735
▁식중독	-11.735
▁형성된	-11.7358
▁기내	-11.7371
▁초대형	-11.7373
▁쌍용차	-11.7378
▁커지자	-11.7378
▁가까	-11.7378
▁스테이크	-11.7378
▁라벨	-11.7379
▁지휘자	-11.738
버릴	-11.7384
▁네팔	-11.7386
응급의료	-11.7391
▁이용하면	-11.7393
▁진상	-11.7394
▁모욕	-11.7394
▁부산지역	-11.74
▁걸어서	-11.7401
옵니다	-11.7402
▁권고했다	-11.7403
▁도래	-11.7403
▁선정한다	-11.7404
숍	-11.7405
▁아쉬워	-11.7405
▁안타깝게	-11.7405
엎	-11.7405
▁기다릴	-11.7405
▁사무국장	-11.7407
▁한잔	-11.7407
▁힘쓰	-11.7407
▁기울이고	-11.741
▁입장권	-11.7412
▁맞습니다	-11.7414
세븐	-11.7414
▁고마워요	-11.7415
▁단계적으로	-11.7415
▁야근	-11.7419
▁가져왔	-11.7421
셀러	-11.7424
▁확률	-11.7424
국제영화제	-11.7427
▁인정하지	-11.7427
▁어울리	-11.7428
▁언론들은	-11.7428
뮤	-11.7429
▁상공	-11.743
▁조종	-11.743
▁포용	-11.7432
쥬	-11.7433
▁증거인멸	-11.7433
▁깎아	-11.7433
▁퍼레이드	-11.7433
▁일었다	-11.7434
▁느껴진다	-11.7434
▁수강생	-11.7435
▁라돈	-11.7436
▁판결했다	-11.7436
▁피터	-11.7438
▁문턱	-11.7439
부르크	-11.7439
▁앉아서	-11.7445
▁듣지	-11.7445
가능성	-11.7445
▁같았다	-11.7447
▁가옥	-11.7447
자문단	-11.7447
▁낫다	-11.745
▁경품	-11.745
▁안착	-11.7456
▁적법	-11.7457
▁연방준비제도	-11.746
▁새겨진	-11.746
▁뭐라고	-11.7462
▁강점기	-11.7463
▁특이한	-11.7465
▁비결	-11.7469
▁상임위원회	-11.7472
▁호황	-11.7472
▁도시락	-11.7472
▁담당부서	-11.7473
▁지친	-11.7474
텍스	-11.7477
▁주장하며	-11.7481
▁천재	-11.7482
지속가능	-11.7483
▁키워드	-11.7486
▁여름방학	-11.7488
▁동일하게	-11.7488
▁권한대행	-11.7489
▁무더기	-11.7489
▁공습	-11.749
자문위원회	-11.7494
▁사측	-11.7499
▁재건	-11.7501
건전성	-11.7503
▁괴롭	-11.7505
▁증가하면서	-11.7505
▁들어보	-11.7505
▁따지	-11.7506
갔던	-11.7507
▁엔지니어	-11.7508
▁상황이라	-11.7512
▁마술	-11.7515
▁유튜버	-11.7516
겔	-11.7516
▁아마추어	-11.7516
▁궁극적	-11.7516
▁캘리포니아주	-11.7517
▁언덕	-11.7517
리움	-11.7517
▁빠져나가	-11.752
▁인접한	-11.7521
▁모르겠지만	-11.7522
▁협치	-11.7523
▁제작사	-11.7523
쓰레기	-11.7529
▁보이면서	-11.7529
▁일간지	-11.753
▁진정성	-11.7533
▁좋아지	-11.7533
▁부적절	-11.7534
▁민심	-11.7535
였으나	-11.7536
▁될까	-11.7539
KT	-11.754
쑥	-11.7544
▁홍영표	-11.7544
▁내세운	-11.7544
▁개개인	-11.7545
▁침몰	-11.7547
▁차종	-11.7547
▁밝혀지지	-11.7548
▁유대인	-11.7554
▁뒤쪽	-11.7555
회말	-11.7557
솔릭	-11.7559
▁존재하지	-11.756
II	-11.756
▁후원금	-11.7562
▁자율주행차	-11.7563
▁자궁	-11.7563
▁판사들	-11.7563
해드릴게요	-11.7564
▁전통문화	-11.7564
시키지	-11.7567
▁요트	-11.7567
TI	-11.7568
닉스	-11.7569
▁나뉘어	-11.7572
▁YG	-11.7573
▁기념촬영	-11.7573
▁옹호	-11.7573
▁지속해서	-11.7575
펌프	-11.7578
▁기내식	-11.759
모토	-11.7593
인플루엔자	-11.76
▁햇빛	-11.76
article	-11.7601
▁받아들이지	-11.7606
▁사실관계	-11.7606
▁연동형	-11.7608
▁화물차	-11.761
수도권	-11.7619
▁함량	-11.7623
HD	-11.7626
▁끝났다	-11.7628
▁미추홀구	-11.7628
젓	-11.7628
▁밝히면서	-11.7628
▁겁니까	-11.7628
▁개학	-11.7629
▁김병준	-11.7632
▁보내드리겠습니다	-11.7632
땅	-11.7633
▁신재생에너지	-11.7635
▁보았다	-11.7641
기자단	-11.7641
▁맨유	-11.7642
▁저질렀다	-11.7657
▁끌어올리	-11.7657
▁교민들	-11.7657
▁접경지역	-11.7657
▁부적합	-11.7657
▁꼬집었	-11.7657
해왔던	-11.7658
▁잔액	-11.7658
▁있으세요	-11.766
스런	-11.766
▁불균형	-11.766
▁고도화	-11.7662
리브	-11.7663
▁외관	-11.7664
▁덧붙	-11.7664
▁없네요	-11.7666
▁배경에는	-11.7669
▁소액	-11.7676
▁토대	-11.768
▁구미시	-11.7681
▁실업률	-11.7684
▁우버	-11.7684
▁슈퍼주니어	-11.7685
▁남녀노소	-11.7685
▁전라북도	-11.7685
▁농성	-11.7685
▁학교생활	-11.7686
▁에스케이	-11.7686
▁투명한	-11.7686
▁파란색	-11.7687
벤츠	-11.7688
▁사막	-11.7688
▁산하기관	-11.7689
▁불합리	-11.7692
▁준비해야	-11.7692
▁남았다	-11.7693
▁한국노총	-11.7694
▁명확하게	-11.7696
▁오세요	-11.77
월말까지	-11.7702
▁정점	-11.7702
▁자영업	-11.7704
왜	-11.7706
▁감탄	-11.7706
박근혜	-11.7706
▁있길	-11.7708
▁서브	-11.771
▁사람이에요	-11.7711
PE	-11.7713
▁홍준표	-11.7713
▁업로드	-11.7713
▁고취	-11.7714
▁균열	-11.7714
품질	-11.7714
▁확정되면	-11.7717
했듯	-11.7718
▁중요하지만	-11.7721
▁남성들	-11.7728
▁자막	-11.7728
▁담합	-11.7731
▁몰려들	-11.7732
▁이뤄져	-11.7732
▁노란	-11.7737
쌈	-11.7742
▁뚜껑	-11.7742
▁훌쩍	-11.7742
꽁	-11.7742
딛	-11.7742
▁긍정	-11.7742
▁퇴임	-11.7744
▁퇴진	-11.7744
됐으면	-11.7746
▁케미	-11.7747
▁파트	-11.7753
▁토종	-11.7755
▁커서	-11.7758
▁응급실	-11.7763
▁장거리	-11.7764
▁농식품부	-11.7768
자전거	-11.7769
핍	-11.777
▁엿볼	-11.777
▁정도였다	-11.7772
왔으나	-11.7772
▁교단	-11.7773
▁의원실	-11.7773
▁산사태	-11.7774
▁환기	-11.7775
▁방출	-11.7775
▁냉각	-11.7777
칼리	-11.7777
▁창의적인	-11.7778
▁괜찮아요	-11.7779
▁고온	-11.7781
▁단일화	-11.7782
▁도교육청	-11.7782
▁불과했다	-11.7783
패스	-11.7783
IF	-11.7787
연습	-11.7788
돕	-11.7788
▁모였다	-11.7792
▁상표	-11.7793
▁기준치	-11.7797
▁충청남도	-11.7799
▁낭독	-11.7799
▁의구심	-11.78
▁견디	-11.7801
▁박정희	-11.7802
▁구워	-11.7804
▁스티브	-11.7805
▁귀농	-11.7806
공격	-11.7807
휴업	-11.7807
▁아닌가요	-11.7811
▁알려줘	-11.7814
▁말았다	-11.7814
▁포착됐다	-11.7815
▁나오자	-11.7819
▁싶었다	-11.782
▁남아공	-11.7821
지역본부	-11.7823
경력	-11.7824
▁다녀오	-11.7827
▁이르렀다	-11.7828
▁콘크리트	-11.7828
▁털어놨다	-11.7828
▁팬미팅	-11.7828
뵙	-11.7828
엣	-11.7828
▁슬로건	-11.7828
했더니	-11.783
▁다친	-11.783
▁군부대	-11.7832
▁성금	-11.7833
▁가져야	-11.7834
있게	-11.7838
▁안녕	-11.7839
to	-11.784
▁마련해야	-11.7842
▁촉진하기	-11.7842
▁기반시설	-11.7843
▁말했어요	-11.7844
▁사귀	-11.7853
▁우수상	-11.7855
▁받으면서	-11.7856
베트남	-11.7856
▁최첨단	-11.7857
덥	-11.7857
▁무혐의	-11.7857
▁블랙리스트	-11.7857
▁계엄령	-11.7858
▁실전	-11.7866
▁넘어선	-11.7868
▁양심	-11.7871
SF	-11.7875
▁길어지	-11.7876
▁수소차	-11.7878
MW	-11.7883
▁부속	-11.7888
▁이루기	-11.7889
▁가져온	-11.7892
▁해결해야	-11.7897
▁자생	-11.7898
▁뜻한다	-11.79
▁자연환경	-11.7901
▁알아요	-11.7901
▁청년층	-11.7903
▁경기도교육청	-11.7909
▁을지로	-11.7909
▁보유자	-11.791
▁신체적	-11.7911
▁빈소	-11.7911
▁깨어	-11.7912
▁모레	-11.7913
▁월스트리트저널	-11.7914
딕	-11.7914
얄	-11.7914
선수권대회	-11.7914
▁개표	-11.7916
▁궤도	-11.7918
▁플레이어	-11.792
▁먹어야	-11.7921
▁모르지만	-11.7925
▁모아지	-11.7925
▁계류	-11.7932
▁풍성	-11.7936
▁느끼지	-11.7938
▁구속됐다	-11.7943
냄	-11.7943
▁명예훼손	-11.7944
밋	-11.7944
▁되풀이	-11.7944
▁보육교사	-11.7945
▁세부사항	-11.7945
▁노란색	-11.7945
▁인정될	-11.7947
주민들	-11.795
▁불펜	-11.7953
▁돌풍	-11.7954
ant	-11.7956
if	-11.7956
▁이용료	-11.7958
▁교훈	-11.7961
▁지원하겠다	-11.7963
▁술집	-11.7964
▁농약	-11.7964
▁확실하게	-11.7966
▁대리점	-11.7967
▁의정부시	-11.7971
▁넣었다	-11.7973
▁상파울루	-11.7973
▁셔틀버스	-11.7973
▁갯벌	-11.7973
#	-11.7973
▁귀찮	-11.7974
▁그린벨트	-11.7974
▁펼쳐진	-11.7975
쳤습니다	-11.798
노총	-11.798
▁요약	-11.7982
▁외교적	-11.7984
MB	-11.7984
▁받던	-11.7986
▁마련한다	-11.7986
하곤	-11.7992
▁익히	-11.7994
▁이의신청	-11.7996
▁동래	-11.7996
솜	-11.7999
어머니	-11.8001
▁가난	-11.8002
잤	-11.8002
선거관리위원회	-11.8002
▁왔어	-11.8002
▁밝히기	-11.8003
▁낡은	-11.8004
볶음	-11.8005
▁육상	-11.8005
▁다녀온	-11.8007
신용보증	-11.801
지식재산	-11.801
매출	-11.801
▁미생물	-11.8011
▁버리고	-11.8013
▁거둘	-11.8014
되나요	-11.8015
▁심각하게	-11.8028
▁잠들	-11.8028
협회장	-11.8029
▁동물들	-11.8029
▁포트폴리오	-11.8031
▁플레이오프	-11.8031
▁스트리밍	-11.8031
▁숙련	-11.8032
▁퇴출	-11.8032
▁경남지사	-11.8033
▁탐구	-11.8033
▁지켜야	-11.8038
▁받았으며	-11.8038
▁그것들	-11.8038
▁이룬다	-11.8039
정보시스템	-11.8041
▁재계약	-11.8042
▁늘릴	-11.8042
▁기류	-11.8055
ell	-11.8055
▁이끌어내	-11.8056
냅니다	-11.8058
하십시오	-11.8059
▁됩니까	-11.8061
찌감치	-11.8061
▁튼튼	-11.8061
구조대	-11.8061
▁설렘	-11.8061
▁골문	-11.8062
▁승객들	-11.8062
▁시흥시	-11.8063
▁모험	-11.8068
소상공인	-11.8069
▁사용량	-11.8071
▁믿지	-11.8073
▁친분	-11.808
▁논의하기	-11.8082
▁나서기	-11.8084
▁오르면서	-11.8085
▁노예	-11.8086
▁있음	-11.8087
▁해역	-11.8089
▁체포된	-11.8089
▁만듭니다	-11.809
랴	-11.809
▁오염물질	-11.8091
복지재단	-11.8092
▁보내줄	-11.8093
꾸미	-11.8101
청와대	-11.8107
깎	-11.8119
▁국가인권위원회	-11.812
▁토마토	-11.812
▁포지션	-11.812
▁공산당	-11.812
▁여성가족부	-11.812
▁핵실험	-11.8121
▁알았다	-11.8122
▁배출량	-11.8123
▁거듭나	-11.8128
▁노인복지	-11.813
▁사본	-11.8132
▁후퇴	-11.8133
공식적인	-11.8133
하나은행	-11.814
▁간부들	-11.8141
▁가치관	-11.8144
▁방사선	-11.815
▁그래픽	-11.815
▁그러니까	-11.8151
태세	-11.8155
ag	-11.8156
돌봄	-11.8157
▁국민들에게	-11.8158
▁ABC	-11.8159
▁취임식	-11.8159
미세먼지	-11.8161
치킨	-11.8165
▁라이스	-11.8171
▁강경화	-11.8171
▁발족	-11.8172
▁무엇인가	-11.8173
▁위력	-11.8175
영장실질심사	-11.8179
▁해양수산부	-11.8179
▁맞대결	-11.8179
▁훈훈	-11.818
▁고종	-11.8188
으론	-11.8191
▁거래량	-11.8194
▁지킬	-11.8198
▁보살	-11.8199
▁다가왔	-11.82
▁게다가	-11.82
▁누구에게	-11.8203
찮	-11.8208
▁쓰러져	-11.8209
ance	-11.8211
커머스	-11.8212
▁총력을	-11.8214
▁아우르	-11.8215
▁회의실	-11.8215
▁신뢰성	-11.8216
ice	-11.8218
▁들어왔	-11.8218
▁필립	-11.8219
▁인물들	-11.822
▁견고	-11.8223
▁도모하기	-11.8223
▁보이는데	-11.8225
▁끌어내	-11.8227
▁추워	-11.8232
대책회의	-11.8233
해주길	-11.8233
▁마운드	-11.8239
▁선제골	-11.8239
▁천주교	-11.824
▁소녀시대	-11.8241
▁과학적	-11.8242
▁밀착	-11.8248
갈등	-11.8249
CN	-11.8252
▁지목된	-11.8253
기독교	-11.8256
멀	-11.8257
▁울려	-11.826
▁생존자	-11.8265
툰	-11.8269
근로기준법	-11.8269
▁타임즈	-11.8269
▁알고리즘	-11.8271
▁원활히	-11.8271
▁가로막	-11.8273
▁계양구	-11.8274
▁장자연	-11.8276
종합지원센터	-11.8276
▁강릉시	-11.8278
▁주택시장	-11.8278
▁반송	-11.8278
▁일으켰다	-11.8278
▁독감	-11.8278
▁생각했어요	-11.828
▁시작했고	-11.828
▁시민사회	-11.828
▁사업계획서	-11.8284
지주회사	-11.8285
▁접수됐다	-11.8289
춥	-11.8299
▁기대해본다	-11.8299
▁북한이탈주민	-11.8299
▁스리랑카	-11.8299
▁전두환	-11.8299
▁물어봐	-11.8299
▁건설공사	-11.83
▁원동력	-11.83
▁벤치	-11.8301
시네마	-11.8301
▁관할구역	-11.8302
▁개막전	-11.8304
▁독보적	-11.8306
▁파병	-11.831
▁가평군	-11.831
해줘서	-11.8312
▁공범	-11.8312
겠느냐	-11.8317
▁생겨나	-11.8319
▁느껴지	-11.8325
▁탈바꿈	-11.8329
▁갖췄다	-11.8329
▁블랙핑크	-11.8329
▁신입사원	-11.8329
▁순식간	-11.8329
▁겹쳐	-11.8329
▁명백한	-11.8329
주셨으면	-11.833
▁경기도시공사	-11.833
▁드라이브	-11.833
평론가	-11.8332
▁한국전력	-11.8341
하였던	-11.8344
▁노출되	-11.8345
▁높아져	-11.8346
▁연관성	-11.8347
▁경비원	-11.8349
▁파란	-11.8352
▁다이아몬드	-11.836
팟	-11.836
▁아토피	-11.836
▁입법예고	-11.836
▁웨딩	-11.836
▁행안부	-11.836
▁남동생	-11.836
▁멘토링	-11.8361
▁지니고	-11.8362
▁루이스	-11.8362
▁ICO	-11.8362
▁해산물	-11.8365
▁염원	-11.8366
▁예정이어서	-11.8367
의무자	-11.837
one	-11.8371
▁보잉	-11.8373
▁수사기관	-11.8374
▁주머니	-11.8374
▁도착하면	-11.8375
▁결집	-11.8378
▁폭언	-11.8378
▁아파서	-11.8379
윤석	-11.8383
▁테헤란	-11.839
▁휩싸였	-11.839
▁내비쳤다	-11.839
▁주주총회	-11.8391
▁비영리법인	-11.8391
▁여럿	-11.8391
칩니다	-11.8391
▁효능	-11.8394
▁호흡기	-11.8394
▁규제개혁	-11.8396
▁느껴졌	-11.8397
▁참석하여	-11.8397
▁터라	-11.8402
▁전수조사	-11.8405
▁전체회의	-11.8407
▁운임	-11.8408
▁돌아왔	-11.8411
▁돌연	-11.8415
▁이륙	-11.8419
▁예민	-11.842
WSJ	-11.842
▁막바지	-11.8421
▁자아내	-11.8421
▁저축	-11.8423
▁서울시교육청	-11.8425
▁튀어	-11.8425
▁프로필	-11.8428
▁관문	-11.843
▁받았는데	-11.8431
젤리	-11.8433
▁소속공무원	-11.8433
▁독자들	-11.8437
▁몰라요	-11.844
보건복지	-11.8441
▁이승우	-11.8448
▁사물인터넷	-11.8451
▁움직일	-11.8451
▁쇄신	-11.8452
▁방문객들	-11.8454
레이트	-11.8456
있었다	-11.8457
▁적정성	-11.8457
▁조금이라도	-11.8458
▁쉬워	-11.846
▁멋지	-11.8465
RO	-11.8468
▁레이더	-11.8468
품목	-11.8479
▁절망	-11.8479
▁갑작스러운	-11.8482
▁불렀다	-11.8482
▁뿌듯	-11.8482
▁봉쇄	-11.8483
좋	-11.8484
▁레벨	-11.8485
▁식탁	-11.8489
AM	-11.8491
머스	-11.8492
ong	-11.8498
▁여력이	-11.8498
▁마셔	-11.8498
▁조현우	-11.8498
▁보름	-11.85
▁기업인들	-11.8506
▁지하수	-11.851
옴부즈만	-11.8513
▁철저하게	-11.8513
▁실무협상	-11.8515
RE	-11.8516
▁국물	-11.8516
▁돌파했다	-11.8518
장년층	-11.8519
▁교내	-11.8525
바리	-11.8527
▁불거졌다	-11.8527
▁준용	-11.8527
▁생각해보	-11.8537
▁대중들	-11.8538
▁경총	-11.8541
▁바닷가	-11.8543
▁흡입	-11.8544
▁마두로	-11.8544
아카데미	-11.8545
렉트	-11.8545
▁어우러	-11.8548
▁저변	-11.8551
장기적인	-11.8554
▁증선위	-11.8556
▁교감	-11.8556
릭스	-11.8565
▁식감	-11.8567
▁전주시	-11.8567
똥	-11.8574
WHO	-11.8574
▁독거노인	-11.8574
▁징후	-11.8575
▁뽐내	-11.8575
▁운전면허	-11.8575
▁김부선	-11.8575
▁활짝	-11.8575
▁설레	-11.8575
약품	-11.8576
▁기초연금	-11.8576
▁패션쇼	-11.8577
매트	-11.8586
▁점심시간	-11.8589
Co	-11.8591
저런	-11.8593
▁군인들	-11.8599
▁재정지원	-11.8599
▁비빔밥	-11.8605
▁나쁘지	-11.8606
▁집무실	-11.8606
▁압축	-11.8606
▁청문	-11.8608
▁시각장애인	-11.8608
해줍니다	-11.8609
▁예술가들	-11.861
▁그치지	-11.8615
▁노래방	-11.8616
▁단편	-11.862
▁소고기	-11.8621
▁추진하겠다	-11.8631
▁극중	-11.8632
▁페널티	-11.8636
갯	-11.8637
▁국정농단	-11.8637
▁자매결연	-11.8637
▁세련된	-11.8637
▁털어놓	-11.8637
▁페널티킥	-11.8637
▁셔츠	-11.8637
▁노숙인	-11.8637
▁양호한	-11.8638
▁어른들	-11.8638
머신	-11.8638
▁민간기업	-11.8639
▁탈세	-11.864
▁지리적	-11.864
▁집주인	-11.8641
프로젝트	-11.8643
역사적인	-11.8648
▁연구자들	-11.8651
종사자	-11.8655
심포지엄	-11.8668
팍	-11.8668
▁현수막	-11.8668
▁공인중개사	-11.8668
▁종부세	-11.8668
▁해외시장	-11.8668
▁업황	-11.8669
▁경기북부지역	-11.867
▁당뇨병	-11.867
▁않았으나	-11.867
▁발급받	-11.8671
▁억류	-11.8672
▁합법적	-11.8672
음식점	-11.8676
▁보스턴	-11.8677
내륙	-11.8678
통지서	-11.8684
▁맛보	-11.8685
▁자아낸다	-11.8699
▁경력단절	-11.8699
▁차라리	-11.87
▁생체	-11.8701
▁않더라도	-11.8703
▁첫번째	-11.8719
▁목재	-11.8723
▁간섭	-11.8726
▁그래야	-11.8729
▁스파이	-11.873
옴	-11.8731
▁샌드위치	-11.8731
언더파	-11.8731
▁챙긴	-11.8731
▁새만금	-11.8731
▁침략	-11.8731
▁회계처리	-11.8736
▁부가가치	-11.8747
tor	-11.8749
▁아쉽게	-11.875
▁교민	-11.8753
원칙	-11.8758
▁농민들	-11.8761
갤	-11.8762
▁인권침해	-11.8762
▁임진왜란	-11.8762
▁정부서울청사	-11.8762
▁갇혀	-11.8762
▁집중호우	-11.8762
▁생생한	-11.8762
▁허위사실	-11.8763
뜨리	-11.8765
▁어린아이	-11.8766
깔	-11.8774
▁승려	-11.8782
▁친숙	-11.8782
▁윌리엄	-11.8785
사업소	-11.8786
빨	-11.8786
▁놀라게	-11.8787
▁소요될	-11.8787
듭	-11.8791
낚	-11.8793
▁어울려	-11.8794
▁사단법인	-11.8794
▁공매도	-11.8794
▁체크아웃	-11.8795
하든	-11.8795
▁주차요금	-11.8795
▁충분하다	-11.8799
▁모르겠습니다	-11.8801
▁연방정부	-11.8802
아트센터	-11.8803
▁첨가	-11.8807
하자마자	-11.8808
해봐	-11.8812
▁사후관리	-11.8818
▁대화방	-11.8819
▁재무부	-11.882
▁얻어야	-11.8821
▁파스타	-11.8823
▁오르며	-11.8825
▁노르웨이	-11.8826
홉	-11.8826
▁감추지	-11.8826
융복합	-11.8826
▁론칭	-11.8826
▁구멍이	-11.8827
▁연기력	-11.883
▁매립	-11.8832
▁꺾고	-11.8833
되었으나	-11.8837
넥	-11.8838
믹	-11.8839
▁지원계획	-11.8839
▁서민들	-11.8844
생태계	-11.8846
▁위반행위	-11.8851
▁시작되기	-11.8854
블루	-11.8854
our	-11.8855
▁그렇습니다	-11.8857
▁태블릿	-11.8857
▁활주로	-11.8858
▁얼른	-11.8859
▁열리기	-11.886
▁상상력	-11.886
▁좋아한다	-11.8861
복음	-11.8866
▁승격	-11.8866
▁장학생	-11.8879
▁생활체육	-11.8882
▁장례식장	-11.8882
슘	-11.8889
▁자외선	-11.8889
▁뭔지	-11.889
▁살인사건	-11.8891
▁사라져	-11.8891
▁운전기사	-11.8892
▁꿈꾸	-11.8897
▁직거래	-11.8897
▁사회주의	-11.8898
▁전문점	-11.8898
향교	-11.89
▁세워진	-11.8906
븐	-11.8911
롯데	-11.8911
▁사회복지시설	-11.892
▁히어로즈	-11.8921
▁김관영	-11.8922
▁다국적	-11.8922
▁연천군	-11.8922
구치소	-11.8923
▁성수기	-11.8925
▁고기압	-11.8925
▁리비아	-11.8926
▁학점	-11.8932
▁공고하여야	-11.8934
FTA	-11.8945
▁나아갈	-11.8948
▁비슷하다	-11.8951
+	-11.8954
▁성차별	-11.8954
▁호랑이	-11.8955
▁걸렸	-11.8955
▁띄게	-11.8957
▁의욕	-11.8962
▁태안	-11.8964
추진단	-11.8968
▁구분하여	-11.8971
ear	-11.8972
▁기여함	-11.8975
주셨다	-11.8981
▁다짐했다	-11.8985
운영위원회	-11.8985
훔	-11.8986
q	-11.8986
▁날카로운	-11.8986
▁넘겼다	-11.8986
▁높인다	-11.8986
▁폭탄테러	-11.8986
▁트로피	-11.8986
▁전해져	-11.8987
▁있으시면	-11.8987
▁도덕적	-11.8988
▁되었으면	-11.8988
▁손목	-11.8989
▁잔여	-11.899
▁즉석	-11.8991
ET	-11.8992
보건소	-11.8996
EM	-11.8996
▁괜찮습니다	-11.9001
▁쿠키	-11.9003
흑	-11.9009
출판	-11.901
▁주어야	-11.9012
▁불허	-11.9016
그동안	-11.9017
UEFA	-11.9018
▁앞당겨	-11.9018
▁스피드	-11.9019
▁관리주체	-11.9023
▁견학	-11.9024
레이드	-11.9025
▁구성원들	-11.9026
해지자	-11.9029
▁직급	-11.903
RT	-11.9031
▁교육장	-11.9038
▁국감	-11.904
▁하반기부터	-11.904
▁공무원들	-11.9041
오염	-11.9043
▁중부지방	-11.9045
▁단풍	-11.9046
쩍	-11.9047
▁책무	-11.9048
뽀	-11.9051
▁선착순	-11.9051
▁사외이사	-11.9051
▁밝히며	-11.9051
▁여기저기	-11.9051
▁쓰나미	-11.9051
손해보험	-11.9051
▁재무장관	-11.9053
▁던졌다	-11.9055
업체들의	-11.9055
▁창의성	-11.9063
▁만점	-11.9067
▁벗어	-11.9067
해주면	-11.9068
▁알린	-11.9074
ME	-11.9074
블랙	-11.9079
▁기침	-11.9079
▁놓치지	-11.9082
▁이렇듯	-11.9083
▁텐트	-11.9084
▁맞붙	-11.9086
결혼	-11.9087
▁액체	-11.9087
학술대회	-11.9089
▁신년사	-11.9089
IM	-11.9092
▁상무부	-11.9094
▁있긴	-11.9094
▁파열	-11.9101
Fed	-11.9106
▁청량	-11.9109
▁전문기업	-11.9113
▁유혹	-11.9115
▁사르코지	-11.9116
▁현대모비스	-11.9116
▁자존심	-11.9116
▁뿌려	-11.9116
▁견줘	-11.9116
▁남해안	-11.9116
▁어둠	-11.9117
▁객석	-11.9118
▁대출금리	-11.9121
▁감사담당관	-11.9121
▁김정숙	-11.9122
▁낮았	-11.9122
▁다변화	-11.9127
▁확연	-11.9128
해봐야	-11.9137
▁상징적	-11.9138
▁갔을	-11.9141
▁원하시는	-11.9143
▁일으켜	-11.9149
▁카테고리	-11.9149
▁무너진	-11.9149
헬스	-11.915
▁스마트공장	-11.9152
▁급성장	-11.9153
▁스마트시티	-11.9153
▁누구인지	-11.9157
der	-11.9162
▁매몰	-11.9164
▁같았	-11.9165
▁따뜻하게	-11.9167
▁적혀있	-11.917
▁이바지함	-11.9174
▁출원	-11.9175
넨	-11.9179
▁발생했을	-11.9181
▁비무장지대	-11.9182
▁잇따른	-11.9182
낱	-11.9182
▁납득	-11.9182
▁맞벌이	-11.9182
봇	-11.9203
▁차이점	-11.9206
▁똑같	-11.9208
▁유휴	-11.9209
▁테니까	-11.9213
▁대강당에서	-11.9215
▁똑똑	-11.9215
▁비상저감조치	-11.9215
▁카지노	-11.9215
▁진지하게	-11.9215
▁가자지구	-11.9216
▁마을공동체	-11.9219
수목원	-11.9221
▁그중에서도	-11.9222
▁근본적으로	-11.9223
만큼이나	-11.9227
고용노동	-11.923
▁절실하다	-11.9244
▁식품의약품안전처	-11.9248
스튜어드십	-11.9248
▁골고루	-11.9248
▁무서운	-11.9248
▁강조하며	-11.9248
휴게소	-11.9249
▁상생협력	-11.9251
▁주민참여	-11.9253
▁뒀다	-11.9255
▁기자들에게	-11.9256
▁받아왔다	-11.9263
▁짜증	-11.9269
▁어쩌	-11.9272
▁유리하다	-11.9275
보좌관	-11.9275
▁출현	-11.9278
즙	-11.9281
▁최고기온	-11.9281
▁머무는	-11.9281
▁사업시행자	-11.9281
▁제로페이	-11.9282
▁테슬라	-11.9282
모바일	-11.9285
▁심해지	-11.9286
▁당뇨	-11.9286
▁재판관	-11.9288
▁농식품	-11.9288
▁장병들	-11.9289
했었는데	-11.929
토론회	-11.9291
▁탐지	-11.9293
▁밤새	-11.9293
▁깨달았	-11.9295
▁입주기업	-11.9297
▁커져	-11.9298
▁것만으로도	-11.9298
▁학위	-11.93
▁찰스	-11.9301
▁주문했는데	-11.9302
▁늦었	-11.9304
지방재정법	-11.9305
▁여긴	-11.9308
하셨나요	-11.9313
▁두께	-11.9313
앵	-11.9314
▁공소시효	-11.9314
▁하이브리드	-11.9314
뿔	-11.9314
▁르노삼성	-11.9314
▁마크롱	-11.9315
▁침착	-11.9319
▁공공부문	-11.932
정책과장	-11.9321
▁나타낸	-11.9322
보고회	-11.9322
▁낳은	-11.9322
▁소품	-11.9324
▁무겁	-11.9324
밸	-11.9326
▁그다지	-11.9332
TM	-11.9341
▁인정받아	-11.9343
앗	-11.9347
▁즐거워	-11.9348
왓	-11.9348
▁촉촉	-11.9348
▁케빈	-11.9348
▁합창	-11.9354
쇼핑몰	-11.9356
MP	-11.936
하십니까	-11.9361
▁둘러싸	-11.9362
▁가로수	-11.9363
▁지나친	-11.9363
▁벌어졌	-11.9368
▁어촌	-11.9374
▁육아휴직	-11.9381
▁정보통신기술	-11.9381
항공우주	-11.9382
▁월평균	-11.9382
▁밝힐	-11.9385
바이러스	-11.939
▁독자적	-11.9399
▁돌아간	-11.941
테크노밸리	-11.9415
몹	-11.9415
▁터뜨렸	-11.9415
▁안희정	-11.9415
▁시아파	-11.9416
▁카톡	-11.9419
▁재난안전	-11.9421
▁휴가철	-11.9422
▁롯데그룹	-11.9424
▁바라본	-11.9425
▁있네요	-11.9426
▁기점으로	-11.9429
▁발견되지	-11.9433
짠	-11.9449
▁업무추진비	-11.9449
화력발전소	-11.9449
▁만끽	-11.9449
▁스펙	-11.9451
으리라	-11.9451
▁깊다	-11.9453
▁고맙습니다	-11.9454
▁벌어질	-11.9456
▁삼척	-11.946
▁원한다면	-11.9463
불편	-11.9464
륙	-11.9465
돼있다	-11.9472
▁교육훈련	-11.9474
▁감량	-11.9475
양심적	-11.9478
▁냉전	-11.9479
솟	-11.9481
▁가계부채	-11.9483
▁문자메시지	-11.9483
▁주민자치회	-11.9483
▁위함	-11.9483
▁트레이드	-11.9483
▁전문지식	-11.9484
농어업	-11.9485
▁고품질	-11.9486
▁업무수행	-11.9487
▁퇴사	-11.9493
하셨습니다	-11.9497
▁설날	-11.9499
ub	-11.9501
▁진료비	-11.9504
ob	-11.9504
청구권	-11.9507
▁장례식	-11.9513
연구센터	-11.9515
렘	-11.9516
▁국내총생산	-11.9517
씹	-11.9517
▁어차피	-11.9517
데스크	-11.9517
▁신용등급	-11.9519
▁사회보장	-11.9524
▁코팅	-11.9525
▁색채	-11.9527
▁평가결과	-11.953
뿐이에요	-11.9533
▁감사결과	-11.9547
볶	-11.9547
펙	-11.9549
▁잡혔다	-11.9551
귄	-11.9551
하셔도	-11.9552
▁유통기한	-11.9552
▁건강증진	-11.9553
사소한	-11.9554
▁살펴볼	-11.9555
▁리포트	-11.9555
▁갑작스	-11.9559
▁심각하다	-11.9559
▁정치자금	-11.956
▁태워	-11.9569
▁장애물	-11.9572
▁검경	-11.9582
▁외무장관	-11.9585
▁인터넷전문은행	-11.9585
솥	-11.9585
팥	-11.9585
▁헨리	-11.9586
▁깊었	-11.9586
▁다주택자	-11.9587
Pro	-11.9588
▁벗어난	-11.9588
▁한양대	-11.959
▁양주시	-11.9591
▁어찌	-11.9593
깨	-11.9596
▁고객들에게	-11.9603
금융그룹	-11.9605
age	-11.9608
▁집착	-11.9612
뱅	-11.9616
▁불확실	-11.9617
하십니다	-11.9618
▁손꼽	-11.962
▁다양화	-11.962
▁공정거래법	-11.9621
▁닮은	-11.9622
영등포	-11.9625
▁내구성	-11.9625
▁일반인들	-11.9629
WTO	-11.9631
▁받거나	-11.9631
▁공동대표	-11.9633
패스트	-11.9641
스터디	-11.9644
▁오리지널	-11.9654
▁매트리스	-11.9654
▁간단하게	-11.9654
▁엑소	-11.9654
▁탄탄	-11.9654
▁게스트하우스	-11.9654
▁안락사	-11.9655
▁엿보	-11.9655
▁슈퍼마켓	-11.9655
▁라이벌	-11.9656
▁가정폭력	-11.9656
재판거래	-11.9658
▁골목길	-11.9661
▁예상됩니다	-11.9668
go	-11.9678
▁납세자보호관	-11.9688
▁멜로디	-11.9688
▁워싱턴포스트	-11.9688
▁폴더블폰	-11.9688
캄	-11.9688
▁기득권	-11.9688
▁온종일	-11.9689
▁좋을까요	-11.9692
▁받아들였	-11.9693
ark	-11.9693
▁생방송	-11.9696
스럽고	-11.9696
▁풍물	-11.9697
▁말해주	-11.97
▁국책	-11.9704
사용료	-11.9706
▁원칙적으로	-11.9714
학생들	-11.9716
▁태운	-11.9717
▁전형적	-11.972
되므로	-11.972
▁세웠	-11.9721
bo	-11.9723
▁부드럽게	-11.9723
테크노파크	-11.9723
강남스타일	-11.9723
▁사라질	-11.9723
▁탐색	-11.9724
▁닛산	-11.9724
▁초상화	-11.9724
▁칼럼	-11.9725
▁무너졌	-11.9726
▁검찰총장	-11.9727
▁구하라	-11.9735
▁앞쪽	-11.9736
하수도	-11.974
농림	-11.9748
▁정치인들	-11.9753
▁버지니아	-11.9758
맷	-11.9758
▁중기센터	-11.9762
트레이닝	-11.9763
ood	-11.9765
▁출석위원	-11.9768
재난관리	-11.977
▁설득력	-11.9775
닭	-11.9783
po	-11.9792
▁대우조선해양	-11.9793
▁렌터카	-11.9793
▁횡단보도	-11.9793
▁인종차별	-11.9793
▁듭니다	-11.9793
▁간단히	-11.9793
NASA	-11.9793
▁김명수	-11.9794
▁뜯어	-11.9795
▁찢어	-11.9795
▁내무부	-11.9796
공동선언	-11.9797
▁판소리	-11.9798
▁개소식	-11.9801
▁존슨	-11.9802
▁취직	-11.9804
되려면	-11.9806
입찰	-11.9806
▁노동력	-11.9807
으시면	-11.9811
▁국가대표팀	-11.9812
▁이자율	-11.9815
▁미용실	-11.9819
▁비례대표제	-11.9819
엑	-11.9824
▁견적서	-11.9825
▁탈모	-11.9827
▁기쁩니다	-11.9828
▁남북경협	-11.9828
▁리처드	-11.9828
▁무너져	-11.9828
▁좁혀	-11.9828
▁온난화	-11.9828
전염병	-11.9829
클리닉	-11.9829
▁수익금	-11.9832
▁평화체제	-11.9833
▁소방공무원	-11.9833
▁어려웠던	-11.9834
유플러스	-11.9846
▁올라갈	-11.9854
오로지	-11.9856
▁현행법	-11.9858
▁집필	-11.9858
▁새겨져	-11.9863
똘	-11.9863
인터내셔널	-11.9863
▁첨예	-11.9863
▁로그인	-11.9864
▁유소년	-11.9864
▁협동	-11.9866
▁유일하다	-11.9868
▁근황	-11.9869
넥스	-11.9869
▁품위	-11.9873
IPO	-11.9881
SOC	-11.9888
▁대국민	-11.9889
▁구의원	-11.989
▁노리는	-11.9893
프랑스	-11.9897
▁깨달	-11.9897
줍	-11.9898
▁엉덩이	-11.9899
귤	-11.9899
▁잃어버린	-11.9899
▁카리스마	-11.9899
▁크리에이터	-11.9899
▁트와이스	-11.9899
흩	-11.9899
▁디테일	-11.9899
▁큽니	-11.9899
만들기	-11.99
▁비로소	-11.9901
ak	-11.9901
▁지방자치	-11.9902
▁믿었	-11.993
▁팀원들	-11.993
▁당신들	-11.9931
챙	-11.9931
▁나섰지만	-11.9934
씌	-11.9934
▁흐른	-11.9934
▁DJ	-11.9938
▁위탁받은	-11.9941
▁바뀌었	-11.9947
중개업	-11.9957
▁김지사	-11.9958
▁부흥	-11.996
체험관	-11.9961
▁돌려받	-11.9963
▁경합	-11.9964
▁아시안	-11.9969
▁시가총액	-11.997
획기적으로	-11.997
▁레전드	-11.997
▁자연재해	-11.997
▁고충민원	-11.997
▁다문화가정	-11.997
공정거래	-11.9979
NBA	-11.9983
▁거론되고	-11.9986
▁영농	-11.9986
▁마음속	-11.9988
BI	-11.9989
▁불고기	-11.9989
▁입술	-11.9991
▁체코	-12.0001
▁청결	-12.0001
▁단계별	-12.0004
▁CGV	-12.0005
▁액세서리	-12.0005
▁준결승	-12.0005
첸	-12.0005
▁사령탑	-12.0005
▁허리케인	-12.0005
▁파격적인	-12.0005
▁수돗물	-12.0005
▁연예계	-12.0005
▁친인척	-12.0005
▁무서워	-12.0005
▁의정활동	-12.0006
▁신청인에게	-12.0006
▁검출됐다	-12.0008
▁회상	-12.0012
만세운동	-12.0023
반응	-12.0025
팸	-12.0041
▁얼어붙	-12.0041
▁크로아티아	-12.0041
뺀	-12.0041
썹	-12.0041
▁가깝다	-12.0041
▁지지부진	-12.0041
▁탈원전	-12.0041
▁가급적	-12.0042
▁무장세력	-12.0042
▁씨앗	-12.0042
▁사라졌	-12.0043
▁중간고사	-12.0043
▁감안하여	-12.005
▁많았지만	-12.0051
▁연꽃	-12.0056
▁야후	-12.0059
제조업	-12.0066
▁펼쳤	-12.0069
▁관세청	-12.0072
뜸	-12.0077
리바운드	-12.0077
▁음란물	-12.0077
▁내세워	-12.0077
▁상여금	-12.0078
▁VIP	-12.0078
▁착안	-12.0079
▁직무수행	-12.0079
▁대중음악	-12.008
▁속옷	-12.008
딱딱	-12.0081
▁이력서	-12.0082
덜	-12.0084
모니터	-12.0084
만원씩	-12.0085
▁없을까요	-12.0085
됐었다	-12.0088
▁천막	-12.0093
[...]
