<pad>	0
<unk>	0
<s>	0
</s>	0
<mask>	0
<0x00>	0
<0x01>	0
<0x02>	0
<0x03>	0
<0x04>	0
<0x05>	0
<0x06>	0
<0x07>	0
<0x08>	0
<0x09>	0
<0x0A>	0
<0x0B>	0
<0x0C>	0
<0x0D>	0
<0x0E>	0
<0x0F>	0
<0x10>	0
<0x11>	0
<0x12>	0
<0x13>	0
<0x14>	0
<0x15>	0
<0x16>	0
<0x17>	0
<0x18>	0
<0x19>	0
<0x1A>	0
<0x1B>	0
<0x1C>	0
<0x1D>	0
<0x1E>	0
<0x1F>	0
<0x20>	0
<0x21>	0
<0x22>	0
<0x23>	0
<0x24>	0
<0x25>	0
<0x26>	0
<0x27>	0
<0x28>	0
<0x29>	0
<0x2A>	0
<0x2B>	0
<0x2C>	0
<0x2D>	0
<0x2E>	0
<0x2F>	0
<0x30>	0
<0x31>	0
<0x32>	0
<0x33>	0
<0x34>	0
<0x35>	0
<0x36>	0
<0x37>	0
<0x38>	0
<0x39>	0
<0x3A>	0
<0x3B>	0
<0x3C>	0
<0x3D>	0
<0x3E>	0
<0x3F>	0
<0x40>	0
<0x41>	0
<0x42>	0
<0x43>	0
<0x44>	0
<0x45>	0
<0x46>	0
<0x47>	0
<0x48>	0
<0x49>	0
<0x4A>	0
<0x4B>	0
<0x4C>	0
<0x4D>	0
<0x4E>	0
<0x4F>	0
<0x50>	0
<0x51>	0
<0x52>	0
<0x53>	0
<0x54>	0
<0x55>	0
<0x56>	0
<0x57>	0
<0x58>	0
<0x59>	0
<0x5A>	0
<0x5B>	0
<0x5C>	0
<0x5D>	0
<0x5E>	0
<0x5F>	0
<0x60>	0
<0x61>	0
<0x62>	0
<0x63>	0
<0x64>	0
<0x65>	0
<0x66>	0
<0x67>	0
<0x68>	0
<0x69>	0
<0x6A>	0
<0x6B>	0
<0x6C>	0
<0x6D>	0
<0x6E>	0
<0x6F>	0
<0x70>	0
<0x71>	0
<0x72>	0
<0x73>	0
<0x74>	0
<0x75>	0
<0x76>	0
<0x77>	0
<0x78>	0
<0x79>	0
<0x7A>	0
<0x7B>	0
<0x7C>	0
<0x7D>	0
<0x7E>	0
<0x7F>	0
<0x80>	0
<0x81>	0
<0x82>	0
<0x83>	0
<0x84>	0
<0x85>	0
<0x86>	0
<0x87>	0
<0x88>	0
<0x89>	0
<0x8A>	0
<0x8B>	0
<0x8C>	0
<0x8D>	0
<0x8E>	0
<0x8F>	0
<0x90>	0
<0x91>	0
<0x92>	0
<0x93>	0
<0x94>	0
<0x95>	0
<0x96>	0
<0x97>	0
<0x98>	0
<0x99>	0
<0x9A>	0
<0x9B>	0
<0x9C>	0
<0x9D>	0
<0x9E>	0
<0x9F>	0
<0xA0>	0
<0xA1>	0
<0xA2>	0
<0xA3>	0
<0xA4>	0
<0xA5>	0
<0xA6>	0
<0xA7>	0
<0xA8>	0
<0xA9>	0
<0xAA>	0
<0xAB>	0
<0xAC>	0
<0xAD>	0
<0xAE>	0
<0xAF>	0
<0xB0>	0
<0xB1>	0
<0xB2>	0
<0xB3>	0
<0xB4>	0
<0xB5>	0
<0xB6>	0
<0xB7>	0
<0xB8>	0
<0xB9>	0
<0xBA>	0
<0xBB>	0
<0xBC>	0
<0xBD>	0
<0xBE>	0
<0xBF>	0
<0xC0>	0
<0xC1>	0
<0xC2>	0
<0xC3>	0
<0xC4>	0
<0xC5>	0
<0xC6>	0
<0xC7>	0
<0xC8>	0
<0xC9>	0
<0xCA>	0
<0xCB>	0
<0xCC>	0
<0xCD>	0
<0xCE>	0
<0xCF>	0
<0xD0>	0
<0xD1>	0
<0xD2>	0
<0xD3>	0
<0xD4>	0
<0xD5>	0
<0xD6>	0
<0xD7>	0
<0xD8>	0
<0xD9>	0
<0xDA>	0
<0xDB>	0
<0xDC>	0
<0xDD>	0
<0xDE>	0
<0xDF>	0
<0xE0>	0
<0xE1>	0
<0xE2>	0
<0xE3>	0
<0xE4>	0
<0xE5>	0
<0xE6>	0
<0xE7>	0
<0xE8>	0
<0xE9>	0
<0xEA>	0
<0xEB>	0
<0xEC>	0
<0xED>	0
<0xEE>	0
<0xEF>	0
<0xF0>	0
<0xF1>	0
<0xF2>	0
<0xF3>	0
<0xF4>	0
<0xF5>	0
<0xF6>	0
<0xF7>	0
<0xF8>	0
<0xF9>	0
<0xFA>	0
<0xFB>	0
<0xFC>	0
<0xFD>	0
<0xFE>	0
<0xFF>	0
.	-2.9304
▁	-3.37515
,	-3.95573
▁the	-4.19493
s	-4.37798
▁to	-4.57661
을	-4.60528
▁I	-4.61181
▁a	-4.79041
0	-4.87674
'	-4.89375
의	-5.02496
?	-5.03032
가	-5.05426
이	-5.05644
를	-5.06052
▁and	-5.06546
▁of	-5.13242
1	-5.14359
▁in	-5.14846
▁is	-5.17878
는	-5.22667
에	-5.23163
▁you	-5.34204
2	-5.3724
은	-5.50475
▁수	-5.68848
▁that	-5.71739
-	-5.73079
▁it	-5.7365
▁for	-5.78692
t	-5.7903
고	-5.8903
도	-5.96855
▁The	-6.01018
3	-6.01876
▁on	-6.03546
로	-6.05684
5	-6.07007
▁with	-6.08592
▁be	-6.10252
▁was	-6.10409
▁are	-6.12383
▁이	-6.12835
한	-6.14645
에서	-6.14778
▁그	-6.17172
ing	-6.17565
▁have	-6.19835
▁can	-6.21775
▁will	-6.24697
4	-6.29734
ed	-6.31242
▁this	-6.32231
▁not	-6.38705
으로	-6.4031
지	-6.4071
▁나는	-6.44768
▁my	-6.4487
m	-6.44936
6	-6.45306
▁있는	-6.46418
다	-6.46952
9	-6.48008
▁as	-6.48526
▁있다	-6.50961
d	-6.51467
▁at	-6.51703
과	-6.51745
▁me	-6.53465
8	-6.53504
인	-6.54881
▁"	-6.57233
▁It	-6.57995
7	-6.59278
▁by	-6.59378
할	-6.59838
하는	-6.63619
▁저는	-6.65092
하고	-6.65948
▁but	-6.66251
와	-6.68641
▁we	-6.71379
▁your	-6.71439
▁from	-6.74843
▁한	-6.75079
▁so	-6.76251
▁있습니다	-6.77713
)	-6.79328
일	-6.82574
해	-6.83141
▁has	-6.85312
▁do	-6.86134
▁“	-6.90643
▁like	-6.91695
▁We	-6.92066
▁about	-6.93574
만	-6.94009
▁더	-6.94891
기	-6.95274
▁said	-6.96625
▁A	-6.97002
”	-6.97076
▁것	-6.97166
▁time	-6.9737
▁he	-6.97904
(	-6.99147
▁an	-6.99711
’	-7.01424
게	-7.06903
ly	-7.06974
▁‘	-7.0944
▁내	-7.09664
▁who	-7.10046
어	-7.10285
▁there	-7.13016
▁people	-7.13455
▁more	-7.13558
입니다	-7.1395
ll	-7.1398
▁want	-7.15804
▁우리	-7.1718
▁think	-7.1851
년	-7.18827
▁제가	-7.19429
▁if	-7.19512
▁or	-7.20766
서	-7.21565
▁his	-7.21786
▁one	-7.22713
시	-7.2307
▁내가	-7.23144
▁when	-7.2332
"	-7.23847
▁할	-7.24479
▁In	-7.25753
▁You	-7.2602
▁were	-7.28728
y	-7.28805
요	-7.28865
했다	-7.29184
▁all	-7.30667
▁go	-7.30771
▁전	-7.30938
▁Korea	-7.31376
하게	-7.31533
▁This	-7.31982
면	-7.33407
▁out	-7.33972
▁당신은	-7.34104
▁안	-7.3434
er	-7.34763
e	-7.3495
▁know	-7.35592
▁don	-7.35836
▁우리는	-7.35952
re	-7.36838
들이	-7.37085
▁잘	-7.37306
▁get	-7.38037
▁they	-7.3926
▁He	-7.40043
th	-7.40279
나	-7.40335
스	-7.40661
▁그는	-7.40764
▁제	-7.40953
▁up	-7.41913
자	-7.45166
▁것이	-7.45262
▁당신이	-7.45301
▁때	-7.45316
▁what	-7.46122
▁위해	-7.46626
리	-7.47607
▁also	-7.47619
▁많은	-7.4795
야	-7.48081
%	-7.48084
▁now	-7.48704
▁것을	-7.48711
라	-7.48876
▁had	-7.49586
월	-7.49626
된	-7.49656
▁after	-7.50777
▁our	-7.50841
▁Korean	-7.5168
▁good	-7.52268
▁than	-7.53065
▁중	-7.53605
▁because	-7.54261
S	-7.54601
▁am	-7.54624
주	-7.54638
▁주	-7.54905
▁대한	-7.55247
▁been	-7.55666
▁would	-7.56948
에는	-7.57131
▁것으로	-7.57166
▁If	-7.57418
▁가장	-7.57868
▁다른	-7.58774
▁their	-7.59661
▁which	-7.59759
하지	-7.60321
▁first	-7.61066
▁work	-7.61255
▁두	-7.61798
▁하는	-7.62189
al	-7.63851
▁make	-7.65779
▁지금	-7.66093
n	-7.66341
▁her	-7.6808
습니다	-7.6813
▁이번	-7.68196
▁있어요	-7.68755
하기	-7.68841
▁how	-7.69895
사	-7.69952
▁K	-7.69993
▁new	-7.70775
히	-7.70918
▁many	-7.70929
▁should	-7.71198
▁많이	-7.71801
▁need	-7.7261
▁오늘	-7.72723
드	-7.72796
적인	-7.73048
▁함께	-7.73119
▁no	-7.73354
▁other	-7.73443
▁당신의	-7.73782
▁just	-7.73798
▁only	-7.73901
▁year	-7.74293
아	-7.74388
▁see	-7.74555
▁What	-7.74645
며	-7.75566
에게	-7.75986
까지	-7.76135
▁day	-7.76242
▁것은	-7.76282
▁다	-7.76477
▁There	-7.7686
▁take	-7.77704
▁게	-7.77923
▁나	-7.784
▁Please	-7.78782
합니다	-7.78799
▁them	-7.79014
▁대해	-7.79658
▁two	-7.79881
▁해	-7.80711
▁here	-7.81049
▁use	-7.81243
ve	-7.82279
수	-7.82489
니	-7.82736
▁어떻게	-7.82952
대	-7.83239
▁합니다	-7.83855
▁B	-7.84063
▁last	-7.84981
▁very	-7.85334
▁My	-7.8593
in	-7.86479
▁좋은	-7.87214
▁다시	-7.88173
▁일	-7.88362
▁어떤	-7.88905
들은	-7.89061
▁(	-7.89112
▁너무	-7.89176
r	-7.8934
▁한국	-7.8943
▁well	-7.89699
."	-7.90456
진	-7.90561
▁것입니다	-7.91759
▁much	-7.92452
▁today	-7.9248
I	-7.93457
▁때문에	-7.94066
es	-7.94198
▁could	-7.94305
트	-7.95594
▁us	-7.95899
▁over	-7.9639
▁모든	-7.9642
▁거	-7.96666
o	-7.97313
▁made	-7.97441
▁난	-7.97893
적	-7.98673
던	-7.987
이다	-7.98792
▁것이다	-7.99326
▁저	-7.99732
▁Do	-7.99869
▁정말	-7.99906
▁some	-7.99967
▁사	-8.00053
▁있어	-8.00578
화	-8.01367
,"	-8.01545
g	-8.01697
▁too	-8.01745
▁지난	-8.01811
▁any	-8.02034
했습니다	-8.02155
▁하고	-8.02399
▁him	-8.02693
▁next	-8.02757
들을	-8.03229
개	-8.03447
▁How	-8.03535
▁같은	-8.0359
▁네	-8.03908
▁등	-8.04106
▁most	-8.04346
적으로	-8.0439
▁아	-8.04634
보	-8.04972
라고	-8.0519
▁Can	-8.05293
▁좀	-8.05354
▁won	-8.05404
비	-8.05484
▁lot	-8.05974
▁did	-8.06295
상	-8.07131
:	-8.07209
▁말했다	-8.07385
▁But	-8.0778
정	-8.07851
▁S	-8.07994
▁있나요	-8.08016
▁우리가	-8.08301
▁지	-8.08746
▁going	-8.09346
부	-8.09385
▁As	-8.09561
▁될	-8.09791
▁저희	-8.10156
▁where	-8.1089
ri	-8.11256
▁다음	-8.11719
러	-8.1203
치	-8.12665
▁right	-8.12681
▁말	-8.12725
a	-8.12827
▁그리고	-8.12873
A	-8.13049
이라고	-8.13137
▁시간	-8.1316
▁she	-8.13538
▁비	-8.14181
▁영화	-8.14252
▁오	-8.14307
성	-8.14348
▁큰	-8.14393
▁When	-8.14863
▁way	-8.14949
▁come	-8.15201
▁So	-8.15282
해야	-8.1529
▁줄	-8.15601
전	-8.15793
▁hope	-8.15917
세	-8.16153
▁Kim	-8.16524
l	-8.17333
▁back	-8.17676
▁바	-8.17771
▁life	-8.17775
▁있을	-8.18273
▁again	-8.18402
p	-8.1861
▁may	-8.19084
▁before	-8.1918
▁C	-8.1943
분	-8.19715
▁유	-8.1988
ra	-8.19943
▁통해	-8.19956
신	-8.2008
제	-8.20493
명	-8.20571
소	-8.20662
▁home	-8.20976
▁long	-8.21108
장	-8.2167
▁love	-8.21985
▁help	-8.22013
마	-8.22185
해서	-8.2263
c	-8.23187
▁company	-8.23268
▁hard	-8.2331
▁경우	-8.23445
▁후	-8.23654
미	-8.23939
▁even	-8.24086
▁또	-8.24104
▁건	-8.24419
▁food	-8.24587
st	-8.25117
▁미	-8.25186
▁모두	-8.25684
에서는	-8.25702
▁부	-8.26004
▁U	-8.26207
르	-8.26348
▁시	-8.26355
▁대	-8.2659
원	-8.27081
▁re	-8.27105
▁send	-8.27276
▁정도	-8.27404
▁She	-8.27412
▁한다	-8.2753
▁its	-8.27531
▁through	-8.27605
들	-8.27605
▁such	-8.27997
▁That	-8.28154
▁미국	-8.28372
le	-8.28566
▁order	-8.28698
질	-8.28778
▁best	-8.28817
▁week	-8.28993
▁please	-8.29011
▁into	-8.29141
▁김	-8.29211
▁say	-8.29306
▁못	-8.29498
▁알	-8.29589
ation	-8.29618
▁번	-8.29686
▁years	-8.29885
▁사람이	-8.29912
C	-8.30038
이에요	-8.31162
▁원	-8.31329
구	-8.31447
▁give	-8.31548
▁feel	-8.31565
어요	-8.31624
or	-8.31739
▁마	-8.31843
▁현재	-8.31894
▁하나	-8.32208
선	-8.32344
ers	-8.32534
▁세	-8.3269
▁check	-8.33339
▁world	-8.33383
차	-8.33744
▁product	-8.34043
▁since	-8.3417
여	-8.3456
해요	-8.34685
▁차	-8.34968
▁정	-8.35002
▁tell	-8.35016
산	-8.35219
보다	-8.3523
▁E	-8.35361
실	-8.35662
ar	-8.35792
P	-8.35873
▁밝혔다	-8.36084
▁place	-8.36173
우	-8.36368
라는	-8.36567
▁really	-8.3698
▁사용	-8.37141
▁why	-8.3715
▁확인	-8.37223
▁보	-8.37472
▁볼	-8.37494
▁네가	-8.3761
▁없는	-8.37734
▁몇	-8.37752
D	-8.38213
▁동안	-8.38465
▁음식	-8.38574
오	-8.38643
하여	-8.38671
i	-8.38676
▁해요	-8.39012
▁가지고	-8.39097
▁used	-8.39143
▁보고	-8.39151
▁가지	-8.39222
▁They	-8.39297
▁걸	-8.39341
부터	-8.39522
/	-8.39648
▁이런	-8.39922
▁데	-8.40061
▁너	-8.40383
동	-8.40499
▁still	-8.40812
▁하지만	-8.40899
될	-8.40995
▁친구	-8.41012
▁car	-8.41084
▁these	-8.41187
했어요	-8.4136
프	-8.41609
k	-8.41813
▁school	-8.41829
▁신	-8.41859
조	-8.41884
▁새로운	-8.42352
▁그녀는	-8.42443
▁Then	-8.42861
▁got	-8.43146
▁G	-8.43216
▁같이	-8.4333
▁위한	-8.43353
▁거예요	-8.43405
이나	-8.43896
▁생각	-8.4391
하	-8.44231
되는	-8.44483
하면	-8.44697
▁자	-8.44766
당	-8.44931
▁didn	-8.45022
▁매우	-8.45211
▁바로	-8.45774
an	-8.4597
h	-8.4597
▁around	-8.46008
▁days	-8.46267
▁있다고	-8.46353
▁바랍니다	-8.46504
▁공	-8.4656
위	-8.46643
▁약	-8.46709
▁while	-8.46832
한다	-8.46842
▁이상	-8.46871
▁모	-8.46887
▁person	-8.47481
▁왜	-8.48253
▁always	-8.48833
▁날	-8.48935
▁better	-8.49232
▁시간이	-8.49377
들의	-8.49386
지만	-8.49539
!	-8.50087
▁개	-8.50334
▁de	-8.50711
on	-8.50715
B	-8.51599
M	-8.51612
▁let	-8.5186
▁했다	-8.51907
▁있다는	-8.51962
▁number	-8.52084
는데	-8.52137
▁당신	-8.52336
용	-8.52432
▁알고	-8.52467
ro	-8.525
▁일이	-8.52698
▁그런	-8.52705
▁무	-8.53197
문	-8.53357
▁시작	-8.53406
▁being	-8.5342
▁구	-8.53853
▁Yes	-8.53912
▁보내	-8.53918
회	-8.54328
▁사람들이	-8.54507
▁find	-8.54628
모	-8.54638
▁그녀	-8.54825
▁meet	-8.55056
려	-8.55193
▁기	-8.55671
▁갈	-8.55741
▁look	-8.5576
하며	-8.55946
타	-8.56279
▁each	-8.56351
▁나의	-8.56471
▁조	-8.56491
▁No	-8.5677
G	-8.56957
▁혹시	-8.57812
▁live	-8.58393
▁team	-8.58862
▁그것	-8.59056
▁show	-8.59075
▁T	-8.59135
길	-8.59137
▁그럼	-8.59148
▁거야	-8.5915
▁never	-8.59741
▁came	-8.5976
▁하	-8.59815
▁China	-8.60005
▁three	-8.60047
T	-8.60144
▁every	-8.60252
ur	-8.60625
▁friend	-8.60633
호	-8.60945
▁eat	-8.60973
▁same	-8.60997
▁family	-8.61031
▁또한	-8.61112
▁상	-8.61247
데	-8.61292
▁않은	-8.61341
크	-8.61396
▁F	-8.61662
점	-8.61771
▁세계	-8.61822
en	-8.61965
▁without	-8.61997
▁같아요	-8.62202
국	-8.62433
▁high	-8.62485
▁off	-8.6249
▁then	-8.62569
▁man	-8.62588
▁재	-8.62862
▁없습니다	-8.63047
▁어느	-8.63148
▁down	-8.6358
▁change	-8.63667
그	-8.63687
se	-8.63709
▁English	-8.6373
즈	-8.63765
방	-8.63926
▁buy	-8.64179
ic	-8.64307
▁뒤	-8.64309
명이	-8.64309
▁그것은	-8.64471
바	-8.64531
▁불	-8.64567
▁당신에게	-8.64619
L	-8.64626
▁그래서	-8.64767
▁아직	-8.64864
il	-8.64951
▁진행	-8.65058
▁일을	-8.65147
▁살	-8.65163
▁house	-8.65428
▁pay	-8.65458
▁소	-8.65567
▁happy	-8.65584
▁주문	-8.65711
li	-8.65787
▁사람	-8.6593
▁집	-8.66239
▁사랑	-8.6631
▁found	-8.66319
▁있었다	-8.66355
▁name	-8.6636
간	-8.66433
단	-8.66513
▁things	-8.66679
▁반	-8.66749
▁must	-8.66786
▁이제	-8.6722
▁try	-8.67231
디	-8.67488
▁friends	-8.67717
▁sorry	-8.68265
▁됩니다	-8.68316
다고	-8.68354
▁스	-8.6843
▁great	-8.68619
▁call	-8.68763
무	-8.68783
▁p	-8.68952
파	-8.69351
able	-8.69579
▁money	-8.69689
▁went	-8.69695
안	-8.70092
▁room	-8.70117
레	-8.70157
▁left	-8.70395
▁연	-8.70509
▁And	-8.70515
▁양	-8.70633
▁자신의	-8.7065
▁중국	-8.70788
관	-8.70855
▁problem	-8.7104
E	-8.71119
되어	-8.7116
▁있도록	-8.71199
▁D	-8.71244
연	-8.71367
▁선	-8.71733
▁un	-8.72198
▁수도	-8.72217
▁thought	-8.72223
▁어	-8.72309
재	-8.72618
▁market	-8.72814
▁아니라	-8.7283
▁본	-8.72843
면서	-8.72988
▁여러	-8.73112
▁같아	-8.73256
처럼	-8.73506
▁held	-8.73813
▁M	-8.73847
▁products	-8.7401
▁발	-8.74115
▁game	-8.74156
▁ask	-8.74244
▁서	-8.74248
▁해야	-8.74512
내	-8.74797
▁Let	-8.74927
▁w	-8.74969
▁동	-8.75086
▁달	-8.75278
▁모습	-8.75286
식	-8.75312
터	-8.75326
▁전화	-8.75621
▁visit	-8.75676
▁너는	-8.75699
▁children	-8.75762
지는	-8.75892
으면	-8.75978
▁만들어	-8.76
▁그들은	-8.76005
▁together	-8.76025
이라는	-8.76138
▁준비	-8.76156
운	-8.76218
▁나에게	-8.76334
el	-8.76433
▁President	-8.76632
▁이것은	-8.76693
▁told	-8.76845
워	-8.76992
▁price	-8.77187
▁does	-8.77327
▁여기	-8.77399
▁배	-8.7743
▁직접	-8.77495
F	-8.77656
▁일본	-8.77768
▁들어	-8.77821
▁되는	-8.77985
▁계속	-8.7801
▁music	-8.78028
었다	-8.78122
▁총	-8.78176
▁movie	-8.78188
▁그렇게	-8.78215
▁얼마나	-8.78246
▁가운데	-8.7835
O	-8.78402
▁필요	-8.78572
▁않고	-8.78613
▁own	-8.78634
▁당신을	-8.78699
▁싶습니다	-8.78817
it	-8.78927
엔	-8.78928
피	-8.79122
▁이렇게	-8.79168
유	-8.79179
▁사진	-8.79321
▁전에	-8.79364
▁파	-8.79505
됐다	-8.79736
▁TV	-8.79892
▁단	-8.79989
▁P	-8.80059
네	-8.8006
▁Seoul	-8.80087
직	-8.80215
▁이야기	-8.80256
▁month	-8.8039
▁Lee	-8.80407
▁피	-8.80432
▁book	-8.80444
티	-8.80755
▁여행	-8.80812
금	-8.80816
▁않습니다	-8.80892
▁없다	-8.81003
▁put	-8.81025
중	-8.81031
▁항상	-8.81108
체	-8.81117
la	-8.81135
N	-8.81163
건	-8.81193
거	-8.8123
▁$	-8.8126
▁million	-8.81387
억	-8.81466
석	-8.81511
▁part	-8.8154
K	-8.81648
▁그러나	-8.81751
형	-8.81772
▁경기	-8.81796
물	-8.81796
▁남자	-8.81828
▁already	-8.81849
네요	-8.81879
▁입	-8.81898
▁주세요	-8.81947
▁For	-8.81947
계	-8.82297
▁end	-8.82507
시간	-8.82524
▁job	-8.82568
란	-8.82686
▁좋아하는	-8.8313
▁play	-8.83164
▁talk	-8.83344
▁하지	-8.83468
do	-8.83511
▁각	-8.83642
에도	-8.83654
▁Why	-8.83875
기를	-8.8392
▁판매	-8.83986
되고	-8.84018
▁첫	-8.84054
▁using	-8.84442
▁called	-8.8464
▁second	-8.84741
▁장	-8.84767
▁another	-8.85135
b	-8.85178
▁간	-8.85398
▁God	-8.8541
▁있고	-8.85443
▁따라	-8.85496
▁big	-8.8562
▁않을	-8.85643
▁something	-8.85718
린	-8.85859
▁여성	-8.86119
▁강	-8.86138
na	-8.86363
공	-8.8639
▁often	-8.86477
▁온	-8.86536
▁회사	-8.86569
▁meeting	-8.86647
▁가는	-8.86655
ion	-8.86726
▁위	-8.86729
▁once	-8.86821
w	-8.86888
▁event	-8.87119
▁방	-8.87254
▁이유	-8.8732
▁조금	-8.87469
▁된	-8.87538
번	-8.87605
▁먼저	-8.87636
▁until	-8.87934
▁little	-8.88033
▁다양한	-8.88112
▁keep	-8.88173
▁country	-8.88185
▁under	-8.88258
▁important	-8.88434
나요	-8.88565
▁올	-8.88601
▁이러한	-8.88634
▁이미	-8.88692
u	-8.88882
▁soon	-8.89212
▁business	-8.89251
▁마음	-8.8938
포	-8.89571
f	-8.89596
루	-8.89756
▁것이에요	-8.90033
▁took	-8.90052
▁become	-8.90384
▁매	-8.90459
토	-8.90795
▁Japan	-8.9094
카	-8.90991
ir	-8.91447
lo	-8.91594
▁같습니다	-8.91636
▁different	-8.91785
▁study	-8.91997
▁타	-8.92513
▁않는	-8.92687
증	-8.93026
▁away	-8.93142
▁것이라고	-8.93284
▁이후	-8.93333
▁전했다	-8.93396
▁night	-8.93676
민	-8.93981
ity	-8.94057
▁결과	-8.94282
▁those	-8.94574
▁최근	-8.94712
▁head	-8.94731
▁서비스	-8.94822
▁음악	-8.94995
▁sent	-8.95034
▁test	-8.95049
to	-8.95053
▁students	-8.95227
영	-8.95294
▁police	-8.95319
▁working	-8.95365
▁set	-8.9546
▁이름	-8.95556
▁나를	-8.95589
▁적이	-8.95642
ment	-8.95661
었습니다	-8.95806
ive	-8.95872
▁남	-8.95919
▁포	-8.96045
다는	-8.96238
ce	-8.96262
했던	-8.96323
▁possible	-8.96397
▁있을까요	-8.96483
▁women	-8.9656
▁during	-8.96561
▁At	-8.96605
래	-8.96702
▁class	-8.96831
까	-8.96954
R	-8.97062
▁bus	-8.9721
▁US	-8.97378
▁및	-8.9738
▁On	-8.97406
▁공부	-8.97433
▁길	-8.975
▁노	-8.97533
▁various	-8.97707
▁group	-8.97778
te	-8.97806
▁due	-8.9782
▁water	-8.98002
되지	-8.98087
▁cannot	-8.98092
▁만약	-8.98175
▁free	-8.98217
▁After	-8.98349
▁건가요	-8.98383
▁계획	-8.98448
The	-8.98518
▁명	-8.98613
▁점	-8.98625
W	-8.98635
est	-8.98954
▁To	-8.98993
약	-8.99018
▁case	-8.99066
▁이어	-8.99105
▁아주	-8.99117
▁fans	-8.99147
▁Ma	-8.99176
▁여자	-8.99184
ma	-8.99246
두	-8.99287
버	-8.99323
▁여	-8.99488
명의	-8.99537
▁맞	-8.99567
▁지원	-8.99571
▁내일	-8.99585
ho	-8.99606
경	-8.99661
▁노력	-8.99667
▁집에	-8.99835
코	-8.99925
▁속	-9.00001
더	-9.00103
▁싶어요	-9.0011
▁tomorrow	-9.00264
▁expected	-9.00277
거나	-9.00366
ent	-9.00492
▁W	-9.00576
▁small	-9.00595
▁오후	-9.00619
▁O	-9.00682
▁좋아	-9.00729
▁says	-9.00943
up	-9.01096
ne	-9.0119
us	-9.01214
런	-9.01398
행	-9.01506
하다	-9.01684
·	-9.01911
▁적	-9.02124
▁꼭	-9.0221
▁reason	-9.02314
천	-9.02315
▁물	-9.0243
▁이것	-9.02475
▁understand	-9.02507
랑	-9.03089
ul	-9.03147
ter	-9.03239
종	-9.03279
▁phone	-9.03294
▁얘기	-9.03411
de	-9.03473
▁popular	-9.03514
▁성	-9.03583
노	-9.03584
하면서	-9.03687
▁asked	-9.03946
▁있어서	-9.04444
▁손	-9.04498
▁later	-9.04648
ol	-9.04696
z	-9.04767
▁않았다	-9.04776
▁doing	-9.0479
▁government	-9.04951
▁doesn	-9.05082
▁local	-9.05199
▁start	-9.05391
▁yet	-9.05411
든	-9.05537
심	-9.05554
▁기대	-9.05589
▁추가	-9.05711
학	-9.05821
▁올해	-9.05865
▁Park	-9.05954
▁제품	-9.05971
▁seems	-9.06058
▁Because	-9.06076
생	-9.06083
▁North	-9.06164
▁문	-9.06461
권	-9.06562
▁bad	-9.0661
▁열	-9.06718
▁있는지	-9.06801
age	-9.06942
급	-9.07041
자가	-9.07163
브	-9.07244
am	-9.07289
co	-9.07575
▁kind	-9.0765
역	-9.0777
▁없이	-9.0783
돼	-9.07845
▁Thank	-9.07959
▁New	-9.08075
▁video	-9.08083
▁late	-9.08274
at	-9.08425
▁있는데	-9.08428
▁지역	-9.08548
▁trip	-9.08551
▁내용	-9.08576
▁enjoy	-9.08578
▁companies	-9.08722
▁between	-9.08722
▁분	-9.08845
ch	-9.08877
군	-9.08914
였다	-9.08927
▁번째	-9.0897
▁mind	-9.09034
▁May	-9.09047
▁believe	-9.09128
▁싶어	-9.09129
▁face	-9.09132
▁있게	-9.09157
▁하루	-9.0932
▁Are	-9.09328
▁새	-9.09406
본	-9.09521
▁버스	-9.09561
▁plan	-9.09655
▁운동	-9.0984
▁heart	-9.09947
▁including	-9.1008
▁말을	-9.10098
▁방문	-9.10188
▁실	-9.10191
▁open	-9.10196
▁한번	-9.10477
발	-9.10642
▁일부	-9.10707
▁연락	-9.10863
nd	-9.11022
▁old	-9.1116
▁making	-9.11203
▁있습니까	-9.1121
ry	-9.11344
▁없어요	-9.11345
▁된다	-9.11361
▁co	-9.11373
▁대해서	-9.11444
▁문화	-9.11452
H	-9.11467
gu	-9.11559
▁far	-9.11585
man	-9.11777
▁support	-9.11864
▁service	-9.11917
▁산	-9.11957
▁V	-9.12001
▁future	-9.12088
▁위해서	-9.12604
하세요	-9.12613
▁heard	-9.12671
ci	-9.12745
감	-9.12853
▁public	-9.13455
)’	-9.13494
▁부분	-9.13632
ta	-9.13732
▁되어	-9.13797
▁언제	-9.13801
기도	-9.13832
하도록	-9.13855
▁자신이	-9.13948
▁처음	-9.14122
▁아무	-9.14131
▁열심히	-9.14202
▁이날	-9.14363
▁picture	-9.14381
▁자리	-9.14382
▁무슨	-9.14409
▁makes	-9.14513
un	-9.14519
▁e	-9.147
▁가격	-9.1476
▁선택	-9.14766
▁높은	-9.14787
▁되	-9.14824
▁배우	-9.14913
▁때문이다	-9.14949
▁관련	-9.15036
▁able	-9.1504
▁문제가	-9.15043
▁진	-9.15193
된다	-9.15197
다면	-9.15252
▁means	-9.15327
▁young	-9.15455
플	-9.15481
▁받을	-9.15562
▁move	-9.15621
▁Is	-9.15652
▁사람은	-9.15652
▁호	-9.15733
▁어제	-9.15888
▁예약	-9.15912
▁저에게	-9.15923
ha	-9.1598
▁H	-9.16053
▁fact	-9.16209
▁잠	-9.16272
▁필요한	-9.16316
▁만나	-9.16364
▁구매	-9.16405
▁예	-9.16427
▁팀	-9.16429
▁ago	-9.16485
▁행복	-9.16686
be	-9.1692
▁했어요	-9.16973
U	-9.16981
▁정부	-9.17016
▁wanted	-9.17108
min	-9.17238
▁상품	-9.17257
▁리	-9.17286
▁박	-9.17325
▁One	-9.17503
▁조사	-9.17661
▁care	-9.1778
온	-9.1794
▁system	-9.18028
▁경	-9.18222
▁관심	-9.18318
▁있기	-9.18322
▁special	-9.1845
▁사업	-9.18475
키	-9.18493
▁members	-9.18495
▁four	-9.18512
▁나도	-9.18591
▁카	-9.18695
▁특히	-9.18928
했다고	-9.19004
▁thing	-9.19271
▁정보	-9.19319
▁대통령	-9.1939
▁서울	-9.19433
인지	-9.1952
▁아이	-9.19575
임	-9.19586
색	-9.19704
▁bring	-9.19732
▁anything	-9.19795
▁이용	-9.19819
▁방법	-9.19821
▁오는	-9.19851
▁hours	-9.19906
▁body	-9.20025
Pop	-9.20133
▁Don	-9.20147
▁사람들은	-9.20176
▁media	-9.2024
ant	-9.20301
▁없어	-9.20341
▁외	-9.20434
mi	-9.20438
mo	-9.20524
▁office	-9.20582
ti	-9.20601
ck	-9.20642
▁saying	-9.20654
▁결정	-9.20743
▁감	-9.20884
less	-9.20914
교	-9.20929
▁leave	-9.21107
▁story	-9.21149
▁enough	-9.21173
▁times	-9.2124
▁report	-9.21477
져	-9.2152
인데	-9.21578
▁might	-9.21662
▁지난해	-9.21738
▁찾아	-9.21857
▁않아요	-9.2186
▁것도	-9.21919
▁Chinese	-9.2194
저	-9.21992
▁among	-9.22112
▁stop	-9.22227
▁있으며	-9.22235
▁의미	-9.22246
▁design	-9.22294
했고	-9.22399
들에게	-9.22476
▁top	-9.22565
세요	-9.22664
▁영어	-9.22677
스트	-9.22802
▁눈	-9.22832
▁하면	-9.22937
▁만큼	-9.23054
▁both	-9.23135
ting	-9.23169
▁sure	-9.23209
▁하겠습니다	-9.23211
▁나라	-9.23213
▁생각합니다	-9.23226
ba	-9.23282
▁Some	-9.23381
이었다	-9.2339
et	-9.23435
▁news	-9.23465
▁early	-9.2358
▁hand	-9.23652
▁들	-9.23656
▁서로	-9.23734
▁f	-9.23746
력	-9.23875
▁wait	-9.23886
류	-9.24006
ia	-9.24022
▁것에	-9.24063
법	-9.24069
▁parents	-9.24109
▁더욱	-9.2413
작	-9.2413
▁학교	-9.24169
ate	-9.24187
▁상태	-9.2427
▁꿈	-9.2431
ver	-9.24391
▁percent	-9.24422
▁looking	-9.24427
▁드라마	-9.24437
▁안에	-9.24493
업	-9.2453
▁stay	-9.24534
▁Where	-9.24562
▁released	-9.24634
▁program	-9.24653
▁아래	-9.24679
▁앞으로	-9.24705
도록	-9.24788
▁막	-9.24821
▁문제	-9.24921
▁사실	-9.24976
▁Could	-9.24994
▁빨리	-9.24995
▁area	-9.25128
▁설명	-9.25141
▁수가	-9.25214
▁참	-9.25221
▁hit	-9.25312
▁store	-9.25345
▁수업	-9.25673
▁However	-9.25729
▁우	-9.25756
ge	-9.25763
▁someone	-9.25811
▁자신	-9.25814
▁reported	-9.25821
▁작품	-9.25853
▁sales	-9.25881
▁사람들	-9.25927
니다	-9.26152
▁겁니다	-9.26155
▁hotel	-9.26167
as	-9.26174
▁도착	-9.26194
ty	-9.26251
▁연구	-9.26307
▁morning	-9.26374
▁saw	-9.26374
▁city	-9.26386
살	-9.26487
▁타고	-9.26488
▁모습이	-9.26514
▁against	-9.26609
▁제품을	-9.26739
▁per	-9.2687
▁power	-9.26877
▁자기	-9.2692
함	-9.26978
현	-9.27047
▁당	-9.27058
▁편	-9.27116
▁애	-9.27181
▁한국에	-9.27188
▁당시	-9.27205
배	-9.27225
▁information	-9.27261
▁후에	-9.27287
x	-9.27336
▁받고	-9.27382
▁있지만	-9.27429
▁이를	-9.27458
▁data	-9.27478
▁해당	-9.27495
강	-9.27543
▁few	-9.27635
▁영국	-9.27639
▁했습니다	-9.27648
▁기회	-9.2782
▁한국에서	-9.27933
ted	-9.27944
▁past	-9.28133
▁성공	-9.28138
▁size	-9.28146
▁contact	-9.28187
ca	-9.28212
▁run	-9.28318
id	-9.28458
▁N	-9.28674
▁others	-9.28781
▁행사	-9.28792
▁기록	-9.2882
▁시장	-9.28845
통	-9.28847
.”	-9.28877
▁wish	-9.28939
um	-9.28956
▁situation	-9.28967
▁사회	-9.2906
집	-9.29065
▁woman	-9.29117
came	-9.29175
복	-9.2931
▁채	-9.29396
ness	-9.29442
▁거의	-9.2945
▁사고	-9.29604
▁total	-9.29616
하겠습니다	-9.2966
죠	-9.29698
▁디자인	-9.29797
속	-9.29862
▁process	-9.29871
▁만들	-9.29889
▁card	-9.29931
▁following	-9.30065
▁song	-9.30183
▁dream	-9.3022
▁fun	-9.30233
▁팔	-9.304
▁mother	-9.30403
언	-9.30491
▁watch	-9.30514
▁역시	-9.30519
▁그냥	-9.30583
▁men	-9.30676
반	-9.30679
으며	-9.30703
▁있었습니다	-9.3073
주세요	-9.30766
▁Trump	-9.30861
▁started	-9.30946
려고	-9.30987
▁South	-9.31051
▁오늘은	-9.31081
▁travel	-9.31162
▁child	-9.31393
no	-9.31497
▁read	-9.31507
▁seen	-9.31542
▁요청	-9.31617
▁인기	-9.3167
ru	-9.31672
bi	-9.31782
울	-9.31943
▁An	-9.31976
▁사진을	-9.31998
양	-9.3202
pop	-9.3209
▁alone	-9.32093
▁known	-9.32322
입	-9.32432
▁저녁	-9.32634
▁요리	-9.32635
▁full	-9.32651
▁side	-9.32703
▁도시	-9.32865
▁account	-9.33025
▁yesterday	-9.33025
▁share	-9.33035
▁Our	-9.33129
▁책	-9.33162
▁보면	-9.3325
▁트럼프	-9.33346
▁코	-9.33452
설	-9.33454
▁중요한	-9.33475
▁심	-9.33495
▁culture	-9.33495
▁게임	-9.33674
▁Many	-9.33683
▁All	-9.33705
▁strong	-9.33739
릴	-9.33805
▁중에	-9.33807
들과	-9.33815
▁작은	-9.33836
▁싶은	-9.33905
based	-9.33943
hi	-9.33986
▁light	-9.3401
량	-9.34055
▁가족	-9.3412
▁경제	-9.34142
▁Your	-9.34151
▁gave	-9.34207
▁De	-9.34305
▁그들	-9.34341
▁short	-9.34357
~	-9.34442
▁lost	-9.34444
판	-9.34459
▁글	-9.34526
▁real	-9.34562
▁선물	-9.34694
▁felt	-9.3476
▁제일	-9.34818
▁getting	-9.34834
▁wrong	-9.34839
▁시험	-9.34841
▁인해	-9.34846
V	-9.34866
▁국가	-9.3493
▁돈을	-9.34995
격	-9.34996
개의	-9.35045
▁도움이	-9.35065
su	-9.35189
▁easy	-9.35318
▁방송	-9.35329
▁않아	-9.35355
▁알려	-9.35442
▁done	-9.3546
▁제작	-9.35708
▁difficult	-9.35723
▁공연	-9.35751
▁그러면	-9.35832
▁변화	-9.35853
결	-9.35952
졌다	-9.36018
▁Re	-9.36059
▁갖고	-9.3627
▁치	-9.36417
▁보여	-9.36454
▁아닌	-9.36519
▁learn	-9.36541
▁여기서	-9.36558
▁Mr	-9.3658
▁생활	-9.36664
했을	-9.36743
▁Be	-9.36774
▁experience	-9.36837
▁키	-9.3695
▁minutes	-9.37106
▁당신과	-9.37159
▁R	-9.37232
승	-9.3728
▁return	-9.37323
▁화	-9.37471
▁five	-9.37681
▁발생	-9.37746
겨	-9.37766
친	-9.37817
▁자주	-9.37819
▁몸	-9.37851
출	-9.3793
▁버	-9.38053
▁있	-9.38086
▁요즘	-9.38157
ance	-9.38201
▁near	-9.38222
▁having	-9.38239
▁밤	-9.38262
▁감독	-9.38297
론	-9.38527
▁노래	-9.38642
vi	-9.38696
▁입고	-9.38733
▁되고	-9.38832
▁large	-9.38832
rs	-9.3884
됩니다	-9.38843
▁오래	-9.38863
음	-9.38879
▁이는	-9.38884
병	-9.38933
▁보인다	-9.38986
▁couldn	-9.39078
▁issue	-9.391
매	-9.39106
▁met	-9.39195
hether	-9.39219
▁그들이	-9.39396
▁fire	-9.39466
ine	-9.39517
▁초	-9.39575
인가요	-9.39686
긴	-9.39731
▁통	-9.39744
▁pro	-9.3976
ist	-9.39813
달	-9.39827
pe	-9.39866
▁오전	-9.40031
블	-9.40034
is	-9.40051
▁Even	-9.40083
태	-9.40254
▁photo	-9.40279
▁등을	-9.40308
난	-9.40343
▁received	-9.40377
▁때문입니다	-9.40403
lu	-9.40414
▁shows	-9.40522
등	-9.40628
▁이해	-9.40674
각	-9.40855
▁result	-9.4093
▁있으면	-9.40974
준	-9.41128
▁color	-9.4125
▁원하는	-9.41288
▁favorite	-9.41334
ni	-9.41482
림	-9.41485
▁될까요	-9.41625
▁film	-9.41839
▁air	-9.41844
▁famous	-9.41919
▁변	-9.41942
▁close	-9.41966
▁비행기	-9.42129
va	-9.42159
▁attention	-9.42186
환	-9.42342
▁Monday	-9.42359
씨	-9.42409
▁Japanese	-9.42446
▁everything	-9.42615
▁전체	-9.42654
겠습니다	-9.4266
▁우리에게	-9.42764
▁words	-9.428
ad	-9.42946
▁국내	-9.42989
▁물건	-9.43039
▁nice	-9.43049
▁생각이	-9.43054
▁한국의	-9.4308
▁line	-9.43083
▁표현	-9.43139
▁그룹	-9.43139
▁저의	-9.43143
▁머리	-9.43175
▁하나요	-9.43192
pa	-9.43224
▁living	-9.43393
▁project	-9.43446
지를	-9.43476
▁베	-9.43497
▁예상	-9.43523
▁마지막	-9.43573
▁발표	-9.43588
▁도움	-9.43673
▁billion	-9.43748
이고	-9.43915
▁began	-9.43919
▁receive	-9.43941
▁식사	-9.43944
▁얼마	-9.44028
▁잡	-9.44102
fi	-9.44124
▁가진	-9.44186
▁season	-9.44334
층	-9.44425
ner	-9.44463
▁front	-9.44544
▁최	-9.44559
po	-9.44593
▁뜻	-9.44752
▁있지	-9.448
▁myself	-9.44807
▁Now	-9.44841
▁와	-9.45114
ling	-9.45121
▁point	-9.45203
▁bit	-9.45256
▁ever	-9.45286
sh	-9.45314
는지	-9.45377
에서도	-9.4545
▁자동차	-9.45474
▁배송	-9.45504
편	-9.45605
▁호텔	-9.45669
▁moment	-9.45695
▁무엇을	-9.45725
▁Ha	-9.45737
▁제공	-9.45769
▁뭐	-9.45778
▁age	-9.45805
▁되나요	-9.45831
▁taking	-9.4585
▁나이	-9.45895
▁비용	-9.46058
▁건강	-9.46064
▁기업	-9.4637
▁party	-9.46426
▁cost	-9.46446
▁email	-9.46479
▁엄마	-9.46479
립	-9.46501
▁선수	-9.46508
박	-9.46535
▁관리	-9.46563
▁해서	-9.4665
▁규모	-9.46653
▁months	-9.46749
록	-9.46849
기가	-9.4687
▁또는	-9.47054
▁father	-9.47102
▁major	-9.47178
▁곳	-9.47279
▁course	-9.47413
▁Co	-9.47437
▁seem	-9.47468
v	-9.4749
▁토	-9.47534
▁등이	-9.47567
▁space	-9.47662
▁소개	-9.47825
▁eyes	-9.47863
▁beautiful	-9.48005
으	-9.48058
▁coming	-9.48098
▁added	-9.48134
▁performance	-9.48217
ga	-9.48241
▁cold	-9.4829
▁만	-9.48316
▁국	-9.48434
time	-9.48562
▁usually	-9.4857
볼	-9.48638
▁cash	-9.48646
op	-9.48746
투	-9.48773
▁interest	-9.48808
▁경험	-9.48947
▁대통령은	-9.49007
범	-9.49067
대로	-9.49121
▁죽	-9.49244
너	-9.49264
▁개인	-9.4928
▁대통령이	-9.49354
▁감사합니다	-9.49417
▁주장	-9.49442
▁fine	-9.49615
▁기술	-9.49823
▁생산	-9.49857
▁소리	-9.49925
▁가능	-9.49952
▁train	-9.50187
▁성장	-9.50243
▁참여	-9.50282
▁해결	-9.50289
▁hair	-9.503
절	-9.50338
습니까	-9.50385
니까	-9.50467
▁below	-9.5048
▁c	-9.50589
▁차량	-9.50599
▁활동	-9.50614
ated	-9.50625
▁삶	-9.50642
▁인터넷	-9.5072
▁아니	-9.50787
합	-9.50821
▁rest	-9.51092
품	-9.51142
▁main	-9.51175
외	-9.51208
Y	-9.51231
▁이유는	-9.51319
▁death	-9.51328
▁교	-9.51332
▁감사	-9.51336
bo	-9.51457
We	-9.51479
▁trying	-9.51529
▁안전	-9.51618
쳐	-9.51631
▁war	-9.51661
까요	-9.51796
▁host	-9.51808
me	-9.51836
▁결혼	-9.51867
▁이야기를	-9.51961
▁b	-9.51962
▁official	-9.51976
▁Gu	-9.52109
처	-9.5218
▁보는	-9.52257
▁date	-9.52263
▁프랑스	-9.52271
▁이들	-9.52304
▁schedule	-9.52313
았다	-9.52353
▁hot	-9.52531
▁정도로	-9.52538
▁final	-9.52566
ian	-9.52646
om	-9.5267
▁players	-9.52734
▁받은	-9.52738
▁least	-9.52746
▁장소	-9.52803
▁sleep	-9.52823
▁goal	-9.52979
▁결제	-9.53024
▁true	-9.53127
▁않	-9.53166
▁drink	-9.53204
year	-9.53281
▁clean	-9.53302
▁프로젝트	-9.53318
go	-9.53385
▁global	-9.5351
청	-9.53537
▁request	-9.53617
▁독일	-9.53633
▁sell	-9.53666
▁changed	-9.53873
▁교육	-9.53879
▁skin	-9.53919
▁less	-9.53955
old	-9.5406
▁answer	-9.541
▁everyone	-9.54102
▁잘못	-9.54135
▁speak	-9.54203
날	-9.54294
시에	-9.54304
▁나와	-9.5455
▁영향을	-9.54668
▁공격	-9.54681
▁message	-9.54685
▁human	-9.54781
▁기억	-9.54836
ies	-9.54853
▁보도	-9.54954
테	-9.55015
▁clear	-9.5507
성이	-9.55144
km	-9.55202
▁Did	-9.55215
▁있던	-9.55254
▁These	-9.55304
▁가서	-9.55308
자는	-9.55328
▁일정	-9.55342
리는	-9.55344
▁덧붙였다	-9.5535
▁countries	-9.55351
갈	-9.55355
▁매일	-9.55374
▁La	-9.55378
▁개발	-9.55443
▁받아	-9.55474
▁벌써	-9.55546
▁하는데	-9.55556
▁deal	-9.55586
▁그것이	-9.55657
▁가능한	-9.5578
되었습니다	-9.55797
▁살고	-9.55846
예요	-9.55876
▁여기에	-9.55882
▁looks	-9.55891
▁되었습니다	-9.5591
하거나	-9.56024
▁대신	-9.56042
▁추	-9.56079
▁없을	-9.56106
▁메시지	-9.56135
▁여전히	-9.56233
▁북한	-9.56248
da	-9.56252
줄	-9.56299
▁귀	-9.56395
▁stage	-9.56534
▁showed	-9.56611
담	-9.56686
mp	-9.56767
▁아침	-9.56769
▁pre	-9.56801
▁술	-9.56802
ary	-9.56836
▁쓰	-9.56898
▁이곳	-9.5693
▁변경	-9.5694
▁increase	-9.56976
▁말하는	-9.56996
▁available	-9.57024
▁social	-9.57025
out	-9.57073
▁목표	-9.57085
탄	-9.57207
▁half	-9.57224
▁발견	-9.57287
▁왜냐하면	-9.57522
▁넘	-9.57525
▁가치	-9.57549
▁ordered	-9.57579
▁메	-9.57607
▁사이	-9.5771
군요	-9.57723
▁혼자	-9.57868
▁되지	-9.58008
sa	-9.58008
▁site	-9.58019
▁double	-9.58023
현지시간	-9.58033
▁먹고	-9.58055
▁health	-9.58055
per	-9.58084
▁있다면	-9.58089
창	-9.58091
▁Since	-9.58127
▁관심이	-9.58208
▁이건	-9.58237
▁His	-9.58383
▁없	-9.58547
▁예정	-9.586
▁interested	-9.58624
▁list	-9.58634
▁프로그램	-9.58637
son	-9.58643
가지	-9.58652
하신	-9.58748
▁online	-9.58793
▁promise	-9.58884
▁전달	-9.5891
ok	-9.58935
▁Mo	-9.58952
ju	-9.58964
bu	-9.58982
▁마음이	-9.59039
▁Go	-9.59051
추	-9.59081
▁customers	-9.59118
▁소녀	-9.5914
▁낙	-9.5936
습	-9.59474
▁살아	-9.59512
커	-9.59529
▁create	-9.59596
▁Sunday	-9.59644
▁예정이다	-9.59677
▁제대로	-9.5971
▁말씀	-9.5975
었어요	-9.59754
▁Ro	-9.59854
▁mean	-9.59882
▁영	-9.59899
칠	-9.59919
led	-9.59964
▁분석	-9.59975
▁모델	-9.59978
션	-9.60037
▁쉽게	-9.60051
후	-9.60056
가요	-9.60101
▁Se	-9.60115
▁Friday	-9.60153
▁요구	-9.60155
근	-9.60176
▁크게	-9.60195
▁win	-9.60422
▁컴퓨터	-9.60461
▁고객	-9.60472
▁Ho	-9.6048
▁사람을	-9.60481
▁decided	-9.60534
개월	-9.60535
▁사는	-9.60589
▁Today	-9.60675
▁Bo	-9.60685
초	-9.60758
▁dinner	-9.6077
▁먹을	-9.6081
▁부탁드립니다	-9.60876
지도	-9.60885
▁적용	-9.60919
▁가고	-9.60938
▁several	-9.60976
▁어디	-9.60989
▁nothing	-9.61082
▁works	-9.61123
퍼	-9.6116
way	-9.61362
▁여러분	-9.61553
▁break	-9.61557
▁art	-9.61572
▁평가	-9.61573
▁명의	-9.61608
하려고	-9.61633
▁World	-9.61642
▁알아	-9.61661
▁커피	-9.61718
▁커	-9.61774
▁died	-9.61835
▁son	-9.61841
ie	-9.61898
남	-9.61901
▁sold	-9.61902
▁amount	-9.62015
장을	-9.62085
▁피해자	-9.62109
▁low	-9.62198
▁러시아	-9.62225
▁lead	-9.62253
▁Have	-9.62268
▁With	-9.62339
▁백	-9.62347
▁생각해요	-9.62362
이며	-9.62371
▁concert	-9.62434
▁브랜드	-9.62436
▁L	-9.62543
▁visited	-9.62549
▁집중	-9.62582
▁warm	-9.62629
▁됐다	-9.62666
▁remember	-9.62751
▁cut	-9.62765
마다	-9.62797
하던	-9.62878
로부터	-9.62898
라면	-9.62954
com	-9.62981
▁만든	-9.63069
하였습니다	-9.63165
▁According	-9.63171
▁아니다	-9.63191
▁match	-9.63241
▁입장	-9.63322
▁tried	-9.63333
▁six	-9.63499
▁가야	-9.63535
▁절대	-9.63608
▁시스템	-9.63639
▁미국에서	-9.63649
▁하기	-9.63708
▁주는	-9.63753
▁Mi	-9.63784
▁나서	-9.63802
king	-9.63805
불	-9.63968
▁여행을	-9.63979
▁comes	-9.64129
▁앞	-9.64178
▁이라크	-9.64234
▁present	-9.64241
위를	-9.64336
링	-9.64338
▁Sa	-9.64396
지고	-9.64402
▁coffee	-9.64447
▁chance	-9.64447
▁걱정	-9.64509
▁오바마	-9.64567
▁그건	-9.64602
▁곧	-9.6461
▁First	-9.64661
▁확인해	-9.64664
▁그래도	-9.64675
▁피부	-9.64842
▁within	-9.64942
ous	-9.64944
▁온라인	-9.64988
▁연기	-9.65095
▁provide	-9.65097
목	-9.65103
▁관계	-9.65156
▁후보	-9.65157
하실	-9.65223
X	-9.65232
▁최대	-9.65243
ating	-9.65257
mm	-9.65299
▁paid	-9.65525
▁피해	-9.6554
▁먹는	-9.65609
성을	-9.65626
▁question	-9.65792
▁Also	-9.65848
▁순	-9.65861
▁같다	-9.65897
▁problems	-9.65918
▁충분	-9.6596
▁업무	-9.66066
▁summer	-9.66066
▁사건	-9.66075
▁전혀	-9.66118
▁quickly	-9.66307
▁idea	-9.66308
▁스스로	-9.66392
▁드	-9.66417
▁누구	-9.6652
▁foreign	-9.66521
▁인간	-9.6654
▁그런데	-9.66597
▁최고	-9.66636
▁rate	-9.66728
▁열린	-9.66729
▁청	-9.66744
▁사용할	-9.66797
▁games	-9.66801
&	-9.66842
tu	-9.66859
하는데	-9.669
슨	-9.66914
der	-9.66926
라도	-9.66951
장이	-9.66969
이라	-9.67043
▁촬영	-9.67158
▁debut	-9.67158
축	-9.6716
▁않다	-9.67193
표	-9.67255
▁cases	-9.67315
im	-9.67351
▁대화	-9.6742
▁이에	-9.67437
▁lives	-9.67448
▁restaurant	-9.67454
▁필요하다	-9.67473
▁waiting	-9.6748
팀	-9.67576
▁접	-9.67581
▁벌	-9.67591
▁takes	-9.6762
▁red	-9.67832
▁레	-9.67936
▁대학	-9.67952
▁않았	-9.68008
▁easily	-9.68042
▁bought	-9.68043
주의	-9.68099
했지만	-9.68115
시는	-9.68164
▁items	-9.68217
▁회의	-9.68233
ard	-9.68259
희	-9.68318
▁경찰은	-9.68432
▁center	-9.68515
▁killed	-9.68552
▁Na	-9.68581
▁좋을	-9.68644
▁집에서	-9.68684
▁만드는	-9.68708
▁hear	-9.68722
▁순간	-9.68728
▁model	-9.68734
▁존재	-9.68807
▁points	-9.68852
▁matter	-9.68919
별	-9.6896
▁처리	-9.69064
놓	-9.6911
▁데뷔	-9.69158
▁wear	-9.69213
▁법	-9.69255
▁메일	-9.69296
It	-9.69302
▁작업	-9.69347
기는	-9.69415
▁Pa	-9.69635
년에	-9.69697
▁돈	-9.69706
▁곳이	-9.69749
▁들어가	-9.69754
▁BTS	-9.69813
▁flu	-9.69871
▁flight	-9.69952
▁않았습니다	-9.69996
락	-9.70029
▁history	-9.70059
▁wife	-9.70059
▁현지	-9.70076
장은	-9.70208
ally	-9.70455
▁투자	-9.70457
▁word	-9.70495
▁hospital	-9.70507
▁black	-9.70514
ki	-9.70574
▁charge	-9.70599
▁clothes	-9.7063
▁운영	-9.70698
열	-9.70723
▁때는	-9.70739
▁것처럼	-9.70761
했으며	-9.70874
▁생각을	-9.70895
사가	-9.70932
말	-9.7094
▁영상	-9.70997
어서	-9.71017
명을	-9.71124
▁해도	-9.71162
▁사실을	-9.71189
▁contract	-9.71198
ang	-9.71343
ak	-9.71378
▁은행	-9.71404
rd	-9.71463
),	-9.71593
▁아닙니다	-9.71656
▁유럽	-9.71669
▁몰	-9.71715
▁행동	-9.71731
▁페	-9.71775
ut	-9.7182
▁key	-9.7202
▁제안	-9.72044
▁그때	-9.72096
▁저도	-9.72178
▁문제를	-9.72221
▁level	-9.7223
▁Hong	-9.72248
▁너에게	-9.72353
예	-9.72355
▁rain	-9.72402
▁유지	-9.72422
숙	-9.7244
▁J	-9.7246
▁weekend	-9.72484
▁industry	-9.7258
▁role	-9.72588
▁gift	-9.72697
▁경찰	-9.72728
ow	-9.72803
▁라	-9.72829
▁지금은	-9.72889
평	-9.72912
▁아버지	-9.72931
▁의해	-9.73087
되었다	-9.73179
ong	-9.73337
▁recently	-9.73345
▁likely	-9.73408
side	-9.73424
▁People	-9.73427
san	-9.73455
▁없었다	-9.73459
▁hold	-9.73469
▁Me	-9.73488
▁너를	-9.73493
▁부산	-9.73502
▁Ji	-9.736
ial	-9.73608
▁Obama	-9.7363
▁업체	-9.73642
▁폭	-9.73663
▁Le	-9.73746
one	-9.73763
씨가	-9.73801
di	-9.7387
▁Z	-9.73984
▁친	-9.73985
▁continue	-9.74001
▁보일	-9.74067
ized	-9.74155
▁ball	-9.74169
▁거에요	-9.7421
▁팬들	-9.74226
▁창	-9.74256
▁인도	-9.74313
▁이번에	-9.74336
cy	-9.74343
이기	-9.74368
했는데	-9.74408
▁played	-9.74433
▁grow	-9.74501
인이	-9.74602
▁hour	-9.74606
하기도	-9.74634
▁teacher	-9.74666
▁돌	-9.74709
망	-9.74715
▁di	-9.74733
▁질	-9.74735
▁explain	-9.74748
▁outside	-9.74758
▁되면	-9.74786
ot	-9.74796
▁scene	-9.74799
▁March	-9.7483
책을	-9.74856
▁con	-9.74899
▁가수	-9.74918
▁생각해	-9.74937
▁각각	-9.7495
cu	-9.74954
▁체	-9.74978
른	-9.75077
원이	-9.75083
달러	-9.751
하였다	-9.75154
▁view	-9.75156
▁control	-9.75234
기에	-9.75261
▁잔	-9.75365
ke	-9.7546
▁샘플	-9.75525
▁기간	-9.75646
▁field	-9.75687
▁한다고	-9.75695
▁cause	-9.75705
렌	-9.75764
▁computer	-9.75765
▁payment	-9.75767
▁station	-9.75895
▁우선	-9.75932
일까지	-9.75943
he	-9.75963
▁inside	-9.75998
▁사이즈	-9.76027
▁마련	-9.7605
돌	-9.76167
료	-9.76188
▁관	-9.76237
▁어머니	-9.76249
▁유명한	-9.76289
▁though	-9.763
▁생	-9.76329
▁늘	-9.76378
▁팬	-9.76435
▁분위기	-9.76487
_	-9.76488
▁along	-9.76506
▁road	-9.76516
▁많다	-9.76607
▁Most	-9.76643
▁외국인	-9.76669
▁가방	-9.76674
있	-9.7671
▁파일	-9.76732
▁누가	-9.76777
▁bank	-9.76784
em	-9.76834
▁평	-9.76914
▁books	-9.7696
▁관한	-9.76963
▁떠나	-9.7697
▁부탁	-9.77053
▁form	-9.77133
액	-9.77134
▁bag	-9.77136
▁대표	-9.77161
▁못한	-9.77173
▁위해서는	-9.7719
▁건물	-9.772
▁CD	-9.77212
▁위에	-9.77252
▁lunch	-9.77335
▁나가	-9.77355
▁정상	-9.77358
▁포함	-9.77396
▁않는다	-9.7747
▁aid	-9.77485
사를	-9.77485
▁busy	-9.77487
▁울	-9.7761
ton	-9.77623
▁한편	-9.77628
한테	-9.77631
▁바라	-9.77659
츠	-9.777
▁exchange	-9.77701
▁회	-9.77827
▁반대	-9.77843
▁이것이	-9.77918
▁interview	-9.77946
▁Busan	-9.77949
▁노출	-9.77964
▁exist	-9.77984
▁치료	-9.77999
ful	-9.78083
▁우승	-9.78206
▁연결	-9.78216
▁의견	-9.78234
▁needed	-9.78247
▁dog	-9.78291
▁나중에	-9.78437
▁먹	-9.78462
▁가능성이	-9.7847
▁finish	-9.78502
▁두고	-9.78523
▁United	-9.78561
▁굉장히	-9.78683
▁취소	-9.78695
J	-9.78708
월에	-9.78715
▁이동	-9.78904
▁fall	-9.78953
▁state	-9.78991
▁별	-9.79143
▁taken	-9.79149
▁fast	-9.79226
ven	-9.79272
움	-9.79289
▁American	-9.79392
tic	-9.79446
▁post	-9.79483
▁recommend	-9.79494
▁이미지	-9.79675
졌	-9.7972
▁결	-9.79867
▁날씨	-9.79873
▁national	-9.79898
▁civil	-9.79924
▁Ra	-9.79939
주는	-9.79953
▁말고	-9.80007
▁president	-9.80043
▁club	-9.80052
▁ex	-9.80094
▁Po	-9.80099
스는	-9.80117
밀	-9.80119
▁나타났다	-9.80225
▁building	-9.80309
▁승리를	-9.80361
님	-9.80366
▁한국인	-9.80442
▁가게	-9.80445
▁최선	-9.80462
▁decision	-9.80551
▁economic	-9.80551
▁이란	-9.80629
ism	-9.80661
▁society	-9.80676
▁address	-9.80678
▁숨	-9.80681
▁맛	-9.80703
▁okay	-9.80803
▁ship	-9.80856
▁질문	-9.80864
▁girl	-9.80936
▁주요	-9.80974
▁thinking	-9.8102
▁발전	-9.81069
▁focus	-9.81127
▁새로	-9.81147
씩	-9.81172
▁Saturday	-9.81181
▁shall	-9.81183
▁아마	-9.81256
▁wants	-9.81261
▁어디에	-9.81298
▁언론	-9.81308
▁군	-9.81421
령	-9.81505
▁따로	-9.81518
▁설치	-9.81559
▁한다는	-9.81612
▁dis	-9.81619
▁내려	-9.81714
▁Ba	-9.81744
▁Al	-9.81766
▁box	-9.81798
▁taste	-9.81842
▁달러	-9.81849
백	-9.81884
▁지급	-9.81892
▁add	-9.81918
▁rather	-9.81943
▁similar	-9.81943
곡	-9.82004
land	-9.82007
▁예정입니다	-9.82043
▁목소리	-9.82073
▁용	-9.82111
▁movies	-9.82148
▁달리	-9.82205
▁금	-9.82265
▁pick	-9.82289
▁June	-9.82354
▁ready	-9.82441
▁choose	-9.82454
▁single	-9.82483
스가	-9.82484
해주세요	-9.82495
▁지금까지	-9.82588
▁table	-9.82615
▁law	-9.8266
▁허	-9.82666
▁Women	-9.82711
▁white	-9.82711
▁악	-9.82822
▁세상	-9.8284
치는	-9.82863
▁명이	-9.82868
▁그러	-9.82876
▁의사	-9.82882
▁drama	-9.82918
씨는	-9.82919
▁한류	-9.82936
충	-9.82947
▁paper	-9.82969
▁신청	-9.82999
pi	-9.83033
▁돼	-9.83096
북	-9.83101
▁웃	-9.8315
che	-9.83179
▁역사	-9.83181
▁학생	-9.83334
▁봐	-9.83335
▁arrive	-9.83337
tra	-9.83355
▁Su	-9.83374
ung	-9.83385
일부터	-9.83402
하지만	-9.83471
밖에	-9.83524
▁led	-9.83579
▁앞서	-9.83592
▁fell	-9.8362
ish	-9.83638
▁pictures	-9.83645
▁만에	-9.83645
▁land	-9.83687
▁과정	-9.8376
gi	-9.8377
하시면	-9.83787
▁write	-9.83855
▁users	-9.83862
▁demand	-9.83874
▁Asian	-9.83891
▁표	-9.83907
▁related	-9.83923
▁screen	-9.84004
her	-9.84004
▁아니면	-9.84126
▁설명했다	-9.84151
▁July	-9.84183
▁talking	-9.84313
견	-9.84316
▁given	-9.84345
▁인사	-9.8438
ning	-9.84396
▁growth	-9.84462
▁tired	-9.84559
▁content	-9.84588
▁prepare	-9.8464
▁item	-9.84666
▁공간	-9.84666
일에	-9.84705
▁Tuesday	-9.84788
▁prevent	-9.84788
▁manager	-9.84838
▁image	-9.84861
▁Ca	-9.8489
ber	-9.849
▁according	-9.8493
▁anyone	-9.84956
▁act	-9.84975
▁brand	-9.84985
▁예술	-9.85022
▁물론	-9.8507
▁bed	-9.85109
겠어요	-9.85165
▁뉴욕	-9.85183
▁그대로	-9.85219
▁일은	-9.85307
▁선생님	-9.85355
▁넘어	-9.85423
▁그림	-9.85423
▁April	-9.85445
▁Michael	-9.85445
▁almost	-9.85445
▁pm	-9.8546
▁있었던	-9.85465
▁좋겠어요	-9.855
▁씨	-9.85523
▁Koreans	-9.85536
▁SNS	-9.85578
▁sign	-9.85581
▁상황이	-9.85586
하다고	-9.85602
▁위험	-9.85634
▁말이	-9.85639
▁기분이	-9.85701
있는	-9.85767
▁camera	-9.85807
▁walk	-9.85851
▁골	-9.85906
vo	-9.85915
kg	-9.85932
red	-9.85981
▁그게	-9.86054
▁turn	-9.86106
▁Would	-9.86108
▁진짜	-9.86111
▁병	-9.86155
▁공유	-9.86178
▁자연	-9.8618
▁옷	-9.86192
▁York	-9.86241
▁studying	-9.86243
▁직업	-9.86276
▁수정	-9.86281
▁포장	-9.86317
▁watching	-9.86339
▁메뉴	-9.86342
▁follow	-9.86343
▁CEO	-9.86344
▁이들이	-9.86376
the	-9.86445
dy	-9.86447
한다는	-9.86502
▁택시	-9.86513
▁Han	-9.86524
▁officials	-9.86536
▁기사	-9.86552
▁마세요	-9.86555
름	-9.86594
▁참석	-9.86667
▁playing	-9.86694
wa	-9.86703
▁보이	-9.86736
▁album	-9.86775
▁그에게	-9.86777
▁경쟁	-9.86843
∼	-9.86908
▁남성	-9.86909
▁la	-9.86969
▁증가	-9.87084
▁삼	-9.87107
항	-9.87137
▁pain	-9.87174
▁voice	-9.87177
▁만날	-9.87192
▁isn	-9.87208
mer	-9.87214
▁hurt	-9.87273
▁밀	-9.87295
▁introduce	-9.87341
▁stand	-9.87367
▁wonder	-9.87372
▁보이는	-9.87393
▁곡	-9.87484
▁particular	-9.87495
▁대부분	-9.87497
▁record	-9.87569
▁결국	-9.87601
▁아시아	-9.87605
▁attack	-9.87691
▁최고의	-9.87721
▁trade	-9.87729
▁example	-9.87853
메	-9.87868
골	-9.87875
▁g	-9.87916
▁accept	-9.8794
▁발생한	-9.88032
▁Jung	-9.88033
▁작성	-9.8805
▁역할을	-9.88177
▁계약	-9.88232
▁디	-9.88248
▁Ban	-9.88285
▁보통	-9.883
ring	-9.88329
▁third	-9.88405
▁Cho	-9.88483
▁북	-9.88483
▁pass	-9.8849
▁com	-9.88539
▁임	-9.8854
▁따르면	-9.8855
▁happened	-9.88551
▁카메라	-9.88634
▁needs	-9.88653
ice	-9.88866
▁file	-9.88916
▁value	-9.8892
▁고양이	-9.88941
▁마음에	-9.88958
▁끼	-9.88959
▁둘	-9.88976
▁사용하는	-9.89004
▁goes	-9.89014
▁거래	-9.89038
다가	-9.89044
article	-9.8907
▁Min	-9.89074
▁else	-9.89214
리가	-9.89244
▁enter	-9.89262
▁할인	-9.89293
▁필요합니다	-9.89337
▁알려졌다	-9.89363
▁spend	-9.89419
▁희망	-9.89445
wi	-9.89479
▁답변	-9.89491
▁가득	-9.89497
▁것과	-9.89515
▁복	-9.89582
▁instead	-9.89624
▁dance	-9.89632
▁목	-9.8965
▁brother	-9.89653
▁haven	-9.89714
▁workers	-9.89818
▁eating	-9.89843
▁plans	-9.89923
혀	-9.89948
▁나오는	-9.89961
▁이메일	-9.9008
수가	-9.90081
▁mom	-9.90187
▁참가	-9.90195
▁Just	-9.90201
▁shot	-9.90244
▁얼굴	-9.90276
로서	-9.90332
▁대해서는	-9.90427
▁운전	-9.90443
]	-9.90453
▁반드시	-9.90453
▁Gyeonggi	-9.90454
▁밥	-9.90481
▁worked	-9.90574
▁국민	-9.90583
▁때문이에요	-9.90594
▁홈런	-9.90598
▁생각하는	-9.90651
▁경기도	-9.90688
▁review	-9.90737
▁star	-9.90739
▁African	-9.9075
셨	-9.90793
▁개의	-9.90801
▁Who	-9.90801
tro	-9.90965
▁airport	-9.91016
▁oil	-9.91029
▁sets	-9.91074
팅	-9.91102
▁고민	-9.9111
▁results	-9.91116
했	-9.91136
▁보니	-9.91153
▁공개	-9.91167
▁빈	-9.91178
▁주장했다	-9.91188
key	-9.91197
▁개최	-9.91259
▁서류	-9.91326
▁그동안	-9.91368
▁속에	-9.9142
▁시즌	-9.91426
▁알게	-9.9144
▁받았다	-9.91453
▁아이들	-9.91473
▁공급	-9.91479
▁Of	-9.91495
족	-9.91505
▁준	-9.91576
▁나온	-9.91632
▁questions	-9.91642
▁listen	-9.91692
하자	-9.91693
▁구조	-9.91704
▁economy	-9.9171
▁출발	-9.91721
▁damage	-9.91844
▁왕	-9.91857
ac	-9.91886
▁member	-9.91909
▁보기	-9.91924
자들이	-9.91946
▁사항	-9.92034
▁지나	-9.92053
▁boy	-9.92135
▁음반	-9.9214
cm	-9.92181
▁축구	-9.92209
한다고	-9.92215
스러운	-9.92236
▁poor	-9.92296
▁menu	-9.92303
▁약속	-9.92306
▁dollars	-9.92338
▁스타일	-9.92493
패	-9.9255
▁Which	-9.92557
▁앨범	-9.92557
곤	-9.92715
▁By	-9.92729
▁누군가	-9.92739
ab	-9.92797
▁military	-9.92841
▁prepared	-9.92859
▁호주	-9.92912
▁forward	-9.92947
▁sea	-9.92957
les	-9.92973
▁purchase	-9.92978
▁탈	-9.93056
▁승리	-9.93066
향	-9.93088
fe	-9.93101
▁대부분의	-9.9311
▁reply	-9.93126
tion	-9.93201
▁보호	-9.93228
▁기능	-9.93281
침	-9.93289
▁판단	-9.93444
▁정책	-9.93449
▁longer	-9.93486
▁우리나라	-9.93648
애	-9.93649
자를	-9.93655
▁일찍	-9.93716
▁주변	-9.93777
▁지불	-9.93799
▁현	-9.93808
par	-9.93821
▁staff	-9.93841
▁arrived	-9.93861
능	-9.93906
▁plane	-9.93948
▁husband	-9.93985
▁currently	-9.94066
;	-9.94129
▁City	-9.94207
▁베트남	-9.94273
▁대회	-9.94354
▁돼요	-9.94355
▁좋지	-9.94375
▁worry	-9.94417
▁weather	-9.94417
▁가면	-9.9442
▁develop	-9.94445
▁Although	-9.94448
것	-9.94487
▁따	-9.94544
▁전쟁	-9.94586
▁실제로	-9.94645
스타	-9.94693
해도	-9.9472
▁넘는	-9.94721
▁답	-9.94793
▁trust	-9.94996
▁그렇다면	-9.94996
que	-9.95155
nt	-9.95204
이란	-9.95216
▁apply	-9.95308
▁rise	-9.95309
▁그리	-9.95349
▁주로	-9.95434
▁식	-9.9546
킹	-9.95534
▁생각한다	-9.95572
▁인상	-9.95585
▁expect	-9.95673
▁농	-9.95698
line	-9.95719
▁CNN	-9.95831
▁가격이	-9.95916
▁번호	-9.95935
▁photos	-9.95998
▁daughter	-9.96018
▁영어를	-9.96028
▁Con	-9.96065
▁위치	-9.96101
▁패	-9.9611
▁받는	-9.96139
▁church	-9.96165
▁특별한	-9.96273
▁cell	-9.96319
▁보아	-9.96347
▁tour	-9.96382
ving	-9.96401
▁simple	-9.96459
▁winter	-9.96477
▁사망	-9.96529
▁테스트	-9.96616
▁경매	-9.96626
▁songs	-9.96673
▁sad	-9.96678
▁ticket	-9.96688
광	-9.96723
▁상승	-9.9678
▁sound	-9.96795
▁former	-9.96881
▁trend	-9.96903
▁common	-9.96908
con	-9.96925
ged	-9.9693
▁출	-9.97053
end	-9.97064
▁St	-9.97094
대가	-9.9713
▁v	-9.97132
▁역	-9.97176
▁실제	-9.97192
▁refund	-9.97199
▁일단	-9.97201
ja	-9.97207
▁type	-9.97264
▁한국어	-9.97401
▁dead	-9.97527
▁미래	-9.97572
▁stock	-9.9759
▁것이라는	-9.97613
os	-9.97621
▁Wednesday	-9.97645
▁floor	-9.97645
▁콘서트	-9.97645
▁계산	-9.97664
ee	-9.97762
▁때까지	-9.97822
▁current	-9.97859
ea	-9.97867
▁Da	-9.97913
▁language	-9.97944
▁베네수엘라	-9.97944
▁sister	-9.97951
▁직원	-9.9797
▁taxi	-9.98034
▁권	-9.98049
▁app	-9.98094
▁좋습니다	-9.98118
▁잭슨	-9.98244
▁behind	-9.98244
▁지지	-9.98326
▁광고	-9.98336
▁주에	-9.98492
she	-9.98494
압	-9.98519
▁금액	-9.98556
▁일자리	-9.98572
▁thank	-9.98595
▁events	-9.98604
▁여름	-9.98617
▁좋아합니다	-9.98654
▁제품은	-9.9867
ph	-9.9867
▁whole	-9.98693
▁court	-9.98695
▁smile	-9.98695
▁해외	-9.98711
으로부터	-9.9874
▁놀	-9.98766
▁park	-9.98791
▁Li	-9.98799
▁student	-9.98804
▁Does	-9.98813
▁period	-9.98846
▁discount	-9.98847
께서	-9.98863
▁solve	-9.99006
▁응	-9.99111
▁동물	-9.99207
mon	-9.9924
▁recent	-9.99241
▁특	-9.9929
¡	-9.993
▁가까운	-9.993
▁website	-9.993
▁지하철	-9.99301
거리	-9.99383
▁drive	-9.99389
세를	-9.99403
되	-9.99421
▁것인지	-9.99526
▁necessary	-9.99603
▁이벤트	-9.99603
▁주고	-9.99664
▁가능합니다	-9.99671
▁전부	-9.9974
▁선거	-9.99741
송	-9.99743
▁너희	-9.9975
▁첨부	-9.99756
▁않으면	-9.9977
▁snow	-9.99776
베	-9.99879
▁Samsung	-9.99909
▁담	-9.99909
▁position	-9.99946
▁hate	-9.99954
▁딸	-9.99977
ig	-10.0003
독	-10.0003
▁festival	-10.0006
▁출신	-10.0009
▁부시	-10.0012
상을	-10.0018
▁[	-10.0028
▁choice	-10.0037
▁빠른	-10.0037
fa	-10.0039
▁Moon	-10.0042
▁Ka	-10.0042
▁express	-10.0043
▁sports	-10.0043
들에	-10.0045
▁delivery	-10.0058
ding	-10.0063
보다는	-10.0064
술	-10.0068
▁po	-10.007
▁현실	-10.0071
▁스포츠	-10.0071
▁색	-10.0076
▁deep	-10.0076
▁정치	-10.0079
▁accident	-10.0082
▁technology	-10.0083
▁인생	-10.0084
▁독	-10.0085
▁seat	-10.0088
▁교회	-10.0088
▁감정	-10.009
▁가정	-10.0095
▁largest	-10.0095
▁unique	-10.0098
▁마치	-10.0103
▁driver	-10.0105
▁전문	-10.0108
▁어려운	-10.0114
▁attached	-10.0117
머	-10.012
tor	-10.012
▁fee	-10.0124
dong	-10.0126
▁round	-10.0127
▁Not	-10.0129
▁부족	-10.0129
글	-10.0129
▁cr	-10.0129
▁sometimes	-10.0129
▁Jeju	-10.013
▁fit	-10.0135
▁bar	-10.0144
▁fish	-10.0146
▁국제	-10.0148
▁happen	-10.0149
▁figure	-10.016
▁스트레스	-10.016
▁X	-10.0161
▁대중	-10.0171
▁Internet	-10.0176
▁없다고	-10.0177
▁Ga	-10.0179
줍니다	-10.0179
▁지속	-10.0179
▁합	-10.0183
▁fan	-10.0187
했다는	-10.019
▁Jackson	-10.0191
▁활용	-10.0193
▁self	-10.0198
레이	-10.0199
ction	-10.0202
염	-10.0202
▁eye	-10.0203
▁단지	-10.0207
▁하나님	-10.0215
und	-10.0215
▁부상	-10.0216
▁기원합니다	-10.0223
▁루	-10.0224
▁도와	-10.0224
새	-10.023
we	-10.0232
▁돌아가	-10.0232
▁growing	-10.0234
▁카드	-10.0234
▁아기	-10.0235
▁reach	-10.0238
▁스페인	-10.0238
▁유명	-10.0238
▁투	-10.024
▁향	-10.0245
▁기존	-10.0245
▁대변인은	-10.0248
▁보낸	-10.0248
기로	-10.025
▁글로벌	-10.0254
▁Jesus	-10.0254
▁좋아요	-10.0257
▁넣	-10.0261
▁점심	-10.0268
순	-10.0269
▁character	-10.027
어야	-10.0272
ex	-10.0272
철	-10.0274
▁신경	-10.0276
벌	-10.028
싱	-10.0285
▁October	-10.0285
▁worried	-10.0285
▁학교에	-10.029
▁ma	-10.0293
ran	-10.0298
▁마을	-10.03
▁송	-10.0316
▁Among	-10.0317
▁들고	-10.032
▁loved	-10.0328
▁Her	-10.0329
▁맞는	-10.033
▁opened	-10.0331
▁훨씬	-10.0332
례	-10.0334
▁style	-10.0338
▁스타	-10.0348
▁방법이	-10.0352
day	-10.0353
▁LG	-10.0353
▁나한테	-10.0354
이야	-10.0357
랜드	-10.0358
▁leader	-10.0359
쪽	-10.0361
▁January	-10.0364
▁pretty	-10.0364
▁lower	-10.0366
▁Fla	-10.0366
▁jobs	-10.0375
▁save	-10.0383
sta	-10.0385
▁miss	-10.0387
▁exam	-10.0395
▁House	-10.0396
▁join	-10.0399
▁attract	-10.04
효	-10.0404
▁prices	-10.0409
▁confirmed	-10.0411
에요	-10.0416
▁passed	-10.0417
▁직장	-10.0418
▁극	-10.042
▁시간에	-10.0427
▁식당	-10.043
▁인정	-10.0431
입니까	-10.0442
▁prefer	-10.0443
▁매장	-10.0446
▁같은데	-10.045
▁어디서	-10.0455
▁미국의	-10.0458
▁earlier	-10.0459
▁policy	-10.0459
▁부분이	-10.0459
▁과거	-10.0461
▁대로	-10.0463
▁아직도	-10.0467
채	-10.0468
▁baby	-10.0475
▁근무	-10.0477
ster	-10.0479
▁점이	-10.048
▁customer	-10.0481
▁heat	-10.0484
▁받지	-10.0489
나는	-10.0492
▁장갑	-10.0492
▁좋아해요	-10.0501
였습니다	-10.0505
ide	-10.0506
▁사이트	-10.0522
▁couple	-10.0523
▁아름다운	-10.0523
▁anymore	-10.0523
ng	-10.0531
▁사람들에게	-10.0533
▁아내	-10.0534
▁보냈	-10.0537
▁싶	-10.0543
▁환경	-10.0544
구나	-10.0549
▁Facebook	-10.0556
▁Thursday	-10.0556
▁vacation	-10.0556
▁페이스북	-10.0556
▁method	-10.0556
▁offer	-10.0556
▁planning	-10.0557
▁나무	-10.0564
▁America	-10.0567
▁보다	-10.0573
▁active	-10.0581
▁lack	-10.0589
력이	-10.0592
▁말해	-10.0592
▁ice	-10.0597
▁cover	-10.0605
du	-10.0605
▁checked	-10.0608
▁higher	-10.0615
▁Si	-10.0618
▁차이	-10.0621
▁고려	-10.0623
▁ways	-10.0623
았	-10.0634
▁correct	-10.0637
▁score	-10.0638
▁맛있	-10.064
▁암	-10.064
번째	-10.064
▁자세	-10.0643
▁해당하는	-10.0643
rn	-10.0643
▁자유	-10.0644
▁써	-10.0645
만큼	-10.0645
▁Choi	-10.0645
▁weeks	-10.0652
힌	-10.0653
men	-10.0665
▁hands	-10.0671
▁올라	-10.0678
▁캐	-10.068
▁success	-10.0685
▁존	-10.0687
▁기준	-10.0688
jin	-10.0688
ji	-10.0689
시면	-10.069
▁sample	-10.0692
▁servants	-10.0693
변	-10.0694
▁근	-10.0695
▁민	-10.0699
▁주소	-10.0704
▁created	-10.0709
▁자체	-10.0712
▁parts	-10.0713
▁healthy	-10.0713
한다면	-10.0714
▁August	-10.0718
▁subway	-10.0719
▁힘	-10.0724
틀	-10.0729
▁동영상	-10.073
▁im	-10.0732
▁미리	-10.0739
▁없었	-10.0743
력을	-10.0747
▁제품이	-10.0748
▁강아지	-10.0751
▁종	-10.0755
▁테	-10.0758
▁옷을	-10.0761
막	-10.0766
치고	-10.0767
▁Okay	-10.0768
▁쓸	-10.0775
▁step	-10.0775
▁속에서	-10.078
▁research	-10.0782
▁신고	-10.0786
▁door	-10.0791
▁오히려	-10.0801
▁고통	-10.0803
▁기다리고	-10.0807
탈	-10.0807
▁natural	-10.0809
▁중인	-10.081
▁최고가	-10.0815
▁exercise	-10.0817
▁갑자기	-10.0817
척	-10.0831
걸	-10.0832
▁education	-10.0834
▁환자	-10.0837
▁이들은	-10.0841
억원	-10.0846
▁sense	-10.0852
▁바다	-10.0852
▁raise	-10.0852
▁이스라엘	-10.0853
▁huge	-10.0858
▁쉬	-10.086
▁곳에	-10.0866
▁...	-10.0867
▁비키니	-10.0867
페	-10.0868
▁최종	-10.0869
시까지	-10.0871
▁Jin	-10.0871
▁deliver	-10.0876
▁낮	-10.0878
▁shop	-10.0878
ect	-10.0879
▁상당	-10.0883
▁energy	-10.0884
▁모양	-10.0885
▁additional	-10.0887
하길	-10.0887
▁요금	-10.089
으니	-10.0891
▁prep	-10.0894
▁sp	-10.0895
▁검사	-10.0897
찰	-10.0903
▁Bush	-10.0905
▁보고서	-10.0905
▁죄송합니다	-10.0909
▁인기가	-10.091
협	-10.0911
▁행	-10.0916
▁마무리	-10.0917
▁천	-10.092
chi	-10.0921
▁있었어요	-10.0924
▁책임	-10.0929
▁콘텐츠	-10.0934
추신수	-10.0934
▁되었다	-10.0936
▁아들	-10.0936
▁meal	-10.0941
▁forget	-10.0943
▁진정	-10.0943
▁opinion	-10.0943
▁safe	-10.0945
▁costs	-10.095
▁출연	-10.0954
▁Pro	-10.0956
▁SK	-10.0964
bearing	-10.0967
ack	-10.0969
▁announced	-10.0972
▁시대	-10.0975
했어	-10.0979
▁불구하고	-10.0984
▁Susan	-10.0985
▁있어야	-10.0988
ns	-10.0994
▁wasn	-10.0999
▁release	-10.1006
▁문의	-10.1013
▁Or	-10.1017
▁looked	-10.1018
▁발송	-10.102
▁시도	-10.1031
▁glad	-10.1035
▁proceed	-10.1035
▁From	-10.1035
▁positive	-10.1044
▁Ama	-10.1049
▁Christmas	-10.1052
▁아는	-10.1053
드려	-10.1057
감을	-10.1061
▁region	-10.1064
▁quality	-10.1065
ize	-10.1069
▁player	-10.1069
▁areas	-10.1074
▁Jo	-10.1079
▁사람들을	-10.108
▁born	-10.1081
하기로	-10.1081
▁Songdo	-10.1087
▁학	-10.1088
▁page	-10.1091
▁caused	-10.1097
▁정리	-10.1102
▁홍콩	-10.1103
▁수잔	-10.1104
▁와서	-10.1112
▁More	-10.1115
▁하는지	-10.1117
ah	-10.1118
▁거기	-10.1119
▁credit	-10.112
=	-10.112
▁죄송하지만	-10.112
▁extra	-10.1122
▁allow	-10.1125
▁축제	-10.1126
덕	-10.1137
▁환불	-10.1138
냐	-10.1142
드리	-10.1148
▁기후변화	-10.1154
▁제시	-10.1156
▁Germany	-10.1159
▁관해	-10.1166
측	-10.1168
▁protect	-10.117
▁John	-10.1171
▁holiday	-10.1171
▁Day	-10.118
▁대비	-10.118
▁검토	-10.119
동영상	-10.1194
▁mail	-10.1197
▁bill	-10.1205
▁Cup	-10.1206
▁이탈리아	-10.1206
▁feeling	-10.1207
▁빠르게	-10.1209
▁cat	-10.1213
▁사랑하는	-10.1214
▁부담	-10.122
▁길이	-10.1223
▁moved	-10.1227
▁AI	-10.1228
▁France	-10.124
▁못했다	-10.1241
▁크기	-10.1244
▁겨울	-10.1244
▁lose	-10.1244
슬	-10.1247
▁이거	-10.1248
%)	-10.1251
▁사과	-10.1251
▁appeared	-10.1256
▁정신	-10.1257
shi	-10.1258
▁만족	-10.1259
에선	-10.1272
▁daily	-10.1275
▁Whil	-10.1276
▁Here	-10.1285
▁wearing	-10.129
▁places	-10.1292
▁delicious	-10.1292
물을	-10.1294
▁일반	-10.1294
▁고객님	-10.1295
▁States	-10.1301
▁투표	-10.1302
몬	-10.131
▁birthday	-10.131
▁도전	-10.1311
sion	-10.1311
▁비해	-10.1313
▁Iran	-10.132
▁Shin	-10.1325
▁employees	-10.1325
▁퍼	-10.1326
▁respect	-10.1327
▁완료	-10.1328
▁어린이	-10.1329
▁상대	-10.1329
▁상처	-10.133
서는	-10.1333
▁finished	-10.1335
▁Iraq	-10.1336
▁ahead	-10.1339
▁기자	-10.1343
으나	-10.1352
woo	-10.1356
▁consider	-10.1356
ward	-10.1356
▁듯	-10.1363
지가	-10.1363
▁황	-10.1368
▁눈에	-10.1369
▁스리	-10.1371
들도	-10.1377
▁싶은데	-10.1377
ny	-10.1378
▁quite	-10.1383
자들은	-10.1386
▁services	-10.1392
폭	-10.1394
▁personal	-10.1395
▁domestic	-10.1397
▁Flying	-10.1397
▁출시	-10.14
ft	-10.1406
만원	-10.1409
▁핸드폰	-10.1415
▁소장품	-10.1415
▁드리겠습니다	-10.1421
▁catch	-10.1421
▁directly	-10.1421
▁gr	-10.1425
▁남아	-10.143
▁average	-10.1432
ble	-10.1433
곳	-10.1436
cho	-10.1446
▁ten	-10.1454
업체	-10.1458
▁싶지	-10.1458
▁호의	-10.146
hu	-10.1466
▁December	-10.1468
▁knew	-10.1468
▁찾을	-10.1468
▁Glove	-10.1468
▁WBC	-10.1468
▁그걸	-10.1472
▁사용자	-10.1474
▁분야	-10.1476
▁attend	-10.148
ping	-10.148
▁owner	-10.1482
▁above	-10.1489
▁action	-10.1489
▁망	-10.1496
▁reading	-10.1498
▁불러	-10.1499
▁앞에	-10.15
▁private	-10.1503
▁찾는	-10.1503
▁title	-10.1503
▁forecaster	-10.1505
▁기본	-10.1506
▁밖에	-10.1508
ze	-10.1508
▁평화	-10.1512
▁등장	-10.1514
졌습니다	-10.1519
▁언제나	-10.152
>	-10.1521
▁개선	-10.1524
▁lie	-10.1528
올	-10.1532
▁광	-10.1534
었던	-10.1554
▁능력	-10.1563
▁없다는	-10.1566
▁노래를	-10.1568
필	-10.157
▁fresh	-10.1574
▁thwart	-10.1574
▁작렬	-10.1574
▁addition	-10.1589
▁spread	-10.1589
▁모두가	-10.1591
점점	-10.1591
▁stress	-10.1592
▁느낄	-10.1592
▁Hello	-10.1592
▁단어	-10.1598
ka	-10.16
act	-10.1601
▁문제는	-10.1601
▁running	-10.1611
▁changes	-10.1626
쿠	-10.1626
▁예약주문	-10.1628
戰	-10.1628
▁편지	-10.1629
▁cool	-10.1632
▁설	-10.1633
▁자신들	-10.1634
▁땅	-10.1635
▁뒤에	-10.1636
▁차례	-10.1641
▁효과	-10.1641
▁제출	-10.1642
▁Bu	-10.1643
▁산업	-10.1644
▁brunt	-10.1646
▁크리스마스	-10.1646
▁개도국	-10.1646
▁보낼	-10.1648
▁추천	-10.1649
스크	-10.1652
▁climat	-10.1655
▁Boyle	-10.1665
▁rice	-10.1665
▁뉴스	-10.1668
▁itself	-10.1672
규	-10.1677
▁November	-10.1682
▁blue	-10.1682
▁document	-10.1683
▁연습	-10.1685
ors	-10.1686
▁learned	-10.1686
▁letter	-10.169
▁이걸	-10.169
▁작가	-10.1691
▁젊은	-10.1695
▁meetin	-10.1698
▁biggest	-10.17
▁mobile	-10.17
▁높이	-10.17
won	-10.1703
▁카페	-10.1707
▁생각에	-10.1707
▁데이터	-10.171
▁기도	-10.1713
▁press	-10.1715
▁형	-10.1717
▁relationship	-10.1718
▁좋겠습니다	-10.172
▁followed	-10.1725
▁Russia	-10.173
▁목적	-10.1732
▁원래	-10.1732
극	-10.1733
▁risk	-10.1737
게요	-10.1738
▁승	-10.1738
▁등록	-10.1743
개가	-10.1754
▁survey	-10.1755
▁ground	-10.1755
▁시기	-10.1756
▁것보다	-10.1761
시장	-10.1763
얼	-10.1766
▁못하고	-10.1766
▁남편	-10.177
▁대상으로	-10.177
▁meat	-10.1771
▁캐나다	-10.1772
▁이전	-10.1772
▁Police	-10.1773
▁worth	-10.1777
▁안에서	-10.1778
▁include	-10.1779
▁Kong	-10.178
▁옆에	-10.1781
▁제게	-10.1783
서를	-10.1786
▁Last	-10.1788
▁별로	-10.1793
lin	-10.1794
▁yourself	-10.1794
od	-10.1794
▁Lo	-10.1795
▁지내	-10.1796
찬	-10.1798
▁않았어요	-10.1799
▁groups	-10.1804
▁태	-10.1804
명은	-10.1806
▁improve	-10.1808
nam	-10.181
▁성적	-10.1817
▁guide	-10.1828
스를	-10.1829
▁알려주세요	-10.1831
▁내게	-10.1831
인들이	-10.1832
▁doctor	-10.1833
ship	-10.1834
▁Ta	-10.1835
▁병원	-10.1836
▁사이에	-10.1842
▁나머지	-10.1846
▁절	-10.1846
▁힘든	-10.1849
▁철	-10.185
낸	-10.1853
▁꽃	-10.1858
ya	-10.1861
▁afraid	-10.1864
▁돌아	-10.1868
▁유일	-10.1871
▁&	-10.1881
▁말레이시아	-10.1883
▁avoid	-10.1883
▁부인	-10.1883
▁어떠한	-10.1888
▁생일	-10.1888
▁details	-10.1892
▁다음에	-10.1896
▁긴	-10.1903
ens	-10.1906
ging	-10.1907
▁citizens	-10.191
▁현대	-10.1911
▁draw	-10.1913
cent	-10.1914
▁혹은	-10.1921
CO	-10.1923
▁<	-10.1925
▁cars	-10.1925
ries	-10.1934
▁singer	-10.1936
취	-10.1936
▁테러	-10.1942
▁tax	-10.1943
없이	-10.1951
▁육	-10.1954
이지만	-10.1962
▁대하여	-10.1973
▁눈이	-10.1982
▁Kang	-10.1983
▁수밖에	-10.1987
▁자료	-10.199
▁further	-10.1994
▁writing	-10.1994
▁수출	-10.1996
되기	-10.1999
▁Jae	-10.2001
▁그래	-10.2003
▁dramas	-10.2008
▁학생들이	-10.2009
▁다리	-10.201
치를	-10.201
경기	-10.2019
▁Cha	-10.202
▁skills	-10.2021
▁ride	-10.2024
work	-10.203
▁driving	-10.2031
▁날짜	-10.2032
▁advance	-10.2035
▁training	-10.2036
▁수입	-10.2038
▁weight	-10.2047
▁Mar	-10.2049
▁받았습니다	-10.205
▁applied	-10.205
▁듣고	-10.2051
▁increased	-10.2059
▁하다	-10.206
▁Asia	-10.2063
▁선정	-10.2064
▁text	-10.2068
▁himself	-10.207
mb	-10.2074
▁헤	-10.2074
▁중에서	-10.2083
▁못하는	-10.2087
▁boyfriend	-10.2088
▁security	-10.2088
▁mo	-10.2099
▁사람에게	-10.21
▁activities	-10.2107
▁업데이트	-10.2107
▁giving	-10.2107
▁Sorry	-10.2109
▁말한다	-10.211
▁Sun	-10.211
▁그곳에	-10.2117
▁Europe	-10.2123
▁article	-10.2133
▁wind	-10.2135
▁보이지	-10.2137
▁곳에서	-10.2137
▁모여	-10.214
▁abroad	-10.2144
▁Di	-10.215
si	-10.2158
▁왔습니다	-10.2163
Q	-10.2164
▁아무것	-10.2165
▁에너지	-10.217
▁이제는	-10.217
▁production	-10.2177
▁안정	-10.218
▁client	-10.2182
▁멋진	-10.2182
▁완전히	-10.2184
였	-10.2189
▁base	-10.2189
표를	-10.2198
▁마지막으로	-10.22
▁논의	-10.2203
▁sick	-10.2205
▁장면	-10.2209
▁meaning	-10.2213
▁작	-10.2214
사는	-10.2217
▁풀	-10.2223
▁shown	-10.2225
▁기반	-10.2226
▁생명	-10.2228
음을	-10.2231
▁다만	-10.2234
▁깨	-10.2245
▁showing	-10.225
▁터	-10.2256
▁invoice	-10.2259
▁fear	-10.2259
▁fair	-10.2259
케	-10.2263
▁kids	-10.2264
지지	-10.227
트리	-10.2276
▁confirm	-10.2276
▁상황에서	-10.2278
▁KRW	-10.2278
espite	-10.2278
▁shopping	-10.2278
▁die	-10.2279
▁director	-10.228
▁무엇이	-10.2282
▁nation	-10.2283
▁짓	-10.2284
▁누	-10.2286
han	-10.2291
▁actor	-10.2294
되면	-10.2297
▁날이	-10.2297
▁공장	-10.2299
▁Thanks	-10.2306
▁주실	-10.2307
시켜	-10.2311
▁college	-10.2316
▁최대한	-10.2316
▁확보	-10.2318
황	-10.232
수록	-10.2324
▁섬	-10.2324
풍	-10.2324
▁동의	-10.2326
리아	-10.2329
▁viewers	-10.2332
▁받았	-10.2334
년이	-10.2336
▁지도	-10.2342
ence	-10.2342
den	-10.2347
▁내용이	-10.2348
ser	-10.2349
ron	-10.2355
▁o	-10.2358
▁앱	-10.2361
▁explained	-10.2365
▁이게	-10.2367
fo	-10.2368
▁단체	-10.2373
▁방식	-10.2374
tal	-10.2375
▁때마다	-10.2385
▁Seo	-10.2389
▁broke	-10.2389
딩	-10.2393
닝	-10.2393
▁response	-10.2393
▁끝난	-10.2394
▁board	-10.2395
▁그렇지	-10.2403
시부터	-10.2405
▁reasons	-10.2407
▁좋겠어	-10.2409
율	-10.2411
▁financial	-10.2413
▁twice	-10.2413
하다는	-10.2415
▁Hi	-10.2424
▁tonight	-10.2429
▁female	-10.2432
착	-10.2434
▁느낌	-10.2434
▁agree	-10.2434
택	-10.2435
▁지방	-10.2437
▁animals	-10.2442
▁합의	-10.2443
트를	-10.2447
TV	-10.245
▁티켓	-10.2452
▁힘들	-10.2456
uk	-10.246
▁AP	-10.2464
년간	-10.2468
mail	-10.2469
▁sweet	-10.2471
▁나왔다	-10.2471
▁seven	-10.2471
▁지켜	-10.2472
▁아빠	-10.2472
▁윤	-10.2472
▁팬들이	-10.2475
권을	-10.2479
▁Hu	-10.2486
▁평균	-10.2486
ain	-10.2486
▁dress	-10.2493
▁가능하다	-10.2497
대를	-10.25
▁음	-10.2505
▁관련된	-10.2508
▁cross	-10.251
▁guess	-10.251
▁온몸	-10.2511
▁Will	-10.2517
▁vote	-10.2521
쯤	-10.2524
▁안내	-10.2524
▁탄	-10.2526
▁하락	-10.2526
▁외국	-10.2528
▁search	-10.2529
▁chicken	-10.253
▁target	-10.253
▁보였다	-10.253
▁안녕하세요	-10.253
집니다	-10.2535
▁생각하고	-10.2548
▁익	-10.2548
▁끝	-10.255
▁married	-10.255
▁늦게	-10.255
▁달라	-10.255
▁청소	-10.2557
▁shoes	-10.2561
▁perfect	-10.2561
▁included	-10.2566
▁speed	-10.257
▁영업	-10.2572
▁어린	-10.2574
▁이유로	-10.2576
▁감독이	-10.2578
▁조건	-10.2583
▁넣어	-10.2583
께	-10.2587
▁제기	-10.2589
▁political	-10.2589
▁written	-10.2592
▁행복한	-10.2594
▁붙	-10.2595
▁빛	-10.2599
▁내부	-10.2603
▁environment	-10.2609
▁하늘	-10.261
▁우려	-10.2612
▁audience	-10.2623
▁transfer	-10.2628
▁스마트폰	-10.2629
ple	-10.2629
▁Canada	-10.263
▁도로	-10.2634
▁이곳에	-10.2635
▁effect	-10.2642
▁행위	-10.2643
지에	-10.2648
▁actually	-10.2653
했는지	-10.2653
▁통해서	-10.2661
▁부르	-10.2664
▁mistake	-10.2664
▁반응	-10.2667
▁solution	-10.2669
▁오르	-10.2674
었	-10.2681
▁가져	-10.2682
▁non	-10.2682
▁Ja	-10.2685
▁residents	-10.2687
▁reservation	-10.2689
▁dark	-10.2689
ud	-10.269
▁진출	-10.2692
▁나올	-10.2694
▁너무나	-10.2695
▁street	-10.2697
j	-10.2698
▁급	-10.2705
▁build	-10.2708
▁Vietnam	-10.2709
▁competition	-10.2709
▁machine	-10.2709
▁찾고	-10.2709
▁agency	-10.2709
▁caught	-10.2709
▁했는데	-10.2711
▁이와	-10.2715
ify	-10.2718
▁올리	-10.2722
시킬	-10.2723
▁드리	-10.2725
▁National	-10.2729
▁친구들과	-10.2729
하나요	-10.2732
▁멕시코	-10.2733
’(	-10.2736
진다	-10.2736
▁effort	-10.2744
▁appear	-10.2746
▁summit	-10.2749
▁게임을	-10.2749
▁nearby	-10.275
▁via	-10.2753
▁turned	-10.2756
▁처음으로	-10.276
▁수행	-10.2768
▁helped	-10.2769
▁회담	-10.277
▁파악	-10.277
▁만난	-10.2772
▁홍보	-10.2772
▁귀사	-10.2772
",	-10.2774
▁분명	-10.2774
▁프로	-10.278
▁판	-10.2783
▁삼성	-10.2787
▁French	-10.2789
▁September	-10.2789
if	-10.2797
lock	-10.2801
▁처	-10.2802
pro	-10.2802
▁이곳에서	-10.281
▁perform	-10.2811
▁싶다	-10.2813
▁War	-10.2813
적이	-10.2815
▁단계	-10.2817
▁상황을	-10.2819
▁만들고	-10.2822
rt	-10.2823
▁금요일	-10.283
▁trouble	-10.285
▁wrote	-10.285
봉	-10.2851
▁비가	-10.2859
▁실시	-10.286
▁Vi	-10.2861
▁도와주	-10.2862
▁general	-10.2862
▁공식	-10.2862
▁원인	-10.2862
▁응원	-10.2863
▁침	-10.2863
▁주말	-10.2865
▁Car	-10.2867
▁cancel	-10.2873
▁Oh	-10.2878
답	-10.2878
▁가능성	-10.2881
▁만한	-10.2881
lay	-10.2885
▁수는	-10.2887
▁access	-10.2891
▁regret	-10.2891
▁즐거운	-10.2891
▁previous	-10.2902
▁구성	-10.2904
▁마리	-10.2905
▁reports	-10.2909
▁bright	-10.2911
▁사실이	-10.2914
▁최소	-10.2916
ory	-10.2919
▁활동을	-10.2926
▁지구	-10.2927
듯	-10.2927
▁appreciate	-10.2931
▁girlfriend	-10.2932
▁기다리	-10.2932
▁무엇인지	-10.2932
▁좋았	-10.2935
▁practice	-10.2937
▁Australia	-10.294
하러	-10.2941
하시는	-10.2941
▁하나에	-10.2942
▁형태	-10.2944
▁소식을	-10.2944
▁있으니	-10.2945
▁선적	-10.2946
▁teach	-10.2947
▁heavy	-10.2952
▁judge	-10.2952
▁즐길	-10.2952
▁issues	-10.2952
▁현장	-10.2953
ug	-10.2953
▁Jong	-10.2953
▁goods	-10.2956
and	-10.2959
▁매력	-10.2962
▁그럴	-10.2967
럼	-10.297
욕	-10.2971
▁알려주	-10.2971
▁lived	-10.2972
▁progress	-10.2972
▁대한민국	-10.2972
할게요	-10.2973
▁중입니다	-10.2976
▁지난달	-10.298
▁강한	-10.2982
드는	-10.2982
▁기분	-10.2983
▁연락을	-10.2991
▁difference	-10.2993
▁관광	-10.2994
▁가끔	-10.2994
수를	-10.2999
▁우주	-10.3001
베이	-10.3008
드립니다	-10.3008
▁condition	-10.3012
▁수준	-10.3013
▁middle	-10.3014
▁moving	-10.3014
port	-10.3016
ach	-10.3019
▁일주일	-10.3023
▁주의	-10.303
▁sending	-10.303
▁파티	-10.3032
▁휴가	-10.3033
냈	-10.3038
▁공항	-10.3038
▁바람	-10.3038
시다	-10.3043
▁했던	-10.3045
▁fight	-10.3048
lar	-10.3053
▁Ne	-10.3054
▁expensive	-10.3055
▁바꾸	-10.3056
▁멤버	-10.3057
▁힘을	-10.3057
▁작동	-10.3058
our	-10.3071
▁일어나	-10.3073
먼	-10.3074
▁바꿔	-10.3076
만이	-10.3076
▁dish	-10.3077
▁named	-10.309
▁맛있는	-10.3094
▁February	-10.3097
▁opportunity	-10.3097
▁집으로	-10.31
▁Te	-10.3102
ep	-10.3102
▁decide	-10.3103
냈다	-10.3105
▁공동	-10.3107
▁내리	-10.3109
ever	-10.3112
▁rich	-10.312
▁꾸	-10.3125
금을	-10.3128
je	-10.3128
▁learning	-10.3129
▁tend	-10.3134
▁번째로	-10.3135
▁across	-10.3138
▁challenge	-10.3138
▁smartphone	-10.3138
▁피곤	-10.3141
물이	-10.3141
ger	-10.3145
▁누구나	-10.315
▁memory	-10.3159
▁투어	-10.3163
▁properly	-10.3164
▁신발	-10.3167
▁town	-10.3167
▁거기에	-10.3169
▁소비자	-10.3177
닥	-10.3177
와의	-10.318
▁수많은	-10.318
▁network	-10.318
▁쉽지	-10.3183
리고	-10.3186
▁Young	-10.319
▁wide	-10.319
리를	-10.3193
련	-10.32
▁safety	-10.3202
▁했	-10.3203
▁성격	-10.3204
▁talks	-10.3205
지역	-10.3205
▁participate	-10.3207
▁statement	-10.3208
겠	-10.3221
빙	-10.3222
▁아파트	-10.3222
cha	-10.3224
보고	-10.3224
▁efforts	-10.3227
▁시작했다	-10.3228
ign	-10.3233
▁especially	-10.3243
▁생겼	-10.3254
▁당국	-10.3259
▁계	-10.3261
▁basic	-10.3264
▁Therefore	-10.3264
▁incident	-10.3264
십	-10.3268
하기를	-10.3277
▁아니요	-10.328
gan	-10.3281
▁거리	-10.3284
▁일에	-10.3285
▁Tom	-10.3286
▁않도록	-10.3288
▁development	-10.3288
▁사례	-10.329
위원회	-10.3294
by	-10.3297
▁touch	-10.3304
▁cake	-10.3308
▁reduce	-10.3313
▁향해	-10.3317
▁싫어	-10.3318
%,	-10.3319
▁serious	-10.332
▁cook	-10.3321
▁programs	-10.3323
▁Dong	-10.3328
▁apartment	-10.333
▁많아	-10.333
▁못할	-10.3334
▁정확한	-10.3334
▁좋겠다	-10.3336
▁확인할	-10.3345
▁secret	-10.3349
관계자는	-10.3349
롤	-10.3349
▁소속	-10.3352
익	-10.3354
▁continued	-10.3355
ure	-10.3358
▁teams	-10.3358
▁tea	-10.3361
▁이용할	-10.3365
▁인식	-10.3365
▁raised	-10.3368
▁친구들	-10.3372
“	-10.3374
▁function	-10.3375
센터	-10.3378
▁넌	-10.3379
▁전망	-10.3379
▁아이디어	-10.3383
되면서	-10.3387
▁slow	-10.3388
▁주시기	-10.3388
▁따라서	-10.3392
잖아	-10.3395
▁경우에는	-10.3397
있다	-10.3398
스터	-10.34
▁artists	-10.3401
되었	-10.3406
▁통화	-10.3407
▁할지	-10.3413
▁인근	-10.3415
▁실패	-10.3415
려면	-10.3418
▁cup	-10.342
엘	-10.3424
▁속도	-10.3426
fu	-10.3427
짝	-10.3433
▁subject	-10.3435
▁spent	-10.3437
▁아이돌	-10.3437
▁selling	-10.3439
▁직	-10.3439
왕	-10.344
원을	-10.3444
▁시간은	-10.3448
ier	-10.345
▁열리는	-10.3454
▁reality	-10.346
년부터	-10.3463
light	-10.3467
▁추가로	-10.3477
▁leading	-10.3478
악	-10.3479
▁wave	-10.348
▁sentence	-10.348
▁PC	-10.3483
▁잠시	-10.3493
으로서	-10.3495
▁아이들이	-10.3503
▁걷	-10.3506
▁출전	-10.3508
년대	-10.3509
▁stars	-10.3509
▁지키	-10.3512
▁아니야	-10.3513
▁언급	-10.3513
▁ability	-10.3513
▁pop	-10.3515
▁influence	-10.3522
▁범죄	-10.3522
▁비슷한	-10.3522
▁거짓말	-10.3522
▁나온다	-10.3526
▁가입	-10.3528
▁위로	-10.3535
▁위원장	-10.354
▁참고	-10.354
▁맞아	-10.354
au	-10.3541
▁언어	-10.3545
▁어디로	-10.3549
▁이사	-10.3552
▁공개된	-10.3557
nu	-10.3561
▁requested	-10.3563
갔습니다	-10.3564
▁작업을	-10.3565
▁maintain	-10.3565
▁훈련	-10.3565
▁떨어진	-10.3565
▁아니에요	-10.3566
ral	-10.3573
▁드립니다	-10.3575
▁빠	-10.3578
▁미군	-10.3584
▁purpose	-10.3587
▁기상캐스터	-10.3587
▁firm	-10.3587
▁상상	-10.3588
▁교수	-10.3592
과의	-10.3596
▁전국	-10.36
▁capital	-10.3609
▁인형	-10.3611
▁풍	-10.3611
손	-10.3618
▁기다려	-10.3618
▁추억	-10.3634
▁popularity	-10.3636
▁근처에	-10.3636
▁mine	-10.3638
▁감소	-10.364
▁클럽	-10.365
좌	-10.3652
▁senior	-10.3653
▁아마도	-10.3653
▁정확히	-10.3654
▁태국	-10.3655
▁block	-10.3658
▁완성	-10.3658
▁material	-10.366
▁브	-10.3662
▁번역	-10.3662
▁열정	-10.3664
▁끝나	-10.3665
▁중단	-10.3665
▁않기	-10.3668
자의	-10.3669
▁Hyun	-10.3675
▁접근	-10.3676
▁delivered	-10.3677
▁계정	-10.3678
랜	-10.368
▁말할	-10.3684
▁소식	-10.369
ren	-10.3694
▁뿐	-10.3695
▁바란다	-10.3697
▁알리	-10.3698
▁Two	-10.3698
▁월요일	-10.3699
cal	-10.3703
위래	-10.3703
ko	-10.3704
▁잡아	-10.3709
했기	-10.3715
▁experts	-10.3715
▁신뢰	-10.3719
▁고기	-10.372
▁inter	-10.3726
▁위기	-10.3728
접	-10.3732
▁학생들	-10.374
책	-10.3741
▁built	-10.3741
▁필리핀	-10.3741
▁보관	-10.3741
▁과정에서	-10.3743
잡	-10.3748
▁소유	-10.3754
ite	-10.3755
▁beauty	-10.3763
▁spot	-10.3764
▁좋다	-10.3767
▁설정	-10.3768
▁실수	-10.3776
▁sun	-10.3779
▁시작한	-10.3785
▁인도네시아	-10.3786
▁가까이	-10.3786
▁standard	-10.3787
▁종종	-10.3787
▁전통	-10.3792
▁발생했다	-10.3795
▁색상	-10.3797
▁회사에서	-10.3801
▁대만	-10.3802
▁쓰고	-10.3804
혹	-10.3804
▁Mu	-10.3806
▁Minister	-10.3808
▁operation	-10.3808
▁강조했다	-10.3814
▁레이	-10.3816
▁따뜻한	-10.3817
었어	-10.3818
시키는	-10.3821
▁중심	-10.3825
겠다	-10.3828
▁produce	-10.3828
▁프로그램을	-10.383
▁eight	-10.3833
▁developed	-10.3836
ome	-10.3838
ID	-10.3838
▁맞춰	-10.3846
▁힘이	-10.3847
oc	-10.385
board	-10.3852
▁budget	-10.3853
▁sky	-10.3855
▁stores	-10.3857
찌	-10.3873
▁Every	-10.3876
▁Air	-10.3878
▁연주	-10.3879
▁회사에	-10.3881
▁Ko	-10.3884
누	-10.3885
▁지역에서	-10.3886
▁비판	-10.3888
▁Sure	-10.389
▁없고	-10.3891
▁상황	-10.3894
▁쓰는	-10.3895
▁ended	-10.3896
▁캐릭터	-10.3898
▁weak	-10.3899
▁불편	-10.3899
▁Ki	-10.3899
▁갔	-10.3899
▁Je	-10.3908
▁Che	-10.3908
▁colors	-10.3913
▁closed	-10.3914
▁Ju	-10.3915
▁인터뷰	-10.3915
▁거로	-10.3918
▁consumers	-10.3919
흐	-10.392
▁green	-10.392
▁터키	-10.3922
▁칼	-10.3922
었고	-10.3926
▁방탄소년단	-10.393
▁남은	-10.3934
▁이용해	-10.3937
▁종류의	-10.3941
▁variety	-10.3943
▁왔다	-10.3943
▁agreement	-10.3946
▁매출	-10.3946
▁posted	-10.3953
▁여부	-10.3956
▁그곳	-10.3961
▁peace	-10.3962
▁않게	-10.3963
하려면	-10.3963
▁stories	-10.3966
▁아이템	-10.3966
▁treatment	-10.3969
▁최근에	-10.3976
▁주택	-10.3979
▁돈이	-10.398
▁위치한	-10.398
▁있을지	-10.3983
▁나오	-10.3985
이라도	-10.3986
▁kept	-10.3989
▁dust	-10.3989
▁shape	-10.3989
어를	-10.399
▁단순	-10.3992
▁종류	-10.3992
AR	-10.3995
▁조직	-10.3998
▁finally	-10.4009
혈	-10.4011
▁community	-10.4011
▁cream	-10.4011
▁disease	-10.4011
▁폭발	-10.4013
▁interesting	-10.4017
▁찍어	-10.4018
▁클	-10.4021
뿐	-10.4021
▁약간	-10.4023
▁회원	-10.4024
▁돌아오	-10.4026
▁주제	-10.4028
▁쓴	-10.4029
▁말한	-10.4029
▁싸	-10.4031
▁교환	-10.4036
▁표시	-10.4038
▁화재	-10.4039
합니까	-10.404
▁exactly	-10.404
▁전시	-10.404
▁착	-10.4041
▁traditional	-10.4042
▁기계	-10.4045
▁중요하다	-10.4053
▁probably	-10.4057
었는데	-10.4057
내는	-10.4061
oon	-10.4061
jo	-10.4069
▁재미있	-10.4069
센	-10.4071
▁없어서	-10.4072
▁award	-10.4074
이자	-10.4079
▁제한	-10.4079
되어야	-10.4082
▁guys	-10.4082
▁suddenly	-10.4084
▁시절	-10.4087
▁테니	-10.4087
▁골프	-10.4088
ise	-10.4092
▁맥주	-10.4095
▁보입니다	-10.4096
더라도	-10.4098
▁camp	-10.4101
컨	-10.4103
▁자전거	-10.4103
▁track	-10.4103
▁exhibition	-10.4104
lan	-10.4104
▁rent	-10.4109
CNN	-10.4109
▁불법	-10.4111
▁compared	-10.4113
▁ran	-10.412
▁학교에서	-10.4124
ates	-10.4125
▁착용	-10.4128
▁Ni	-10.413
▁beat	-10.4133
▁예산	-10.4134
▁artist	-10.4138
▁시설	-10.4145
▁gives	-10.4145
임을	-10.4145
▁seeing	-10.4148
▁themselves	-10.4149
▁university	-10.4149
▁approach	-10.4149
▁문제에	-10.4152
▁인천	-10.4152
▁except	-10.4167
▁마시	-10.4169
oo	-10.4169
▁음식이	-10.4169
위에	-10.4171
▁fashion	-10.4172
▁angry	-10.4172
▁coach	-10.4173
▁asking	-10.4179
▁watched	-10.4181
쟁	-10.4183
▁India	-10.4184
▁의심	-10.4185
▁original	-10.4189
▁blood	-10.4195
▁충격	-10.4195
▁Fa	-10.4203
▁공원	-10.4204
▁빌	-10.4204
▁Dr	-10.4204
해주는	-10.4204
자로	-10.421
시가	-10.4215
이면	-10.4215
▁village	-10.4218
▁나쁜	-10.4219
▁package	-10.4219
ities	-10.4221
▁필요해요	-10.4231
분이	-10.4231
▁soft	-10.4235
▁쇼	-10.4236
▁아프	-10.4241
▁atmosphere	-10.4242
▁crisis	-10.4242
둥	-10.4242
▁협상	-10.4243
▁화장실	-10.4243
▁친구들이	-10.4247
▁tourists	-10.4249
OS	-10.4252
ick	-10.4254
▁pray	-10.4255
▁German	-10.4258
▁그녀를	-10.4261
스럽	-10.4263
칭	-10.4264
▁brought	-10.4265
▁overseas	-10.4265
▁series	-10.4265
ham	-10.4267
▁trial	-10.4269
▁mid	-10.427
ub	-10.4278
▁사건이	-10.4282
▁순위	-10.4283
▁handle	-10.4283
▁품	-10.4284
▁White	-10.4289
▁soccer	-10.4289
▁패션	-10.429
young	-10.429
▁drawing	-10.4292
▁대답	-10.4292
▁Island	-10.4293
▁시각	-10.4296
▁낮은	-10.4299
▁주목	-10.4299
▁거라고	-10.4301
럽	-10.4302
▁certain	-10.4304
ified	-10.4304
▁serve	-10.4306
쳤다	-10.4306
▁cute	-10.4307
▁침대	-10.431
▁웹사이트	-10.4312
▁그녀에게	-10.4312
▁nature	-10.4312
▁세금	-10.4315
▁추진	-10.4323
ight	-10.4325
▁오랜	-10.4327
▁다녀	-10.4329
▁talked	-10.4331
▁다니	-10.4333
▁방법은	-10.4334
▁injured	-10.4336
▁케이팝	-10.4336
▁idol	-10.4336
▁gas	-10.4337
▁위협	-10.4338
▁달에	-10.4339
▁분들이	-10.4339
▁Yu	-10.434
▁investment	-10.434
▁휴	-10.4344
▁painting	-10.4347
▁poll	-10.4348
ler	-10.4348
시나요	-10.435
▁films	-10.435
▁것들이	-10.4352
▁딱	-10.4357
▁하며	-10.4358
▁leaving	-10.4359
은행	-10.4368
이라며	-10.437
ten	-10.4371
▁cur	-10.4372
김	-10.4374
▁지적	-10.4382
감이	-10.4383
▁cultural	-10.4383
▁확신	-10.4385
▁broken	-10.4388
▁Son	-10.4391
▁introduced	-10.4391
▁세트	-10.4394
먹	-10.4405
▁laugh	-10.4406
▁University	-10.4407
윈	-10.4407
▁proud	-10.4408
지게	-10.4408
▁chart	-10.4408
▁refer	-10.4409
▁helps	-10.441
이기도	-10.4413
▁알겠습니다	-10.4413
ele	-10.4413
▁좋아하지	-10.4418
▁대형	-10.442
장에	-10.442
▁되기	-10.4421
▁전해	-10.4423
▁Nam	-10.4427
▁drop	-10.4429
qui	-10.4429
▁campaign	-10.443
▁방금	-10.4438
▁provided	-10.4439
드릴게요	-10.4439
If	-10.4441
▁farm	-10.4444
▁contains	-10.4445
▁sale	-10.4449
▁통과	-10.445
▁오픈	-10.4455
▁무대	-10.4458
시고	-10.4458
암	-10.4472
▁suggest	-10.4474
핑	-10.4477
▁located	-10.4478
▁older	-10.4479
▁타이	-10.4482
▁축하	-10.4484
▁fill	-10.4485
비가	-10.4487
하고자	-10.4487
ture	-10.4487
▁보세요	-10.4488
hose	-10.4496
▁적은	-10.4499
▁smell	-10.4502
▁promote	-10.4502
널	-10.4502
▁LA	-10.4503
▁부모님	-10.4503
nch	-10.4504
▁생긴	-10.4504
pl	-10.4505
▁담당	-10.4505
▁있을까	-10.4507
▁놓고	-10.4509
▁thanks	-10.4509
▁term	-10.451
low	-10.4511
회사	-10.4515
앙	-10.4518
ious	-10.4519
퇴	-10.452
빈	-10.4521
▁맥	-10.4522
▁이름이	-10.4525
▁application	-10.4526
▁direct	-10.4526
▁물어보	-10.4527
▁considered	-10.4527
▁확실히	-10.4528
▁highest	-10.4534
ld	-10.4543
혜	-10.4545
▁Wi	-10.4545
폰	-10.4548
▁비디오	-10.455
▁boss	-10.455
▁legal	-10.4554
van	-10.4555
▁missing	-10.4558
▁보이고	-10.456
hyun	-10.456
▁확대	-10.4563
▁starting	-10.4564
▁기차	-10.4568
▁쇼핑	-10.457
▁가져다	-10.457
▁discuss	-10.457
▁evening	-10.4572
▁그저	-10.4573
▁lecture	-10.4574
▁version	-10.4574
보세요	-10.4576
주시길	-10.4578
▁너와	-10.4584
쉬	-10.4592
▁주기	-10.4592
▁invest	-10.4594
▁펼쳐	-10.4594
▁깊은	-10.4598
▁calm	-10.4599
▁선수들	-10.46
▁일하는	-10.4607
▁덕분에	-10.4609
▁만들기	-10.4612
▁자리에	-10.4617
▁Man	-10.4618
▁결과가	-10.4622
▁London	-10.4622
▁증명	-10.4624
하려	-10.4633
▁벌어	-10.4638
전에	-10.464
▁시에	-10.4641
ical	-10.4646
Z	-10.4646
▁behavior	-10.4647
▁금지	-10.4649
폐	-10.4652
▁필	-10.4654
▁opening	-10.4655
▁Tell	-10.4656
ue	-10.4658
▁revealed	-10.466
자리	-10.4661
낼	-10.4663
▁election	-10.4668
▁저기	-10.4671
▁desire	-10.4671
▁시선	-10.4674
▁모르는	-10.4675
▁etc	-10.4676
▁훌륭한	-10.4678
▁즉	-10.4679
▁Gi	-10.468
CC	-10.4684
▁자금	-10.4686
▁쪽	-10.4686
▁Pe	-10.4687
▁gone	-10.4692
하니	-10.4694
▁enjoyed	-10.4694
▁Dae	-10.4699
ec	-10.4708
▁band	-10.4712
▁아침에	-10.4715
▁체험	-10.472
총	-10.4725
▁반복	-10.4726
▁pet	-10.4727
▁entered	-10.4728
▁감동	-10.4728
val	-10.474
▁user	-10.4741
▁broadcast	-10.4742
▁British	-10.4744
▁Group	-10.4744
▁afternoon	-10.4744
▁cafe	-10.4744
▁들었다	-10.4745
귀	-10.4746
▁방식으로	-10.4746
io	-10.4748
gen	-10.4749
▁Incheon	-10.4751
▁달려	-10.4755
▁gets	-10.4757
▁승인	-10.4759
웨이	-10.4762
자인	-10.4763
▁항공	-10.4768
▁illegal	-10.4769
▁브라질	-10.4769
▁모른다	-10.4769
▁옆	-10.4772
▁금융	-10.4777
▁바라요	-10.4783
▁complete	-10.479
일이	-10.479
ley	-10.4792
립니다	-10.4793
▁favor	-10.4793
▁platform	-10.4794
▁auto	-10.4796
▁beer	-10.4799
▁Pi	-10.4802
rate	-10.4804
더라	-10.4806
▁주말에	-10.4812
▁completed	-10.4812
▁en	-10.4813
▁Fe	-10.4813
▁틀	-10.4815
▁측	-10.4817
▁supply	-10.4818
▁마케팅	-10.4818
ade	-10.4823
▁claim	-10.4824
▁그만큼	-10.4825
▁gathered	-10.4829
▁원합니다	-10.4831
use	-10.4833
clock	-10.4834
▁normal	-10.4835
클	-10.484
▁비난	-10.4841
▁왔어요	-10.4843
▁seats	-10.4846
▁부모	-10.4848
이었어요	-10.4849
▁손님	-10.4851
hop	-10.4853
▁selected	-10.4855
▁방안	-10.4858
▁생각하지	-10.4867
지요	-10.4867
▁preparing	-10.4868
▁심지어	-10.4868
▁저한테	-10.4875
eo	-10.4879
▁foreigners	-10.4883
▁이후에	-10.4891
▁자체가	-10.4892
▁Taiwan	-10.4893
▁investigation	-10.4893
▁혐의	-10.4895
▁화가	-10.4899
▁없었습니다	-10.4903
izing	-10.4908
인한	-10.4914
▁따른	-10.4919
사항	-10.492
▁beach	-10.492
로운	-10.4922
ization	-10.4926
▁Only	-10.4931
cheon	-10.4936
▁보내고	-10.4937
soo	-10.4938
▁민주당	-10.4943
ps	-10.4943
▁런던	-10.4943
▁회복	-10.4945
▁specific	-10.4945
▁visitors	-10.4945
▁발언	-10.4948
점이	-10.4948
조차	-10.4948
▁초대	-10.4949
▁먹어	-10.495
킬	-10.495
▁Q	-10.4955
▁아이가	-10.4955
했으면	-10.496
▁race	-10.4971
bin	-10.4972
▁너한테	-10.4972
▁들었습니다	-10.4976
장에서	-10.4977
▁Ex	-10.4983
▁기념	-10.4984
▁널	-10.4985
sha	-10.4991
▁가르쳐	-10.4993
▁뜨거운	-10.4993
▁떨어져	-10.4993
ions	-10.4993
▁Everyone	-10.4993
▁Song	-10.4995
dic	-10.4996
리지	-10.5009
▁하루에	-10.5009
풀	-10.501
▁Woo	-10.5012
▁Tr	-10.5013
▁individual	-10.5018
▁management	-10.5019
▁담배	-10.502
지기	-10.5022
▁doll	-10.5022
▁dishes	-10.5023
느	-10.5023
맨	-10.5029
했으나	-10.5031
har	-10.5032
▁당장	-10.5032
▁경험이	-10.5036
▁Ri	-10.5036
off	-10.5038
▁재판	-10.5039
납	-10.504
ox	-10.5041
▁Center	-10.5043
of	-10.5045
람	-10.5051
적이고	-10.5054
▁produced	-10.506
▁liked	-10.5065
▁international	-10.5069
▁남자친구	-10.5069
▁규정	-10.5069
▁planned	-10.507
▁occur	-10.507
▁미소	-10.507
▁무엇보다	-10.5071
▁문자	-10.5075
▁등에	-10.5086
이랑	-10.5089
▁increasing	-10.5095
▁구글	-10.5097
때	-10.5102
▁이전에	-10.5103
▁가기	-10.5112
▁휴식	-10.5114
훈	-10.5119
▁honor	-10.5119
▁가슴	-10.512
▁졸업	-10.5121
yo	-10.5124
▁dogs	-10.5125
▁sub	-10.5126
▁함	-10.5131
▁거죠	-10.5131
▁kinds	-10.5132
▁contents	-10.5133
▁항	-10.5134
ments	-10.5134
▁셈이	-10.5136
▁사용해	-10.5139
▁음료	-10.5143
▁눈물	-10.5144
▁traffic	-10.5145
▁allowed	-10.5146
거든요	-10.5149
▁걸어	-10.5149
▁동시에	-10.515
▁affect	-10.5151
▁고용	-10.5152
ai	-10.5154
▁지역에	-10.5164
▁남자가	-10.5168
▁happiness	-10.517
▁entire	-10.5171
▁폴	-10.5172
▁하면서	-10.5174
▁수술	-10.5175
▁알려져	-10.5181
▁거부	-10.5184
▁count	-10.5186
▁성과	-10.5192
▁either	-10.5196
▁rose	-10.5197
▁가능한가요	-10.5198
▁terms	-10.5205
▁매년	-10.5209
▁대상	-10.521
▁flow	-10.521
▁carry	-10.521
▁크	-10.5211
▁녹	-10.5213
▁Ye	-10.5218
빨	-10.522
▁Province	-10.5222
▁냄새	-10.5222
리스	-10.5223
▁theater	-10.5227
▁친구와	-10.5235
별로	-10.5239
하셨	-10.5243
▁빼	-10.5245
▁documents	-10.5245
▁leaders	-10.5251
▁fully	-10.5251
▁partner	-10.5252
▁선수들이	-10.526
▁혼	-10.5264
▁career	-10.5265
활	-10.5266
째	-10.5266
▁중심으로	-10.5267
▁줍니다	-10.5268
▁sit	-10.5271
힐	-10.5273
▁Should	-10.5273
▁throw	-10.5274
▁여유	-10.5274
사회	-10.5275
▁않아도	-10.5279
pped	-10.5283
▁becoming	-10.529
▁홍	-10.5291
▁주셔서	-10.5292
▁대체	-10.5293
▁많았	-10.5298
궁	-10.5299
▁페이지	-10.53
▁pressure	-10.53
▁꽤	-10.5302
▁하세요	-10.5304
▁대학교	-10.5306
겼	-10.5308
▁검	-10.5312
▁About	-10.5325
▁탑승	-10.5325
세가	-10.5327
▁담긴	-10.5327
▁남아있	-10.5328
우리	-10.5328
린다	-10.5328
▁수익	-10.5329
▁나타나	-10.5333
▁일하고	-10.5336
였어요	-10.5336
였던	-10.5339
▁failed	-10.5339
▁효과가	-10.534
하려는	-10.5342
▁신문	-10.5342
▁wine	-10.5343
탁	-10.5345
▁경찰이	-10.5346
▁그려	-10.5347
▁strength	-10.5348
▁mis	-10.535
▁슬	-10.535
▁conference	-10.5351
▁차지	-10.5352
▁그와	-10.5361
▁Malaysia	-10.5368
치가	-10.5371
▁features	-10.5371
sk	-10.5372
▁와인	-10.5374
▁느낌이	-10.5375
▁truth	-10.5377
▁Yeah	-10.5378
▁Bas	-10.5378
▁회사는	-10.5379
자들	-10.5383
▁만났	-10.5384
▁achieve	-10.5386
년까지	-10.5393
▁때가	-10.5396
▁visiting	-10.5396
qua	-10.5397
지면서	-10.5399
▁의지	-10.54
춘	-10.5403
▁Singapore	-10.5404
▁Next	-10.5404
▁보러	-10.5404
▁expressed	-10.5408
▁재미	-10.5413
▁본다	-10.5414
bra	-10.5414
받	-10.5423
▁포인트	-10.5423
녀	-10.5425
▁종이	-10.5426
▁toward	-10.543
▁Google	-10.543
▁nuclear	-10.543
▁플랫폼	-10.543
▁smoke	-10.543
시키	-10.543
▁occurred	-10.543
▁검색	-10.5431
▁담겨	-10.5431
▁케이크	-10.5431
▁내년	-10.5435
잖아요	-10.5444
▁밤에	-10.5446
▁맛이	-10.5448
하라	-10.5449
▁filled	-10.545
일간	-10.545
▁조치	-10.5451
▁입은	-10.5451
fin	-10.5454
ev	-10.5456
▁요소	-10.5459
▁찬	-10.5459
▁Maybe	-10.5461
▁취미	-10.5462
▁죽음	-10.5462
하였	-10.5465
▁comment	-10.5466
▁projects	-10.5466
▁티	-10.547
ible	-10.5472
식을	-10.5473
MA	-10.5474
괴	-10.5481
▁아무도	-10.5482
▁Chairman	-10.5483
▁잊지	-10.5483
▁사용하고	-10.5483
▁Christian	-10.5483
▁뛰어	-10.5486
▁박스	-10.5488
▁달라고	-10.5491
▁소재	-10.5494
▁videos	-10.5495
놓은	-10.5495
▁있니	-10.5495
▁벽	-10.5496
▁계속해서	-10.5498
▁memories	-10.5509
ob	-10.551
▁된다면	-10.5511
▁Ge	-10.5513
▁Wave	-10.5514
▁걸릴	-10.5517
▁물품	-10.5517
rry	-10.5519
▁print	-10.5524
▁곳은	-10.5525
하겠다	-10.553
set	-10.5533
흥	-10.5535
▁comfortable	-10.5537
▁주인공	-10.5537
우린	-10.5538
ON	-10.5539
▁gold	-10.5543
tter	-10.5544
에게는	-10.5548
▁separate	-10.5554
▁chose	-10.5559
▁Festival	-10.5562
▁families	-10.5562
▁milk	-10.5562
생활	-10.5563
▁Sha	-10.5563
▁dry	-10.5564
었지만	-10.5566
▁팀이	-10.5566
▁갔다	-10.5571
▁웃음	-10.5572
let	-10.5575
▁맨	-10.5577
명으로	-10.5586
▁Yang	-10.559
▁Ad	-10.5591
▁앞에서	-10.5591
▁Apple	-10.5591
POP	-10.5593
▁보안	-10.5597
▁Lu	-10.5599
shirt	-10.5616
▁과연	-10.5619
▁happens	-10.562
▁각자	-10.5621
▁소년	-10.5621
드리고	-10.5623
▁무료	-10.5624
▁비용이	-10.5626
버스	-10.5626
▁과학	-10.5627
▁라이	-10.5631
문화	-10.5633
드릴	-10.5633
mu	-10.5633
▁행동을	-10.5635
▁cons	-10.564
▁ID	-10.5642
▁breakfast	-10.5642
▁많습니다	-10.5642
▁impact	-10.5642
▁홈페이지	-10.5642
bs	-10.5643
▁calling	-10.5644
▁핵심	-10.5645
cc	-10.5648
▁map	-10.5648
▁golf	-10.5648
▁코스	-10.5649
▁올려	-10.5655
▁actively	-10.5656
▁시민들	-10.5658
▁김씨	-10.5659
우스	-10.566
▁marketing	-10.5666
ey	-10.5667
헌	-10.5669
▁labor	-10.567
▁East	-10.567
▁window	-10.567
객	-10.567
▁hang	-10.5674
▁treat	-10.5675
▁머	-10.5678
▁전공	-10.568
제를	-10.5683
▁굴	-10.5684
차례	-10.5685
▁actors	-10.5685
▁materials	-10.5687
▁classes	-10.5688
▁이상이	-10.5694
▁월요일에	-10.5694
▁보여주	-10.5695
▁주인	-10.5696
▁wall	-10.5696
▁appearance	-10.5697
득	-10.5698
▁Sp	-10.5702
당한	-10.5704
▁하나가	-10.5707
▁diet	-10.5708
▁불과	-10.5723
▁YouTube	-10.5723
▁곳으로	-10.5725
▁것들을	-10.5729
▁completely	-10.5733
▁mark	-10.5734
▁소비	-10.5734
▁male	-10.5735
▁위하여	-10.5736
▁선발	-10.5737
▁무엇	-10.5742
▁올림픽	-10.5746
▁author	-10.5749
▁movement	-10.5749
▁hall	-10.5754
▁만나는	-10.5756
▁오른	-10.5757
▁건지	-10.5758
▁토요일	-10.5758
다니	-10.5759
▁limit	-10.576
▁플레이	-10.5764
▁주식	-10.5767
▁League	-10.5769
▁wash	-10.577
ator	-10.5775
▁channel	-10.5778
▁shipping	-10.5778
▁immediately	-10.578
▁European	-10.5781
▁할머니	-10.5781
ov	-10.5784
▁lots	-10.5789
이라면	-10.579
▁Bank	-10.5794
았습니다	-10.5794
▁Well	-10.5794
▁인구	-10.5797
룸	-10.5805
▁쓰레기	-10.5805
▁medical	-10.5805
▁새벽	-10.5805
겠지만	-10.5808
▁일요일	-10.5808
▁배달	-10.581
▁모르겠어요	-10.581
▁정말로	-10.5814
▁patients	-10.5816
둘	-10.5818
▁그거	-10.5821
▁예를	-10.5823
촉	-10.5831
▁Tae	-10.5832
▁rooms	-10.5832
까지는	-10.5834
▁움직임	-10.5836
▁의미가	-10.5836
▁말은	-10.5836
▁배경	-10.584
▁마감	-10.5841
▁ideas	-10.5844
▁시민	-10.5844
▁경기에서	-10.5847
▁realized	-10.5848
▁시위	-10.5853
▁장비	-10.5853
▁tall	-10.5856
▁전까지	-10.5856
▁의원	-10.5859
▁apologize	-10.586
▁찍은	-10.5861
▁department	-10.5862
▁평소	-10.5862
갑	-10.5863
▁사전	-10.5866
▁덜	-10.5866
▁있음을	-10.5866
대의	-10.5866
▁mentioned	-10.5867
돈	-10.5875
▁topic	-10.5877
▁successful	-10.5879
▁오른쪽	-10.5887
▁갑니다	-10.5889
ER	-10.5894
셔	-10.5895
▁헤어	-10.5899
▁형성	-10.59
따	-10.5909
▁떠	-10.591
튼	-10.5914
▁Mexico	-10.5915
▁몇몇	-10.5915
▁spring	-10.5915
He	-10.5916
ip	-10.592
단체	-10.592
▁포기	-10.5929
▁walking	-10.593
ped	-10.5932
▁regular	-10.5934
east	-10.5934
▁비행	-10.5935
▁Wa	-10.5941
▁중국에서	-10.5942
▁studied	-10.5942
▁Isn	-10.5945
▁화장품	-10.5945
▁tree	-10.5956
▁일상	-10.5959
▁자신감	-10.596
쳤	-10.5965
▁loss	-10.5966
▁주문한	-10.5969
▁높다	-10.597
▁싱가포르	-10.597
▁waste	-10.597
▁미팅	-10.5975
▁완벽	-10.5976
▁latest	-10.5984
▁대단	-10.5995
▁여자친구	-10.5998
▁유튜브	-10.5998
▁빠져	-10.5998
▁뭘	-10.6
▁뉴	-10.6002
▁못했습니다	-10.6003
▁성인	-10.6009
▁제조	-10.6012
▁detail	-10.6023
▁전문가	-10.6029
량이	-10.6029
▁Jang	-10.603
▁launch	-10.6035
켜	-10.604
▁빵	-10.6041
▁ate	-10.6042
▁모르	-10.6043
점이다	-10.6043
▁수량	-10.6045
▁Chi	-10.6045
▁영상을	-10.6047
mar	-10.6052
▁간단	-10.6053
▁attended	-10.6054
▁Ar	-10.6059
▁배우고	-10.606
▁영어로	-10.6063
▁앤	-10.6066
▁비교	-10.6066
▁멀	-10.6067
스와	-10.607
▁씨가	-10.6071
봐	-10.6071
▁방법으로	-10.6071
▁gain	-10.6072
▁anti	-10.6074
됐다고	-10.6079
▁묵	-10.6079
균	-10.608
닉	-10.6081
ye	-10.6084
▁drinking	-10.6086
uff	-10.6087
▁했지만	-10.6088
▁자랑	-10.6092
ile	-10.6098
▁수상	-10.6102
▁mission	-10.6102
▁foods	-10.6103
▁museum	-10.611
이었습니다	-10.6112
만한	-10.6117
년에는	-10.6117
주길	-10.6126
스티	-10.6127
래요	-10.6133
그룹	-10.6135
▁El	-10.6135
▁앉아	-10.6135
롱	-10.6138
▁모바일	-10.6138
▁객실	-10.6138
▁nearly	-10.6139
킨	-10.6139
▁unit	-10.614
▁무리	-10.6142
▁애플	-10.6142
vision	-10.6143
ative	-10.6146
▁저장	-10.6146
▁fix	-10.6149
▁진실	-10.6149
▁여기는	-10.615
▁보여주는	-10.6155
▁리스트	-10.6157
ay	-10.6158
▁사회적	-10.6161
래도	-10.6162
▁victory	-10.6166
▁Donald	-10.6166
▁changing	-10.6166
▁일어났	-10.6166
vis	-10.6169
▁Each	-10.6169
▁신규	-10.617
▁정상회담	-10.6172
슈	-10.6172
▁구입	-10.6173
▁consist	-10.6174
함이	-10.6177
▁받	-10.6178
▁드릴	-10.6179
바이	-10.618
쉽	-10.6182
▁폐	-10.6182
▁가질	-10.6188
▁영화가	-10.6191
하시고	-10.6191
▁불안	-10.6192
▁그들에게	-10.6194
▁spicy	-10.6194
라운드	-10.6194
▁좌석	-10.6194
▁error	-10.6195
▁수영	-10.6197
▁제거	-10.6198
ook	-10.6203
▁EU	-10.6203
주시겠어요	-10.6204
▁reflect	-10.6205
▁죄	-10.6209
톤	-10.6211
▁acting	-10.6212
뿐만	-10.6216
되며	-10.6217
▁그곳에서	-10.6219
▁cooking	-10.6222
▁repair	-10.6223
▁troops	-10.6223
▁레스토랑	-10.6223
알	-10.6224
yeong	-10.6231
▁bl	-10.6232
▁반영	-10.6232
▁tickets	-10.6236
▁update	-10.6237
ana	-10.6246
놀	-10.6251
▁charm	-10.6251
해주시기	-10.6251
▁Spain	-10.6252
▁즐겁게	-10.6255
▁returned	-10.6257
▁놀이	-10.6262
▁suit	-10.6271
In	-10.6272
▁입력	-10.6273
▁비즈니스	-10.628
▁노동	-10.628
▁factory	-10.6284
▁professional	-10.6284
▁gun	-10.6289
▁선수가	-10.6289
cat	-10.6291
ney	-10.6292
▁행사가	-10.6297
▁grade	-10.6303
▁사무실	-10.6308
▁믿음	-10.6309
▁색깔	-10.6309
에겐	-10.6309
▁bread	-10.6309
▁시점	-10.631
▁예측	-10.631
▁텐데	-10.631
▁말하고	-10.6312
my	-10.6316
▁feelings	-10.6318
▁박물관	-10.6321
▁에이	-10.6321
▁환	-10.6323
▁자녀	-10.6329
긍정적인	-10.633
▁화면	-10.6334
▁girls	-10.6335
셔야	-10.6344
▁direction	-10.6345
▁Russian	-10.6347
▁Mon	-10.6353
▁Sam	-10.6358
하라고	-10.6364
▁조금만	-10.6365
▁England	-10.6366
▁대응	-10.6367
▁제주	-10.6369
▁begin	-10.6372
▁과제	-10.6377
▁만들었	-10.6378
▁feels	-10.6388
사의	-10.639
▁professor	-10.6395
▁주도	-10.6399
▁있었어	-10.6403
스코	-10.6406
▁사태	-10.6407
▁중간	-10.6411
▁후회	-10.6417
▁이슈	-10.6419
▁뇌	-10.6421
간다	-10.6424
▁맞추	-10.6427
▁봄	-10.643
ability	-10.6435
봐야	-10.6437
ash	-10.6438
▁특별	-10.6439
▁케	-10.644
▁traveling	-10.6445
lit	-10.6445
하네요	-10.6446
▁careful	-10.6447
▁아니고	-10.6452
니아	-10.6453
▁오랫동안	-10.6453
▁클린턴	-10.6453
▁며칠	-10.6453
▁Italy	-10.6454
▁Yong	-10.6454
▁감사드립니다	-10.6454
▁sex	-10.6454
케이	-10.6457
▁그날	-10.6457
▁부부	-10.6458
럴	-10.6461
었다고	-10.6463
짜리	-10.6472
▁participated	-10.6473
▁조심	-10.6473
▁놀라	-10.6474
▁예전에	-10.6475
▁크다	-10.6476
▁전문가들은	-10.6477
▁protest	-10.648
▁honest	-10.6482
▁도널드	-10.6482
▁것이라	-10.6483
▁절반	-10.6484
▁정부는	-10.6486
▁가을	-10.6488
▁island	-10.6494
버리	-10.6495
▁realize	-10.6498
▁scheduled	-10.6498
▁고등학교	-10.65
▁관객들	-10.6501
▁kid	-10.6506
ik	-10.6511
▁mountain	-10.6511
JO	-10.6512
▁기록했다	-10.6514
▁missed	-10.6516
▁ranked	-10.6519
▁지적했다	-10.6521
▁나누	-10.6522
▁밑	-10.6523
bb	-10.6524
cing	-10.6525
zz	-10.6528
▁역할	-10.6529
틴	-10.6529
▁중요	-10.6531
▁Dur	-10.6532
진이	-10.6533
▁holding	-10.6534
ium	-10.6538
▁San	-10.6539
▁Currently	-10.6541
▁기획	-10.6541
▁Like	-10.6542
▁높아	-10.6543
▁예수님	-10.6547
▁걸쳐	-10.6548
▁각종	-10.6548
▁친구는	-10.6549
▁types	-10.6554
값	-10.6554
yu	-10.6555
홀	-10.6556
▁올라가	-10.6557
▁code	-10.6558
▁samples	-10.6559
▁일본에서	-10.6562
하나님의	-10.6566
▁부분에	-10.6567
겁	-10.657
▁홀	-10.6574
▁좋	-10.6574
존	-10.6577
▁province	-10.6577
만명	-10.6579
▁해주세요	-10.659
하시나요	-10.6591
기지	-10.6591
▁rights	-10.6595
▁scored	-10.6597
징	-10.6597
▁Another	-10.66
트는	-10.6601
느냐	-10.6601
▁도서관	-10.6603
프라	-10.6607
▁surprised	-10.6608
프레	-10.6611
▁regarding	-10.6615
▁continues	-10.6617
수는	-10.6619
TO	-10.6621
▁살해	-10.6622
탕	-10.6625
▁앞두고	-10.6629
해줄	-10.663
▁desk	-10.6632
▁보도했	-10.6634
▁그린	-10.6635
드리도록	-10.664
▁분이	-10.6644
istic	-10.6644
▁이루	-10.6645
▁cap	-10.6645
▁지내고	-10.6647
▁그것에	-10.6652
▁Excuse	-10.6659
▁advantage	-10.6659
▁succeed	-10.6659
▁adjust	-10.6659
▁도착할	-10.6659
▁출근	-10.666
▁concern	-10.6664
▁진심으로	-10.6666
tan	-10.667
▁display	-10.6671
▁victims	-10.6672
▁IT	-10.6674
▁준다	-10.6677
▁아까	-10.6677
엄	-10.6677
▁홈	-10.6681
시티	-10.6684
▁clearly	-10.6685
▁월드컵	-10.6686
▁휴대폰	-10.6689
▁채널	-10.669
▁제품에	-10.6691
▁buying	-10.6698
▁교체	-10.6698
겠어	-10.6701
▁hat	-10.6703
▁여자가	-10.6712
여명	-10.6715
▁cloud	-10.6718
에따르면	-10.6718
▁physical	-10.6718
주시겠습니까	-10.6719
▁spokesman	-10.6719
▁새롭	-10.6719
주고	-10.6722
▁Art	-10.6724
▁눈길	-10.6726
▁몸이	-10.6729
mark	-10.6732
▁faster	-10.6734
▁remain	-10.6734
삼	-10.6737
▁Won	-10.6738
셔서	-10.6741
▁알려진	-10.6745
▁pen	-10.6747
▁Recently	-10.6748
▁Tokyo	-10.6748
▁negative	-10.6748
▁sauce	-10.6748
▁활약	-10.6748
▁꾸준히	-10.675
드린	-10.6754
▁강조	-10.6754
▁Com	-10.6756
▁여성이	-10.6759
▁심각한	-10.6763
▁오지	-10.6767
▁Take	-10.6768
▁말씀해	-10.677
▁agreed	-10.6771
▁취	-10.6772
▁profit	-10.6774
▁Gra	-10.6774
▁주지	-10.6777
▁smart	-10.6778
▁excited	-10.6778
▁license	-10.6778
펀	-10.6778
하는지	-10.6779
▁허용	-10.6783
▁들어서	-10.6785
▁arm	-10.6788
▁본인	-10.6789
▁끝내	-10.6793
▁designed	-10.6796
▁이하	-10.6799
▁유리	-10.6802
▁중이에요	-10.6806
▁Amazon	-10.6809
▁equipment	-10.6809
▁volunteer	-10.6809
mate	-10.681
▁주신	-10.6811
▁들어오	-10.6811
됐	-10.6811
데이	-10.6812
▁없나요	-10.6813
▁reportedly	-10.6814
▁calls	-10.6815
▁effective	-10.6815
▁수사	-10.6815
▁나오고	-10.6815
▁whenever	-10.6819
▁Un	-10.6828
▁대기	-10.683
▁makeup	-10.6834
▁완	-10.6834
▁vehicle	-10.6835
▁긴장	-10.6835
▁않아서	-10.6837
▁object	-10.6837
트가	-10.684
▁교통	-10.6842
▁총리	-10.6842
▁씨는	-10.685
▁link	-10.6852
▁버전	-10.6856
▁crime	-10.6865
AC	-10.6866
주가	-10.6869
▁port	-10.6869
▁Lotte	-10.6869
▁starts	-10.687
▁적극적으로	-10.6871
▁시내	-10.6874
▁사진이	-10.6874
▁먹었	-10.6877
▁expand	-10.6879
▁특정	-10.6879
▁하나님께서	-10.688
▁알아보	-10.6882
ics	-10.6888
▁guest	-10.6897
▁guy	-10.6897
렀	-10.6897
▁언젠가	-10.6899
▁path	-10.69
▁stopped	-10.6901
▁winning	-10.6901
▁언제쯤	-10.6901
▁force	-10.6903
▁Y	-10.6907
IC	-10.6908
▁걸려	-10.691
▁점은	-10.692
maker	-10.6921
uring	-10.6922
▁시청자들	-10.6924
▁끈	-10.6926
▁낼	-10.6926
ists	-10.6926
▁아프리카	-10.6927
▁네트워크	-10.693
▁많지	-10.693
▁들어간	-10.6931
으세요	-10.6933
▁분명히	-10.6937
▁멀리	-10.6937
▁푸	-10.6939
▁잘못된	-10.6947
하여야	-10.6948
ency	-10.6949
▁상대로	-10.695
▁해주	-10.6952
▁생기	-10.6957
▁confidence	-10.6957
▁minute	-10.6958
▁library	-10.696
▁burden	-10.696
▁물을	-10.6962
▁상황에	-10.6966
▁전자	-10.6971
▁soldiers	-10.6972
▁거라	-10.6979
▁limited	-10.6981
다른	-10.6986
▁드릴게요	-10.6992
▁학습	-10.6993
▁damaged	-10.6993
트로	-10.6993
▁체포	-10.6995
률	-10.6996
▁의료	-10.6998
▁shipment	-10.7001
yeon	-10.7001
ned	-10.7003
줘서	-10.7004
za	-10.7012
▁kill	-10.7017
▁Clinton	-10.7022
▁Washington	-10.7022
▁이슬람	-10.7022
▁modern	-10.7022
▁얼	-10.7023
▁법원	-10.7025
▁보내는	-10.7028
▁소식이	-10.7028
cle	-10.7029
▁어디에서	-10.7034
▁때도	-10.7035
asp	-10.7035
▁태도	-10.7037
▁휘	-10.7038
웠	-10.7049
▁무료로	-10.7049
▁활발	-10.7053
▁아마존	-10.7053
▁cities	-10.7054
▁않을까	-10.7054
▁Seung	-10.7054
▁조지	-10.7056
▁joined	-10.7057
▁표정	-10.706
▁인물	-10.7061
▁점에서	-10.7062
▁과일	-10.7062
▁becomes	-10.7065
▁우유	-10.7067
▁사용하지	-10.7067
▁주시겠어요	-10.7076
▁하려고	-10.7077
▁원해요	-10.708
▁그만	-10.7082
푸	-10.7084
▁테이블	-10.7084
▁sexual	-10.7084
▁상원의원	-10.7084
▁Pre	-10.7086
▁거주	-10.709
▁접수	-10.7092
▁열차	-10.7096
▁쏟아	-10.7103
▁문서	-10.7104
▁계신	-10.7106
▁quiet	-10.7106
▁earn	-10.7113
▁강화	-10.7113
▁extreme	-10.7115
▁trillion	-10.7115
▁읽어	-10.7115
▁CCTV	-10.7115
▁bigger	-10.7117
▁기준으로	-10.7118
▁goals	-10.7121
▁미디어	-10.7121
▁자료를	-10.713
▁deposit	-10.713
▁그림을	-10.7134
▁/	-10.7136
잔	-10.7137
겠다고	-10.7138
컬	-10.7143
찍	-10.7144
▁Bar	-10.7145
▁birth	-10.7146
▁stressed	-10.7146
▁장관	-10.7151
턴	-10.7151
했었다	-10.7155
기업	-10.7157
▁찾으	-10.7177
잉	-10.7177
▁mouth	-10.7177
▁habit	-10.7177
▁attempt	-10.7177
▁tight	-10.7179
▁굳	-10.7181
▁무엇인가요	-10.7182
▁reached	-10.7182
INS	-10.7186
▁부품	-10.7188
원은	-10.7189
▁전기	-10.7189
▁Ru	-10.7195
▁수학	-10.7197
육	-10.7203
▁strange	-10.7204
▁marriage	-10.7209
▁짧은	-10.7209
▁David	-10.7209
▁checking	-10.7215
▁Show	-10.7216
전이	-10.7217
▁restaurants	-10.7218
ef	-10.7219
시아	-10.7222
▁한국은	-10.7235
▁조정	-10.7236
▁관광객	-10.7237
섭	-10.7238
▁제발	-10.724
▁prison	-10.724
▁receipt	-10.724
▁그렇군요	-10.724
▁다섯	-10.7242
▁conditions	-10.7242
win	-10.7243
마리	-10.7246
▁중앙	-10.7247
쇼	-10.7247
맛	-10.7248
gr	-10.7251
▁장기	-10.7257
드리겠습니다	-10.7259
레스	-10.7259
▁killing	-10.7261
▁할게요	-10.7267
▁drunk	-10.7272
▁location	-10.7272
▁lawyer	-10.7272
▁관람	-10.7272
▁note	-10.7278
포인트	-10.728
▁변호사	-10.7281
▁때문이	-10.7292
▁전반	-10.7297
now	-10.7297
▁leg	-10.7297
▁왼쪽	-10.7303
▁협력	-10.7304
▁받기	-10.7305
hee	-10.7306
안을	-10.7311
▁presentation	-10.7311
▁조언	-10.7311
옥	-10.7312
들로	-10.7313
▁시행	-10.7314
▁근거	-10.7314
▁재료	-10.7318
▁Sung	-10.7319
▁번에	-10.7324
▁이끌	-10.7326
▁나갈	-10.7327
ray	-10.7329
hr	-10.7333
됐습니다	-10.7335
릿	-10.7335
▁confident	-10.7335
▁borrow	-10.7335
▁duty	-10.7335
▁device	-10.7337
▁나아	-10.7337
▁않았어	-10.7337
▁dad	-10.7338
되었고	-10.7339
▁중국이	-10.734
lf	-10.7343
▁없는데	-10.7344
▁wage	-10.7345
row	-10.7346
▁방향	-10.7353
▁권리	-10.7359
▁답장	-10.736
▁보험	-10.7361
▁staying	-10.7364
▁추천해	-10.7367
▁complex	-10.7367
▁롯데	-10.7367
▁실험	-10.7368
▁하이	-10.7369
▁helpful	-10.7374
▁비밀	-10.7374
▁차트	-10.7377
▁meaningful	-10.738
▁forever	-10.7382
▁느껴	-10.7391
gy	-10.7395
▁adults	-10.7396
흘	-10.7396
납니다	-10.7397
▁simply	-10.7399
캔	-10.7399
▁welcome	-10.7399
▁inform	-10.74
▁Look	-10.7401
ric	-10.7405
▁인터뷰에서	-10.7407
▁collect	-10.7409
▁강력한	-10.741
▁import	-10.7412
▁이틀	-10.7414
house	-10.7416
▁모자	-10.742
▁주변에	-10.7424
▁무역	-10.7424
▁동료	-10.7427
▁Good	-10.7431
▁흐름	-10.7431
▁soup	-10.7432
▁판결	-10.7432
▁존경	-10.7433
PA	-10.7434
▁employee	-10.7435
▁잡고	-10.7436
▁마시고	-10.744
화가	-10.7442
▁Paris	-10.7442
▁부족한	-10.7443
▁respond	-10.7445
▁공기	-10.7448
▁값	-10.7448
제가	-10.7451
▁전망이	-10.7452
▁센터	-10.7455
▁shouldn	-10.7461
렉	-10.7463
▁newspaper	-10.7463
깃	-10.7463
▁contest	-10.7463
▁rising	-10.7463
▁Yoon	-10.7463
▁lesson	-10.747
완	-10.7476
▁올린	-10.7477
짐	-10.7478
달러를	-10.7481
pping	-10.7485
▁매체	-10.7485
▁무시	-10.7488
▁pack	-10.7491
▁제주도	-10.7492
▁beginning	-10.7496
▁Party	-10.7496
▁증거	-10.7497
▁시장에서	-10.7498
▁결코	-10.7499
gar	-10.7504
▁용기	-10.7504
DA	-10.7507
▁파리	-10.7508
▁manage	-10.7509
scale	-10.7509
▁즐기	-10.7511
▁sing	-10.7515
▁중이다	-10.7519
▁exact	-10.752
▁아무리	-10.7523
▁미술	-10.7525
▁beyond	-10.7528
▁organization	-10.7528
▁balance	-10.7528
▁샤	-10.7529
데요	-10.7531
▁ABC	-10.7533
▁작년	-10.7535
나무	-10.7535
▁화려	-10.7536
▁교수님	-10.7537
▁김치	-10.7542
몰	-10.7544
▁이야기가	-10.755
▁해줄	-10.7553
▁냉	-10.7555
▁foot	-10.7555
▁특징	-10.7557
랄	-10.756
▁``	-10.756
▁영수증	-10.756
핀	-10.756
▁봉	-10.756
▁주민	-10.7562
▁범위	-10.7563
▁사망자	-10.7568
▁wouldn	-10.757
▁별지	-10.7572
▁갖	-10.7576
▁기업이	-10.7581
▁합니까	-10.7588
셨어요	-10.7591
리에	-10.7591
▁Hyundai	-10.7593
▁breath	-10.7593
▁쿠	-10.7593
yang	-10.7594
▁forces	-10.7599
▁ear	-10.7602
사이	-10.7603
▁harder	-10.7608
대회	-10.7611
related	-10.7613
▁fixed	-10.7614
주셔서	-10.7615
▁prove	-10.7616
sco	-10.7617
▁아니라고	-10.7618
▁했어	-10.7621
▁공정	-10.7624
▁medicine	-10.7625
▁무언가	-10.7625
▁독립	-10.7627
▁Chung	-10.7631
▁바람이	-10.7631
▁thoughts	-10.7633
EX	-10.7635
▁선호	-10.7639
▁분들	-10.7641
품을	-10.7641
▁shooting	-10.7641
러스	-10.765
▁notice	-10.765
▁cheap	-10.7652
▁runs	-10.7653
▁quit	-10.7654
▁된다고	-10.7656
▁모아	-10.7657
▁chocolate	-10.7658
▁백악관	-10.7658
▁파트너	-10.7658
▁amazing	-10.7658
▁wedding	-10.7658
▁도쿄	-10.7658
▁자유롭게	-10.7658
▁미국이	-10.7659
▁당연히	-10.7661
▁younger	-10.7664
▁사이에서	-10.7664
대한	-10.7664
▁지도자	-10.7664
겠다는	-10.7666
▁들었어요	-10.7668
▁주시면	-10.767
▁느꼈	-10.7671
엑스	-10.7672
▁reveal	-10.7673
▁사람들과	-10.7677
▁이뤄	-10.7679
▁반면	-10.7679
▁업계	-10.768
▁오면	-10.7681
▁대부분이	-10.7683
▁income	-10.7683
▁cast	-10.7684
줘야	-10.7687
▁fund	-10.7688
▁격	-10.7691
▁ceremony	-10.7691
▁도대체	-10.7691
▁저녁에	-10.7692
▁Har	-10.7694
tent	-10.7695
자와	-10.7696
▁회사가	-10.7697
▁동생	-10.77
▁k	-10.7702
▁주십시오	-10.7705
▁predict	-10.7706
▁trees	-10.7708
▁시작된	-10.771
쓰	-10.7713
▁para	-10.7716
▁않았다고	-10.7718
▁aren	-10.7719
탑	-10.7724
▁California	-10.7724
▁찾기	-10.7724
▁Sometimes	-10.7724
▁overall	-10.7724
ou	-10.7728
kin	-10.7729
▁이해할	-10.773
▁한국으로	-10.773
맞	-10.7734
▁아이를	-10.7739
▁고객들	-10.774
▁일이다	-10.7742
▁있었는데	-10.7745
▁일주일에	-10.7746
▁예전	-10.7748
있습니다	-10.775
뷰	-10.7756
▁밝혀	-10.7756
혼	-10.7756
젤	-10.7756
해질	-10.7757
더니	-10.7757
▁있으신가요	-10.7757
▁엄청난	-10.7758
▁어려움	-10.776
▁현금	-10.7764
▁published	-10.7766
ST	-10.777
원에	-10.7776
라인	-10.7784
▁youth	-10.7788
▁일요일에	-10.7788
late	-10.7789
▁셀	-10.779
▁스케줄	-10.779
▁stuff	-10.779
▁status	-10.7791
시키고	-10.7792
▁통신	-10.7792
▁알았	-10.7797
▁받으	-10.7797
▁연출	-10.7797
▁지금도	-10.7804
illa	-10.7813
▁하나님이	-10.7819
dam	-10.7819
월부터	-10.782
논	-10.782
▁영향	-10.7821
There	-10.7822
▁feet	-10.7823
▁precious	-10.7824
▁super	-10.7824
▁검찰	-10.7824
▁master	-10.7825
▁Israel	-10.7825
▁닫	-10.7827
▁faith	-10.7838
▁입을	-10.7839
▁경찰에	-10.7843
▁Fin	-10.7847
해주실	-10.7852
장의	-10.7852
콘	-10.7856
▁가족이	-10.7857
▁impossible	-10.7857
▁battle	-10.7857
▁losing	-10.7857
▁boat	-10.7857
▁promotion	-10.7858
▁카드를	-10.7862
▁depend	-10.7863
▁포함되어	-10.7866
▁required	-10.7868
▁확인하고	-10.7874
늘	-10.7875
겼다	-10.7877
gram	-10.788
▁남성이	-10.7887
▁블록체인	-10.7891
기구	-10.7892
▁않는다면	-10.7895
▁의도	-10.7899
는데요	-10.7903
▁팝	-10.7904
▁Bill	-10.7905
▁이용자	-10.7905
▁Qu	-10.7905
▁expression	-10.7905
▁closer	-10.7907
rk	-10.7908
났다	-10.7909
▁Love	-10.7913
▁singing	-10.7914
윤	-10.7922
▁핵	-10.7923
▁conflict	-10.7924
▁evidence	-10.7924
▁straight	-10.7924
▁다이어트	-10.7924
▁doubt	-10.7924
▁nine	-10.7925
▁종목	-10.7926
▁pointed	-10.7926
▁helping	-10.7927
▁roll	-10.7927
▁joy	-10.7929
▁듣는	-10.7934
▁관객	-10.7937
ically	-10.7939
▁listening	-10.7941
▁naturally	-10.7942
▁Philippines	-10.7943
▁tri	-10.7945
▁향상	-10.7945
릭	-10.7948
델	-10.7954
▁cosmetics	-10.7954
▁population	-10.7958
셀	-10.7959
▁전해졌다	-10.7963
텔	-10.7963
▁보상	-10.7967
스카	-10.7968
Ma	-10.7972
분에	-10.7973
선수	-10.7974
term	-10.7974
▁Yoo	-10.7975
▁secure	-10.7976
▁적어도	-10.7976
▁소비자들	-10.7978
줘	-10.7979
▁performances	-10.7982
car	-10.7991
큐	-10.7992
▁fault	-10.7992
▁ones	-10.7992
▁Per	-10.7994
▁확정	-10.7995
▁자극	-10.7996
컵	-10.7997
▁먹으면	-10.7999
▁상황이다	-10.8003
▁상영	-10.8004
합시다	-10.8005
▁fail	-10.8008
▁유행	-10.8009
▁기관	-10.8009
▁tough	-10.801
▁worse	-10.801
▁있었	-10.8011
▁취업	-10.8015
▁Indonesia	-10.8017
젠	-10.8018
▁타는	-10.8019
▁못했어요	-10.8019
샤	-10.8023
▁attitude	-10.8026
▁speech	-10.8026
▁yellow	-10.8026
▁규칙	-10.8026
▁rock	-10.8026
▁바탕으로	-10.8026
▁밖으로	-10.8026
▁loan	-10.8026
free	-10.8028
▁삶의	-10.8028
▁Year	-10.8029
▁joint	-10.803
▁involved	-10.8032
방송	-10.8032
▁considering	-10.8032
▁않지만	-10.8033
▁되는지	-10.8034
▁수치	-10.8036
▁받게	-10.8037
zi	-10.8037
▁Du	-10.8043
▁Bi	-10.8048
▁includes	-10.8055
▁booked	-10.8058
▁chair	-10.8059
▁Christ	-10.8059
▁concept	-10.806
▁괜찮은	-10.806
▁퇴근	-10.806
▁컬러	-10.806
▁남겨	-10.8066
▁조각	-10.8068
정부	-10.807
▁여러분이	-10.807
▁고객이	-10.8074
▁현상	-10.8076
▁estimate	-10.808
켓	-10.8081
셨습니다	-10.8081
▁photograph	-10.8081
▁의회	-10.8082
파이	-10.8084
▁seek	-10.8085
▁든다	-10.8088
▁hearing	-10.809
▁때부터	-10.8091
▁characters	-10.8092
▁conversation	-10.8094
▁인보이스	-10.8094
▁파키스탄	-10.8094
▁mood	-10.8095
▁remains	-10.81
▁measure	-10.8107
▁suspect	-10.8111
▁상관없	-10.8111
▁King	-10.8118
▁추세	-10.8124
▁whom	-10.8127
▁represent	-10.8128
▁violence	-10.8129
▁늦어	-10.8129
시켰다	-10.8129
▁즐겨	-10.8129
▁금요일에	-10.8129
▁머물	-10.8131
허	-10.8131
밤	-10.8132
▁세계에서	-10.8135
▁상담	-10.8135
▁심장	-10.8136
▁라인	-10.814
▁앞으로도	-10.8148
▁장르	-10.8148
▁받아야	-10.8155
▁Star	-10.8156
▁PO	-10.8161
wo	-10.8161
▁총리는	-10.8161
▁발생할	-10.8162
▁천천히	-10.8163
듬	-10.8163
▁appeal	-10.8163
▁명확	-10.8164
▁치킨	-10.8164
▁띄	-10.8165
bit	-10.8165
sung	-10.8166
▁품질	-10.8167
▁작용	-10.8168
▁contain	-10.8168
▁earth	-10.817
▁것이고	-10.8171
▁등으로	-10.8178
주실	-10.8178
▁quarter	-10.8179
▁체크	-10.8183
▁엘	-10.8183
ane	-10.8187
▁질문에	-10.8188
▁측은	-10.8188
▁issued	-10.819
▁connect	-10.8192
▁있었고	-10.8193
▁느끼는	-10.8197
▁하나는	-10.8197
▁Brazil	-10.8197
딜	-10.8198
▁Governor	-10.8198
▁Other	-10.8198
▁숫자	-10.8198
▁mask	-10.8199
▁Hwang	-10.8199
▁passion	-10.8202
▁Prime	-10.8203
ae	-10.8204
▁highly	-10.8205
▁보지	-10.8205
▁장난감	-10.8213
없는	-10.8214
▁데이터를	-10.8216
지로	-10.8216
▁launched	-10.822
▁sites	-10.8221
▁comments	-10.8224
▁발생하는	-10.8227
▁humans	-10.8227
▁프로그램이	-10.823
▁comfort	-10.8231
▁풀어	-10.8232
▁Before	-10.8233
▁advice	-10.8233
▁grew	-10.8233
▁같네요	-10.8233
▁초콜릿	-10.8233
▁잠깐	-10.8233
▁novel	-10.8234
▁경향	-10.8235
▁통제	-10.8236
보는	-10.8236
▁혼자서	-10.8236
▁낫	-10.8237
▁writer	-10.8238
▁어때요	-10.8238
▁allows	-10.8242
▁앉	-10.8242
▁수리	-10.8243
run	-10.8246
▁열어	-10.8252
▁강의	-10.8254
iv	-10.8254
었을	-10.8261
▁열리	-10.8263
▁Mc	-10.8265
▁거대	-10.8266
▁충분한	-10.8266
▁Beijing	-10.8267
▁pork	-10.8268
AM	-10.8268
▁wake	-10.8269
식이	-10.8275
▁감기	-10.8276
되기도	-10.8279
▁소중한	-10.8283
ties	-10.8284
하셔야	-10.8288
전에서	-10.8288
▁내용은	-10.829
▁웹	-10.829
졌어요	-10.8296
dol	-10.8301
▁텔레비전	-10.8302
▁remind	-10.8302
▁bird	-10.8303
▁이번에는	-10.8308
▁청소년	-10.8308
뉴	-10.8308
▁없지만	-10.8309
▁연속	-10.831
마트	-10.8311
▁plant	-10.8311
대에	-10.8312
▁짐	-10.8315
▁believed	-10.8316
▁타임	-10.8321
▁제목	-10.8322
▁프리	-10.8324
▁말이야	-10.8325
book	-10.8326
▁사람이에요	-10.833
으니까	-10.8331
▁charges	-10.8336
▁compete	-10.8338
▁모릅니다	-10.8339
▁musical	-10.8342
▁실행	-10.8345
▁소설	-10.8346
▁운영하는	-10.8346
▁Jeong	-10.8348
US	-10.835
이라서	-10.8352
빛	-10.8353
▁talent	-10.8355
duc	-10.8359
롭	-10.8363
▁다소	-10.8369
▁creating	-10.8373
뚜	-10.8373
▁assault	-10.8373
▁route	-10.8373
▁dangerous	-10.8373
험	-10.8378
▁hole	-10.8378
오는	-10.8379
▁경영	-10.838
▁장점	-10.8381
▁dreams	-10.8387
아이	-10.8388
▁문장	-10.8388
▁그중	-10.8389
▁KT	-10.8389
▁피자	-10.8393
▁사상	-10.8398
관계	-10.8398
만으로	-10.8403
▁관세	-10.8406
▁Thailand	-10.8408
▁surgery	-10.8409
guard	-10.8412
▁친절	-10.8418
▁carefully	-10.8419
▁돌려	-10.8419
▁책은	-10.842
▁비롯한	-10.8421
▁slowly	-10.8422
▁bomb	-10.8423
#	-10.8424
▁piece	-10.8427
▁Tour	-10.8427
▁한다면	-10.8429
▁Indian	-10.8432
▁treated	-10.8432
▁입어	-10.8433
▁구단	-10.8435
▁funds	-10.8436
well	-10.844
▁communication	-10.8443
▁easier	-10.8443
▁empty	-10.8443
▁encourage	-10.8443
▁raising	-10.8443
▁significant	-10.8443
▁intention	-10.8443
▁minister	-10.8444
▁수용	-10.8444
app	-10.8447
▁케이	-10.8447
AT	-10.8453
리그	-10.8453
lon	-10.8454
▁줘	-10.8455
▁recorded	-10.8456
분의	-10.8458
▁strike	-10.846
▁드시	-10.8461
이었던	-10.8467
▁알지	-10.8469
뛰	-10.847
▁performed	-10.8475
▁일어난	-10.8479
▁동아리	-10.8479
▁이익	-10.8484
벨	-10.8484
▁만나서	-10.8485
net	-10.8489
들어	-10.8489
▁schools	-10.8497
▁export	-10.8498
▁향한	-10.8498
▁State	-10.85
▁만약에	-10.8503
▁falling	-10.8503
▁의자	-10.8509
▁Hollywood	-10.8515
룰	-10.8515
엠	-10.8515
▁investors	-10.8515
▁sitting	-10.8516
듣	-10.8516
▁이뤄지	-10.8517
▁치즈	-10.8524
▁follows	-10.8526
볼게요	-10.8527
body	-10.8528
▁고정	-10.853
▁쪽으로	-10.8531
▁fruit	-10.8533
top	-10.8535
▁됐	-10.8535
어져	-10.8539
님이	-10.854
▁할까요	-10.8543
편하게	-10.8545
coming	-10.8546
ken	-10.8547
ending	-10.8548
▁교사	-10.8548
▁submit	-10.855
▁봅니다	-10.8551
▁representative	-10.8551
▁authorities	-10.8551
like	-10.8552
nes	-10.8555
해보고	-10.8556
▁however	-10.8558
▁끝나고	-10.856
▁예방	-10.856
▁지점	-10.8564
▁parking	-10.8564
법을	-10.8565
▁Red	-10.8565
▁estimated	-10.8566
▁animal	-10.8569
▁standing	-10.857
▁느끼	-10.858
▁편리	-10.8583
▁mostly	-10.8584
▁Through	-10.8587
▁디지털	-10.8587
▁자연스럽게	-10.8587
▁계좌	-10.8587
▁언니	-10.8587
▁MBC	-10.8588
▁button	-10.8589
▁winner	-10.859
▁theme	-10.8591
▁예상된다	-10.8593
▁너도	-10.8601
▁깨끗	-10.8601
▁suffering	-10.8603
▁화요일	-10.8611
▁이루어지	-10.8615
▁shared	-10.8619
▁멤버들	-10.8619
잇	-10.8623
▁plastic	-10.8623
관은	-10.8623
▁Life	-10.8624
▁행운	-10.8626
▁무척	-10.8627
겠네요	-10.8627
듯이	-10.8628
▁rule	-10.8636
학년	-10.8636
put	-10.8637
▁대표는	-10.8639
▁낸	-10.8641
▁체크인	-10.8644
▁계획이	-10.8644
▁화제	-10.8649
웠다	-10.8651
▁선생님이	-10.8651
므	-10.8659
▁genre	-10.8659
▁댄스	-10.8659
code	-10.866
▁허락	-10.8661
▁고향	-10.8661
▁목격	-10.8661
room	-10.8665
leg	-10.8666
AP	-10.8666
▁연설	-10.8667
▁paying	-10.8667
▁회신	-10.8668
▁목사	-10.8668
▁arrested	-10.8671
▁대출	-10.8671
카드	-10.8672
for	-10.8674
▁최초	-10.8675
▁victim	-10.8679
▁궁금	-10.8683
▁송금	-10.8687
빗	-10.8695
▁Hallyu	-10.8695
▁severe	-10.8696
▁믿고	-10.8696
▁종교	-10.8698
▁빌려	-10.8698
▁실망	-10.8699
▁끌	-10.8701
ctor	-10.8701
▁sleeping	-10.8702
▁공연이	-10.8703
▁era	-10.8708
▁부서	-10.8711
▁images	-10.8714
ition	-10.8717
▁쓰지	-10.8721
▁만들었다	-10.8721
▁다니는	-10.8723
빌	-10.8723
▁지역의	-10.8726
ification	-10.8728
▁불리는	-10.8728
▁structure	-10.8728
MS	-10.8728
▁proper	-10.8729
콩	-10.8731
▁luggage	-10.8732
▁potential	-10.8732
▁responsible	-10.8732
▁아름답	-10.8732
펠	-10.8732
▁미안하지만	-10.8732
▁Americans	-10.8736
▁언제든지	-10.8741
▁필요할	-10.8745
▁install	-10.8748
▁rules	-10.8748
▁sounds	-10.8748
▁나은	-10.875
▁hero	-10.8752
▁있기를	-10.8755
▁claimed	-10.8758
셨나요	-10.8763
▁대통령과	-10.8763
묘	-10.8768
ake	-10.8768
▁aware	-10.8771
▁특징이	-10.8772
▁만나고	-10.8774
▁모임	-10.8779
▁Sea	-10.8779
▁행사에	-10.8781
Fi	-10.8787
▁지정	-10.879
len	-10.8795
▁들려	-10.8796
▁Both	-10.8799
▁끌어	-10.8799
▁주차	-10.8802
멜	-10.8805
▁설립	-10.8807
▁혼란	-10.8807
▁비자	-10.8807
함으로써	-10.8807
▁이웃	-10.8815
▁공감	-10.8817
▁patient	-10.8817
▁tears	-10.8817
▁이끌어	-10.8818
▁이용하는	-10.8819
▁불만	-10.8821
▁지진	-10.8822
▁가요	-10.8823
▁조성	-10.8824
▁계시	-10.8824
▁freely	-10.8825
law	-10.8829
▁세계적으로	-10.8836
▁주민들	-10.8838
▁병원에	-10.8838
갑니다	-10.8841
▁emergency	-10.8842
▁pizza	-10.8842
▁imagine	-10.8842
▁markets	-10.8842
▁많았다	-10.8844
▁폭력	-10.8847
관이	-10.8848
▁reward	-10.8848
▁갔어요	-10.8849
▁designer	-10.8852
▁고장	-10.8854
▁다음과	-10.8855
라며	-10.8856
▁장식	-10.8856
▁내에서	-10.8857
▁저와	-10.8858
▁counter	-10.8859
제품	-10.8859
▁delayed	-10.8859
▁newly	-10.886
아웃	-10.8862
▁select	-10.8863
▁받아들이	-10.8867
▁아티스트	-10.8869
▁경고	-10.8871
▁disc	-10.8872
자에게	-10.8873
▁다양	-10.8874
넷	-10.8879
▁familiar	-10.8879
▁nervous	-10.8879
▁responsibility	-10.8879
▁미세먼지	-10.8879
eun	-10.8879
▁운행	-10.8879
ace	-10.888
▁anywhere	-10.8881
ff	-10.8881
▁비율	-10.8882
▁근데	-10.8883
▁발표했다	-10.8886
▁불가능	-10.889
▁hasn	-10.8892
▁UN	-10.8893
▁잠시만	-10.8896
▁conduct	-10.8898
▁cheer	-10.8901
wer	-10.8903
▁가져가	-10.8904
▁가시	-10.8906
▁homes	-10.8908
▁recover	-10.8911
삭	-10.8916
▁bottom	-10.8916
▁graduate	-10.8916
▁피아노	-10.8916
▁corner	-10.8916
▁consult	-10.8916
▁log	-10.8917
▁적응	-10.8917
▁확산	-10.8919
프로	-10.8919
▁출장	-10.8919
▁ban	-10.8919
▁Fu	-10.892
페이스	-10.8924
▁식으로	-10.8926
▁사람과	-10.8931
호가	-10.8931
down	-10.8936
▁mix	-10.8937
▁served	-10.894
bat	-10.8941
▁신호	-10.8944
point	-10.8946
▁광주	-10.8947
▁remove	-10.895
동안	-10.895
lie	-10.895
sis	-10.8951
▁시장이	-10.8952
▁움직이	-10.8952
▁facilities	-10.8954
▁솔직히	-10.8954
▁KBS	-10.8954
▁Hotel	-10.8954
우는	-10.8955
우리는	-10.8958
▁재미있는	-10.8962
▁Once	-10.8964
▁아들이	-10.8964
NE	-10.8964
▁다수	-10.8967
▁participants	-10.8969
▁operate	-10.8977
▁measures	-10.8978
▁teachers	-10.8978
▁사기	-10.8985
`	-10.8991
▁supposed	-10.8991
▁Lord	-10.8992
▁시청	-10.8993
▁plays	-10.9001
▁떨	-10.9003
▁소요	-10.9004
▁원하지	-10.9004
▁직원들	-10.9006
▁나오지	-10.9007
▁자동	-10.9017
봐도	-10.9019
받을	-10.902
해주고	-10.9021
단이	-10.9027
lor	-10.9027
▁defense	-10.9029
▁올랐다	-10.9029
▁옮겨	-10.9029
▁트위터	-10.9029
▁카카오톡	-10.9029
▁수수료	-10.9029
▁gap	-10.903
▁Right	-10.903
▁구매할	-10.9031
해지고	-10.9035
▁일반적으로	-10.9036
▁놀러	-10.9036
▁여기에서	-10.904
▁좋아해	-10.9041
▁차가	-10.9043
갔다	-10.9044
▁외부	-10.9046
▁결정을	-10.9047
▁비롯해	-10.9052
▁En	-10.9053
ina	-10.9053
▁알아요	-10.9054
둔	-10.9058
▁quick	-10.9059
▁춤을	-10.9064
▁Pri	-10.9064
꾼	-10.9066
▁knowledge	-10.9066
덩	-10.9066
▁영광	-10.9068
▁expectations	-10.9072
▁GM	-10.9074
▁concerns	-10.9074
▁전부터	-10.9078
▁형식	-10.9081
검	-10.9083
▁않는다는	-10.9083
▁걱정하지	-10.9084
▁발행	-10.9085
▁Big	-10.9085
▁같은데요	-10.9086
▁deeply	-10.9087
무려	-10.9088
▁만들어진	-10.9092
▁remaining	-10.9093
▁주위	-10.9098
▁같아서	-10.9102
▁관계자	-10.9103
랩	-10.9104
▁워싱턴	-10.9104
▁escape	-10.9104
▁목숨	-10.9104
▁airline	-10.9107
▁설계	-10.9108
uch	-10.9108
▁fees	-10.9108
▁쉬운	-10.9108
▁달성	-10.9111
▁배울	-10.9112
려는	-10.9114
▁흔들	-10.9115
▁crowd	-10.9124
▁사항이	-10.9125
br	-10.9127
▁부과	-10.9129
▁직원이	-10.9133
어진	-10.914
▁가이드	-10.9143
▁연장	-10.9144
▁드는	-10.9144
▁야구	-10.9146
조사	-10.9146
▁relatively	-10.9147
▁위에서	-10.9148
솔	-10.9149
▁없기	-10.9151
명에	-10.9154
세포	-10.9155
▁ranking	-10.9156
▁정치적	-10.9157
인들은	-10.9158
▁제공하는	-10.9159
십니다	-10.9159
how	-10.9163
ari	-10.9169
▁달하는	-10.9175
▁Africa	-10.9175
▁보유	-10.9175
▁Super	-10.9179
py	-10.918
▁quantity	-10.918
▁겁니까	-10.918
sol	-10.9181
▁curious	-10.9181
▁detect	-10.9181
▁태풍	-10.9181
▁청년	-10.9182
▁guests	-10.9184
▁개봉	-10.9184
▁영향력	-10.9186
▁않나요	-10.9186
살이	-10.9187
▁지식	-10.9187
meter	-10.9193
▁장관은	-10.9194
▁하자	-10.9194
▁Pu	-10.9203
▁말씀을	-10.9205
▁adding	-10.9205
▁사실은	-10.9206
시키기	-10.9207
▁range	-10.9208
참	-10.9211
▁mini	-10.9211
▁짐을	-10.9218
▁라디오	-10.9219
▁챙겨	-10.9219
▁매케인	-10.9219
▁south	-10.9219
▁baseball	-10.9219
▁construction	-10.9219
콜	-10.9224
▁절차	-10.9224
▁미안	-10.9228
▁말아	-10.9229
▁배가	-10.9235
▁Wal	-10.9236
▁installed	-10.9238
▁delay	-10.9243
gin	-10.9243
되도록	-10.9244
으로써	-10.9247
You	-10.9253
No	-10.9255
▁디자이너	-10.9257
▁forgot	-10.9257
▁기쁨	-10.9257
▁rush	-10.9257
▁kick	-10.9259
관리	-10.9265
건이	-10.9267
▁여권	-10.9268
스럽게	-10.927
▁무게	-10.9275
ky	-10.9276
▁것이며	-10.9277
▁소스	-10.9279
▁탐	-10.9281
▁Am	-10.9282
▁Th	-10.9288
▁믿어	-10.929
▁서울에	-10.9293
▁있었다고	-10.9294
▁말했어요	-10.9296
컴	-10.9296
▁Pakistan	-10.9296
▁공화당	-10.9296
▁hobby	-10.9296
▁loud	-10.9296
▁청구	-10.9297
▁약속을	-10.9298
▁결론	-10.9299
▁Sang	-10.9299
▁상자	-10.9304
press	-10.9305
하시기	-10.9306
▁어렵	-10.9311
▁데이트	-10.9315
줘요	-10.9319
▁수십	-10.9319
form	-10.9319
made	-10.932
▁득점	-10.9323
▁대선	-10.9328
▁luck	-10.9328
▁finding	-10.9328
▁매주	-10.9329
▁법안	-10.933
▁mainly	-10.9331
▁신체	-10.9331
▁leaves	-10.9333
▁회장	-10.9334
▁chief	-10.9335
▁이집트	-10.9335
▁로봇	-10.9335
▁spoke	-10.9335
▁규제	-10.9336
비아	-10.9336
▁맞지	-10.9336
▁accepted	-10.9348
long	-10.935
ek	-10.935
▁regard	-10.9352
받고	-10.9355
▁시계	-10.9358
▁benefits	-10.9363
▁alcohol	-10.9364
▁Bur	-10.9365
▁편이	-10.9367
▁시장에	-10.9372
▁worst	-10.9374
▁football	-10.9374
▁품목	-10.9375
▁극장	-10.9376
▁접속	-10.9377
▁재능	-10.9378
보니	-10.9379
▁않았지만	-10.9381
▁어렵다	-10.9384
▁하러	-10.9387
▁나아가	-10.9391
▁작품이	-10.9393
▁그렇지만	-10.9393
▁현장에서	-10.9396
내고	-10.9399
▁제품들	-10.9404
되게	-10.9404
▁콜	-10.9407
▁포함한	-10.9409
▁서명	-10.9409
▁전용	-10.9409
nce	-10.941
▁그분	-10.9411
▁무엇입니까	-10.9413
bal	-10.9413
▁agent	-10.9415
▁mass	-10.9418
▁평소에	-10.9418
▁actions	-10.9419
▁Mac	-10.9421
▁Gangnam	-10.9423
▁식품	-10.9423
▁자세히	-10.9423
▁separately	-10.9425
번에	-10.9426
비는	-10.9428
▁항공사	-10.9432
▁조치를	-10.9434
▁meals	-10.9436
▁전력	-10.9437
▁건데	-10.9437
BA	-10.9442
선이	-10.9442
▁화물	-10.9442
▁Chang	-10.9444
리스트	-10.9445
웨	-10.9448
▁Kakao	-10.9452
▁proposal	-10.9452
▁저렴한	-10.9452
해주셔서	-10.9453
fer	-10.9458
▁폭행	-10.946
ib	-10.9462
▁Roh	-10.9463
▁effects	-10.9463
▁방해	-10.9468
▁호텔에	-10.9469
▁학생이	-10.9469
▁노인	-10.947
▁지사	-10.9472
으면서	-10.9475
▁기타	-10.9476
▁토요일에	-10.948
▁부문	-10.9481
vic	-10.9482
▁annual	-10.9483
▁grateful	-10.9491
▁uniform	-10.9491
쌍	-10.9491
▁충돌	-10.9491
▁lift	-10.9491
▁brain	-10.9491
▁Unlike	-10.9491
▁Paul	-10.9492
ware	-10.9493
▁unlike	-10.9493
▁전시회	-10.9495
▁들었	-10.9498
▁있으	-10.9504
▁실적	-10.9508
▁focused	-10.9508
▁PM	-10.9512
하겠다고	-10.9514
다운	-10.9514
▁성명	-10.9517
▁그러한	-10.9517
▁먹지	-10.9521
라서	-10.9523
pin	-10.9525
▁저번	-10.9525
혁	-10.9526
▁기울	-10.953
더라고요	-10.9531
▁digital	-10.9531
▁예쁘	-10.9531
▁바쁘	-10.9533
퍼센트	-10.9533
▁Los	-10.9534
갔	-10.9534
▁가리	-10.9534
▁의혹	-10.9535
▁운전자	-10.9535
▁exit	-10.9536
봤습니다	-10.9536
▁설명해	-10.9536
▁wonderful	-10.9542
▁요인	-10.9543
▁거절	-10.9546
▁입금	-10.9547
▁promised	-10.9549
▁safely	-10.9551
▁ring	-10.9554
털	-10.9555
▁되었어요	-10.9557
▁affected	-10.9559
한국	-10.956
▁대구	-10.9564
▁세우	-10.9565
▁여러분들	-10.9566
파크	-10.9566
▁짜	-10.9567
았어요	-10.9568
▁코드	-10.9569
소리	-10.957
▁generation	-10.957
▁implement	-10.957
▁unusual	-10.957
▁블랙	-10.957
▁구청장	-10.957
▁operating	-10.9571
▁지갑	-10.9576
▁학생들은	-10.9576
▁Hye	-10.958
보면	-10.958
▁throughout	-10.958
▁자고	-10.9582
▁좋게	-10.9582
▁bear	-10.9583
▁정의	-10.9587
▁마찬가지로	-10.9588
▁opinions	-10.9588
▁singers	-10.9588
RO	-10.9593
뜨	-10.9594
mun	-10.9597
님께서	-10.96
▁느끼고	-10.9601
▁하죠	-10.9604
▁buildings	-10.9609
▁piano	-10.961
▁Italian	-10.961
▁Ahn	-10.961
▁인원	-10.9612
▁된다는	-10.9613
▁계획이다	-10.9613
▁도입	-10.9614
셔도	-10.9619
▁accused	-10.9619
▁소통	-10.962
해주시면	-10.9621
든지	-10.9624
▁signed	-10.9625
▁지난주	-10.9625
▁인생을	-10.9629
군이	-10.9632
▁새해	-10.9632
싸	-10.9635
해보세요	-10.9635
▁fl	-10.9637
▁되어있	-10.9638
▁reporters	-10.9643
eg	-10.9644
▁혐의로	-10.9648
▁들어가는	-10.965
밍	-10.965
▁혁신	-10.965
▁internet	-10.9651
▁폭탄	-10.9653
▁north	-10.9656
gle	-10.9658
▁싶어서	-10.9659
▁태양	-10.9662
nc	-10.9662
▁영역	-10.9662
▁확	-10.9663
▁건설	-10.9664
내가	-10.9665
▁투수	-10.9667
▁공공	-10.9668
시설	-10.9668
▁지배	-10.967
local	-10.9673
주시고	-10.9676
화된	-10.9677
▁이메일로	-10.9678
니스	-10.9679
▁펜	-10.968
▁powerful	-10.9681
▁usual	-10.9682
▁인수	-10.9684
▁glass	-10.9687
▁신선	-10.9687
▁방문할	-10.9688
▁가족과	-10.9689
▁Web	-10.9689
▁league	-10.969
▁strategy	-10.969
▁relieve	-10.969
▁funny	-10.9692
▁speaking	-10.9697
▁ill	-10.9699
▁맞나요	-10.97
▁houses	-10.9704
▁ski	-10.9709
▁Ku	-10.9709
▁걸리	-10.9709
▁belong	-10.9714
fold	-10.9716
▁improved	-10.9723
▁지연	-10.9725
▁불이	-10.9731
▁survive	-10.9731
▁thick	-10.9731
▁High	-10.9731
▁finger	-10.9732
▁Cheong	-10.9732
▁스마트	-10.9733
▁Ste	-10.9736
▁크고	-10.9745
▁stocks	-10.9746
▁fat	-10.9747
NA	-10.9748
▁쥐	-10.9748
▁오늘날	-10.9749
▁conducted	-10.975
농	-10.9751
▁이상한	-10.9751
ept	-10.9751
▁의문	-10.9756
▁lines	-10.9757
▁완벽한	-10.9762
▁radio	-10.9763
▁이후로	-10.9765
▁문제점	-10.9765
텐	-10.9768
▁해석	-10.9769
받은	-10.9769
▁사장님	-10.977
▁같았	-10.9771
▁벗어나	-10.9771
▁sharing	-10.9771
▁호텔에서	-10.9771
▁삭제	-10.9771
▁바꿀	-10.9773
▁향후	-10.9773
▁지켜보	-10.9776
▁vehicles	-10.9777
▁조절	-10.978
▁담당자	-10.9783
▁떨어지	-10.9785
기간	-10.979
보드	-10.979
temp	-10.9791
▁다르	-10.9792
▁의무	-10.9793
▁lover	-10.9794
▁나선	-10.9795
▁detailed	-10.9797
▁보면서	-10.9802
▁나랑	-10.9802
▁experienced	-10.9804
사업	-10.9805
▁하니	-10.9807
▁기부	-10.9811
▁일할	-10.9811
▁댓글	-10.9812
▁매니저	-10.9812
▁아이스크림	-10.9812
▁흘러	-10.9812
▁border	-10.9812
▁shipped	-10.9813
▁passport	-10.9813
▁아이폰	-10.9814
ugh	-10.9818
▁complain	-10.9822
▁charged	-10.9824
▁Sta	-10.9824
▁아직까지	-10.9827
▁units	-10.983
▁준비해	-10.9831
▁났	-10.9836
구가	-10.9838
▁replace	-10.984
▁Jun	-10.9846
▁했다고	-10.9849
톱	-10.9851
시기	-10.9852
▁International	-10.9853
▁McCain	-10.9853
▁impressive	-10.9853
▁science	-10.9853
▁truck	-10.9853
▁생각할	-10.9854
atch	-10.9854
▁투입	-10.9855
▁telling	-10.9856
▁정확하게	-10.9856
▁forced	-10.9859
▁몰려	-10.986
FC	-10.986
▁아니지만	-10.9862
▁sin	-10.9864
▁안으로	-10.9874
▁세워	-10.9876
눈	-10.9879
az	-10.988
▁구경	-10.9883
▁밴드	-10.9885
▁다루	-10.9892
▁귀하	-10.9892
산업	-10.9893
▁magazine	-10.9894
듀	-10.9894
▁climb	-10.9894
▁receiving	-10.9894
▁똑같은	-10.9894
▁downtown	-10.9894
don	-10.9895
끄러	-10.9896
▁상징	-10.9896
▁household	-10.9899
▁cry	-10.9904
▁미국인	-10.9904
▁유통	-10.9909
ose	-10.9909
Barack	-10.991
꾸	-10.9913
학자	-10.9913
elect	-10.9917
▁한데	-10.9921
▁math	-10.9922
▁urgent	-10.9926
▁자산	-10.9926
▁돼지	-10.9931
▁모르겠어	-10.9932
▁포함해	-10.9933
▁사람입니다	-10.9935
▁commercial	-10.9935
▁나타내	-10.9935
▁동일한	-10.9935
▁download	-10.9936
춤	-10.9936
▁보여주고	-10.9936
▁bother	-10.9936
▁구체적인	-10.9938
▁blow	-10.9938
▁대리	-10.9943
▁setting	-10.9943
▁당신도	-10.9949
▁응답	-10.9949
▁연간	-10.9952
▁차지했다	-10.9954
▁expects	-10.9957
여명이	-10.9958
통신	-10.9958
▁데에	-10.9959
짓	-10.9959
GO	-10.9961
밥	-10.9964
SA	-10.9964
줄게요	-10.9965
미가	-10.997
▁보내주	-10.9972
▁drug	-10.9974
▁accurate	-10.9976
▁convenient	-10.9976
▁insurance	-10.9976
▁truly	-10.9976
▁넘치는	-10.9978
▁pig	-10.9981
▁바르	-10.9982
▁강남	-10.9982
▁빚	-10.9983
Total	-10.9986
▁아니었	-10.9989
▁방문한	-10.9989
이번	-10.9992
▁Real	-10.9992
▁건강한	-10.9993
▁공포	-10.9994
▁날아	-10.9997
났	-10.9998
체가	-11.0007
▁진행할	-11.0008
닐	-11.0009
ui	-11.001
▁자리에서	-11.0013
▁끝났	-11.0016
▁Spanish	-11.0018
▁밝힌	-11.0018
▁비타민	-11.0018
▁휴대전화	-11.0018
하우스	-11.0018
▁James	-11.0018
▁visa	-11.0018
▁장면이	-11.0019
▁아픈	-11.002
▁offered	-11.0023
▁models	-11.0025
역에서	-11.0026
▁후반	-11.0032
▁끝에	-11.0033
▁계기	-11.0034
▁못해	-11.0034
▁cats	-11.0036
▁아이들은	-11.0038
▁부정	-11.004
▁MC	-11.0041
▁것입니까	-11.0042
▁시켜	-11.0043
▁사용한	-11.0043
▁헬	-11.0047
▁손에	-11.0049
▁시리즈	-11.005
▁의견이	-11.0051
▁fourth	-11.0055
dia	-11.0056
트라	-11.0056
룩	-11.0059
▁업그레이드	-11.0059
▁monitor	-11.0059
▁murder	-11.0059
▁bottle	-11.0059
▁index	-11.006
▁software	-11.006
▁entertainment	-11.006
▁Col	-11.0061
▁전세계	-11.0064
▁현상이	-11.0066
▁다르게	-11.0068
해진	-11.0077
▁Hall	-11.0078
▁forest	-11.0078
▁몸에	-11.0078
▁이끄	-11.0079
▁entering	-11.0081
▁상태로	-11.0083
▁Iraqi	-11.0085
▁유엔	-11.0085
▁Games	-11.0088
▁한국이	-11.0092
▁키우	-11.0093
▁Jeon	-11.0093
▁건조	-11.0095
촌	-11.0097
▁꺼	-11.0099
백만	-11.0099
▁Girl	-11.0101
▁analysis	-11.0101
▁robot	-11.0101
▁Daegu	-11.0103
▁그것들	-11.0103
유로	-11.0105
die	-11.0106
▁진입	-11.0107
▁기름	-11.0108
ku	-11.0109
▁말하지	-11.011
롭게	-11.011
▁자격	-11.0112
▁scar	-11.0114
▁없었어요	-11.0114
상으로	-11.0117
▁사건에	-11.0123
▁찾아가	-11.0127
▁군사	-11.0128
▁언제까지	-11.0129
joins	-11.0131
▁complaint	-11.0133
▁fly	-11.0139
▁능력이	-11.0139
죽	-11.014
This	-11.0141
튜	-11.0143
▁communicate	-11.0143
▁인스타그램	-11.0143
▁crew	-11.0143
▁activity	-11.0143
▁Gwangju	-11.0143
▁stable	-11.0144
▁Shi	-11.0144
▁drinks	-11.0145
개국	-11.0145
▁봤	-11.0146
▁존중	-11.0147
ology	-11.0148
▁외교	-11.0149
브라	-11.015
▁passengers	-11.0151
▁물건이	-11.0152
▁solo	-11.0153
▁매운	-11.0156
▁공간이	-11.0157
▁begins	-11.0157
▁News	-11.0158
jun	-11.016
원으로	-11.016
▁Sen	-11.0167
주십시오	-11.0172
던데	-11.0173
▁requires	-11.0177
▁temperature	-11.0185
떼	-11.0185
▁extend	-11.0185
▁debate	-11.0186
명과	-11.0187
▁서울에서	-11.0187
▁upgrade	-11.0188
▁노선	-11.0193
▁정당	-11.0194
lim	-11.0194
▁appears	-11.0194
EA	-11.0197
aging	-11.0197
거래	-11.0198
▁chat	-11.0198
▁동네	-11.02
ress	-11.0201
▁seriously	-11.0202
▁경기장	-11.0202
▁배우는	-11.0202
▁그리스도	-11.0203
▁도와줄	-11.0204
▁shoot	-11.0207
▁spending	-11.0208
▁지시	-11.0208
▁register	-11.021
봤	-11.021
▁지루	-11.0215
▁ingredients	-11.0216
▁중국에	-11.0217
▁FC	-11.0219
▁actual	-11.0219
▁가자	-11.0225
▁환영	-11.0226
콤	-11.0226
▁마크	-11.0226
▁blockchain	-11.0228
▁여동생	-11.0228
▁overcome	-11.0228
▁wild	-11.0228
▁전화번호	-11.0229
▁Grand	-11.023
▁consumer	-11.0232
▁측정	-11.0233
▁Station	-11.0235
▁되길	-11.024
만달러	-11.0242
▁FA	-11.0243
▁Par	-11.0247
치지	-11.0252
▁분야에서	-11.0253
▁물어	-11.0256
▁threat	-11.0257
스케	-11.0259
▁하시는	-11.0265
▁Turkey	-11.027
▁소프트웨어	-11.027
▁interpret	-11.027
▁section	-11.027
▁중에는	-11.0271
▁점검	-11.0272
▁miles	-11.0273
▁연극	-11.0274
▁크리스	-11.0276
▁나가는	-11.0279
▁engineer	-11.0279
위로	-11.0279
▁현재까지	-11.028
▁army	-11.028
▁예정이에요	-11.0281
▁지나가	-11.0281
▁봐요	-11.0283
ix	-11.0285
▁caus	-11.0285
ker	-11.0289
ara	-11.0294
▁의식	-11.0297
▁장난	-11.0302
▁부정적	-11.0304
▁행복해	-11.0305
▁되어서	-11.0306
ax	-11.0306
▁슈	-11.0308
용으로	-11.0308
▁multi	-11.0313
럭	-11.0313
▁Instagram	-11.0313
곰	-11.0313
옹	-11.0313
▁베이징	-11.0313
▁콘	-11.0314
▁따르	-11.0314
▁추락	-11.0316
▁gather	-11.0317
했나요	-11.0317
야만	-11.0317
주시면	-11.0318
됐으며	-11.0318
▁있었으면	-11.0318
었으면	-11.0319
▁critic	-11.032
▁lucky	-11.0321
▁방영	-11.0325
▁wins	-11.0326
▁확장	-11.0327
▁닿	-11.033
▁북한이	-11.0334
▁통한	-11.0337
▁relax	-11.0338
ense	-11.0338
▁지수	-11.0338
▁즐기는	-11.0342
미국	-11.0344
▁말합니다	-11.0345
▁오고	-11.0348
타임	-11.035
믿	-11.0351
▁됩니까	-11.0356
▁미얀마	-11.0356
뼈	-11.0356
▁멈추	-11.0356
▁fighting	-11.0356
cnn	-11.0356
▁슈퍼	-11.0356
▁somewhere	-11.0358
▁있으세요	-11.0358
▁스토리	-11.0358
▁극복	-11.0358
▁frequently	-11.0359
▁adult	-11.036
분기	-11.0365
▁upset	-11.0366
▁영양	-11.0366
▁창업	-11.0369
ET	-11.037
imp	-11.0371
라이트	-11.0371
nna	-11.0372
▁너랑	-11.0373
▁registered	-11.0374
▁장치	-11.0375
▁West	-11.0376
▁flowers	-11.0377
▁관해서	-11.0379
▁의원은	-11.038
▁provides	-11.0381
log	-11.0383
민이	-11.0388
pur	-11.039
NG	-11.0395
rated	-11.0397
앨	-11.0399
▁iPhone	-11.0399
▁smoking	-11.0399
▁medal	-11.04
학생	-11.0401
▁있죠	-11.0404
▁월드	-11.0404
▁우편	-11.0404
▁시신	-11.0404
▁봐야	-11.0409
▁솔	-11.041
▁아예	-11.0411
이어서	-11.0413
▁suffered	-11.0416
▁거기서	-11.042
▁오기	-11.0422
▁배치	-11.0424
▁nor	-11.0426
▁시작할	-11.0428
▁pan	-11.043
pic	-11.043
스러워	-11.0431
▁아니라는	-11.0431
▁Eun	-11.0434
싼	-11.0439
몽	-11.0442
▁Secretary	-11.0442
▁celebrate	-11.0442
▁central	-11.0442
▁alive	-11.0444
▁abuse	-11.0444
▁작업이	-11.0446
껏	-11.0446
▁필요로	-11.0449
▁케이스	-11.0449
▁하나로	-11.0451
▁banks	-11.0456
▁생선	-11.0456
되었다고	-11.0456
▁grades	-11.0458
▁담아	-11.0461
care	-11.0465
▁web	-11.0467
▁차단	-11.0468
▁businesses	-11.0474
lthough	-11.0476
▁Lim	-11.0477
▁상품이	-11.0478
▁기뻐	-11.0479
▁공개했다	-11.0481
▁어때	-11.0482
▁AS	-11.0483
▁essential	-11.0486
▁BMW	-11.0486
▁Everything	-11.0486
▁배터리	-11.0486
▁dropped	-11.0486
▁에어	-11.0487
round	-11.0489
▁친구들은	-11.0491
▁마스크	-11.0492
▁한국과	-11.0493
펜	-11.0497
▁찬성	-11.0502
ery	-11.0502
뿐이에요	-11.0502
▁남았	-11.0505
▁spa	-11.0507
▁방향으로	-11.0509
chan	-11.0516
▁들어갔	-11.0519
옵니다	-11.0522
▁fried	-11.0523
즐	-11.0528
tel	-11.0528
▁어렸을	-11.0529
▁커뮤니티	-11.0529
▁칭찬	-11.0529
▁venue	-11.0529
▁sweat	-11.0529
▁가르치	-11.053
▁Music	-11.0531
▁purchased	-11.0531
▁어떨까요	-11.0532
▁목록	-11.0532
▁창출	-11.0533
▁믿을	-11.0533
▁stick	-11.0534
▁엄청나	-11.0534
▁소송	-11.0535
▁가졌	-11.0535
▁values	-11.0535
▁task	-11.0536
▁특별히	-11.0536
ura	-11.0536
해야만	-11.0537
aff	-11.0541
▁결혼식	-11.0542
over	-11.0544
▁제재	-11.0549
조합	-11.055
▁cards	-11.0552
▁Australian	-11.0554
▁이루어	-11.0556
▁경우는	-11.0557
하면서도	-11.056
tail	-11.0561
▁beef	-11.0561
▁종일	-11.0563
▁내고	-11.0564
릅니다	-11.0566
맥	-11.0571
▁pattern	-11.0573
▁carried	-11.0573
▁줄어들	-11.0573
▁검은색	-11.0574
ttp	-11.0576
▁되겠	-11.0579
끈	-11.0579
▁통증	-11.058
▁생길	-11.058
성은	-11.0582
▁얼음	-11.0583
▁성경	-11.0584
▁equal	-11.0585
▁살았	-11.0588
Korean	-11.0589
▁책상	-11.0591
▁gate	-11.0592
▁저희에게	-11.0597
▁보았습니다	-11.0598
시킨	-11.06
▁심각	-11.0601
▁물이	-11.0606
▁keeps	-11.0612
▁가스	-11.0615
HO	-11.0615
▁어쩌면	-11.0617
▁일어날	-11.0617
▁command	-11.0617
▁soul	-11.0618
▁grand	-11.0618
▁legs	-11.062
▁기억이	-11.0624
팔	-11.0625
▁expert	-11.0625
▁제외하고	-11.0627
▁갈등	-11.0628
▁계약서	-11.0628
▁수단	-11.0628
▁갖게	-11.0629
▁역대	-11.063
▁사장	-11.0631
▁Dis	-11.0632
▁진행되고	-11.0633
심이	-11.0638
bel	-11.0638
IS	-11.064
했었	-11.0642
▁우수	-11.0644
▁집단	-11.0654
ez	-11.0655
십니까	-11.0656
ama	-11.0658
itch	-11.0661
▁eventually	-11.0662
▁그러므로	-11.0662
▁올렸다	-11.0662
▁swimming	-11.0662
▁예쁜	-11.0662
▁leak	-11.0662
▁풍경	-11.0664
▁만남	-11.0666
▁세부	-11.0667
▁고급	-11.0668
져서	-11.0669
▁그녀와	-11.067
▁아닌가요	-11.0672
▁해변	-11.0674
▁젊은이들	-11.0675
휴	-11.0675
▁개인적으로	-11.0677
▁학원	-11.0678
▁enjoying	-11.0679
▁''	-11.0683
▁causes	-11.0684
▁진행되는	-11.0686
▁UK	-11.0686
right	-11.0688
▁Times	-11.0693
▁한국에서는	-11.0696
▁전환	-11.0697
▁Gen	-11.0698
▁require	-11.0699
▁pill	-11.0702
▁손상	-11.0703
▁Thai	-11.0706
▁tournament	-11.0706
▁대규모	-11.0706
▁frame	-11.0706
▁SBS	-11.0706
▁열쇠	-11.0707
▁주최	-11.071
▁인용	-11.0712
pen	-11.0717
▁무기	-11.072
▁부르는	-11.072
▁공부하는	-11.0721
▁뭐라고	-11.0722
▁아니냐	-11.0723
스키	-11.0726
▁connected	-11.0729
▁경제적	-11.0733
점으로	-11.0734
▁초기	-11.0734
▁돼서	-11.0739
▁끌고	-11.074
억달러	-11.0741
▁선고	-11.0742
아서	-11.0744
▁messages	-11.0744
xi	-11.0744
▁생겨	-11.0746
▁occurs	-11.0748
▁rec	-11.0748
렴	-11.0749
▁dessert	-11.0751
▁volume	-11.0751
▁독특한	-11.0751
▁만듭니	-11.0751
▁cheese	-11.0751
▁압박	-11.0751
▁failure	-11.0751
▁발휘	-11.0751
▁충전	-11.0751
▁싸움	-11.0752
▁copy	-11.0752
▁Motor	-11.0753
▁아프간	-11.0754
겠습니까	-11.0757
십시오	-11.0757
▁미니	-11.0758
함에	-11.0758
▁source	-11.076
▁cable	-11.0765
▁experiences	-11.0766
▁추정	-11.0767
▁stone	-11.0772
▁지금부터	-11.0775
시간이	-11.0776
▁꼽	-11.0777
▁않는다고	-11.0778
▁사랑이	-11.0778
▁understanding	-11.0778
료를	-11.0779
▁늘어	-11.078
▁옥	-11.0781
▁무장	-11.0782
▁Make	-11.0782
▁악화	-11.079
ese	-11.0792
▁마치고	-11.0793
▁Black	-11.0795
▁approval	-11.0795
▁recruit	-11.0795
컷	-11.0795
▁바이러스	-11.0796
▁영원히	-11.0798
▁발라	-11.0803
져야	-11.0809
▁가로	-11.0811
캐	-11.0811
ame	-11.0813
▁마약	-11.0816
▁Cla	-11.0817
기관	-11.0817
▁pitcher	-11.0818
▁jump	-11.0823
teen	-11.0823
▁분리	-11.0826
ably	-11.0826
▁법을	-11.0826
▁봉사	-11.0827
았던	-11.0829
▁전투	-11.0829
▁Put	-11.0835
▁빠르	-11.0837
MP	-11.0839
▁것인가	-11.0839
▁George	-11.0841
▁guarantee	-11.0841
▁Blue	-11.0841
▁흐르	-11.0841
://	-11.0841
▁teaching	-11.0841
▁케이블	-11.0842
▁궁금증	-11.0842
▁습관	-11.0843
eng	-11.0844
▁suffer	-11.0847
▁국경	-11.0847
▁useful	-11.0848
▁가량	-11.0849
받는	-11.085
ero	-11.0851
▁recall	-11.0861
▁아닐	-11.0863
▁USD	-11.0865
▁Try	-11.0866
▁harm	-11.0867
▁목요일	-11.0875
fr	-11.0877
▁sudden	-11.0877
▁살펴보	-11.0886
윗	-11.0886
▁prize	-11.0886
▁블루	-11.0886
▁EXO	-11.0886
lk	-11.0886
▁근육	-11.0886
▁듯한	-11.0898
▁고르	-11.0902
▁사실상	-11.0905
▁게시	-11.0907
▁빠진	-11.0909
▁Any	-11.0916
워드	-11.092
▁거니	-11.092
▁모습으로	-11.0922
▁sides	-11.0923
▁땀	-11.0923
▁canceled	-11.0926
▁feature	-11.0928
▁벗	-11.093
▁spirit	-11.0931
▁Street	-11.0931
▁decade	-11.0931
▁싱글	-11.0931
▁제임스	-11.0931
▁placed	-11.0933
▁있었지만	-11.0935
af	-11.0936
센트	-11.0942
끼	-11.0942
▁option	-11.0943
arch	-11.0943
▁물리	-11.0949
▁Such	-11.0949
▁먹기	-11.0951
▁shops	-11.0954
▁못합니다	-11.0954
del	-11.0954
rink	-11.0956
▁들어갈	-11.0956
lia	-11.0956
ball	-11.0957
▁임금	-11.0959
▁대전	-11.0959
이었어	-11.096
▁reserve	-11.0962
▁스키	-11.0966
▁보여줄	-11.0974
▁주지사	-11.0975
lip	-11.0975
▁기독교	-11.0977
▁garden	-11.0977
▁chairman	-11.0978
▁보장	-11.0981
▁rapidly	-11.0981
▁용의자	-11.0982
▁데리고	-11.0982
메이	-11.0983
▁가족들	-11.0986
짜	-11.0989
▁benefit	-11.0989
▁coat	-11.0991
▁먼	-11.0992
▁미래에	-11.0993
▁산책	-11.0995
▁연방	-11.0997
▁측면	-11.0997
IN	-11.1
▁갖는	-11.1006
▁아이디	-11.1008
▁싸우	-11.101
▁towards	-11.1016
▁lying	-11.1017
back	-11.1019
페이	-11.1019
멘	-11.1022
▁Twitter	-11.1023
▁politics	-11.1023
▁귀여운	-11.1023
틈	-11.1023
▁salary	-11.1023
▁면접	-11.1023
▁생존	-11.1024
▁처벌	-11.1024
ase	-11.1024
▁나면	-11.1025
▁자꾸	-11.1025
▁관광객들	-11.1028
▁CJ	-11.1034
▁lovely	-11.1036
▁만화	-11.1038
▁보게	-11.1039
▁#	-11.105
wn	-11.1052
▁발사	-11.1053
▁supported	-11.1062
▁buyer	-11.1065
▁earthquake	-11.1069
▁river	-11.107
▁gym	-11.107
▁wallet	-11.1071
▁할아버지	-11.1072
▁모르겠습니다	-11.1072
양이	-11.1077
▁rarely	-11.1077
▁점수	-11.1078
▁Bra	-11.1079
흔	-11.1086
▁뜨	-11.1087
▁수요일	-11.1087
하겠다는	-11.1088
영화	-11.1088
▁뿐만	-11.1093
▁수업이	-11.1095
▁도구	-11.1098
▁예수	-11.1098
▁제도	-11.1102
▁장애	-11.1104
▁봤어요	-11.1104
▁스파	-11.1106
▁Ya	-11.1108
▁조선	-11.1109
▁rare	-11.1111
▁근처	-11.1111
▁saved	-11.1112
없	-11.1115
▁Three	-11.1115
▁controversy	-11.1115
▁flood	-11.1115
▁satisfied	-11.1115
▁어려워	-11.1115
틱	-11.1115
▁adapt	-11.1115
▁엄마는	-11.1115
▁뿌리	-11.1116
▁Angeles	-11.1117
▁경기에	-11.1117
장님	-11.1122
▁화장	-11.1127
▁좋아하고	-11.1127
▁증시	-11.1131
▁출구	-11.1131
▁brands	-11.1138
▁외에	-11.114
▁남부	-11.1142
field	-11.1145
▁상태에서	-11.1147
▁reduced	-11.1147
시길	-11.1148
▁본인이	-11.115
▁캘리포니아	-11.1151
rang	-11.1151
기술	-11.1153
▁담은	-11.1154
▁리그	-11.1155
▁국내에서	-11.1157
▁School	-11.1162
▁lonely	-11.1162
▁possibility	-11.1162
▁메이크업	-11.1162
▁인쇄	-11.1162
wing	-11.1166
▁궁금합니다	-11.1167
▁cheaper	-11.1171
▁리더	-11.1172
▁선두	-11.1176
달라고	-11.1176
▁height	-11.118
항공	-11.1182
▁선사	-11.1183
▁점수를	-11.1183
▁meters	-11.1183
▁논란이	-11.1185
▁바라보	-11.1193
사와	-11.1195
▁없으면	-11.1197
▁세상에	-11.12
▁들어있	-11.1201
▁고마워	-11.1202
준다	-11.1202
▁진행하고	-11.1205
hwa	-11.1205
▁이때	-11.1206
▁당선	-11.1206
장으로	-11.1208
▁두려움	-11.1208
렛	-11.1208
야말로	-11.1209
▁neck	-11.1209
▁taught	-11.1209
▁숙소	-11.1209
▁marry	-11.1209
▁취재	-11.1211
▁warning	-11.1211
▁Earth	-11.1212
▁비싼	-11.1212
▁종료	-11.1212
▁제외한	-11.1212
▁지어	-11.1214
▁고마워요	-11.1215
▁divided	-11.1215
▁보냈다	-11.1218
▁관련해	-11.1218
▁burn	-11.1219
▁whatever	-11.1221
cus	-11.1226
sim	-11.1226
▁Mayor	-11.1228
▁recommended	-11.123
▁mental	-11.1232
▁늘어나	-11.1232
면서도	-11.1232
tar	-11.1233
▁배웠	-11.1234
▁predicted	-11.1234
▁오신	-11.1241
번호	-11.1241
▁권력	-11.1241
▁net	-11.1241
박스	-11.1243
▁경우에	-11.1244
▁그러니까	-11.1248
놓고	-11.1248
▁노력하고	-11.1249
쾌	-11.1251
▁위원장이	-11.1251
거야	-11.1255
▁destination	-11.1255
▁minimum	-11.1255
▁균형	-11.1255
▁bathroom	-11.1255
▁운송	-11.1256
▁criticized	-11.1256
▁뛰어난	-11.1257
▁힘들어	-11.1259
▁마주	-11.126
▁그리워	-11.126
ino	-11.1262
▁받았어요	-11.1262
▁한식	-11.1264
▁코리아	-11.1265
세기	-11.1265
▁피해가	-11.1268
▁exports	-11.1279
▁중국어	-11.1279
▁몰라	-11.128
▁한화	-11.1284
▁기다리는	-11.1285
▁자살	-11.1285
▁진행된	-11.1285
▁생각했어요	-11.1287
My	-11.1287
▁않다고	-11.1288
▁빅	-11.1296
▁Fan	-11.1297
▁세대	-11.13
▁축	-11.1302
▁Foreign	-11.1303
▁entrance	-11.1303
▁suicide	-11.1303
▁unexpected	-11.1303
▁블로그	-11.1303
▁활성화	-11.1303
▁debt	-11.1303
음에도	-11.1304
▁massage	-11.1304
▁얼굴이	-11.1304
▁minor	-11.1304
▁bike	-11.1304
권이	-11.1305
▁허리	-11.1306
▁다행이	-11.1307
▁더욱더	-11.1311
▁발표한	-11.1311
▁putting	-11.1313
▁mode	-11.1316
▁해보	-11.1319
▁mixed	-11.1325
▁coin	-11.1333
▁오더	-11.1337
▁입학	-11.1339
▁Time	-11.1344
헤	-11.1344
▁내년에	-11.1344
▁SM	-11.1347
▁witness	-11.135
▁뮤지컬	-11.135
곱	-11.135
굽	-11.135
▁스테이크	-11.135
▁ignore	-11.135
▁납치	-11.135
밖	-11.135
▁Airport	-11.1351
list	-11.1352
▁버락	-11.1354
률이	-11.1354
▁인증	-11.1354
▁상대방	-11.1355
▁faces	-11.1356
▁보수	-11.1357
자들의	-11.1358
▁도중	-11.1359
▁방이	-11.1359
▁bags	-11.1363
▁보았	-11.1364
DI	-11.1364
운동	-11.1367
▁방학	-11.1368
▁Steve	-11.1369
▁오류	-11.137
▁싶었	-11.1372
▁소화	-11.1372
▁궁금한	-11.1378
▁자국	-11.1379
▁Men	-11.1379
▁말로	-11.1381
율이	-11.1381
▁Up	-11.1382
▁recognize	-11.1383
에게도	-11.1388
▁컵	-11.1391
▁worker	-11.1393
▁친한	-11.1394
씨와	-11.1395
낭	-11.1397
efficient	-11.1398
▁dancing	-11.1398
▁explanation	-11.1398
▁ordinary	-11.1398
▁열렸다	-11.1398
▁붉은	-11.1398
▁소득	-11.1398
▁Open	-11.1399
▁그러니	-11.14
▁이민	-11.1402
▁조금씩	-11.1403
▁몰라요	-11.1405
▁말했	-11.1406
자들에게	-11.1407
▁채워	-11.1408
하다가	-11.1411
▁established	-11.1412
▁recognized	-11.1412
▁맞아요	-11.1413
▁anytime	-11.1415
gun	-11.1418
성과	-11.1422
▁벨	-11.1423
▁요청한	-11.1425
▁gained	-11.1428
팩	-11.1429
▁row	-11.1429
▁남기	-11.1429
▁살인	-11.1431
해드릴	-11.1431
▁App	-11.1433
TC	-11.1435
▁쌀	-11.144
pre	-11.1443
믹	-11.1445
▁Experts	-11.1445
▁exciting	-11.1445
▁penalty	-11.1445
▁그렇기	-11.1445
▁Until	-11.1445
▁sector	-11.1445
▁internal	-11.1446
▁바이어	-11.1447
▁문구	-11.1451
eon	-11.1453
▁금방	-11.1453
▁타입	-11.1453
▁가려면	-11.1455
▁선박	-11.1455
▁메모	-11.1455
▁노력할	-11.1456
▁Ce	-11.1459
▁건너	-11.1459
▁채용	-11.1464
▁developing	-11.1467
▁stayed	-11.147
▁pieces	-11.1473
▁말이다	-11.1478
▁""	-11.148
▁Pl	-11.1484
▁배려	-11.1484
▁pull	-11.1485
▁노력이	-11.1488
▁bowl	-11.1489
▁stood	-11.1493
겹	-11.1493
▁부위	-11.1495
▁presidential	-11.1496
▁신기	-11.1498
▁협의	-11.15
▁내내	-11.15
▁예배	-11.15
▁Use	-11.1502
▁의한	-11.1503
▁갑	-11.1504
▁대표팀	-11.1508
▁최신	-11.1509
▁normally	-11.151
▁fare	-11.1511
▁거쳐	-11.1512
▁cancer	-11.1512
▁사고로	-11.1515
▁국민들	-11.1517
▁때에는	-11.1518
▁attach	-11.1519
▁mall	-11.1519
▁passing	-11.1519
▁경비	-11.1524
▁depends	-11.1529
스턴	-11.153
▁일정이	-11.1537
▁소중	-11.1539
shaped	-11.154
쇄	-11.1541
웅	-11.1541
▁steak	-11.1542
▁나섰다	-11.1542
▁멋있	-11.1542
▁팔레스타인	-11.1542
▁shout	-11.1542
▁solid	-11.1542
▁diverse	-11.1542
▁마사지	-11.1542
▁어깨	-11.1543
잠	-11.1543
▁pool	-11.1545
▁비싸	-11.1545
▁미안해	-11.1546
▁Play	-11.1546
▁동기	-11.1547
▁말도	-11.1549
됐고	-11.155
▁someday	-11.1552
▁희생	-11.1553
RE	-11.1558
▁고소	-11.1561
끼리	-11.1565
▁차지하고	-11.1566
▁load	-11.1566
사들이	-11.1568
LA	-11.1568
▁사정	-11.1568
▁내린	-11.157
▁disappear	-11.1572
▁적어	-11.1573
hwan	-11.1574
▁나라에서	-11.1575
▁rescue	-11.1576
▁당연	-11.1576
▁물질	-11.1576
▁suggested	-11.1578
rip	-11.1579
▁요청을	-11.1589
▁bicycle	-11.159
▁muscle	-11.159
▁worldwide	-11.159
▁스타트업	-11.159
▁노트북	-11.1591
▁과목	-11.1593
시즌	-11.1593
ced	-11.1593
▁personality	-11.1594
▁attractive	-11.1594
phone	-11.1597
▁다음으로	-11.1597
vin	-11.1599
▁attacks	-11.1599
tech	-11.1603
▁custom	-11.1603
▁해결할	-11.1604
▁배워	-11.1608
▁중독	-11.1608
▁확실	-11.1609
▁심리	-11.161
▁거두	-11.1621
buk	-11.1622
▁한복	-11.1622
▁칸	-11.1622
DC	-11.1623
▁사망한	-11.1628
hand	-11.1635
셋	-11.1639
▁administration	-11.1639
▁policies	-11.1639
▁symbol	-11.1639
▁valuable	-11.1639
▁아름다움	-11.1639
▁원문기사보기	-11.1639
▁일으키	-11.1639
긋	-11.1639
▁드디어	-11.1639
▁sugar	-11.1639
▁생각했습니다	-11.1639
▁스미스	-11.1639
▁pants	-11.164
▁커플	-11.1644
▁reaction	-11.1645
▁다가오	-11.1645
▁사용하여	-11.1646
▁push	-11.1649
▁turns	-11.1652
▁후원	-11.1653
▁방에	-11.1657
To	-11.1657
개로	-11.1658
▁무사	-11.1659
▁적지	-11.1662
▁crowded	-11.1662
▁anger	-11.1663
▁거지	-11.1666
일에는	-11.1667
▁문제로	-11.1668
▁어른	-11.1675
▁이용하여	-11.1677
▁둔	-11.1679
EN	-11.1684
▁재고	-11.1685
▁excellent	-11.1688
▁distance	-11.1688
▁다행히	-11.1688
▁흰색	-11.1688
▁hurry	-11.1688
▁정류장	-11.1688
▁꺾	-11.1689
▁보였	-11.1689
▁최악	-11.169
▁계절	-11.169
▁bri	-11.1693
폴	-11.1702
▁Call	-11.1703
냐고	-11.1706
▁walked	-11.1706
▁달아	-11.1707
▁것만	-11.1709
▁성분	-11.1711
hour	-11.1713
하셔서	-11.1714
head	-11.1715
q	-11.1715
클리	-11.1718
▁강제	-11.1718
▁아니었다	-11.1719
라이프	-11.1722
원입니다	-11.1731
▁Ed	-11.1734
▁Fo	-11.1734
로우	-11.1735
▁해안	-11.1736
롬	-11.1737
▁episode	-11.1737
▁Court	-11.1738
▁기간이	-11.174
▁탄생	-11.1741
해볼	-11.1741
▁이목	-11.1749
거든	-11.175
▁엄	-11.1751
머리	-11.1752
▁복용	-11.1754
▁fishing	-11.1755
jung	-11.1767
▁실력	-11.1769
▁부모님은	-11.1772
▁잡지	-11.1777
▁건강에	-11.1777
▁찾아보	-11.1779
▁Come	-11.1782
▁background	-11.1787
▁nurse	-11.1787
▁premium	-11.1787
▁두려워	-11.1787
▁시카고	-11.1787
▁pink	-11.1787
▁링크	-11.1787
▁손가락	-11.1788
타운	-11.179
▁plate	-11.179
▁누워	-11.1791
▁맘	-11.1792
▁선택한	-11.1792
▁감각	-11.1793
▁elections	-11.1793
▁DJ	-11.1794
pon	-11.1794
▁가구	-11.1795
▁타격	-11.1795
보도록	-11.1799
▁invited	-11.1799
▁records	-11.1799
iff	-11.1802
▁책이	-11.1806
▁분실	-11.1808
▁union	-11.181
▁views	-11.1812
교육	-11.1813
▁이용한	-11.1813
▁실력이	-11.1815
▁공부하고	-11.1816
▁가려고	-11.182
▁잘하는	-11.1823
▁밖에서	-11.1827
하니까	-11.183
▁부여	-11.1832
위원	-11.1834
▁Especially	-11.1837
▁kimchi	-11.1837
▁머리카락	-11.1837
덴	-11.1837
▁섭취	-11.1837
▁ruling	-11.1837
▁label	-11.1837
▁토론	-11.1838
▁알려줄	-11.1839
▁물고기	-11.1839
▁긴급	-11.184
▁기능이	-11.184
▁구체적으로	-11.1841
▁명령	-11.1842
▁작년에	-11.1843
▁싶다는	-11.1845
▁구축	-11.1846
▁noise	-11.1846
▁미안해요	-11.1847
▁동반	-11.1847
▁선언	-11.1848
▁동작	-11.1848
▁벤	-11.185
▁로마	-11.1852
▁브리	-11.1852
팀이	-11.1857
▁signs	-11.1859
▁커다	-11.1864
▁붙여	-11.1867
▁formed	-11.1869
▁일입니다	-11.1871
▁아닌가	-11.1875
▁메인	-11.1875
▁edit	-11.1876
▁Olympics	-11.1885
▁Sal	-11.1886
▁criminal	-11.1887
▁택배	-11.1887
▁dispute	-11.1887
▁신용카드	-11.1887
▁correspondent	-11.1887
▁Democratic	-11.1888
▁Ver	-11.1889
▁최소한	-11.1889
▁아동	-11.189
▁물어봐	-11.1894
▁총격	-11.1896
▁발매	-11.1897
▁분노	-11.1897
▁사실이다	-11.1899
▁discussion	-11.1907
▁궁금해	-11.1907
▁현지인들	-11.1909
▁조회	-11.1915
▁아닐까	-11.1916
▁steps	-11.1917
▁NC	-11.1918
▁Mom	-11.1919
▁paint	-11.1919
▁한계	-11.192
TM	-11.192
▁upload	-11.1922
rim	-11.1922
▁meant	-11.1923
베르	-11.1927
원들이	-11.1929
▁Sho	-11.1932
▁없다면	-11.1932
▁박사는	-11.1934
▁Israeli	-11.1935
틸	-11.1937
마리가	-11.1937
▁허가	-11.1937
▁데이	-11.1937
▁담겼다	-11.1938
▁미국과	-11.194
▁커지고	-11.194
▁숙제	-11.1941
▁중국인	-11.1943
▁smaller	-11.1944
pan	-11.1946
▁실천	-11.1947
▁좋다고	-11.1952
끄	-11.1954
갈수록	-11.1957
▁picked	-11.1958
▁유발	-11.196
▁쉬는	-11.1966
▁producer	-11.1967
▁무대에	-11.1968
▁지났	-11.1968
▁쪽에서	-11.1968
▁진행하는	-11.1971
▁미치	-11.1972
정보	-11.1981
▁들여	-11.1983
마일	-11.1986
▁solved	-11.1986
▁콜라	-11.1986
+	-11.1987
▁Professor	-11.1987
▁laptop	-11.1987
▁pride	-11.1987
▁television	-11.1987
▁얻어	-11.1987
▁잃었	-11.1987
팽	-11.1987
▁asleep	-11.1987
▁Muslim	-11.1987
▁injury	-11.1987
▁General	-11.1987
▁청와대	-11.1988
▁translate	-11.1988
▁그다음	-11.1988
▁폐쇄	-11.1988
▁shut	-11.1988
▁Republican	-11.1988
▁빨간색	-11.1988
▁근로자	-11.199
▁감염	-11.1991
▁homework	-11.1995
grad	-11.1998
경제	-11.2
script	-11.2
▁일본에	-11.2
▁신속	-11.2003
서비스	-11.2004
▁보유하	-11.2006
▁방문해	-11.2007
ave	-11.2009
버린	-11.201
▁Act	-11.2011
▁메이	-11.2014
▁carrying	-11.2029
▁가격에	-11.2029
학교	-11.203
▁sharp	-11.203
war	-11.203
▁Was	-11.2035
하였고	-11.2038
*	-11.2038
▁fabric	-11.2038
▁pleasant	-11.2038
▁옛날	-11.2038
▁태어나	-11.2038
업자	-11.2038
▁criticism	-11.2039
▁Market	-11.2039
▁치열	-11.2042
gro	-11.2043
▁법률	-11.2046
▁관계자들	-11.2047
해드리겠습니다	-11.2047
▁테마	-11.2047
팬	-11.2052
활동	-11.2053
칸	-11.2056
▁차지하는	-11.2056
▁순수	-11.2059
▁점차	-11.2061
▁reporter	-11.2062
aries	-11.2064
▁도착했	-11.2067
▁진단	-11.2067
▁Inter	-11.2069
▁dollar	-11.2071
▁symptoms	-11.2071
안에	-11.2074
▁skill	-11.2076
사람	-11.2076
상에서	-11.2079
▁leads	-11.2084
▁letters	-11.2085
blo	-11.2086
▁이른	-11.2086
▁자신에게	-11.2087
렬	-11.2087
▁tip	-11.2088
▁bodies	-11.2089
▁끊임없	-11.2089
▁스웨덴	-11.2089
엔터테인먼트	-11.2089
▁denied	-11.2089
▁horse	-11.2089
▁boil	-11.209
▁쿠폰	-11.209
▁blog	-11.209
▁flat	-11.2091
▁떠난	-11.2091
▁pair	-11.2091
▁진술	-11.2093
공원	-11.2094
▁세탁	-11.2094
▁방지	-11.2102
▁emotions	-11.2102
▁파는	-11.2107
▁관련하여	-11.2107
죄	-11.2108
▁Sc	-11.2108
▁Over	-11.211
▁여성의	-11.2114
▁국회	-11.2115
▁plants	-11.2121
▁rates	-11.2122
▁hip	-11.2125
▁가족을	-11.2126
층에	-11.2126
▁해소	-11.2127
wan	-11.2129
▁유감	-11.2131
▁Miss	-11.2131
▁지나치	-11.2131
▁vegetables	-11.2132
주시기	-11.2134
▁DHL	-11.214
▁coupon	-11.214
▁gradually	-11.214
▁데이비드	-11.214
놨	-11.214
▁Office	-11.214
▁square	-11.214
호서식	-11.2141
▁숙박	-11.2141
▁네이버	-11.2141
▁Hanwha	-11.2141
▁actress	-11.2141
▁reform	-11.2144
▁메일로	-11.2145
▁Press	-11.2145
▁남북	-11.2146
▁단독	-11.2146
▁위반	-11.215
▁지속적으로	-11.2151
▁들리	-11.2153
▁reserved	-11.2157
▁쓰여	-11.2157
▁서버	-11.2158
었으며	-11.2158
▁Nor	-11.216
▁가족들과	-11.2163
▁이쪽	-11.2166
▁대사	-11.2168
▁레드	-11.2171
▁settle	-11.2178
램	-11.2178
tang	-11.2179
▁sport	-11.2181
▁상점	-11.2182
▁미국은	-11.2182
▁모르겠다	-11.2183
▁판매하는	-11.2186
춰	-11.2191
▁Chicago	-11.2192
▁definitely	-11.2192
▁executive	-11.2192
▁opponent	-11.2192
▁기쁩니다	-11.2192
▁깔끔	-11.2192
▁왔는데	-11.2192
▁프리미엄	-11.2192
▁typical	-11.2192
▁storm	-11.2192
▁깨닫	-11.2192
▁competitive	-11.2192
▁fuel	-11.2192
▁사라지	-11.2196
▁환호	-11.2198
▁covered	-11.2198
▁여론	-11.22
▁바닥	-11.2203
▁끝까지	-11.2203
구역	-11.2204
▁구속	-11.2206
▁완화	-11.2207
bling	-11.2208
▁가사	-11.2212
▁riding	-11.2213
▁managed	-11.2216
▁Ph	-11.2218
▁지난주에	-11.2219
작업	-11.2222
가락	-11.2222
▁의하면	-11.2228
▁hy	-11.223
▁이혼	-11.223
Co	-11.223
▁이래	-11.2231
여서	-11.2231
▁tastes	-11.2233
▁engine	-11.2233
거리는	-11.2235
▁어울리는	-11.2236
▁않겠	-11.2236
▁역사를	-11.2242
▁clubs	-11.2242
▁Actually	-11.2244
▁Saudi	-11.2244
▁Stadium	-11.2244
▁sanctions	-11.2244
▁태어난	-11.2244
▁브라운	-11.2244
▁rough	-11.2244
▁더불어	-11.2244
▁hungry	-11.2245
▁crack	-11.2245
▁민족	-11.2246
▁놀라운	-11.2247
▁첫째	-11.2247
답니다	-11.2247
▁states	-11.2247
▁BBC	-11.2248
▁Cu	-11.2248
▁물에	-11.2248
pul	-11.2249
선거	-11.2252
▁taxes	-11.2254
▁사망했다	-11.2255
▁되는데	-11.2261
▁털	-11.2263
확	-11.2265
▁갖추고	-11.2266
벽	-11.2266
▁contacted	-11.2266
▁보며	-11.2268
▁중국은	-11.2269
▁맞게	-11.227
▁흥미	-11.2271
▁결심	-11.2272
LE	-11.2272
▁greet	-11.2275
분께	-11.2277
vol	-11.2278
▁스테	-11.228
▁Second	-11.2287
▁기업들이	-11.2295
▁feed	-11.2296
▁Madrid	-11.2296
렁	-11.2296
▁studies	-11.2296
▁부드러운	-11.2296
▁할리우드	-11.2296
▁디저트	-11.2296
▁몽골	-11.2296
▁시드니	-11.2296
▁가깝	-11.2297
▁타이틀	-11.2297
▁flower	-11.2298
행사	-11.2299
▁식물	-11.2299
▁rid	-11.23
었기	-11.23
▁difficulties	-11.2301
▁감사하겠습니다	-11.2301
▁누르	-11.2303
▁돕는	-11.2304
▁Bible	-11.2304
▁pure	-11.2305
▁안전한	-11.231
▁기억에	-11.2311
▁일어나는	-11.2313
▁결승	-11.2314
▁집안	-11.2315
▁꿈이	-11.2315
▁candidates	-11.2316
▁Heung	-11.232
▁봤을	-11.2322
▁증상	-11.2325
yn	-11.2326
▁candidate	-11.2328
▁마음으로	-11.2329
▁insist	-11.2329
▁하더라도	-11.2334
▁군대	-11.2341
▁부디	-11.2346
▁Dan	-11.2346
▁Sydney	-11.2348
▁kitchen	-11.2348
▁고맙습니다	-11.2348
▁승무원	-11.2348
▁chef	-11.2348
▁hide	-11.2349
▁iron	-11.2349
▁복귀	-11.2349
▁Singer	-11.2349
▁accidents	-11.2352
▁파스타	-11.2354
협회	-11.2354
▁여겨	-11.2357
봤는데	-11.2358
▁있으나	-11.2359
▁기대감	-11.2359
게임	-11.236
▁적절한	-11.2362
▁선택할	-11.2364
▁창조	-11.2367
응	-11.2368
▁sang	-11.2368
▁coast	-11.2369
▁이름으로	-11.2371
어리	-11.2371
꺼	-11.2372
▁살아가는	-11.2378
▁커버	-11.238
▁기내	-11.2382
▁생각에는	-11.2382
▁See	-11.2387
▁양식	-11.2388
▁Sol	-11.2392
원에서	-11.2394
▁꼬	-11.2395
▁아이들에게	-11.2395
▁depart	-11.2397
▁입원	-11.2397
▁주민들이	-11.2398
랭	-11.2401
▁slightly	-11.2401
박람회	-11.2401
▁narrow	-11.2401
▁와이파이	-11.2401
▁부동산	-11.2401
▁입장에서	-11.2402
▁joke	-11.2402
프트	-11.2402
▁leadership	-11.2402
▁라이브	-11.2403
▁claims	-11.2404
▁files	-11.2408
▁disappointed	-11.2409
▁refused	-11.2412
▁signal	-11.242
▁offers	-11.2422
▁maybe	-11.2423
▁뒤로	-11.243
앤	-11.243
▁듣기	-11.2432
내기	-11.2433
▁목표로	-11.2434
▁decline	-11.2439
▁인간이	-11.2441
▁신용	-11.2443
▁삶이	-11.2444
▁만일	-11.2444
rin	-11.2445
▁SUV	-11.2454
▁William	-11.2454
▁impression	-11.2454
▁semester	-11.2454
▁stadium	-11.2454
▁티셔츠	-11.2454
▁freedom	-11.2454
▁Western	-11.2454
▁못해요	-11.2455
▁tension	-11.2455
▁zoo	-11.2456
cker	-11.2457
▁Seong	-11.2458
▁crimes	-11.246
▁함유	-11.2464
▁described	-11.2465
bor	-11.2465
▁정원	-11.247
미터	-11.2471
▁exceed	-11.2489
▁피우	-11.2491
▁사로잡	-11.2494
▁항공기	-11.2496
▁엄청	-11.2501
▁factors	-11.2502
▁들어요	-11.2502
▁시작했습니다	-11.2503
픽	-11.2507
▁thin	-11.2507
▁convenience	-11.2507
▁initial	-11.2507
에따라	-11.2507
▁bridge	-11.2508
▁영혼	-11.2508
▁Peter	-11.251
▁질병	-11.2511
▁알아야	-11.2512
▁정식	-11.2514
mir	-11.2514
▁이어지고	-11.2514
▁parties	-11.2515
▁arms	-11.2515
▁실현	-11.2516
▁Give	-11.2517
gon	-11.2519
▁일반적인	-11.2521
▁hurts	-11.2522
▁대처	-11.2522
▁숨진	-11.2523
▁많아요	-11.2524
▁Ti	-11.2525
▁matches	-11.2526
▁치러	-11.2529
▁가능할	-11.2531
▁pasta	-11.2534
▁기재	-11.2535
▁초점	-11.2537
▁마찬가지	-11.2537
▁차별	-11.2538
▁위험한	-11.254
▁server	-11.2542
▁크림	-11.2552
▁마실	-11.2552
▁걱정이	-11.2558
덤	-11.2558
iz	-11.2559
▁수준이	-11.256
▁prosecution	-11.256
▁옮기	-11.256
▁confess	-11.256
▁여론조사	-11.2561
▁석방	-11.2561
▁설득	-11.2561
▁hometown	-11.2562
▁소방	-11.2562
▁제품으로	-11.2564
▁평생	-11.2566
▁운영하고	-11.2567
▁당신한테	-11.2569
▁인질	-11.257
▁에스	-11.2571
▁Ham	-11.2571
▁우려가	-11.2573
▁포즈	-11.2579
▁happening	-11.2579
▁flavor	-11.258
▁Sir	-11.2587
섬	-11.2592
cru	-11.2594
▁container	-11.2599
지수	-11.2603
▁한글	-11.2604
▁현장에	-11.2613
star	-11.2614
▁courage	-11.2614
▁studio	-11.2614
▁암호화폐	-11.2614
▁애플리케이션	-11.2614
▁플라스틱	-11.2614
▁facing	-11.2614
▁마이클	-11.2614
▁체크아웃	-11.2615
▁친구에게	-11.2615
▁booth	-11.2615
▁transportation	-11.2615
▁철저	-11.2617
▁임대	-11.2618
▁어렵습니다	-11.2621
▁심사	-11.2621
▁matters	-11.2622
▁오리	-11.2623
▁organized	-11.2624
▁빠졌	-11.2625
▁즉시	-11.263
▁모습은	-11.263
▁eggs	-11.2631
seong	-11.2633
road	-11.2635
▁perfectly	-11.2637
▁사람도	-11.2638
under	-11.2639
▁Didn	-11.264
▁따뜻	-11.264
▁상위	-11.2641
▁여름에	-11.2647
▁난민	-11.2651
ene	-11.2654
옷	-11.2656
print	-11.2657
▁없게	-11.2659
▁심한	-11.266
텍	-11.2668
븐	-11.2668
》	-11.2668
▁shuttle	-11.2668
▁boost	-11.2669
▁LED	-11.2669
파운드	-11.267
▁흔적	-11.267
▁indicate	-11.267
해지는	-11.2671
▁편집	-11.2675
pper	-11.2678
▁주어진	-11.2678
여행	-11.2678
▁통계	-11.2678
▁쉴	-11.2681
▁audiences	-11.2684
▁pose	-11.2691
▁이어질	-11.2693
돼야	-11.2693
air	-11.2699
▁유니	-11.2705
▁딸이	-11.2705
▁tourist	-11.271
▁noodles	-11.2711
▁유용	-11.2712
▁monthly	-11.2714
▁shower	-11.2722
▁creative	-11.2723
▁drew	-11.2723
해왔다	-11.2723
▁vitamin	-11.2723
▁마드리드	-11.2723
▁resign	-11.2723
▁defect	-11.2723
▁공항에	-11.2723
▁employment	-11.2724
▁warned	-11.2724
▁어린이들	-11.2725
▁drugs	-11.2725
▁파괴	-11.2726
▁battery	-11.2726
▁intend	-11.2727
▁Check	-11.2728
▁Pan	-11.2729
▁Former	-11.2729
▁먹었어요	-11.273
▁관중	-11.273
자마자	-11.2734
▁얼굴에	-11.2736
▁벌금	-11.2737
셨다	-11.2738
▁남편이	-11.2739
▁grown	-11.2744
▁sheet	-11.2745
▁일로	-11.2748
▁모인	-11.2748
▁updated	-11.2751
혔	-11.2753
ttle	-11.2754
▁Ten	-11.2755
▁concerned	-11.2756
▁남는	-11.2758
▁announce	-11.276
▁surprise	-11.2763
▁snacks	-11.2765
칼	-11.2766
▁건축	-11.2772
▁electric	-11.2776
fully	-11.2776
▁housing	-11.2777
▁welfare	-11.2777
▁아르바이트	-11.2777
벼	-11.2777
▁appointment	-11.2777
▁손흥민	-11.2777
▁옵션	-11.2777
▁문재인	-11.2777
먹으러	-11.2777
▁sincerely	-11.2777
▁Robert	-11.2777
▁스크린	-11.2777
▁peak	-11.2777
▁김정은	-11.2778
▁Vietnamese	-11.2778
▁bond	-11.2779
▁deadline	-11.2779
▁지닌	-11.278
▁Naver	-11.2782
▁소지	-11.2783
▁연관	-11.2785
천만	-11.2786
▁간절	-11.2786
웠습니다	-11.2786
▁기초	-11.2789
▁소개해	-11.2791
▁먹었습니다	-11.2791
▁팀은	-11.2793
▁wise	-11.2793
▁손실	-11.2799
▁여성들이	-11.2802
▁판매하고	-11.2804
다들	-11.2806
▁캠프	-11.2807
▁streets	-11.2809
play	-11.281
▁싸이	-11.2815
IT	-11.2815
▁discussed	-11.2818
▁stronger	-11.2822
▁괜찮아	-11.2825
▁미치는	-11.2825
▁Egypt	-11.2831
▁Children	-11.2832
▁hidden	-11.2832
▁괜찮습니다	-11.2832
▁어려울	-11.2832
▁blind	-11.2832
▁준비되어	-11.2832
▁Thus	-11.2834
▁보냅니	-11.2834
▁《	-11.2837
cer	-11.2842
▁숲	-11.2842
▁다니고	-11.2843
▁마르	-11.2849
▁톰	-11.285
해준	-11.2854
▁먹은	-11.2855
▁발급	-11.2858
▁보내주신	-11.286
▁전원	-11.2861
▁pitch	-11.2863
▁기술이	-11.2865
▁권한	-11.2867
▁보여준다	-11.2867
씨에게	-11.2874
▁방식이	-11.2875
▁Fed	-11.2877
zo	-11.2881
월까지	-11.2882
▁않았을	-11.2882
▁포함된	-11.2886
▁Myanmar	-11.2887
▁uncomfortable	-11.2887
▁스튜디오	-11.2887
▁brown	-11.2887
▁resume	-11.2888
▁surface	-11.2888
▁간호사	-11.2888
▁knee	-11.2888
▁춤	-11.2889
▁toilet	-11.2889
▁지휘	-11.2889
▁till	-11.289
▁Iranian	-11.289
▁코너	-11.2893
▁수백	-11.2895
▁thousands	-11.2896
▁Ryu	-11.2896
하십니까	-11.2896
▁sight	-11.2898
상태	-11.29
box	-11.2902
마저	-11.2903
▁그릇	-11.2903
▁Shall	-11.2904
▁됐어요	-11.2909
▁싶은데요	-11.2911
▁드러내	-11.2911
▁것들	-11.2916
▁인력	-11.2924
▁arrest	-11.2925
▁졸	-11.2927
▁listed	-11.2932
▁보여요	-11.2935
계획	-11.2937
▁샐러드	-11.2943
밭	-11.2943
샷	-11.2943
▁virus	-11.2943
▁화이트	-11.2943
▁teenagers	-11.2944
▁영웅	-11.2944
▁드릴까요	-11.2945
▁fake	-11.2945
▁DNA	-11.2945
▁공항에서	-11.2946
▁출입	-11.2947
였어	-11.2947
▁constantly	-11.2949
시쯤	-11.2949
▁괜찮아요	-11.295
▁임무	-11.295
ME	-11.2951
▁만든다	-11.2952
▁manner	-11.2955
night	-11.2955
▁들었어	-11.2956
▁boxes	-11.2959
▁젖	-11.296
사랑	-11.2964
pel	-11.2966
▁오세요	-11.2967
▁봤다	-11.2971
▁통신원	-11.2971
▁crying	-11.2971
▁재산	-11.2978
해져	-11.298
▁defeat	-11.2981
▁upon	-11.2981
▁crash	-11.2982
▁프로그램에	-11.2982
▁보자	-11.2984
▁행동이	-11.2986
▁한쪽	-11.2986
▁기록한	-11.299
▁손으로	-11.2991
▁sat	-11.2992
▁초과	-11.2993
▁마시는	-11.2993
minute	-11.2995
칙	-11.2996
▁당신들	-11.2997
붙	-11.2997
▁tie	-11.2997
▁빨간	-11.2998
craft	-11.2999
▁appropriate	-11.2999
▁sensitive	-11.2999
▁struggle	-11.2999
▁typhoon	-11.2999
▁Smith	-11.2999
▁heaven	-11.2999
▁패키지	-11.2999
▁basis	-11.2999
▁rating	-11.3
▁구멍	-11.3
▁keeping	-11.3008
▁chosen	-11.3009
▁Ben	-11.3011
▁임신	-11.3011
▁aspect	-11.3014
▁승객	-11.3015
▁입증	-11.3015
▁견적	-11.3016
▁부탁합니다	-11.3018
▁실내	-11.302
▁형태로	-11.3025
▁larger	-11.3025
▁오랜만	-11.3027
▁수집	-11.3028
▁찾았	-11.3028
▁주님	-11.3033
▁아버지는	-11.3035
▁고객에게	-11.304
▁options	-11.3041
▁재정	-11.3044
▁금액이	-11.3046
▁상세	-11.3049
▁Gar	-11.3052
▁세상에서	-11.3055
▁Texas	-11.3055
▁cooperation	-11.3055
▁experiment	-11.3055
▁maximum	-11.3055
▁observe	-11.3055
▁텍사스	-11.3055
쭉	-11.3055
▁Director	-11.3055
▁salad	-11.3055
▁investigate	-11.3055
▁바라는	-11.3059
▁elderly	-11.3061
▁순서	-11.3063
▁connection	-11.3064
hor	-11.3067
ella	-11.3068
▁금리	-11.3071
▁friendly	-11.3071
▁regularly	-11.3072
▁제외	-11.3075
▁전체적으로	-11.3076
▁sand	-11.3077
▁weigh	-11.3077
▁소문	-11.3084
▁판매량	-11.3086
곁	-11.3087
▁remained	-11.3089
▁buses	-11.3093
레인	-11.3097
site	-11.31
▁내야	-11.3103
▁취하고	-11.3104
▁기소	-11.3105
yong	-11.3108
▁발견됐다	-11.3108
▁나만	-11.3109
▁불량	-11.3109
튀	-11.311
▁Global	-11.3112
▁Perhaps	-11.3112
▁identity	-11.3112
▁읽었	-11.3112
▁afford	-11.3112
▁convey	-11.3112
▁wealth	-11.3112
▁Finally	-11.3113
▁오빠	-11.3114
▁해수욕장	-11.3114
▁inspection	-11.3114
▁bull	-11.3116
▁Line	-11.3119
▁체중	-11.3119
▁바지	-11.3119
▁이르는	-11.312
▁다해	-11.3121
▁승부	-11.3122
▁경력	-11.3122
▁실종	-11.3123
pli	-11.3132
클라	-11.3135
혔다	-11.3136
적이다	-11.3138
▁동물원	-11.3141
▁보내준	-11.3142
▁Mark	-11.3147
BC	-11.3147
하십시오	-11.315
▁대단한	-11.3155
▁제공해	-11.3157
▁처음에는	-11.3159
▁잡았	-11.316
▁무엇인가	-11.3162
되었을	-11.3168
▁threw	-11.3168
▁unveiled	-11.3168
▁잇따	-11.3168
▁CBS	-11.3168
▁드러났다	-11.3169
▁orange	-11.3169
무늬	-11.3169
▁everywhere	-11.317
포트	-11.317
▁property	-11.317
▁내릴	-11.3172
ria	-11.3172
▁공부할	-11.3173
ular	-11.3175
bro	-11.3177
▁패스	-11.3179
▁걸리는	-11.3179
▁번씩	-11.318
▁총리가	-11.3182
효율	-11.3182
▁제공할	-11.319
▁겸	-11.319
SO	-11.3191
▁scared	-11.3193
치기	-11.3196
성장	-11.3197
▁노동자	-11.3198
▁말하기	-11.3199
▁마이크	-11.3202
함과	-11.3202
▁Pay	-11.3206
폴리	-11.3207
▁끝이	-11.3207
▁wound	-11.3207
▁형제	-11.3208
▁반품	-11.3212
▁누리	-11.3215
▁맞습니다	-11.3215
▁못한다	-11.3217
▁smooth	-11.3217
▁해결하기	-11.322
▁Dai	-11.322
겐	-11.3225
▁identified	-11.3226
▁sponsor	-11.3226
▁코미디	-11.3226
햄	-11.3226
▁concentrate	-11.3226
▁오렌지	-11.3226
▁remarks	-11.3226
▁trading	-11.3226
▁committed	-11.3226
해달라고	-11.3226
▁끝날	-11.3228
avi	-11.3228
▁있었기	-11.3229
▁좋아한다	-11.3231
▁approved	-11.3232
wang	-11.3233
▁Four	-11.3233
플레이	-11.3233
▁사귀	-11.3234
▁투자자들	-11.3235
▁startup	-11.3237
TE	-11.3238
dae	-11.3238
▁lawmakers	-11.3239
▁Wall	-11.324
urge	-11.3241
▁seller	-11.3244
▁Actor	-11.3247
시죠	-11.325
▁확실한	-11.3251
▁주면	-11.3251
▁자라	-11.3251
▁죽은	-11.3252
▁참여할	-11.3252
▁생각엔	-11.3252
▁length	-11.3256
▁부모님이	-11.3257
▁여지	-11.3258
▁최초로	-11.3263
▁상관	-11.3267
▁사용하기	-11.3269
▁사랑에	-11.3274
▁삶에	-11.3277
▁필수	-11.3278
▁싶을	-11.3281
톡	-11.3283
▁grandmother	-11.3283
▁principle	-11.3283
▁듭니다	-11.3283
▁맡아	-11.3283
▁즐거움	-11.3283
▁클라우드	-11.3283
▁탈레반	-11.3283
▁흡연	-11.3283
뻔	-11.3283
▁많으	-11.3283
넬	-11.3283
▁renew	-11.3283
▁슬픔	-11.3283
▁wheel	-11.3284
▁Under	-11.3284
▁밝혀졌다	-11.3284
▁가졌다	-11.3285
▁saving	-11.3286
▁들지	-11.3289
▁우울	-11.3289
▁everyday	-11.329
▁외출	-11.329
▁Kimchi	-11.3293
▁전화해	-11.3294
▁지나면	-11.3294
해주신	-11.3297
머니	-11.3298
되었는지	-11.33
▁많아서	-11.3303
▁강하게	-11.3305
▁일본인	-11.3306
▁학기	-11.3308
▁죄송합니다만	-11.3316
▁시작했어요	-11.3319
▁감성	-11.3319
▁당신께	-11.3322
▁Mary	-11.3324
▁땐	-11.3325
▁shoulder	-11.3329
org	-11.3329
▁힘들었	-11.3331
▁될지	-11.3333
AS	-11.3333
▁챔피언	-11.3334
▁이중	-11.3335
▁Yi	-11.334
▁Britain	-11.3341
밸	-11.3341
▁certificate	-11.3341
▁corporate	-11.3341
▁independent	-11.3341
▁obtain	-11.3341
▁refugee	-11.3341
푹	-11.3341
퓨	-11.3341
▁flag	-11.3341
▁워낙	-11.3341
read	-11.3341
▁rival	-11.3341
▁Prince	-11.3341
▁expir	-11.3341
워크	-11.3342
▁추측	-11.3343
▁통합	-11.3344
율을	-11.3348
▁Baek	-11.3349
chang	-11.3349
▁기본적으로	-11.3351
▁gene	-11.3354
▁들어온	-11.3354
▁기원	-11.3355
▁부스	-11.3357
▁비상	-11.3361
▁일대	-11.3361
▁사원	-11.3362
▁widely	-11.3364
▁Soo	-11.3365
▁지출	-11.3366
대책	-11.3369
▁한때	-11.3369
▁신중	-11.3369
▁waited	-11.3372
▁진행될	-11.3373
▁임시	-11.3374
▁솔로	-11.3374
냥	-11.3374
GB	-11.3378
▁병원에서	-11.3378
▁음식점	-11.338
▁지역은	-11.3382
▁의원이	-11.3383
▁넣고	-11.3385
▁담고	-11.3394
▁devices	-11.3395
quality	-11.3398
▁카카오	-11.3399
▁respectively	-11.3399
▁stomach	-11.3399
▁고속도로	-11.3399
띠	-11.3399
슛	-11.3399
▁rumor	-11.3399
▁획득	-11.3399
▁Consider	-11.3399
▁roof	-11.3399
▁magic	-11.3399
▁Work	-11.3399
ison	-11.34
▁오브	-11.3403
ees	-11.3403
▁proposed	-11.3406
▁회장이	-11.341
벤	-11.3411
▁anyway	-11.3417
▁언제부터	-11.3419
▁재개	-11.3424
▁걸린	-11.3427
▁expenses	-11.343
▁customs	-11.3431
▁수업에	-11.3444
▁critical	-11.3446
eb	-11.3446
▁저번에	-11.3452
▁celebrities	-11.3457
▁elevator	-11.3457
▁investigating	-11.3457
▁기다렸	-11.3457
▁아르헨티나	-11.3457
뚫	-11.3457
▁깜짝	-11.3457
▁gender	-11.3457
can	-11.3458
▁드레스	-11.3459
▁대부분은	-11.3459
▁Beach	-11.346
▁종합	-11.346
▁불렀	-11.3461
▁합류	-11.3461
rie	-11.3462
▁tape	-11.3462
▁법적	-11.3463
분쯤	-11.3466
cast	-11.3467
▁배출	-11.3469
▁여성들	-11.3469
주셔야	-11.347
홍	-11.347
When	-11.3471
해줘	-11.3471
▁조리	-11.3472
▁reasonable	-11.3474
▁successfully	-11.3476
graph	-11.3478
▁재미있게	-11.3479
▁사진에	-11.3486
▁준비한	-11.3487
▁둘러	-11.3489
▁가격으로	-11.349
▁greater	-11.3491
▁발주	-11.3493
▁hug	-11.3494
▁전문가들	-11.3494
부분	-11.3505
▁측면에서	-11.3507
▁관점	-11.3507
▁입었다	-11.3511
우드	-11.3514
▁autumn	-11.3516
▁impressed	-11.3516
▁procedure	-11.3516
▁worship	-11.3516
▁아카데미	-11.3516
뚝	-11.3516
▁시상식	-11.3516
▁root	-11.3517
▁assets	-11.3517
▁바쁜	-11.3517
▁돌아올	-11.3517
▁unknown	-11.3518
▁weird	-11.3518
▁체결	-11.3521
▁strongly	-11.3521
▁출판	-11.3521
burg	-11.3524
▁attending	-11.3527
class	-11.3531
▁포기하지	-11.3533
▁닭	-11.3535
▁wounded	-11.3535
▁단위	-11.3536
gang	-11.3542
GA	-11.3544
▁prayer	-11.3546
▁던지	-11.3546
▁대표적	-11.3555
되었으면	-11.3556
▁전날	-11.3558
▁세월	-11.356
▁sources	-11.3563
▁감상	-11.3563
▁참가자들	-11.3565
bang	-11.3566
▁Yo	-11.3566
▁현지에서	-11.3567
etic	-11.3571
ban	-11.3572
▁떨어졌	-11.3574
댄	-11.3575
▁Control	-11.3575
FIFA	-11.3575
▁Palestinian	-11.3575
▁district	-11.3575
▁resort	-11.3575
▁switch	-11.3575
▁엘리베이터	-11.3575
▁나타난	-11.3575
▁belief	-11.3575
▁profile	-11.3575
▁떠오르	-11.3576
▁눈빛	-11.3577
▁governor	-11.3578
▁관측	-11.3578
▁grab	-11.3578
▁골라	-11.3578
▁코트	-11.3583
▁cleaning	-11.3586
오프	-11.3588
▁determined	-11.3588
▁praised	-11.3588
▁rap	-11.3592
▁대표가	-11.3593
▁말씀드리	-11.3595
▁생각보다	-11.3598
▁못했던	-11.3603
▁fruits	-11.3605
▁현금으로	-11.3605
lex	-11.3607
▁painful	-11.3608
▁같다고	-11.3608
▁검은	-11.3609
포드	-11.361
▁이처럼	-11.3612
사진	-11.362
비용	-11.3621
▁일들이	-11.3621
▁advanced	-11.3622
▁functions	-11.3625
쁘	-11.3627
▁answered	-11.3627
▁준비하고	-11.3628
▁해리	-11.3633
▁academy	-11.3635
▁ourselves	-11.3635
▁pleasure	-11.3635
▁practical	-11.3635
▁resources	-11.3635
▁그렇습니다	-11.3635
▁session	-11.3635
▁무조건	-11.3635
▁논쟁	-11.3635
▁feedback	-11.3635
▁Psy	-11.3636
▁부탁드려	-11.3637
최	-11.3639
▁초반	-11.3642
▁lowest	-11.3642
▁못해서	-11.3643
▁연예인	-11.3647
▁경계	-11.3648
▁것인가요	-11.3652
▁알기	-11.3655
▁치르	-11.3656
▁드러나	-11.3659
ori	-11.3661
▁officer	-11.3662
▁연락해	-11.3668
용품	-11.3677
돕	-11.3679
▁있으니까	-11.3679
▁invite	-11.368
▁fired	-11.3681
스테	-11.3682
▁당일	-11.3685
▁단순한	-11.3691
▁있었을	-11.3693
▁danger	-11.3694
▁Congress	-11.3695
▁Instead	-11.3695
▁drank	-11.3695
▁phrase	-11.3695
▁southern	-11.3695
▁understood	-11.3695
▁vessel	-11.3695
▁잉글랜드	-11.3695
쏘	-11.3695
▁lyrics	-11.3695
▁shift	-11.3695
▁트럭	-11.3695
▁priority	-11.3696
주일	-11.3697
▁되기를	-11.3698
▁흘리	-11.37
▁도달	-11.3701
▁profits	-11.3704
▁mistakes	-11.3709
▁drawn	-11.371
▁Mor	-11.3712
▁가시면	-11.3713
꽃	-11.3715
되자	-11.3715
▁손님이	-11.3716
뉴스	-11.3719
FO	-11.3723
They	-11.3729
▁내려가	-11.3731
▁대회에서	-11.3731
▁speaker	-11.3733
▁sum	-11.3735
주셨으면	-11.3735
▁personally	-11.3735
▁운명	-11.3736
born	-11.3743
▁관련해서	-11.3746
ED	-11.3747
▁세력	-11.3748
▁좋고	-11.3753
끔	-11.3753
▁jacket	-11.3755
▁비트코인	-11.3755
▁기다릴	-11.3755
▁strict	-11.3755
▁juice	-11.3755
▁섹시	-11.3755
▁위해선	-11.3755
▁묘사	-11.3756
▁사인	-11.3757
▁저렴하	-11.3758
▁꽉	-11.3758
▁반응이	-11.3763
▁구분	-11.3763
▁공사	-11.3768
▁스카이	-11.3768
▁cargo	-11.3769
bon	-11.3773
▁공무원	-11.3776
▁mess	-11.3776
▁formal	-11.3778
▁자본	-11.3778
▁떠올	-11.3782
▁누구에게	-11.3783
▁기다려야	-11.3787
▁간식	-11.3788
umb	-11.3789
▁목적으로	-11.3789
하죠	-11.3796
▁빠져나	-11.3797
▁egg	-11.3797
▁marked	-11.3797
▁효과적	-11.3798
▁보내줄	-11.3807
▁몰아	-11.3809
업계	-11.3813
▁구성된	-11.3813
▁Canadian	-11.3816
▁committee	-11.3816
▁dismiss	-11.3816
▁password	-11.3816
▁providing	-11.3816
▁괜찮을까	-11.3816
▁내렸다	-11.3816
▁받아들여	-11.3816
▁opposition	-11.3816
▁woke	-11.3816
▁토론토	-11.3817
▁좋아할	-11.3818
▁define	-11.3818
▁Dow	-11.3818
▁highlight	-11.3821
▁초청	-11.3821
▁주문할	-11.3832
▁좋아서	-11.3834
하십니다	-11.3836
▁파워	-11.3837
▁뿐입니다	-11.3838
정책	-11.3839
break	-11.384
▁Due	-11.3841
특	-11.3842
문제	-11.3846
▁사람으로	-11.3847
OR	-11.385
▁USA	-11.3852
Mo	-11.3853
▁establish	-11.3859
▁sort	-11.386
▁빌리	-11.3861
▁무대를	-11.3865
▁원인이	-11.3865
당국	-11.3866
▁강력	-11.3868
깔	-11.3876
▁closely	-11.3876
멸	-11.3877
▁surprising	-11.3877
▁Ministry	-11.3877
▁Toronto	-11.3877
▁클래식	-11.3877
▁Great	-11.3877
▁과학자들	-11.3878
▁손님들	-11.3879
▁주제로	-11.3879
▁apple	-11.3879
▁당황	-11.388
▁조용히	-11.388
▁아끼	-11.3881
▁continuously	-11.3882
▁Yeong	-11.3882
▁보냈어요	-11.3886
세대	-11.3887
받아	-11.3888
으신	-11.389
▁수요가	-11.389
▁shake	-11.389
▁널리	-11.3891
▁우즈	-11.3893
달러에	-11.3894
▁고위	-11.3894
▁북미	-11.3894
▁법정	-11.3894
▁supporting	-11.3895
하나	-11.3896
▁가능하다면	-11.3897
▁slip	-11.3901
▁Live	-11.3901
굴	-11.3902
▁키워	-11.3906
▁begun	-11.3906
▁박사	-11.3916
▁판사	-11.3923
▁적극	-11.3935
▁지명	-11.3936
▁Afghanistan	-11.3938
잎	-11.3938
▁facility	-11.3938
▁태어났	-11.3938
▁estate	-11.3938
▁cellphone	-11.3939
▁boring	-11.3939
뮤직	-11.3939
▁축복	-11.3939
▁흑인	-11.394
▁confused	-11.3941
▁탈출	-11.3942
▁react	-11.3942
▁Daejeon	-11.3942
▁참여한	-11.3944
▁farmers	-11.3944
▁hunt	-11.3949
하셨습니다	-11.395
▁Sand	-11.395
테크	-11.3951
▁어릴	-11.3953
▁단점	-11.3955
▁toys	-11.3955
▁것이었다	-11.3956
▁용서	-11.3956
▁나름	-11.3958
상품	-11.3959
▁해외에서	-11.396
▁suits	-11.3961
▁operated	-11.3963
▁그리스	-11.3963
▁Jane	-11.3966
됐던	-11.3966
있어	-11.3971
▁usage	-11.3974
get	-11.3974
▁대피	-11.3974
$	-11.3975
▁계시는	-11.3976
▁방탄소년단이	-11.3976
▁poster	-11.3977
Re	-11.3982
▁대상이	-11.3988
▁박수	-11.3999
▁curiosity	-11.4
▁inconvenience	-11.4
▁journey	-11.4
▁smiling	-11.4
▁thrill	-11.4
▁똑같이	-11.4
맵	-11.4
▁NASA	-11.4
▁태권도	-11.4
▁미사일	-11.4
▁wore	-11.4
대표	-11.4001
▁handsome	-11.4001
▁둘째	-11.4001
▁접촉	-11.4001
▁regardless	-11.4001
▁발견된	-11.4004
▁moon	-11.4008
▁중요합니다	-11.4009
▁손해	-11.401
matic	-11.4014
▁느끼게	-11.4014
ala	-11.4015
▁가보	-11.4016
▁shocked	-11.4017
▁squ	-11.4019
▁ideal	-11.4024
ock	-11.4024
▁못하게	-11.4025
▁previously	-11.4026
▁될까	-11.4029
motion	-11.403
해진다	-11.4033
quarter	-11.4033
쓸	-11.4035
▁수강	-11.4037
떨	-11.404
▁만나기	-11.4044
▁cooked	-11.4053
▁나누어	-11.4056
▁모두에게	-11.4059
▁employ	-11.406
▁생각했다	-11.4062
▁Uzbekistan	-11.4062
▁fierce	-11.4062
▁happily	-11.4062
▁phenomenon	-11.4062
▁가벼운	-11.4062
▁고스란히	-11.4062
▁다운로드	-11.4062
▁캠페인	-11.4062
▁파란색	-11.4062
▁조만간	-11.4062
▁액션	-11.4062
▁defend	-11.4062
▁prime	-11.4062
▁grace	-11.4062
▁붙잡	-11.4063
▁하얀	-11.4063
▁떠날	-11.4063
▁panel	-11.4064
▁폭염	-11.4064
▁fever	-11.4065
▁Human	-11.4065
▁합격	-11.4066
▁살짝	-11.4067
▁성향	-11.4067
▁ease	-11.4071
▁대사관	-11.4071
chu	-11.4072
▁창문	-11.4073
프리	-11.4075
ire	-11.4081
▁emotional	-11.4083
▁Job	-11.4087
PO	-11.4091
▁eaten	-11.4091
▁gathering	-11.4092
▁카드로	-11.4095
▁추적	-11.4097
▁비중	-11.4101
▁구할	-11.4103
▁코치	-11.4107
▁항의	-11.4107
▁amid	-11.4108
▁tire	-11.4112
▁넘어서	-11.4114
▁origin	-11.4119
하긴	-11.4119
▁satisfy	-11.4124
▁café	-11.4124
▁kindergarten	-11.4124
▁micro	-11.4124
▁애니메이션	-11.4124
▁Film	-11.4124
▁Green	-11.4124
▁commission	-11.4125
▁ramen	-11.4125
▁놓여	-11.4125
▁괴롭	-11.4125
▁않겠다	-11.4126
▁forgive	-11.4127
▁아래에	-11.4127
▁먹이	-11.4133
▁고생	-11.4134
▁aired	-11.4135
▁신곡	-11.4136
조원	-11.4136
▁본격적으로	-11.4137
aka	-11.414
▁colorful	-11.4141
▁예정이라고	-11.4143
▁혜택을	-11.4143
▁전개	-11.4143
▁사무실에	-11.4145
▁홀로	-11.4146
▁대변인	-11.4146
▁CP	-11.4147
▁먹습니다	-11.4149
▁thankful	-11.4153
▁Hee	-11.4157
Do	-11.4159
▁Chan	-11.4163
▁achieved	-11.4165
▁않았던	-11.4166
▁영화제	-11.4167
▁크레	-11.4171
▁decrease	-11.4172
▁사건은	-11.4173
▁편안	-11.4173
pect	-11.4174
▁들어와	-11.4174
▁바보	-11.4174
▁유치	-11.4179
▁고개	-11.4179
▁Galaxy	-11.4187
▁Service	-11.4187
▁nowadays	-11.4187
▁좋겠	-11.4187
▁블록	-11.4187
▁흔히	-11.4187
▁Awards	-11.4188
▁Ronaldo	-11.4188
▁사유	-11.4188
▁guilty	-11.4189
▁항목	-11.4189
▁직후	-11.419
▁가짜	-11.419
▁밝혔습니다	-11.4191
▁포스터	-11.4191
▁계란	-11.4192
▁assist	-11.4192
▁Out	-11.4194
▁공격수	-11.4195
로써	-11.4213
▁filming	-11.4215
▁서울시	-11.4223
겠지	-11.4227
style	-11.4227
▁mad	-11.4236
▁시작하는	-11.4238
▁blocked	-11.4239
▁stream	-11.425
▁DVD	-11.4251
▁drove	-11.4251
▁호날두	-11.4251
됨	-11.4251
DP	-11.4251
▁그나마	-11.4251
▁chain	-11.4251
▁nail	-11.4251
finite	-11.4251
▁reference	-11.4251
▁화웨이	-11.4253
▁거리에	-11.4254
▁파손	-11.4255
▁impose	-11.4256
▁Union	-11.4256
▁주둔	-11.426
▁말아야	-11.426
▁달콤한	-11.4261
ature	-11.4263
▁analyzed	-11.4264
▁높아지고	-11.4273
▁uploaded	-11.4273
▁주방	-11.4275
▁burned	-11.4275
▁Send	-11.428
▁특성	-11.4282
▁flying	-11.4282
▁suspected	-11.4284
itation	-11.4287
▁기존에	-11.4289
▁떨어지는	-11.4292
▁복잡	-11.4294
냅니	-11.4297
bli	-11.4301
판에	-11.4303
▁negotiations	-11.431
▁살기	-11.4313
▁divorce	-11.4314
▁militant	-11.4314
▁struck	-11.4314
흙	-11.4314
턱	-11.4314
▁한마디	-11.4314
▁outdoor	-11.4314
▁wood	-11.4314
▁대다수	-11.4315
▁석유	-11.4315
▁그중에서	-11.4315
▁작곡	-11.4316
▁Olympic	-11.4317
▁위대한	-11.4317
▁retail	-11.4318
▁보내드리겠습니다	-11.4319
▁몸매	-11.4321
하느냐	-11.4323
▁지냈	-11.4326
▁bid	-11.4327
▁부른	-11.4329
벨트	-11.4331
심하게	-11.4331
▁미친	-11.4335
tract	-11.4335
▁disappeared	-11.4338
▁연인	-11.4341
됐지만	-11.4344
▁여자들	-11.4346
▁wondering	-11.4349
▁responded	-11.435
▁사랑하고	-11.4352
피트	-11.4354
▁운이	-11.436
▁성적이	-11.4365
▁tasks	-11.4369
▁대체로	-11.4372
view	-11.4372
▁hosted	-11.4373
▁forecast	-11.4373
버그	-11.4374
사건	-11.4376
샘	-11.4378
▁diploma	-11.4378
샵	-11.4378
▁disaster	-11.4378
▁evaluate	-11.4378
▁nationwide	-11.4378
▁scientist	-11.4378
▁햄버거	-11.4378
▁Osaka	-11.4378
▁intense	-11.4379
▁kiss	-11.4379
▁벨기에	-11.4379
▁관찰	-11.4381
▁그만두	-11.4381
▁좋을까요	-11.4383
▁엔진	-11.4384
▁emphasized	-11.4387
▁막기	-11.4387
▁열릴	-11.4388
▁소망	-11.4388
▁매달	-11.4389
▁차지한	-11.4389
▁Start	-11.439
▁수준의	-11.4393
called	-11.4394
▁통하여	-11.4396
▁그쪽	-11.4398
▁동원	-11.44
마켓	-11.4401
▁supporters	-11.4404
스토	-11.4405
▁곁에	-11.4406
▁파티에	-11.4408
▁발생하지	-11.4411
▁테니까	-11.4412
▁일이에요	-11.4416
▁유형	-11.4417
▁이내에	-11.4424
▁이용해서	-11.4426
▁mention	-11.443
흑	-11.4441
엉	-11.4443
▁Earlier	-11.4443
▁뮤직비디오	-11.4443
▁Brown	-11.4443
▁평범한	-11.4443
▁VIP	-11.4443
▁loving	-11.4443
▁composed	-11.4443
▁boom	-11.4444
▁이수지	-11.4444
▁레알	-11.4444
▁submitted	-11.4445
▁River	-11.4446
▁degrees	-11.4446
▁샤워	-11.4446
▁suitable	-11.4447
▁포착	-11.4447
▁도망	-11.4448
▁예능	-11.4448
▁장착	-11.4448
해준다	-11.4449
▁선호하는	-11.4449
▁국민들이	-11.4451
▁melt	-11.4453
▁프라이	-11.4454
▁오염	-11.4455
▁예고	-11.4456
▁Gang	-11.4457
으려고	-11.446
▁외모	-11.4462
▁강도	-11.4463
▁buyers	-11.4465
▁Malaysian	-11.4466
▁헤드	-11.4469
▁상원	-11.4469
▁Cor	-11.4471
물로	-11.4471
▁복지	-11.4472
▁방으로	-11.4475
▁생겼다	-11.4478
으려	-11.4478
graphic	-11.4478
처리	-11.4479
▁pastor	-11.448
▁참석해	-11.448
▁athletes	-11.4484
▁violat	-11.4496
▁가능한지	-11.4497
▁소원	-11.4497
커스	-11.4504
▁개정	-11.4504
▁답했다	-11.4506
뒀	-11.4508
켄	-11.4508
▁Department	-11.4508
▁Huawei	-11.4508
▁anniversary	-11.4508
▁explor	-11.4508
▁opportunities	-11.4508
▁politician	-11.4508
▁stretch	-11.4508
▁퍼포먼스	-11.4508
▁오사카	-11.4508
▁manual	-11.4508
아일랜드	-11.4508
▁click	-11.4508
▁은퇴	-11.4512
필드	-11.4515
▁Ok	-11.4523
세계	-11.4526
iness	-11.4532
▁originally	-11.4532
▁반군	-11.4537
▁부담이	-11.4537
▁rank	-11.4546
▁갖추	-11.4547
▁증상이	-11.4548
▁좋아해서	-11.4551
▁이들에게	-11.4552
▁완전	-11.4554
▁동물들	-11.4554
▁찍었	-11.4555
▁걸어가	-11.4555
▁부대	-11.4557
▁hire	-11.456
욱	-11.4563
turn	-11.4564
▁relative	-11.4565
▁공연장	-11.4566
▁영감	-11.4567
▁salt	-11.4568
크라	-11.457
▁Democrat	-11.4571
돋	-11.4573
▁Mexican	-11.4573
▁Taliban	-11.4573
▁crazy	-11.4573
▁unfair	-11.4573
▁가까워	-11.4573
▁알레르기	-11.4573
첩	-11.4573
▁Rather	-11.4573
▁충족	-11.4573
▁플래	-11.4574
▁여섯	-11.4574
▁Talk	-11.4574
▁중에서도	-11.4575
▁머무	-11.4575
▁tank	-11.4575
▁돌아갈	-11.4576
▁colleagues	-11.4576
▁Fire	-11.4578
▁bio	-11.4581
▁회장은	-11.4581
▁Camp	-11.4581
되었으며	-11.4582
▁채로	-11.4584
▁북부	-11.4589
▁시청자	-11.459
투어	-11.4593
▁Yun	-11.4594
▁traveled	-11.4596
▁Arab	-11.4597
▁shock	-11.46
▁generally	-11.4601
▁한층	-11.4601
▁양국	-11.4602
▁informed	-11.461
▁중국과	-11.4614
티브	-11.4614
▁오해	-11.4614
▁움직이는	-11.4615
▁nose	-11.4617
법은	-11.4618
▁방문하는	-11.4619
Li	-11.462
▁이어진	-11.4622
▁스타들	-11.4623
▁곳이다	-11.4624
AI	-11.4626
‘	-11.463
▁가족들이	-11.4634
▁chip	-11.4638
Kim	-11.4638
셰	-11.4639
▁Middle	-11.4639
▁capacity	-11.4639
▁electronic	-11.4639
▁puppy	-11.4639
▁똑똑	-11.4639
▁tennis	-11.4639
▁KBO	-11.4639
▁Still	-11.4639
▁집행	-11.4639
▁욕심	-11.464
▁raw	-11.464
▁마침내	-11.464
나가는	-11.4641
▁lady	-11.4642
person	-11.4643
▁상승세	-11.4643
▁Port	-11.4643
▁숨졌다	-11.4643
▁취하	-11.4644
▁원활	-11.4645
▁도울	-11.4646
LP	-11.4648
▁다르다	-11.4648
▁majority	-11.4649
▁이어졌다	-11.4649
▁연료	-11.465
▁유효	-11.4651
클레	-11.4651
버릴	-11.4652
▁버려	-11.4655
ita	-11.4659
▁Mike	-11.466
▁생기는	-11.4662
▁입국	-11.4665
스틴	-11.4665
▁지각	-11.4667
▁진료	-11.4667
대학교	-11.4668
▁개방	-11.4675
pack	-11.468
학과	-11.468
▁시작됐다	-11.4686
▁argue	-11.469
▁Ac	-11.4691
▁attraction	-11.4695
▁touched	-11.4696
▁Bang	-11.4696
▁sticker	-11.4699
▁withdraw	-11.47
Ï	-11.4705
▁argument	-11.4705
▁interior	-11.4705
▁suspicion	-11.4705
▁의장	-11.4705
▁patent	-11.4705
▁스티커	-11.4705
▁호기심	-11.4705
▁voting	-11.4705
▁돼지고기	-11.4706
▁entry	-11.4706
▁zone	-11.4706
▁split	-11.4706
▁취급	-11.4708
place	-11.4708
▁dating	-11.4708
▁채팅	-11.471
▁Gyeong	-11.471
▁glasses	-11.4711
▁남지	-11.4714
▁researchers	-11.4715
▁싫어하는	-11.4716
▁추구하	-11.4717
▁울산	-11.4719
▁rental	-11.4719
시킨다	-11.4721
▁Indonesian	-11.4723
▁Dar	-11.4725
▁의미한다	-11.4731
▁Pra	-11.4733
▁참석한	-11.4734
▁유치원	-11.474
▁풀이	-11.4741
여개	-11.4743
▁turning	-11.4744
▁길게	-11.4748
▁직원들이	-11.4748
▁Mari	-11.475
▁하원	-11.4752
▁열기	-11.4752
▁pot	-11.4752
▁regulations	-11.4758
베리	-11.4761
시오	-11.4763
▁brief	-11.4764
▁죄송	-11.4766
오르	-11.4766
▁되었어	-11.477
▁트렌드	-11.4772
▁힐러리	-11.4772
샌	-11.4772
▁medium	-11.4772
▁삼성전자	-11.4772
쳤습니다	-11.4772
▁towel	-11.4772
▁ruin	-11.4773
▁이루어져	-11.4774
▁trace	-11.4774
▁earnest	-11.4774
▁voters	-11.4775
▁신제품	-11.4776
개발	-11.4777
▁실력을	-11.4779
▁회계	-11.478
▁돌파	-11.4782
▁있네요	-11.4784
▁가난한	-11.4785
▁Free	-11.4786
hoon	-11.4787
▁팬들에게	-11.4787
▁감사해요	-11.4789
▁대결	-11.4794
▁테니스	-11.4796
▁pushed	-11.4797
HA	-11.4798
PL	-11.4803
▁그래야	-11.4807
▁비교해	-11.4809
▁두산	-11.4818
▁내리는	-11.4818
▁시원	-11.482
▁fur	-11.4823
해졌다	-11.4824
▁한국인들	-11.4832
핵	-11.4836
▁retire	-11.4838
똑	-11.4839
▁Pyongyang	-11.4839
▁visual	-11.4839
▁가볍게	-11.4839
▁왜냐면	-11.4839
▁presence	-11.4839
▁Keep	-11.4839
▁bound	-11.4839
▁trash	-11.4839
▁되겠습니까	-11.4842
▁belt	-11.4843
▁filed	-11.4844
▁그래요	-11.4845
▁불어	-11.4847
▁구름	-11.4849
▁peaceful	-11.4851
교회	-11.4855
▁바라보는	-11.4858
▁상당수	-11.4858
▁compar	-11.486
▁배운	-11.4863
▁weapons	-11.4866
▁애정	-11.4868
▁경쟁력	-11.4875
▁earned	-11.4879
세트	-11.488
▁Char	-11.4883
▁자식	-11.4883
▁publish	-11.4888
▁praise	-11.4892
▁여사	-11.4898
▁logo	-11.4899
▁이루고	-11.4903
▁버튼을	-11.4903
▁하는데요	-11.4903
▁과거에	-11.4905
stitution	-11.4905
▁apart	-11.4906
▁해제	-11.4906
▁잃어버렸	-11.4906
▁Doosan	-11.4906
▁baggage	-11.4906
▁century	-11.4906
▁circumstance	-11.4906
▁금메달	-11.4906
▁false	-11.4906
▁alleged	-11.4907
▁픽업	-11.4907
받지	-11.4907
▁shame	-11.4907
▁범행	-11.4907
▁특허	-11.4907
myeon	-11.4908
▁texture	-11.4908
▁rally	-11.4908
▁새끼	-11.4908
▁농담	-11.491
▁알려지지	-11.491
▁휴일	-11.491
▁journalist	-11.4911
▁herself	-11.4911
▁인류	-11.4911
좋	-11.4912
트랙	-11.4913
▁추운	-11.4918
▁면에서	-11.4918
▁상태다	-11.4919
▁마음속	-11.4919
▁bath	-11.4919
▁발달	-11.492
▁열려	-11.4921
▁정지	-11.4923
▁가능해요	-11.4924
▁Kwon	-11.4924
▁Electronics	-11.4926
▁화성	-11.4928
▁장애인	-11.4928
블리	-11.4931
▁직면	-11.4931
▁안심	-11.4931
▁factor	-11.4934
▁성실	-11.4936
▁거리가	-11.4938
▁싶다고	-11.4939
▁논란	-11.494
▁CS	-11.4942
▁물러	-11.4943
▁radi	-11.4944
▁removed	-11.4945
igh	-11.4945
▁자신만	-11.4946
MC	-11.4946
▁prop	-11.4949
▁Law	-11.4949
▁왕자	-11.4952
▁presented	-11.4954
▁구매한	-11.4954
▁나쁘	-11.4956
▁명단	-11.4957
▁생성	-11.4958
▁당선인	-11.4958
▁구원	-11.4963
▁의상	-11.4964
리티	-11.4969
TI	-11.4971
힘	-11.4972
▁grandfather	-11.4975
▁industrial	-11.4975
▁translation	-11.4975
▁엔지니어	-11.4975
▁오디션	-11.4975
쿼	-11.4975
▁Kyung	-11.4975
▁excuse	-11.4975
▁drag	-11.4975
▁neat	-11.4975
▁안녕	-11.4976
▁취향	-11.4976
▁Senate	-11.4976
▁바퀴	-11.4977
▁tourism	-11.4977
▁취임	-11.4978
▁사냥	-11.4979
▁Harry	-11.4979
▁sir	-11.4987
seok	-11.4987
▁surely	-11.4988
▁Gold	-11.4991
cation	-11.4993
RS	-11.4997
▁복잡한	-11.4997
▁보유한	-11.4999
▁rub	-11.4999
▁말입니다	-11.4999
▁채소	-11.5
▁중이야	-11.5
cover	-11.5
▁비교적	-11.5005
▁lend	-11.5007
행위	-11.501
▁처음이다	-11.5012
▁소매	-11.5012
▁활동하고	-11.5019
▁상사	-11.502
▁변호사는	-11.5023
싶	-11.5024
TT	-11.5027
▁determine	-11.5028
▁작전	-11.503
▁진심	-11.503
▁장점이	-11.5032
▁활용할	-11.5034
▁않았기	-11.5042
▁Comp	-11.5043
▁technical	-11.5043
▁Manchester	-11.5043
▁Turkish	-11.5043
▁liquid	-11.5043
▁ocean	-11.5043
▁revenue	-11.5043
▁갤럭시	-11.5043
▁남동생	-11.5043
▁솔루션	-11.5043
▁스위스	-11.5043
▁stamp	-11.5043
▁하노이	-11.5043
▁grill	-11.5043
▁유전자	-11.5044
▁겨우	-11.5044
▁설탕	-11.5044
▁missile	-11.5044
▁있었는지	-11.5046
▁원칙	-11.5046
ridge	-11.5047
What	-11.5047
▁고쳐	-11.505
▁움직	-11.505
▁collection	-11.5051
하셨다	-11.5054
▁때문이야	-11.5055
▁원한다면	-11.5058
▁화학	-11.5058
▁officers	-11.5058
▁범인	-11.5061
▁improvement	-11.5063
▁certainly	-11.5068
달러로	-11.5068
▁이해해	-11.507
▁이뤄진	-11.5071
▁인권	-11.5073
▁학생들에게	-11.5076
▁들어오는	-11.5076
▁주었다	-11.5077
▁중구	-11.5078
▁talented	-11.5078
▁휴대	-11.5079
▁Post	-11.5088
▁시일	-11.5096
▁겨울에	-11.5097
▁제공하고	-11.5097
체육관	-11.5102
▁취지	-11.5104
었는지	-11.5105
▁매장에서	-11.5107
▁영화관	-11.511
▁Ulsan	-11.5112
▁desperate	-11.5112
▁obvious	-11.5112
▁slept	-11.5112
▁민주주의	-11.5112
캡	-11.5112
▁pilot	-11.5112
▁valid	-11.5112
▁multiple	-11.5113
▁aircraft	-11.5113
▁yard	-11.5114
▁가능할까요	-11.5114
▁hundreds	-11.5115
▁검증	-11.5116
▁게재	-11.5116
▁Joo	-11.5116
▁이루기	-11.5116
▁숨겨	-11.5117
▁고백	-11.5117
▁속도로	-11.5119
▁다닐	-11.512
음악	-11.5121
▁경찰관	-11.5123
▁로고	-11.5123
MD	-11.5123
▁여기까지	-11.5123
VI	-11.5124
▁말아요	-11.5124
▁사안	-11.5129
▁미국인들	-11.5131
▁놓치	-11.5132
▁Xi	-11.5135
▁노력하는	-11.5135
▁말라고	-11.5137
되었는데	-11.5138
▁expecting	-11.5141
▁호소	-11.5142
▁가져오	-11.5143
▁발견했다	-11.5144
▁보석	-11.5147
▁striker	-11.5149
▁neighbors	-11.5151
jae	-11.5159
ford	-11.5163
▁arrange	-11.5167
▁기기	-11.5167
▁외에도	-11.5167
▁이달	-11.5171
▁대여	-11.5176
▁쪽에	-11.5178
떡	-11.5181
▁없으니	-11.5181
▁Florida	-11.5181
▁cryptocurrency	-11.5181
▁judgment	-11.5181
▁resolution	-11.5181
▁승용차	-11.5181
▁업로드	-11.5181
▁우즈베키스탄	-11.5181
▁모으고	-11.5181
▁선보인	-11.5181
▁염색	-11.5182
▁갖춘	-11.5182
▁Food	-11.5182
▁temple	-11.5182
▁클릭	-11.5182
▁요새	-11.5182
▁발굴	-11.5183
▁shy	-11.5183
▁Suwon	-11.5184
▁자원	-11.5184
▁없애	-11.5185
▁authority	-11.5185
▁announcement	-11.5185
▁국립	-11.5188
▁repeated	-11.5191
▁안경	-11.5194
▁아베	-11.5197
낸다	-11.5198
토리	-11.52
ela	-11.5203
▁불행	-11.5203
▁한잔	-11.5209
▁공중	-11.5214
▁친절한	-11.5224
oh	-11.5225
▁동료들	-11.5227
range	-11.5228
vie	-11.5229
▁바람에	-11.5232
▁수요일에	-11.5233
▁병력	-11.5233
▁gaining	-11.5233
▁analyze	-11.5237
▁풍부	-11.524
▁약물	-11.5242
▁Hae	-11.5247
▁언제든	-11.5248
리안	-11.525
cigarette	-11.5251
▁Unfortunately	-11.5251
▁alternative	-11.5251
▁analyst	-11.5251
▁arrival	-11.5251
▁combination	-11.5251
▁steadily	-11.5251
▁terrible	-11.5251
▁플로리다	-11.5251
▁cousin	-11.5251
▁swim	-11.5251
▁월급	-11.5254
▁Watch	-11.5254
▁분쟁	-11.5255
▁패배	-11.5256
▁greatly	-11.5256
hood	-11.5256
▁의존	-11.5257
▁출석	-11.5259
▁Tu	-11.5259
▁strengthen	-11.526
▁scary	-11.5263
▁tariffs	-11.5264
▁snack	-11.5267
bove	-11.5268
▁개성	-11.527
▁관련한	-11.5271
▁받는다	-11.5275
▁노조	-11.5275
▁벌인	-11.5276
▁해결책	-11.5287
▁요구하는	-11.529
▁이제부터	-11.5291
▁Nu	-11.5291
▁pursue	-11.5291
▁이루어진	-11.5292
▁lens	-11.5296
inch	-11.5296
▁Arabia	-11.5297
▁측에서	-11.5303
▁adopt	-11.5304
▁Hill	-11.5304
▁희생자	-11.5306
▁advise	-11.5307
▁간편	-11.531
▁즐겁	-11.5313
▁보내지	-11.5318
verse	-11.5319
▁어젯밤에	-11.5319
▁plenty	-11.5322
▁seafood	-11.5322
▁아쉬움	-11.5322
▁우크라이나	-11.5322
▁콜롬비아	-11.5322
▁Hanoi	-11.5322
▁셔츠	-11.5322
▁fool	-11.5322
▁낭비	-11.5322
▁비밀번호	-11.5322
▁trail	-11.5322
▁rude	-11.5322
▁푸틴	-11.5322
▁Regard	-11.5322
▁bored	-11.5323
▁일각에서	-11.5323
▁기다려주세요	-11.5325
▁소식통	-11.5325
▁비롯	-11.5325
▁surge	-11.5327
사람들	-11.5327
▁Get	-11.5329
차전	-11.533
▁개막	-11.5331
▁명절	-11.5332
▁없네요	-11.5332
▁시리아	-11.5332
ological	-11.5332
▁어울리	-11.5333
▁미칠	-11.534
▁변동	-11.5341
▁들면	-11.5343
▁지원할	-11.5346
웨어	-11.5347
TR	-11.5348
연구소	-11.5351
lee	-11.5353
▁rot	-11.5355
SF	-11.5363
▁불가능한	-11.5363
▁골드	-11.5363
▁깨끗한	-11.5364
▁증가한	-11.5365
▁것만으로	-11.5366
where	-11.5368
때로는	-11.5372
▁repeat	-11.5375
▁돌리	-11.5377
▁철수	-11.538
▁별도	-11.538
▁알려주실	-11.5381
atory	-11.5382
▁나누고	-11.5388
▁audit	-11.539
jeong	-11.539
크리	-11.5391
▁실수로	-11.5392
▁Students	-11.5393
▁draft	-11.5393
▁perspective	-11.5393
▁refresh	-11.5393
▁relations	-11.5393
▁romantic	-11.5393
▁technique	-11.5393
▁나왔습니다	-11.5393
▁어두운	-11.5393
▁피드백	-11.5393
썩	-11.5393
▁Berlin	-11.5393
▁Frank	-11.5393
▁데려다	-11.5393
▁Think	-11.5393
▁transform	-11.5393
▁depict	-11.5393
▁쇼핑몰	-11.5393
▁소셜	-11.5394
만명이	-11.5396
▁나빠	-11.5397
▁restore	-11.54
▁fluent	-11.54
▁정규	-11.5403
▁필요하신	-11.5403
▁측이	-11.5405
▁밀어	-11.5405
▁계단	-11.5406
▁clothing	-11.5407
known	-11.5408
▁풍부한	-11.5414
▁감당	-11.5415
▁정해진	-11.5419
▁하나만	-11.5421
▁전송	-11.5424
▁집회	-11.5428
▁선배	-11.5431
▁걸어서	-11.5432
▁Abe	-11.5433
▁packed	-11.5434
▁foundation	-11.5437
칩니다	-11.5437
▁로드	-11.544
▁Plan	-11.5444
Ha	-11.5444
▁결승전	-11.5445
▁중동	-11.5446
▁유학	-11.5448
KB	-11.5455
▁officially	-11.5457
▁주시는	-11.5457
픈	-11.5458
▁이론	-11.5459
▁올리는	-11.5461
흰	-11.5464
웰	-11.5464
▁Association	-11.5464
▁Baghdad	-11.5464
▁complicated	-11.5464
▁component	-11.5464
▁preparation	-11.5464
▁violent	-11.5464
▁디즈니	-11.5464
▁즐거웠	-11.5464
▁teeth	-11.5464
▁jail	-11.5464
▁Anyone	-11.5465
▁야외	-11.5466
▁막아	-11.5466
▁아랍	-11.5467
▁개혁	-11.5468
▁구호	-11.5468
▁표준	-11.5469
▁그다지	-11.5471
▁recovery	-11.5477
▁발생해	-11.5478
▁일본어	-11.5479
face	-11.5482
된다면	-11.5488
▁mart	-11.5492
▁replaced	-11.5496
MR	-11.5501
리오	-11.5516
▁describe	-11.5523
▁사연	-11.5524
▁얻었	-11.5528
▁어려움이	-11.553
AL	-11.553
▁exhibit	-11.5532
▁주차장	-11.5533
적이지	-11.5534
엽	-11.5535
▁Reuters	-11.5536
▁Sweden	-11.5536
▁contribute	-11.5536
▁fraud	-11.5536
▁relevant	-11.5536
▁homepage	-11.5536
▁바뀌었	-11.5536
▁respondents	-11.5536
▁Disney	-11.5536
▁poem	-11.5539
▁audition	-11.5539
▁hung	-11.5543
▁예매	-11.5545
▁fallen	-11.5546
▁spreading	-11.5548
▁환전	-11.555
NT	-11.555
▁끝나면	-11.5553
▁pad	-11.5555
▁settled	-11.5557
PE	-11.5558
자동차	-11.5559
▁채우	-11.5559
▁다름	-11.5562
▁모래	-11.5565
스톤	-11.5565
거에요	-11.5569
▁먹어요	-11.5571
▁화상	-11.5571
▁키스	-11.5573
▁cheering	-11.5577
▁만들어졌	-11.5579
▁훌륭	-11.5587
▁나가서	-11.5587
르트	-11.5589
▁언급했다	-11.559
▁시사	-11.5598
▁자르	-11.5599
▁terror	-11.56
▁감시	-11.5604
▁branch	-11.5605
▁조명	-11.5605
▁기적	-11.5607
▁입구	-11.5607
▁가려	-11.5608
윌	-11.5608
▁airplane	-11.5609
▁luxury	-11.5609
▁storage	-11.5609
▁temporary	-11.5609
▁비핵화	-11.5609
▁silent	-11.5609
▁dump	-11.5609
▁excessive	-11.5609
▁Jack	-11.5609
▁tag	-11.561
▁스티브	-11.5611
▁긍정적	-11.5611
▁소고기	-11.5614
▁구성되어	-11.5614
▁미안합니다	-11.5616
▁원하시는	-11.5618
▁미스터	-11.5618
하겠어요	-11.5619
▁Rome	-11.5619
러브	-11.562
▁출산	-11.5621
하느라	-11.5622
▁말하면	-11.5624
▁sexy	-11.5626
▁있잖아	-11.5631
▁마친	-11.5631
▁생각하세요	-11.5633
▁성공할	-11.5634
▁Sin	-11.5636
unk	-11.5637
▁들었는데	-11.5638
▁먹어야	-11.5641
▁noticed	-11.5642
▁가수들	-11.5653
▁적게	-11.5656
▁posting	-11.5658
▁친구들에게	-11.5661
▁보조	-11.5666
▁resolve	-11.5667
take	-11.5669
해줘서	-11.5676
▁이용하고	-11.5676
멍	-11.5679
신다면	-11.568
▁노란색	-11.5682
▁붕괴	-11.5682
▁아시안게임	-11.5682
▁의사소통	-11.5682
▁Central	-11.5682
▁Fortunately	-11.5682
▁accomplish	-11.5682
▁struggling	-11.5682
▁worries	-11.5682
▁그렇다고	-11.5682
▁디스플레이	-11.5682
▁애완동물	-11.5682
닛	-11.5682
▁creation	-11.5682
▁disabled	-11.5682
▁mirror	-11.5682
▁논문	-11.5682
▁childhood	-11.5682
▁벤투	-11.5683
▁늘어난	-11.5683
▁소수	-11.5683
▁motor	-11.5683
▁objective	-11.5685
▁enable	-11.5688
▁Home	-11.5688
▁성능	-11.5688
▁friendship	-11.5689
▁사라졌	-11.5689
▁추석	-11.5693
▁뿐이다	-11.5694
▁wire	-11.5694
▁분류	-11.5694
▁이루어졌	-11.5695
▁간단하게	-11.5699
▁Hyo	-11.5706
pound	-11.5707
▁재고가	-11.5708
▁tested	-11.5708
▁achievement	-11.5712
▁Tri	-11.5713
▁Lastly	-11.5716
▁부진	-11.5722
▁생물	-11.5723
▁계기로	-11.5725
▁타이어	-11.5729
power	-11.5732
▁총기	-11.5732
▁맞이하	-11.5733
▁구매자	-11.5744
▁편이다	-11.5747
페르	-11.5748
▁champion	-11.5755
eastern	-11.5755
▁Entertainment	-11.5755
▁remote	-11.5755
▁transaction	-11.5755
▁FTA	-11.5755
▁국회의원	-11.5755
▁여러분들이	-11.5756
▁아뇨	-11.5757
▁moral	-11.5757
▁dominate	-11.5758
▁차가운	-11.5758
▁Putin	-11.5761
▁벌이고	-11.5762
▁믿지	-11.5762
▁smoothly	-11.5766
되나요	-11.5784
Ju	-11.5787
들로부터	-11.5788
about	-11.5789
▁ratio	-11.579
됐을	-11.5793
▁정권	-11.58
▁지난번에	-11.5804
릇	-11.5808
▁건강하게	-11.5811
▁기여	-11.5812
하곤	-11.5812
호선	-11.5815
였지만	-11.5816
▁만드	-11.5816
▁상황은	-11.5817
▁힘들다	-11.5817
▁조화	-11.5821
중국	-11.5823
헨	-11.5828
▁admit	-11.5828
▁advertising	-11.5829
▁consecutive	-11.5829
▁deserve	-11.5829
▁umbrella	-11.5829
▁반려동물	-11.5829
▁grass	-11.5829
▁worn	-11.5829
▁keen	-11.5829
▁Yeon	-11.583
▁당첨	-11.583
▁터뜨	-11.583
▁chest	-11.583
▁Gaza	-11.583
▁부분에서	-11.5831
▁GDP	-11.5832
▁weakness	-11.5832
▁core	-11.5833
▁거래처	-11.5833
▁유죄	-11.5833
▁없을까요	-11.5835
▁떠났	-11.5836
▁최저	-11.5837
스토어	-11.5847
코드	-11.5849
▁개설	-11.5849
▁featured	-11.5853
▁parent	-11.5853
▁당사	-11.5854
▁lately	-11.5859
▁사무	-11.5859
American	-11.5862
▁조사됐다	-11.5866
리트	-11.5869
▁지하	-11.5883
▁카페에서	-11.5883
▁Game	-11.5885
▁죽어	-11.5889
▁소금	-11.5892
month	-11.5893
▁호수	-11.5894
▁구성원	-11.59
꿀	-11.5901
▁군인	-11.5902
칩	-11.5902
▁Company	-11.5904
▁circle	-11.5904
▁conclusion	-11.5904
▁counsel	-11.5904
▁fifth	-11.5904
▁franchise	-11.5904
▁guitar	-11.5904
▁memorable	-11.5904
▁리버풀	-11.5904
▁바그다드	-11.5904
뭉	-11.5904
▁Research	-11.5904
▁replied	-11.5904
▁우연히	-11.5904
▁바이오	-11.5904
▁importance	-11.5906
▁음성	-11.5906
▁남녀	-11.5907
▁fastest	-11.5911
▁양쪽	-11.5912
디아	-11.5914
▁examine	-11.5914
▁비전	-11.5915
▁불평	-11.5915
되었던	-11.5916
▁이해하고	-11.5917
▁올릴	-11.5917
▁discovered	-11.592
▁마셔	-11.5922
▁Rose	-11.5923
▁가상	-11.5923
▁민간	-11.5923
▁교실	-11.5923
▁환상	-11.5925
▁가세요	-11.5927
ani	-11.5928
▁대량	-11.593
▁방문객	-11.593
fire	-11.593
▁관람객	-11.5936
▁보여준	-11.594
또	-11.594
▁받으면	-11.5941
▁최상	-11.5942
▁정확	-11.595
▁cookie	-11.5952
▁generate	-11.5956
▁없었어	-11.5958
▁아닌지	-11.596
▁정성	-11.5963
▁맛볼	-11.5964
▁difficulty	-11.5968
▁출연한	-11.5973
▁edge	-11.5977
▁Happy	-11.5979
▁applicant	-11.5979
▁identify	-11.5979
▁innovation	-11.5979
▁늦었	-11.5979
▁단백질	-11.5979
▁돋보이	-11.5979
▁Church	-11.5979
▁오프라인	-11.5979
▁탑재	-11.5979
▁Nothing	-11.5979
▁alarm	-11.5979
▁urged	-11.598
▁어린아이	-11.598
▁passionate	-11.5981
▁급격	-11.5983
▁듣지	-11.5984
Me	-11.5984
▁걸그룹	-11.5985
▁지분	-11.5988
▁보시면	-11.599
▁totally	-11.5991
▁surrounding	-11.5995
▁rejected	-11.5995
▁흥미를	-11.5995
▁중요하게	-11.5996
CR	-11.5999
나갈	-11.5999
▁실감	-11.6
▁앉아서	-11.6
▁재생	-11.6002
▁편안한	-11.6005
▁tied	-11.6006
▁vari	-11.6007
▁때보다	-11.6009
▁pursu	-11.6012
life	-11.6013
▁표기	-11.6013
▁키우는	-11.6018
▁표면	-11.6019
▁나타났	-11.6024
겠죠	-11.6025
▁expanding	-11.6031
order	-11.6032
▁나타나는	-11.6033
ano	-11.6038
self	-11.6043
▁거주하는	-11.6046
▁입지	-11.6048
▁바닥에	-11.6049
▁이해하지	-11.6051
▁착한	-11.6053
▁출고	-11.6053
▁prior	-11.6053
닷	-11.6054
딘	-11.6055
▁Tottenham	-11.6055
▁exclude	-11.6055
▁protein	-11.6055
▁virtual	-11.6055
▁겪었	-11.6055
▁토트넘	-11.6055
「	-11.6055
▁northern	-11.6055
▁받아들일	-11.6055
레이션	-11.6055
▁soap	-11.6055
▁흥분	-11.6055
▁admitted	-11.6056
▁rail	-11.6056
▁은혜	-11.6059
▁stake	-11.606
▁Santa	-11.6061
▁그러고	-11.6064
▁losses	-11.6065
▁kit	-11.6067
▁수영장	-11.6068
▁기대된다	-11.6068
▁파업	-11.6071
▁긍정적으로	-11.6072
▁scent	-11.6072
셨는데	-11.6073
▁추산	-11.6074
▁집계	-11.6077
pil	-11.6078
▁우산	-11.6082
되었어요	-11.6084
▁대학생	-11.6084
▁주장하고	-11.6084
▁게다가	-11.6084
▁곳곳에	-11.6085
▁applying	-11.6088
▁Hwa	-11.6089
▁netizens	-11.609
▁의원들	-11.6094
hun	-11.6095
▁자재	-11.6097
그러나	-11.6097
▁collected	-11.6098
푸드	-11.6103
▁봤어	-11.6103
▁행보	-11.6104
▁도서	-11.6104
▁낮아	-11.6108
▁보니까	-11.6109
▁농업	-11.6112
▁Uni	-11.6113
셨습니까	-11.6116
카르	-11.6119
▁touching	-11.613
é	-11.6131
▁Brexit	-11.6131
▁Committee	-11.6131
」	-11.6131
▁페이팔	-11.6131
▁dawn	-11.6131
▁기숙사	-11.6131
▁베를린	-11.6131
▁깨달았	-11.6131
▁exposed	-11.6131
▁operator	-11.6131
▁흥미로운	-11.6131
▁패턴	-11.6132
▁NBC	-11.6132
▁모르겠지만	-11.6133
ologist	-11.6135
▁trick	-11.6136
colored	-11.6136
▁절약	-11.6137
▁meantime	-11.6137
▁민감	-11.6137
▁Hope	-11.6137
▁stew	-11.6137
▁싶었어요	-11.6138
▁신앙	-11.6138
▁편입니다	-11.6139
▁인연	-11.614
▁마스터	-11.614
▁offline	-11.6141
hae	-11.6142
▁stranger	-11.6143
▁입주	-11.6145
▁열린다	-11.6146
▁취해	-11.6151
▁보내세요	-11.6152
▁조작	-11.6152
▁참조	-11.6155
▁달린	-11.6162
▁안쪽	-11.6162
병원	-11.6164
▁기업들	-11.6165
▁특수	-11.6165
▁인물이	-11.6168
▁요청합니다	-11.6172
팝	-11.6176
▁한국어로	-11.6177
▁upper	-11.6177
▁rib	-11.6179
Tra	-11.6179
금융	-11.6184
▁혜택	-11.6185
▁경선	-11.6187
▁통일	-11.6188
▁나간	-11.6189
▁poet	-11.6193
▁blame	-11.6194
▁개별	-11.62
▁엘리	-11.6202
라이스	-11.6204
▁모르고	-11.6207
▁Barcelona	-11.6208
▁Council	-11.6208
▁Meanwhile	-11.6208
▁Third	-11.6208
▁agencies	-11.6208
▁pocket	-11.6208
▁뉴질랜드	-11.6208
▁올바른	-11.6208
▁로버트	-11.6208
▁로그인	-11.6208
▁KIA	-11.6208
▁차라리	-11.6208
▁exclusive	-11.6208
▁instant	-11.6208
▁broad	-11.6209
▁Though	-11.621
▁강렬	-11.621
def	-11.6211
▁열풍	-11.6213
적극적인	-11.6213
▁대표하는	-11.6214
▁advertisement	-11.6215
▁revised	-11.6217
▁Later	-11.6218
▁부착	-11.6219
▁destroyed	-11.6225
▁argued	-11.6225
▁찍는	-11.6226
▁히트	-11.6227
▁주연	-11.6231
▁화요일에	-11.6235
▁무대에서	-11.6248
▁recording	-11.625
▁사망했다고	-11.6255
RC	-11.6262
▁distribut	-11.6266
▁당했다	-11.6266
water	-11.6269
▁capture	-11.6271
°	-11.6285
▁Follow	-11.6285
▁Bitcoin	-11.6285
▁Supreme	-11.6285
▁currency	-11.6285
▁자원봉사	-11.6285
둬	-11.6285
윙	-11.6285
▁injuries	-11.6285
▁리조트	-11.6286
▁Club	-11.6286
▁serving	-11.6286
▁ensure	-11.6286
▁좌우	-11.6286
▁렌즈	-11.6286
▁Islamic	-11.6287
▁있으시면	-11.6287
LL	-11.6287
▁하와이	-11.6287
▁사랑합니다	-11.6288
▁논리	-11.6288
▁실례합니다	-11.6288
▁받아서	-11.6288
▁적당한	-11.6289
▁hitting	-11.6297
▁지혜	-11.6297
▁tries	-11.6298
▁과자	-11.6299
▁captured	-11.63
▁있길	-11.6303
Forms	-11.6303
position	-11.6306
▁passes	-11.6306
▁시원한	-11.6311
▁꺼내	-11.6313
▁구두	-11.6314
분들	-11.6315
▁복구	-11.632
NC	-11.6324
▁로비	-11.6327
슬리	-11.6327
▁citizen	-11.6328
▁찾아볼	-11.633
▁깨어	-11.6335
▁있는데요	-11.6336
앱	-11.6337
▁써야	-11.6342
▁흔들리	-11.6342
해온	-11.6348
▁Mer	-11.6348
▁나와서	-11.6349
▁일제	-11.635
▁cow	-11.6351
▁뛰어나	-11.6356
인데요	-11.6357
나갔다	-11.636
맙	-11.6364
▁폴란드	-11.6364
껴	-11.6364
▁Shanghai	-11.6364
▁choosing	-11.6364
▁밝히지	-11.6364
랫	-11.6364
▁funeral	-11.6364
▁눌러	-11.6364
▁prompt	-11.6364
▁빼앗	-11.6364
▁드러냈다	-11.6364
▁협조	-11.6364
▁championship	-11.6364
보좌관	-11.6364
▁aimed	-11.6365
▁Local	-11.6365
▁슬퍼	-11.6366
▁보내주시기	-11.6367
▁행정부	-11.6367
▁살아남	-11.6369
▁청구서	-11.6371
▁편안하게	-11.6372
▁연애	-11.6373
▁format	-11.6374
▁포스트	-11.6379
zar	-11.638
▁많아지	-11.6381
▁한꺼	-11.6382
▁부근	-11.6384
전문	-11.6387
천명	-11.6396
▁강요	-11.6397
▁introduc	-11.6399
하진	-11.6399
▁Aren	-11.64
않	-11.6403
▁보내기	-11.6406
▁취한	-11.6406
▁변하지	-11.641
▁않았는데	-11.641
ien	-11.6411
▁Gun	-11.6412
▁날개	-11.6414
▁본사	-11.642
Ba	-11.643
▁referr	-11.6433
▁서식	-11.6433
▁elder	-11.6434
▁dressed	-11.6436
▁Sch	-11.6437
주택	-11.6439
퀴	-11.6439
▁드라이	-11.6442
▁Liverpool	-11.6442
▁Welcome	-11.6442
▁absolute	-11.6442
▁competitor	-11.6442
▁dirty	-11.6442
▁numerous	-11.6442
▁relief	-11.6442
갚	-11.6442
쉐	-11.6442
씬	-11.6442
▁Square	-11.6442
▁UAE	-11.6442
▁agenda	-11.6442
▁재활용	-11.6442
▁자부심	-11.6442
▁wanna	-11.6442
▁유사한	-11.6443
▁납부	-11.6443
▁Anyway	-11.6444
▁환승	-11.6445
▁머무르	-11.6445
▁aunt	-11.6445
주실래요	-11.6448
▁남쪽	-11.6449
▁declared	-11.6449
▁Someone	-11.6449
▁scenery	-11.645
▁교류	-11.6451
▁확실하게	-11.6453
▁누나	-11.6456
▁highway	-11.6456
해보겠습니다	-11.6458
▁느끼지	-11.6461
▁매진	-11.6462
▁만들어야	-11.6462
▁spec	-11.6466
▁시위대	-11.6467
▁공개한	-11.6469
▁Bento	-11.6469
aving	-11.647
▁Boy	-11.6473
큼	-11.6473
▁유력	-11.6473
▁Bay	-11.6475
▁살면서	-11.6475
▁국가들	-11.6476
holder	-11.6481
▁Jan	-11.6481
▁인생에서	-11.6484
▁imported	-11.6487
▁언급한	-11.6493
ette	-11.6497
▁불리	-11.6498
스포츠	-11.65
모델	-11.6508
▁생기면	-11.6509
▁믿는	-11.6512
▁적절	-11.6512
▁걸음	-11.6514
랍	-11.6517
웠어요	-11.652
▁Academy	-11.6522
▁Assembly	-11.6522
▁babies	-11.6522
▁consumption	-11.6522
▁parliament	-11.6522
▁sacrifice	-11.6522
▁훼손	-11.6522
▁Queen	-11.6522
▁fulfill	-11.6522
▁immigrant	-11.6522
▁animation	-11.6522
▁사우디	-11.6522
▁neighborhood	-11.6522
▁끌어올	-11.6523
▁신부	-11.6523
▁비중이	-11.6523
▁알려주시기	-11.6524
▁연휴	-11.6525
▁결합	-11.6527
▁체력	-11.6528
▁yen	-11.6528
▁있겠습니다	-11.6529
▁readers	-11.6531
▁사용하면	-11.6533
enc	-11.6535
▁필요하지	-11.6536
▁endless	-11.6539
▁알았어요	-11.6539
▁알았습니다	-11.654
▁사로잡는	-11.6541
▁목요일에	-11.6542
물질	-11.6543
으실	-11.6546
▁방어	-11.6546
천여	-11.6547
▁때때로	-11.6548
bum	-11.6551
▁suggestion	-11.6554
▁Lin	-11.6554
▁neighbor	-11.6556
rick	-11.6557
▁shoe	-11.6558
▁성장할	-11.6559
▁가게에서	-11.6562
bur	-11.6573
능력	-11.6573
였고	-11.6576
투자	-11.6578
▁느껴지는	-11.6578
▁평가했다	-11.6579
▁사용되는	-11.6579
▁진화	-11.6581
▁벌어진	-11.6583
▁accus	-11.6586
경찰	-11.6588
▁독자	-11.6598
▁복사	-11.66
▁dye	-11.66
킥	-11.6602
▁overwhelm	-11.6602
▁브렉시트	-11.6602
▁Zealand	-11.6602
▁disturb	-11.6602
▁primary	-11.6602
▁오토바이	-11.6602
▁컨테이너	-11.6602
▁프로모션	-11.6602
▁boast	-11.6602
▁힙합	-11.6602
▁inquiry	-11.6602
▁흥행	-11.6602
▁Gangwon	-11.6602
▁도지사	-11.6603
▁elected	-11.6603
▁라벨	-11.6603
▁착각	-11.6605
▁빼고	-11.6608
▁격차	-11.6609
▁jam	-11.6611
berg	-11.6616
▁공동체	-11.6618
▁누구보다	-11.6619
▁뒤집	-11.6621
▁조용	-11.6621
되었나요	-11.6621
▁너희들	-11.6621
▁조용한	-11.6623
▁드러	-11.6624
▁알았어	-11.6627
▁일어나고	-11.6628
▁레이스	-11.663
▁pulled	-11.6632
▁이어지는	-11.6632
▁Given	-11.6633
하셨나요	-11.6633
▁유저	-11.6634
▁경고했다	-11.6635
받았어	-11.6642
개씩	-11.6647
▁시도해	-11.6654
▁OK	-11.6658
▁청소년들	-11.6661
해보는	-11.6663
잘	-11.6668
▁아이스	-11.6671
▁정체	-11.6672
▁광장	-11.6672
▁보내주실	-11.6674
scribe	-11.6681
▁진행된다	-11.6682
잭	-11.6682
▁OLED	-11.6682
▁prosecutor	-11.6682
▁religion	-11.6682
▁인테리어	-11.6682
갓	-11.6682
UEFA	-11.6682
▁enhance	-11.6682
▁틀림없	-11.6682
▁Store	-11.6682
▁십자가	-11.6682
▁burst	-11.6683
▁증언	-11.6683
▁Hanbok	-11.6683
▁permission	-11.6683
뱅크	-11.6683
▁먹어도	-11.6685
▁massive	-11.6685
▁짜증	-11.6685
▁욕구	-11.6685
▁chew	-11.6685
▁pipe	-11.6686
▁pace	-11.6687
▁searching	-11.6687
▁shortly	-11.6688
▁편견	-11.6688
▁거짓	-11.6689
▁그러는데	-11.6689
▁Paulo	-11.669
▁protection	-11.6692
▁명예	-11.6692
▁정착	-11.6693
▁심판	-11.6695
▁급한	-11.6698
▁학대	-11.6702
▁offering	-11.6707
▁기억하고	-11.6708
arian	-11.6716
▁상대적	-11.6716
▁비난했다	-11.6718
▁강사	-11.672
▁우정	-11.672
▁일어나지	-11.6724
▁metal	-11.6726
▁줄여	-11.6736
▁Card	-11.6741
▁직전	-11.6743
▁상호	-11.6743
리즘	-11.6745
▁discover	-11.6747
▁Hang	-11.6747
동물	-11.6748
▁수준으로	-11.6749
▁모드	-11.675
▁즐기고	-11.6752
▁fewer	-11.6753
▁고대	-11.6754
▁Force	-11.6754
▁서서	-11.6756
▁예비	-11.6756
닮	-11.6757
pu	-11.6759
로이드	-11.676
넥	-11.6764
▁Museum	-11.6764
▁closing	-11.6764
▁evaluation	-11.6764
▁lawsuit	-11.6764
▁꼼꼼	-11.6764
▁네덜란드	-11.6764
▁폼페이오	-11.6764
벅	-11.6764
▁somewhat	-11.6764
▁갖춰	-11.6764
▁Gwang	-11.6766
▁realistic	-11.6766
▁쿠키	-11.6766
▁캐나다에서	-11.6767
jang	-11.6768
▁때문이라고	-11.6772
KO	-11.6772
▁길거리	-11.6774
▁마침	-11.6776
▁남긴	-11.6776
▁collapsed	-11.6778
님께	-11.6782
▁적합한	-11.6783
▁싫어요	-11.679
코리아	-11.6793
▁뜻이다	-11.6796
▁맞는지	-11.6797
▁아니기	-11.6801
▁proved	-11.6801
▁expense	-11.6802
▁기운	-11.6805
▁늘어나고	-11.6812
▁Ly	-11.6813
PM	-11.682
▁새우	-11.682
▁일치	-11.6823
▁안내해	-11.6824
▁경주	-11.6828
오늘	-11.6841
▁신나	-11.6841
무장관	-11.6845
▁awesome	-11.6846
▁participating	-11.6846
▁기쁘게	-11.6846
▁어쨌든	-11.6846
▁점유율	-11.6846
▁apology	-11.6846
▁대법원	-11.6846
▁loose	-11.6846
▁greed	-11.6846
▁원피스	-11.6846
▁해산물	-11.6846
▁flash	-11.6846
▁spark	-11.6846
▁costume	-11.6846
▁signature	-11.6846
▁restrict	-11.6847
▁indoor	-11.6847
▁distribution	-11.6847
▁workshop	-11.6848
▁Night	-11.6849
▁본선	-11.685
▁오피스	-11.6851
Mart	-11.6852
해주기	-11.6853
▁대접	-11.6856
▁repeatedly	-11.6856
▁지낼	-11.6858
▁물건들	-11.6859
▁대안	-11.6862
▁저쪽	-11.6863
char	-11.6865
▁그러던	-11.6868
▁아우	-11.6875
졌으며	-11.6875
▁어떤가요	-11.6878
▁시간대	-11.6879
▁부자	-11.688
▁cheered	-11.6886
빠	-11.6892
해봐	-11.6897
▁돌아와	-11.6902
open	-11.6902
▁none	-11.6903
▁밝혔	-11.6903
▁지나지	-11.6905
▁동부	-11.6906
▁갔었	-11.6909
해졌	-11.6912
▁collapse	-11.6913
▁서부	-11.6914
▁근처에서	-11.692
▁곳입니다	-11.692
count	-11.692
▁물량	-11.6923
▁인정받	-11.6925
옛	-11.6928
▁concrete	-11.6928
▁junior	-11.6928
▁게스트하우스	-11.6928
▁깜빡	-11.6928
▁사각지대	-11.6928
〉	-11.6928
뭇	-11.6928
툼	-11.6928
핫	-11.6928
▁recipe	-11.6928
렐	-11.6928
▁Airlines	-11.6928
▁blessing	-11.6928
▁cried	-11.6928
▁pump	-11.6928
▁찾아오	-11.6928
▁Hana	-11.6928
▁pledge	-11.6929
western	-11.6929
▁의뢰	-11.693
▁돌아다니	-11.693
▁프로필	-11.693
▁타면	-11.6931
▁colon	-11.6931
▁교황	-11.6932
▁견해	-11.6932
▁골목	-11.6932
되거나	-11.6936
▁인재	-11.6938
▁유지하고	-11.6938
▁combined	-11.694
봤다	-11.6943
▁Roman	-11.6945
아시아	-11.6945
▁VR	-11.6945
▁음원	-11.6949
▁포토	-11.695
▁갈색	-11.6952
▁무엇이든	-11.6959
▁USB	-11.6959
해드릴게요	-11.696
▁걸리지	-11.6961
▁burning	-11.6965
▁게시물	-11.6968
▁증가했다	-11.6972
공항	-11.6976
▁타자	-11.6979
ada	-11.698
yun	-11.6983
▁packing	-11.6983
▁나갔	-11.6983
arious	-11.6985
▁historical	-11.6987
▁주류	-11.6992
▁reject	-11.6994
▁외국인들	-11.7
방식	-11.7002
닌	-11.7003
▁Reg	-11.7003
▁inspect	-11.7009
▁entertain	-11.701
뮤	-11.701
À	-11.7012
▁Afghan	-11.7012
▁Microsoft	-11.7012
▁Premier	-11.7012
▁stuck	-11.7012
▁바르셀로나	-11.7012
▁보여줬다	-11.7012
▁즐거워	-11.7012
▁포르투갈	-11.7012
▁prospect	-11.7012
▁무서워	-11.7012
▁유니폼	-11.7012
▁engage	-11.7012
▁giant	-11.7012
▁comfortably	-11.7012
▁감자	-11.7012
▁resist	-11.7013
▁legend	-11.7013
▁엄격	-11.7013
▁classroom	-11.7015
friendly	-11.7015
▁차원에서	-11.7016
▁먹어보	-11.7016
▁affection	-11.7017
개소	-11.7019
bok	-11.7019
▁처방	-11.702
▁양측	-11.702
▁spare	-11.7021
▁인지도	-11.7027
▁송장	-11.7029
▁치유	-11.7029
이젠	-11.7032
DR	-11.7032
▁Tim	-11.7034
She	-11.7034
▁사랑받	-11.7034
▁구현	-11.7035
▁rescued	-11.7037
단계	-11.7037
▁않을까요	-11.7043
▁우리나라에서	-11.7044
▁Rock	-11.7045
▁organize	-11.7045
▁마이크로	-11.7046
Cha	-11.7051
▁기대한다	-11.7053
For	-11.7059
▁rainy	-11.7061
▁느낀	-11.7065
▁농장	-11.7067
▁연령	-11.7067
▁말해주	-11.7068
▁사랑한다	-11.7069
▁destroy	-11.7077
▁consume	-11.7093
▁defender	-11.7095
▁anxiety	-11.7096
▁맨체스터	-11.7096
흠	-11.7096
▁depressed	-11.7096
▁gentle	-11.7096
▁온종일	-11.7096
▁personnel	-11.7096
▁여객기	-11.7096
▁seminar	-11.7096
▁desert	-11.7096
▁buck	-11.7096
매치	-11.7096
▁assume	-11.7097
▁NBA	-11.7098
▁clip	-11.7098
▁Byung	-11.7099
▁빌릴	-11.7099
▁알려주시면	-11.7099
▁모르지만	-11.7102
▁좋으	-11.7102
▁swing	-11.7103
▁바래요	-11.7104
▁진열	-11.7104
▁생생	-11.7104
▁찍을	-11.7105
▁Kyo	-11.7105
▁산불	-11.7105
▁소속사	-11.7106
▁따뜻하게	-11.7106
▁layer	-11.7107
▁밀려	-11.7108
▁붙어	-11.7109
▁잠들	-11.711
▁Val	-11.711
▁조립	-11.7114
본부	-11.7116
마르	-11.7118
▁Sever	-11.7122
▁Stra	-11.7125
티스	-11.7127
▁용어	-11.7132
식품	-11.7133
▁API	-11.7138
▁보이기	-11.7147
▁느꼈다	-11.7148
eum	-11.7148
▁기상	-11.7151
band	-11.7151
La	-11.7152
▁가동	-11.7155
스텔	-11.7161
▁책임감	-11.7165
catching	-11.7168
▁본격적	-11.7169
▁원단	-11.717
▁constant	-11.7172
▁향수	-11.7175
융	-11.7178
▁활용해	-11.7179
⁄	-11.718
▁Argentina	-11.718
▁Defense	-11.718
▁Hawaii	-11.718
▁apparent	-11.718
▁appointed	-11.718
▁assignment	-11.718
▁equipped	-11.718
렘	-11.718
삐	-11.718
▁Chuseok	-11.718
▁하느님	-11.7181
▁carrier	-11.7181
해주시고	-11.7181
▁좋겠네요	-11.7183
▁자격증	-11.7183
▁계열	-11.7183
▁북쪽	-11.7183
이신가요	-11.7184
▁여왕	-11.7186
묵	-11.7186
▁대통령에게	-11.7186
▁사촌	-11.7188
▁hike	-11.7188
▁aims	-11.7188
▁얼마인가요	-11.7189
▁누구인지	-11.7189
▁인터	-11.7189
▁몰래	-11.719
▁새겨	-11.7192
MB	-11.7195
▁하나씩	-11.7197
▁식량	-11.7201
▁시트	-11.7202
▁요리사	-11.7203
계약	-11.7204
▁재발	-11.7206
▁있음	-11.721
▁사이트에서	-11.7216
장애	-11.7225
▁쓰기	-11.7236
Mi	-11.7238
▁분량	-11.7242
▁어떠	-11.7244
uni	-11.7248
자료	-11.7256
▁증가하고	-11.7262
쇠	-11.7265
▁투자자	-11.7265
훔	-11.7266
▁Colombia	-11.7266
▁celebrity	-11.7266
▁surpass	-11.7266
▁서둘러	-11.7266
▁성폭행	-11.7266
▁affair	-11.7266
▁flew	-11.7266
▁캠핑	-11.7266
▁visible	-11.7266
▁harsh	-11.7266
▁barrier	-11.7266
▁귀엽	-11.7267
▁빌딩	-11.7267
▁나눌	-11.7268
못	-11.7269
▁급속	-11.727
▁jet	-11.727
▁가죽	-11.727
▁돌아온	-11.7271
넘	-11.7271
level	-11.7273
▁Bae	-11.7273
소득	-11.7275
▁타야	-11.7278
▁Travel	-11.7278
▁발목	-11.7279
▁kindness	-11.7279
▁초래	-11.7279
▁emerged	-11.728
▁군데	-11.7281
▁궁금해요	-11.7283
▁independence	-11.7286
▁Week	-11.7288
▁다치	-11.729
느라	-11.729
▁greatest	-11.7292
시험	-11.7306
▁Anna	-11.7308
▁높아지	-11.7314
▁행복합니다	-11.732
▁생각하면	-11.732
▁지불해야	-11.7321
▁소장	-11.7325
▁trans	-11.7329
브루	-11.7335
▁내일까지	-11.7335
▁broadcasting	-11.7339
▁전설	-11.734
▁노트	-11.7343
▁Moo	-11.7343
▁도착하면	-11.7347
셜	-11.735
아메리카	-11.7352
▁JTBC	-11.7352
▁토마토	-11.7352
꼴	-11.7352
짚	-11.7352
쩍	-11.7352
찜	-11.7352
▁conservative	-11.7352
▁exercising	-11.7352
▁helicopter	-11.7352
▁improving	-11.7352
▁powder	-11.7352
▁finance	-11.7352
킵니다	-11.7352
▁warrant	-11.7352
▁지니고	-11.7353
▁아픔	-11.7353
▁Power	-11.7353
friend	-11.7354
▁electricity	-11.7354
▁uncle	-11.7354
스러웠	-11.7355
▁laughter	-11.7357
▁압력	-11.7358
▁workplace	-11.7359
▁Sky	-11.7359
▁보존	-11.7359
▁어찌	-11.7359
▁평양	-11.7362
▁사랑스러운	-11.7363
▁주문했는데	-11.7365
▁싶었습니다	-11.7367
할까요	-11.7367
▁유지할	-11.7368
여성	-11.737
▁농구	-11.7371
▁실시한	-11.7371
▁broadcaster	-11.7374
▁녹음	-11.7374
But	-11.7374
▁점포	-11.7375
▁말해주세요	-11.7378
GE	-11.738
▁간직	-11.738
▁나쁘지	-11.7381
니깐	-11.7382
▁느낀다	-11.7384
▁manufacturer	-11.7384
▁pushing	-11.7389
▁구워	-11.7392
poli	-11.7395
투표	-11.7399
자금	-11.7403
하듯	-11.7406
▁돌보	-11.7408
tric	-11.7411
▁사무실에서	-11.7413
▁누군가에게	-11.7414
▁확인됐다	-11.7418
▁매력적인	-11.7425
▁rapid	-11.7432
degree	-11.7435
itis	-11.7436
▁Rain	-11.7438
▁Angel	-11.7438
탱	-11.7439
▁갤러리	-11.7439
춥	-11.7439
▁Nowadays	-11.7439
▁automatically	-11.7439
▁elementary	-11.7439
▁encounter	-11.7439
▁purchasing	-11.7439
▁religious	-11.7439
▁아프가니스탄	-11.7439
팁	-11.7439
▁innocent	-11.7439
▁거뒀다	-11.7439
▁eager	-11.7439
▁urban	-11.7439
▁opposite	-11.7439
depth	-11.744
▁토끼	-11.7441
▁division	-11.7441
▁있느냐	-11.7442
▁Coach	-11.7442
했으니	-11.7443
▁멀티	-11.7445
깨	-11.7445
▁나오면	-11.7445
▁긴장감	-11.7449
▁bitter	-11.7451
bar	-11.7452
▁잔디	-11.7452
▁간단히	-11.7453
▁Amid	-11.7454
▁그러기	-11.7455
전쟁	-11.746
그램	-11.7461
FA	-11.7463
트레이	-11.7469
▁closest	-11.747
type	-11.7471
▁jumped	-11.7474
▁외식	-11.7476
▁급여	-11.7477
▁않으려	-11.7478
▁총선	-11.748
검사	-11.748
▁Creat	-11.7487
▁생각해보	-11.7488
금액	-11.7489
▁수상했다	-11.7501
▁일행	-11.7502
▁입사	-11.7512
▁등장하는	-11.7518
▁Sub	-11.7519
엇	-11.7525
숍	-11.7527
▁Moscow	-11.7527
▁anxious	-11.7527
▁supplies	-11.7527
▁스타벅스	-11.7527
▁컨디션	-11.7527
▁펼쳤다	-11.7527
콧	-11.7527
핏	-11.7527
▁absent	-11.7527
▁vocal	-11.7527
▁슬픈	-11.7527
▁native	-11.7527
▁fought	-11.7528
▁밝혀지지	-11.7528
▁speculat	-11.7528
▁수비수	-11.7528
▁죄송해요	-11.753
▁리뷰	-11.753
▁대목이	-11.7531
▁dying	-11.7532
▁Team	-11.7532
▁지난번	-11.7534
▁cutting	-11.7536
▁briefly	-11.7538
▁confirmation	-11.7538
China	-11.754
클럽	-11.7541
▁움직일	-11.7541
▁이룬	-11.7541
▁부채	-11.7541
▁주문하신	-11.7542
ike	-11.7542
▁Wait	-11.7543
▁동전	-11.7544
▁반환	-11.7545
▁고유	-11.7545
시리즈	-11.7546
▁comedy	-11.7546
▁Soon	-11.7548
▁portion	-11.7549
▁regional	-11.7552
▁복제	-11.7555
▁음료수	-11.7561
▁소형	-11.7561
▁다녀오	-11.7566
공간	-11.7568
▁Rep	-11.7568
▁주고받	-11.7569
▁나오기	-11.7574
▁linked	-11.758
달라는	-11.758
▁Joon	-11.7587
▁촉구	-11.7601
▁민간인	-11.7603
▁differ	-11.7614
▁Dubai	-11.7615
▁pencil	-11.7615
▁possess	-11.7615
▁romance	-11.7615
▁veteran	-11.7615
▁신종플루	-11.7615
굿	-11.7615
푼	-11.7615
▁Health	-11.7615
▁blanket	-11.7616
▁Peace	-11.7616
▁Chief	-11.7616
▁skirt	-11.7616
▁자칫	-11.7616
▁pension	-11.7617
RT	-11.7617
한국시간	-11.7618
▁야생	-11.7618
▁Seven	-11.762
▁슬프	-11.7623
▁부활	-11.7624
▁중학교	-11.7625
▁terrorist	-11.7626
▁적립	-11.7629
▁도심	-11.7631
▁친절하게	-11.7632
▁bake	-11.7633
사이트	-11.7634
▁exception	-11.7634
▁기자회견에서	-11.7638
▁yes	-11.764
▁compare	-11.7641
heel	-11.7642
▁희망합니다	-11.7642
▁문제들	-11.7643
▁입양	-11.7645
▁유출	-11.7645
ata	-11.7648
LB	-11.7649
▁싶다면	-11.765
RM	-11.7653
▁부상자	-11.7654
받았다	-11.7657
으시면	-11.7659
▁정직	-11.7663
▁존재하지	-11.7668
▁weapon	-11.7669
▁displayed	-11.767
▁사형	-11.7682
▁기르	-11.7689
▁delete	-11.769
▁향기	-11.7691
▁소감	-11.7696
쳤어요	-11.7696
크림	-11.7697
타워	-11.7699
▁차분	-11.7702
▁사진들	-11.7703
▁casual	-11.7704
놔	-11.7704
ibility	-11.7704
▁aggressive	-11.7704
▁뒷받침	-11.7704
▁머릿속	-11.7704
▁유나이티드	-11.7704
놈	-11.7704
뱀	-11.7704
붓	-11.7704
헐	-11.7704
▁rebound	-11.7705
▁프린트	-11.7705
▁showcase	-11.7705
▁lobby	-11.7705
▁evil	-11.7705
▁첼시	-11.7706
▁자유로운	-11.7706
▁retirement	-11.7707
▁떨어졌다	-11.7707
▁열었다	-11.7709
▁합쳐	-11.7709
▁무섭	-11.771
▁급증	-11.7711
▁않습니까	-11.7711
▁늘리	-11.7712
▁영입	-11.7713
▁보람	-11.7713
▁입술	-11.7713
▁느껴지	-11.7715
▁필자	-11.7718
▁연말	-11.7718
▁유권자	-11.7718
▁foreigner	-11.7722
▁거래소	-11.7723
▁endure	-11.7723
CEO	-11.7725
▁지도자들	-11.7726
direct	-11.7727
▁아티스트들	-11.7728
▁바위	-11.7732
▁한국말	-11.7734
▁완전한	-11.7734
▁exceeded	-11.7735
▁지상	-11.7735
▁강연	-11.7736
▁피터	-11.7736
▁아닌데	-11.7738
▁단단	-11.774
▁거울	-11.7746
▁positively	-11.775
▁contained	-11.7752
▁침해	-11.7755
▁cab	-11.7756
▁역량	-11.7758
▁온전	-11.7758
▁particularly	-11.7761
▁세웠	-11.7762
▁soldier	-11.7762
▁중요하지	-11.7768
▁임기	-11.7774
▁좋아지	-11.7775
▁emerge	-11.778
봐요	-11.7783
▁나란	-11.7788
▁홍수	-11.779
템	-11.7794
셉	-11.7795
▁Article	-11.7795
▁Starbucks	-11.7795
▁compensation	-11.7795
▁continuing	-11.7795
▁explosive	-11.7795
▁recession	-11.7795
▁시나리오	-11.7795
▁알다시피	-11.7795
킴	-11.7795
▁scandal	-11.7795
▁뿌듯	-11.7795
▁에이전트	-11.7795
▁곧바로	-11.7795
▁교통사고	-11.7795
▁Sports	-11.7795
▁outcome	-11.7795
▁하마스	-11.7795
▁야채	-11.7796
▁Turn	-11.7796
▁푸른	-11.7796
▁빛나는	-11.7797
▁mature	-11.7797
▁wooden	-11.7797
▁Light	-11.7797
▁친척	-11.7798
▁잡혀	-11.78
lined	-11.7801
▁Martin	-11.7801
▁적혀	-11.7802
▁Long	-11.7802
▁명백	-11.7804
▁성숙	-11.7805
▁통역	-11.7807
▁인하	-11.7808
▁선출	-11.7814
▁arranged	-11.7814
▁고무	-11.7815
대통령	-11.7818
▁Ever	-11.7819
▁보겠습니다	-11.7819
▁사물	-11.7822
▁defeated	-11.7824
▁한참	-11.7824
보험	-11.7826
▁자사	-11.783
▁ruled	-11.7832
▁개발자	-11.784
▁철학	-11.7845
▁가보고	-11.7845
▁들어가서	-11.7854
장치	-11.7858
▁practiced	-11.786
▁involve	-11.7871
▁방송된	-11.7876
▁stat	-11.7877
▁추정되	-11.788
▁주행	-11.7881
▁fundamental	-11.7885
퉁	-11.7885
▁brush	-11.7886
▁council	-11.7886
▁emerging	-11.7886
▁intelligence	-11.7886
▁laundry	-11.7886
▁miracle	-11.7886
▁pregnant	-11.7886
▁걸렸다	-11.7886
▁안타깝게	-11.7886
▁FBI	-11.7886
▁Kevin	-11.7886
▁예뻐	-11.7886
▁midnight	-11.7886
▁stir	-11.7887
▁항공편	-11.7888
▁interact	-11.7888
▁thoroughly	-11.7889
▁carbon	-11.7889
▁사용해요	-11.7891
▁토대로	-11.7894
하였으며	-11.7896
▁nobody	-11.7897
ounce	-11.7897
bun	-11.7897
▁punished	-11.7898
▁풍성	-11.7898
▁여행객	-11.7899
▁Fair	-11.7901
▁네티즌	-11.7901
▁맞았	-11.7901
▁Really	-11.7911
프로그램	-11.7913
duct	-11.7913
▁crashed	-11.7915
▁맞춰서	-11.7915
▁급하게	-11.792
▁보았다	-11.7922
▁logic	-11.7926
뿐이야	-11.7928
▁보이는데	-11.7937
발전	-11.7938
▁필요성	-11.7939
▁bombing	-11.7939
모든	-11.7942
▁tradition	-11.7943
▁먼지	-11.7951
▁Chu	-11.7952
▁voted	-11.7955
▁printing	-11.7958
▁공통	-11.7964
득점	-11.7964
▁출력	-11.7966
▁적합	-11.7969
▁teenage	-11.7976
▁Jakarta	-11.7977
▁생태계	-11.7977
▁셔틀버스	-11.7977
▁자카르타	-11.7977
▁초등학교	-11.7977
릉	-11.7977
햇	-11.7977
Pacific	-11.7977
▁frozen	-11.7977
▁kilometers	-11.7977
▁motorcycle	-11.7977
▁sustain	-11.7977
엿	-11.7977
▁absence	-11.7977
▁drone	-11.7977
▁Smart	-11.7977
▁어딘가	-11.7977
▁admire	-11.7977
▁설문조사	-11.7977
▁반도체	-11.7977
▁postpone	-11.7978
▁마땅	-11.7978
▁stance	-11.7978
▁spray	-11.7978
▁아이콘	-11.798
▁크리스티	-11.798
▁shine	-11.7981
pho	-11.7982
▁채택	-11.7982
▁bold	-11.7985
▁suspended	-11.7989
zu	-11.799
▁기뻐요	-11.7992
▁노력하겠습니다	-11.7992
▁sharply	-11.7993
▁고래	-11.7993
OO	-11.7995
▁도와드릴	-11.8001
▁effectively	-11.8003
▁dramatic	-11.8007
예술	-11.8007
꼬	-11.8007
웃	-11.8014
▁크지	-11.8023
했었어	-11.8025
▁Vol	-11.8028
있긴	-11.8036
▁reflected	-11.8036
▁응답자	-11.8039
나이트	-11.8047
▁Ear	-11.8048
페이지	-11.805
▁refuse	-11.8051
밴	-11.806
섯	-11.8064
▁commit	-11.8064
쏠	-11.8066
첼	-11.8068
▁꾸준	-11.8069
섹	-11.807
▁떨어뜨	-11.807
denuclearization	-11.807
▁external	-11.807
▁neglect	-11.807
딕	-11.807
버렸습니	-11.807
버렸어요	-11.807
▁sentiment	-11.807
▁stairs	-11.807
Friend	-11.807
▁plug	-11.807
▁banned	-11.807
▁빌보드	-11.8071
▁특이한	-11.8071
▁textbook	-11.8071
▁담겨있다	-11.8071
▁인턴	-11.8071
▁무렵	-11.8072
▁필름	-11.8072
▁illness	-11.8072
▁지붕	-11.8072
▁쏠리	-11.8074
▁말씀하신	-11.8076
▁응급	-11.8077
▁designated	-11.808
▁활기	-11.8081
▁천국	-11.8081
▁threatened	-11.8083
▁Book	-11.8089
▁annually	-11.809
▁취할	-11.8091
▁Top	-11.8093
▁영원	-11.8098
넣	-11.8098
story	-11.8102
▁다음달	-11.8103
▁조카	-11.8106
SH	-11.8108
됐는지	-11.8109
App	-11.8109
▁대금	-11.811
하더라도	-11.8112
▁찾았다	-11.8114
EST	-11.812
▁Lake	-11.8133
▁갖다	-11.8134
봤어요	-11.8134
머스	-11.8149
UN	-11.8151
▁개입	-11.8157
ultural	-11.8163
방울	-11.8163
▁Chelsea	-11.8163
▁Richard	-11.8163
▁envy	-11.8163
▁graduation	-11.8163
▁occasion	-11.8163
▁patience	-11.8163
▁골키퍼	-11.8163
긍	-11.8163
싹	-11.8163
찔	-11.8163
툰	-11.8163
▁merchant	-11.8163
▁말하자면	-11.8163
▁느낍니	-11.8163
▁무서운	-11.8163
▁headache	-11.8163
▁빅뱅	-11.8163
위원장	-11.8163
▁언덕	-11.8163
EU	-11.8165
▁패널	-11.8165
▁icon	-11.8165
▁로켓	-11.8165
▁말씀하시는	-11.8166
됐는데	-11.8166
▁불쾌	-11.8167
▁헬기	-11.8167
▁cave	-11.8167
jong	-11.8167
▁scan	-11.817
▁저항	-11.8171
▁없으며	-11.8172
▁거둔	-11.8172
▁갈게요	-11.8174
▁Woods	-11.8177
▁행정	-11.8179
▁전통적인	-11.8182
▁용량	-11.8192
▁justice	-11.8193
▁pity	-11.8196
▁relaxed	-11.8203
▁힘들게	-11.8204
▁painted	-11.8204
▁당연한	-11.8205
▁secur	-11.8208
▁Shim	-11.8208
▁절감	-11.821
▁구간	-11.8211
aki	-11.8215
▁건네	-11.8218
▁감수	-11.8218
▁여정	-11.8219
자로서	-11.8232
▁올라오	-11.8244
aid	-11.8253
BB	-11.8255
▁리드	-11.8256
▁Islam	-11.8257
▁당당	-11.8257
▁Austria	-11.8258
▁오스트리아	-11.8258
▁Attention	-11.8258
▁Champions	-11.8258
▁buried	-11.8258
▁calculate	-11.8258
▁fantastic	-11.8258
▁featuring	-11.8258
▁happier	-11.8258
▁royal	-11.8258
▁steady	-11.8258
▁unfamiliar	-11.8258
▁대선후보	-11.8258
▁로맨스	-11.8258
▁인공지능	-11.8258
읍	-11.8258
▁Winter	-11.8258
▁beverage	-11.8258
▁랭킹	-11.8258
▁steal	-11.8258
▁basketball	-11.8258
▁죄송한데	-11.8258
▁tomato	-11.8258
▁Style	-11.8258
▁Francisco	-11.8258
▁리더십	-11.8258
▁strip	-11.8258
▁Jones	-11.8259
▁Plus	-11.826
▁폭풍	-11.8261
▁artwork	-11.8261
▁반납	-11.8264
▁치명적	-11.8265
▁한국영화	-11.8265
▁천연	-11.8268
▁알려줘	-11.8272
▁Alex	-11.8276
▁distributed	-11.828
▁decreased	-11.828
▁outlet	-11.8282
▁해킹	-11.8287
▁별도로	-11.829
guk	-11.8291
eller	-11.8293
▁보기에는	-11.8295
빵	-11.8299
▁worsen	-11.8301
▁일부러	-11.8303
▁이용하면	-11.8303
▁climate	-11.8304
▁갔어	-11.831
▁보이며	-11.8311
▁Mur	-11.8318
하셔	-11.8322
▁Land	-11.8329
▁seal	-11.8333
▁걸립니	-11.834
▁있겠다	-11.8346
▁소음	-11.8349
뿌	-11.8351
▁중요성	-11.8352
▁모니터	-11.8352
깜	-11.8353
덧	-11.8353
▁Illinois	-11.8353
▁acquaintance	-11.8353
▁activist	-11.8353
▁agricultur	-11.8353
▁ecosystem	-11.8353
▁hamburger	-11.8353
▁neither	-11.8353
▁parcel	-11.8353
▁privacy	-11.8353
▁동성애	-11.8353
▁봅시다	-11.8353
▁부드럽게	-11.8353
▁분홍색	-11.8353
▁distinct	-11.8353
▁무거운	-11.8353
▁국방부	-11.8353
▁Word	-11.8353
▁solving	-11.8353
Á	-11.8353
▁침묵	-11.8353
▁크로스	-11.8353
▁어려웠	-11.8353
▁Joe	-11.8355
▁odd	-11.8356
▁twin	-11.8356
ivity	-11.8356
▁낮추	-11.8357
▁이른다	-11.8358
▁벌어지는	-11.8359
▁축소	-11.836
▁고령	-11.836
▁인종	-11.8361
▁환영합니다	-11.8362
▁사생활	-11.8365
▁비극	-11.8369
▁간격	-11.8371
▁두바이	-11.8371
▁alley	-11.8377
▁declined	-11.838
▁모집	-11.8381
▁상장	-11.8382
▁지지자들	-11.8384
▁신원	-11.8384
▁서양	-11.8387
▁소포	-11.8388
▁fighter	-11.839
▁wishes	-11.84
watch	-11.8401
▁보건	-11.8401
캠프	-11.8402
▁행복해요	-11.8403
▁존재한다	-11.8414
▁포함돼	-11.842
▁부리	-11.8432
pyeong	-11.8436
▁KakaoTalk	-11.8449
▁Pompeo	-11.8449
▁Tomorrow	-11.8449
▁knife	-11.8449
▁leather	-11.8449
▁pollution	-11.8449
▁stupid	-11.8449
▁translator	-11.8449
▁그렇죠	-11.8449
▁모스크바	-11.8449
▁샌드위치	-11.8449
툴	-11.8449
▁absorb	-11.8449
▁scratch	-11.8449
퀸	-11.8449
하시겠습니까	-11.8449
▁사운드	-11.8449
▁세미나	-11.8449
▁둘러싸	-11.8449
▁Army	-11.845
▁근본적	-11.8451
▁strap	-11.8451
▁awareness	-11.8451
▁자랑스럽	-11.8452
▁stolen	-11.8453
▁lifestyle	-11.8453
▁먹거리	-11.8455
▁닮았	-11.8457
▁드론	-11.8458
▁lips	-11.8459
▁전반적으로	-11.8459
▁Rice	-11.846
▁베스트	-11.846
▁알아봐	-11.8461
▁좋았어요	-11.8461
▁deny	-11.8462
▁quoted	-11.8462
▁nearest	-11.8464
▁공식적으로	-11.8464
▁매각	-11.8465
▁curve	-11.8467
▁출마	-11.8468
Tiger	-11.847
▁믿는다	-11.8478
▁처음부터	-11.8483
▁상황입니다	-11.8484
▁Chun	-11.8489
숨	-11.8495
load	-11.8505
Star	-11.8512
▁견적서	-11.8523
▁하나님께	-11.8525
▁tear	-11.8532
▁advertise	-11.8537
▁opera	-11.8542
▁방치	-11.8543
▁Jeolla	-11.8546
▁Security	-11.8546
▁Venezuela	-11.8546
▁contrast	-11.8546
▁depression	-11.8546
▁filter	-11.8546
▁nickname	-11.8546
▁statistics	-11.8546
▁뭔가요	-11.8546
▁heavily	-11.8546
▁cartoon	-11.8546
▁permit	-11.8546
바탕	-11.8548
▁unclear	-11.8549
▁gray	-11.8549
▁Compar	-11.8552
▁보내주시면	-11.8552
▁pounds	-11.8552
▁존스	-11.8554
▁bug	-11.8555
▁술집	-11.8555
▁Corp	-11.8556
▁Six	-11.8559
▁절실	-11.856
▁HD	-11.8561
▁체육	-11.8562
▁받습니다	-11.8564
▁시술	-11.8564
▁국물	-11.8564
▁오시면	-11.8565
▁적발	-11.8567
▁shocking	-11.8577
▁건축물	-11.8579
▁mono	-11.8583
▁터져	-11.8585
▁확률	-11.8586
▁플레이어	-11.8594
▁인디	-11.8615
shot	-11.8617
▁surround	-11.8623
▁꼬리	-11.8624
▁사임	-11.8626
▁떠났다	-11.8637
획	-11.864
롯	-11.8641
얀	-11.8642
▁Taekwondo	-11.8644
▁Usually	-11.8644
▁explode	-11.8644
▁explosion	-11.8644
▁federal	-11.8644
▁ministry	-11.8644
▁outstanding	-11.8644
▁participation	-11.8644
▁universities	-11.8644
▁로스앤젤레스	-11.8644
▁신분증	-11.8644
▁reliable	-11.8644
▁나타날	-11.8644
▁넥센	-11.8644
▁마닐라	-11.8644
▁enemy	-11.8644
▁margin	-11.8644
▁기쁘다	-11.8644
▁저지른	-11.8644
▁여기저기	-11.8644
▁웨스트	-11.8644
▁infant	-11.8644
▁sushi	-11.8644
▁진지하게	-11.8644
닷컴	-11.8644
▁헌신	-11.8644
▁도둑	-11.8645
▁폐기	-11.8645
▁정신적	-11.8645
▁species	-11.8645
▁프레임	-11.8645
▁기쁜	-11.8646
▁레벨	-11.8646
▁리포트	-11.8646
▁짐작	-11.8647
▁existence	-11.8647
▁secretary	-11.8647
▁야간	-11.8649
▁실업	-11.8649
▁classical	-11.8649
▁Jackal	-11.8651
▁이뤄질	-11.8652
▁집계됐다	-11.8652
▁말씀해주세요	-11.8652
▁Master	-11.8653
▁acid	-11.8654
▁얻었다	-11.8655
ttached	-11.866
▁시청률	-11.8661
▁투명	-11.8662
▁환자들	-11.8668
▁fate	-11.8669
었나요	-11.8671
▁하락세	-11.8679
▁분양	-11.8684
ister	-11.8686
▁전망했다	-11.869
▁다가가	-11.8693
▁spin	-11.8696
mission	-11.8696
▁요구했다	-11.8699
▁부모님께	-11.87
▁떠올리	-11.87
쥐	-11.8701
시스템	-11.8701
▁독서	-11.8706
▁Pen	-11.8711
▁드셔	-11.8714
ING	-11.8717
▁마련되어	-11.8718
stone	-11.8718
해주면	-11.8719
▁제공한다	-11.8721
▁divide	-11.8728
렵	-11.8739
멈	-11.8743
▁scream	-11.8743
▁중소기업	-11.8743
▁landscape	-11.8743
▁promoting	-11.8743
▁부통령	-11.8743
터미널	-11.8743
▁NATO	-11.8743
▁shelter	-11.8743
▁duties	-11.8743
▁Oscar	-11.8743
▁아파서	-11.8743
▁조종사	-11.8743
하므로	-11.8743
▁convert	-11.8744
▁semi	-11.8744
▁Labor	-11.8745
▁놓아	-11.8745
▁우울증	-11.8745
▁teaser	-11.8746
▁rocket	-11.8746
idi	-11.8747
▁OST	-11.8747
▁예정이며	-11.875
▁추후	-11.875
▁태워	-11.8752
▁somebody	-11.8752
▁불가능하다	-11.8755
▁대기업	-11.8755
했었는데	-11.8755
▁consideration	-11.8757
▁다양하게	-11.8761
▁resolved	-11.8763
▁urgently	-11.8764
트릭	-11.8766
▁hired	-11.8766
놓았다	-11.8767
▁가겠습니다	-11.8768
▁adopted	-11.8769
▁고문	-11.877
▁동행	-11.8772
▁침체	-11.8772
▁Phil	-11.8773
▁점심시간	-11.8775
▁달한다	-11.8778
축구	-11.878
▁각국	-11.8782
▁emotion	-11.8785
ography	-11.8792
▁설치된	-11.8798
ought	-11.88
설명	-11.8803
팬들	-11.8808
▁정기적	-11.8814
▁연구원	-11.8814
▁넣었	-11.8819
▁물어봤	-11.882
▁Mongolia	-11.8831
보았습니다	-11.8839
▁Associate	-11.8843
▁Carolina	-11.8843
▁Junior	-11.8843
▁arriving	-11.8843
▁chemical	-11.8843
▁controversial	-11.8843
▁shrimp	-11.8843
▁국무위원장	-11.8843
▁멈춰	-11.8843
▁메신저	-11.8843
▁크루즈	-11.8843
▁salmon	-11.8843
▁steel	-11.8843
▁nomination	-11.8843
▁스티븐	-11.8843
▁barely	-11.8843
▁cycle	-11.8843
▁Boston	-11.8843
▁civilians	-11.8843
▁믿습니다	-11.8844
▁무너지	-11.8844
▁앓고	-11.8844
▁IoT	-11.8844
▁KTX	-11.8845
▁식탁	-11.8845
▁목욕	-11.8846
▁하나하나	-11.8847
▁reverse	-11.8847
▁티저	-11.8848
▁복합	-11.8849
▁날카로	-11.885
▁격려	-11.885
high	-11.8852
▁끌었다	-11.8852
▁nut	-11.8853
▁도저	-11.8856
스쿨	-11.8863
▁oldest	-11.8863
▁시골	-11.8864
▁미술관	-11.8868
▁매번	-11.8871
▁중순	-11.8878
▁강타	-11.8883
▁greeting	-11.8883
▁책정	-11.8884
hye	-11.8904
▁곳곳에서	-11.891
었으나	-11.8913
호텔	-11.8913
▁lawmaker	-11.8922
▁행사장	-11.8932
bby	-11.8943
앗	-11.8944
▁Belgium	-11.8944
▁Official	-11.8944
▁accumulate	-11.8944
▁diamond	-11.8944
▁literally	-11.8944
▁recognition	-11.8944
▁routine	-11.8944
▁unfortunate	-11.8944
▁vivid	-11.8944
▁잃어버린	-11.8944
▁재밌게	-11.8944
횡	-11.8944
▁prohibit	-11.8944
▁스태프	-11.8944
▁ancient	-11.8944
▁motto	-11.8944
▁perfume	-11.8944
▁sincerity	-11.8944
▁촉촉	-11.8944
▁Daniel	-11.8944
▁혐오	-11.8944
▁무역전쟁	-11.8944
▁정거장	-11.8944
▁petition	-11.8945
▁어떠세요	-11.8945
kyung	-11.8946
▁불꽃	-11.8947
▁있겠지만	-11.8947
▁footage	-11.8948
▁mud	-11.8949
▁everybody	-11.8949
▁에릭	-11.895
▁치른	-11.8952
▁들어올	-11.8953
▁sorrow	-11.8954
▁도와주세요	-11.8955
▁abandoned	-11.8955
▁문학	-11.8956
▁고객사	-11.8957
▁Secondly	-11.8961
▁만났습니다	-11.8962
▁힘들어요	-11.8972
▁quietly	-11.8972
▁보증	-11.8973
wook	-11.8981
▁주름	-11.8986
관련	-11.8988
▁느껴졌	-11.8997
▁눈치	-11.9009
소프트	-11.901
하네	-11.902
▁정체성	-11.902
▁결과물	-11.902
▁cloth	-11.9022
fish	-11.9036
▁continuous	-11.9038
▁immediate	-11.9038
▁Mul	-11.9041
▁가져야	-11.9042
▁construct	-11.9045
▁expansion	-11.9046
▁inevitable	-11.9046
▁sandwich	-11.9046
▁ultimate	-11.9046
▁무슬림	-11.9046
▁스페셜	-11.9046
▁humor	-11.9046
▁햇빛	-11.9046
▁characteristics	-11.9046
▁냉장고	-11.9046
▁Royal	-11.9046
▁싶었다	-11.9047
▁Edward	-11.9047
▁일상생활	-11.9047
▁루이스	-11.9047
▁Auto	-11.9048
▁polite	-11.9048
▁Ohio	-11.9048
▁Kids	-11.9048
▁punishment	-11.9049
▁Golden	-11.9049
▁성관계	-11.905
▁arise	-11.905
그래	-11.9051
▁흉기	-11.9051
▁전망된다	-11.9051
▁branches	-11.9051
▁Water	-11.9052
해본다	-11.9056
▁없도록	-11.9056
▁인공	-11.9056
▁고난	-11.9058
▁돕기	-11.9058
▁세련	-11.9059
▁재판부	-11.9059
▁출하	-11.9068
▁경연	-11.9072
▁편이에요	-11.9083
▁fatal	-11.9084
▁생각했던	-11.9087
치료	-11.909
▁sink	-11.9095
joon	-11.9097
▁cheat	-11.9112
▁보내드리	-11.9116
▁여러분께	-11.9118
봄	-11.9127
캠	-11.9144
켈	-11.9147
폼	-11.9149
▁Bloomberg	-11.9149
▁Netflix	-11.9149
▁artificial	-11.9149
▁beloved	-11.9149
▁garbage	-11.9149
▁instrument	-11.9149
▁manufacturing	-11.9149
▁modify	-11.9149
▁resemble	-11.9149
▁rhythm	-11.9149
▁subscribers	-11.9149
▁나타냈다	-11.9149
▁되돌아	-11.9149
▁엉덩이	-11.9149
▁오하이오	-11.9149
▁글쎄	-11.9149
▁clinic	-11.9149
▁rural	-11.9149
▁면허	-11.915
▁Rio	-11.9151
▁늘어날	-11.9151
▁재킷	-11.9151
▁침착	-11.9151
▁가져올	-11.9151
▁Hamas	-11.9151
▁추정된다	-11.9152
▁감옥	-11.9153
▁Milan	-11.9153
▁취약	-11.9154
▁빨라	-11.9155
▁서서히	-11.9155
▁overnight	-11.9156
▁sadness	-11.9156
▁comeback	-11.9156
▁났어요	-11.9156
▁걸린다	-11.9156
▁성취	-11.9157
▁오셔서	-11.916
▁다릅니다	-11.9161
▁출국	-11.9163
▁유독	-11.9168
▁blamed	-11.9169
▁반박	-11.917
Clo	-11.917
▁경제학	-11.9176
▁선생님께	-11.9178
▁tap	-11.9193
했었어요	-11.921
▁물었다	-11.9221
▁강점	-11.9226
▁고치	-11.9226
드라마	-11.9228
▁passenger	-11.9233
▁부족하다	-11.9234
됐어요	-11.9235
▁채권	-11.9242
▁batter	-11.9246
▁Nexen	-11.9253
▁category	-11.9253
▁cuisine	-11.9253
▁imagination	-11.9253
▁motivate	-11.9253
▁떡볶이	-11.9253
▁면세점	-11.9253
▁최저임금	-11.9253
▁essay	-11.9253
▁blast	-11.9254
카운티	-11.9254
▁Indeed	-11.9254
▁bonus	-11.9254
▁Actress	-11.9254
▁slice	-11.9254
▁팬클럽	-11.9254
▁flour	-11.9254
▁Alright	-11.9255
▁찍고	-11.9257
▁쉽고	-11.9257
▁이른바	-11.9257
했잖아	-11.9258
▁lake	-11.9259
▁명칭	-11.9259
▁대의원	-11.9261
▁Never	-11.9263
▁싶었던	-11.9263
▁자택	-11.9266
▁파견	-11.9266
▁전국적으로	-11.9269
▁있거나	-11.9269
▁판정	-11.9271
▁보내겠습니다	-11.9277
▁앞선	-11.9277
▁유료	-11.9278
▁경유	-11.9278
▁걸까요	-11.9279
▁기록하며	-11.928
▁흥미롭	-11.9281
▁pile	-11.9285
▁Dance	-11.9287
▁갑작스	-11.9295
분들께	-11.9301
하셨어요	-11.9305
▁노동자들	-11.9326
▁싶기	-11.9327
front	-11.9338
몸	-11.9339
▁tariff	-11.9339
▁결함	-11.9343
▁combine	-11.9344
▁뭐든	-11.9346
How	-11.9348
▁몰리	-11.9356
▁Customer	-11.9359
▁attorney	-11.9359
▁luxurious	-11.9359
▁practicing	-11.9359
▁알카에다	-11.9359
▁Manager	-11.9359
▁awkward	-11.9359
▁당분간	-11.9359
▁프로듀서	-11.9359
Dragon	-11.9359
▁steam	-11.9359
▁객관적	-11.9359
▁징역	-11.9359
▁운항	-11.9359
▁Space	-11.936
▁stain	-11.936
▁극단적	-11.9361
▁사용료	-11.9362
▁사이클	-11.9362
▁교훈	-11.9362
▁unfold	-11.9363
▁가난	-11.9365
▁전해지	-11.9365
▁야당	-11.9365
▁마십시오	-11.9365
▁Old	-11.9366
▁YG	-11.9366
▁버튼	-11.9368
▁회색	-11.9368
▁replacement	-11.9369
▁coke	-11.9369
▁노예	-11.9371
▁임명	-11.9373
TH	-11.9377
▁인하여	-11.9379
▁불거	-11.9382
▁때문인	-11.9383
▁어렵지	-11.9384
▁반발	-11.9389
▁Luc	-11.939
▁이례적	-11.939
▁윌리엄	-11.9391
just	-11.9391
▁자녀들	-11.94
▁야기	-11.9405
Glo	-11.9409
써	-11.942
▁면적	-11.9428
▁거품	-11.9432
▁지지율	-11.9435
▁행성	-11.9441
▁않는데	-11.9445
piece	-11.9452
▁joyful	-11.9452
hearted	-11.9459
환경	-11.9461
킷	-11.9463
곽	-11.9464
▁Major	-11.9465
▁Manila	-11.9465
▁knock	-11.9465
▁Analyst	-11.9465
▁Pennsylvania	-11.9465
▁allegations	-11.9465
▁creator	-11.9465
▁moisture	-11.9465
▁scenario	-11.9465
▁superior	-11.9465
▁블룸버그	-11.9465
버렸다	-11.9465
▁어울려	-11.9465
▁컴백	-11.9465
▁plain	-11.9465
▁Besides	-11.9465
▁auction	-11.9465
▁호랑이	-11.9465
▁hiking	-11.9465
▁hello	-11.9466
▁stem	-11.9467
▁Spring	-11.9467
▁모르겠네요	-11.9467
▁Town	-11.9468
▁belly	-11.9469
corp	-11.9469
▁Tower	-11.9469
▁숨지고	-11.9471
▁쿠바	-11.9471
▁올라온	-11.9472
▁selection	-11.9472
▁golden	-11.9472
▁Road	-11.9474
▁황금	-11.9475
▁beans	-11.9475
▁골든	-11.9475
▁주머니	-11.9475
[...]
